{"<s>":0,"<pad>":1,"</s>":2,"<unk>":3,"<mask>":4,"!":5,"\"":6,"#":7,"$":8,"%":9,"&":10,"'":11,"(":12,")":13,"*":14,"+":15,",":16,"-":17,".":18,"/":19,"0":20,"1":21,"2":22,"3":23,"4":24,"5":25,"6":26,"7":27,"8":28,"9":29,":":30,";":31,"<":32,"=":33,">":34,"?":35,"@":36,"A":37,"B":38,"C":39,"D":40,"E":41,"F":42,"G":43,"H":44,"I":45,"J":46,"K":47,"L":48,"M":49,"N":50,"O":51,"P":52,"Q":53,"R":54,"S":55,"T":56,"U":57,"V":58,"W":59,"X":60,"Y":61,"Z":62,"[":63,"\\":64,"]":65,"^":66,"_":67,"`":68,"a":69,"b":70,"c":71,"d":72,"e":73,"f":74,"g":75,"h":76,"i":77,"j":78,"k":79,"l":80,"m":81,"n":82,"o":83,"p":84,"q":85,"r":86,"s":87,"t":88,"u":89,"v":90,"w":91,"x":92,"y":93,"z":94,"{":95,"|":96,"}":97,"~":98,"¡":99,"¢":100,"£":101,"¤":102,"¥":103,"¦":104,"§":105,"¨":106,"©":107,"ª":108,"«":109,"¬":110,"®":111,"¯":112,"°":113,"±":114,"²":115,"³":116,"´":117,"µ":118,"¶":119,"·":120,"¸":121,"¹":122,"º":123,"»":124,"¼":125,"½":126,"¾":127,"¿":128,"À":129,"Á":130,"Â":131,"Ã":132,"Ä":133,"Å":134,"Æ":135,"Ç":136,"È":137,"É":138,"Ê":139,"Ë":140,"Ì":141,"Í":142,"Î":143,"Ï":144,"Ð":145,"Ñ":146,"Ò":147,"Ó":148,"Ô":149,"Õ":150,"Ö":151,"×":152,"Ø":153,"Ù":154,"Ú":155,"Û":156,"Ü":157,"Ý":158,"Þ":159,"ß":160,"à":161,"á":162,"â":163,"ã":164,"ä":165,"å":166,"æ":167,"ç":168,"è":169,"é":170,"ê":171,"ë":172,"ì":173,"í":174,"î":175,"ï":176,"ð":177,"ñ":178,"ò":179,"ó":180,"ô":181,"õ":182,"ö":183,"÷":184,"ø":185,"ù":186,"ú":187,"û":188,"ü":189,"ý":190,"þ":191,"ÿ":192,"Ā":193,"ā":194,"Ă":195,"ă":196,"Ą":197,"ą":198,"Ć":199,"ć":200,"Ĉ":201,"ĉ":202,"Ċ":203,"ċ":204,"Č":205,"č":206,"Ď":207,"ď":208,"Đ":209,"đ":210,"Ē":211,"ē":212,"Ĕ":213,"ĕ":214,"Ė":215,"ė":216,"Ę":217,"ę":218,"Ě":219,"ě":220,"Ĝ":221,"ĝ":222,"Ğ":223,"ğ":224,"Ġ":225,"ġ":226,"Ģ":227,"ģ":228,"Ĥ":229,"ĥ":230,"Ħ":231,"ħ":232,"Ĩ":233,"ĩ":234,"Ī":235,"ī":236,"Ĭ":237,"ĭ":238,"Į":239,"į":240,"İ":241,"ı":242,"Ĳ":243,"ĳ":244,"Ĵ":245,"ĵ":246,"Ķ":247,"ķ":248,"ĸ":249,"Ĺ":250,"ĺ":251,"Ļ":252,"ļ":253,"Ľ":254,"ľ":255,"Ŀ":256,"ŀ":257,"Ł":258,"ł":259,"Ń":260,"ar":261,"ha":262,"hi":263,"an":264,"ara":265,"Ġs":266,"ra":267,"ka":268,"ta":269,"ya":270,"Ġb":271,"Ġp":272,"ma":273,"are":274,"la":275,"ti":276,"ba":277,"Ġk":278,"na":279,"Ġ|":280,"ana":281,"Ġa":282,"da":283,"thi":284,"Ġe":285,"ari":286,"Ġsa":287,"sha":288,"ri":289,"sh":290,"le":291,"tha":292,"Ġd":293,"Ġma":294,"Ġj":295,"hara":296,"ni":297,"Ġo":298,"ga":299,"cha":300,"Ġm":301,"Ġh":302,"sa":303,"chi":304,"Ġpra":305,"ku":306,"Ġpa":307,"li":308,"re":309,"Ġbi":310,"pa":311,"Ġka":312,"¬¼":313,"à¬¼":314,"Ġkari":315,"Ġra":316,"te":317,"Ġba":318,"di":319,"àŃ":320,"àŃ±":321,"thile":322,"nka":323,"Ġg":324,"si":325,"Ġse":326,"dha":327,"dh":328,"rri":329,"Ġni":330,"ĠĊ":331,"Ġ1":332,"Ġ(":333,"aru":334,"Ġan":335,"ja":336,"Ġu":337,"ch":338,"kara":339,"bha":340,"Ġsam":341,"Ġta":342,"th":343,"Ġbha":344,"Ġna":345,"tra":346,"oi":347,"bi":348,"hu":349,"mi":350,"Ġhoi":351,"nd":352,"âĢ":353,"ur":354,"mana":355,"Ġde":356,"Ġeka":357,"Ġy":358,"Ġ2":359,"Ġehi":360,"ro":361,"ani":362,"thila":363,"bara":364,"tara":365,"bam":366,"dhi":367,"Ġcha":368,"Ġebam":369,"shi":370,"lo":371,"Ġda":372,"Ġi":373,"Ġmadh":374,"Ġhe":375,"ane":376,"Ġkarithile":377,"be":378,"Ġdi":379,"bhi":380,"de":381,"Ġn":382,"ura":383,"Ġ19":384,"thiba":385,"he":386,"kha":387,"Ġja":388,"Ġkar":389,"Ġya":390,"ki":391,"ji":392,"âĢĮ":393,"Ġeha":394,"yare":395,"hare":396,"ru":397,"Ġpai":398,"Ġ20":399,"se":400,"ksha":401,"Ġkara":402,"Ġoda":403,"yu":404,"Ġnir":405,"Ġsama":406,"Ġpari":407,"nti":408,"Ġmu":409,"tu":410,"nku":411,"tiya":412,"Ġki":413,"end":414,"Ġji":415,"Ġmasi":416,"dhara":417,"Ġbya":418,"gi":419,"yae":420,"Ġga":421,"nkara":422,"Ġla":423,"Ġsha":424,"me":425,"Ġbar":426,"pare":427,"una":428,"Ġsh":429,"to":430,"tana":431,"arana":432,"nga":433,"Ġbhara":434,"Ġman":435,"Ġmadhya":436,"yai":437,"bare":438,"Ġmi":439,"chitra":440,"yya":441,"hya":442,"nna":443,"shàŃ±":444,"Ġshi":445,"thae":446,"Ġanu":447,"tya":448,"of":449,"anti":450,"xt":451,"text":452,"pi":453,"Ġro":454,"<|":455,"|>":456,"endof":457,"endoftext":458,"Ġti":459,"Ġlo":460,"Âł":461,"dhana":462,"thare":463,"Ġprati":464,"tr":465,"ne":466,"Ġsi":467,"19":468,"tri":469,"mbara":470,"adhara":471,"Ġpar":472,"gu":473,"ia":474,"Ġaba":475,"Ġhu":476,"man":477,"chcha":478,"Ġkatha":479,"00":480,"Ġha":481,"lara":482,"Ġmaha":483,"Ġch":484,"tare":485,"shta":486,"Ġsu":487,"Ġjana":488,"kti":489,"Ġbhabare":490,"Ġbe":491,"Ġrahi":492,"anma":493,"Ġmasihare":494,"Ġpu":495,"kta":496,"ho":497,"Ġloka":498,"ĠsàŃ±":499,"Ġsab":500,"bar":501,"yan":502,"Ġadhi":503,"yo":504,"isha":505,"Ġpur":506,"shara":507,"lare":508,"jana":509,"khi":510,"Ġpare":511,"mane":512,"Ġkariba":513,"Ġabhi":514,"Ġt":515,"khya":516,"Ġchi":517,"Ġhue":518,"dàŃ±":519,"rrit":520,"on":521,"har":522,"Ġku":523,"Ġjane":524,"bana":525,"shana":526,"Ġye":527,"Ġgo":528,"aram":529,"sare":530,"Ġbyaba":531,"gra":532,"sta":533,"hana":534,"Ġyo":535,"chana":536,"Ġsaha":537,"ng":538,"Ġke":539,"Ġkathachitra":540,"anu":541,"pra":542,"chanti":543,"dàŃ±ara":544,"Ġ201":545,"Ġsahi":546,"Ġstha":547,"Ġkaryya":548,"iti":549,"Ġnama":550,"Ġkarayai":551,"yi":552,"ula":553,"dya":554,"she":555,"nare":556,"yaka":557,"kare":558,"pha":559,"Ġbarsha":560,"dira":561,"Ġthile":562,"pari":563,"Ġbidhana":564,"Ġraj":565,"Ġut":566,"Ġpi":567,"share":568,"nda":569,"anda":570,"Ġbharatiya":571,"Ġne":572,"usha":573,"eka":574,"tharu":575,"ddha":576,"Ġpratha":577,"ithile":578,"stha":579,"kra":580,"ncha":581,"or":582,"rrish":583,"kar":584,"Ġkha":585,"Ġhi":586,"lu":587,"Ġupa":588,"Ġar":589,"Ġnirba":590,"ke":591,"dana":592,"tar":593,"Ġli":594,"yara":595,"tira":596,"pe":597,"the":598,"Ġroga":599,"Ġle":600,"mare":601,"Ġate":602,"Ġin":603,"dharana":604,"Ġehara":605,"oda":606,"gha":607,"Ġ-":608,"Ġte":609,"tta":610,"thita":611,"Ġ\"":612,"yana":613,"sam":614,"rrityu":615,"kari":616,"sana":617,"Ġyu":618,"Ġjanma":619,"sara":620,"mba":621,"Ġyaha":622,"Ġjil":623,"Ġadhika":624,"Ġdu":625,"Ġbhu":626,"Ġbo":627,"Ġ3":628,"krri":629,"Ġc":630,"tti":631,"pre":632,"Ġraja":633,"Ġ200":634,"Ġheu":635,"mu":636,"Ġpura":637,"ĠbishàŃ±":638,"Ġkaru":639,"Ġhoithila":640,"Ġme":641,"Ġsabha":642,"gita":643,"Ġof":644,"nana":645,"Ġthiba":646,"Ġmadhyare":647,"Ġsara":648,"skara":649,"Ġre":650,"Ġsamayare":651,"lana":652,"nata":653,"Ġthila":654,"mara":655,"dara":656,"pura":657,"naya":658,"chita":659,"Ġchala":660,"pur":661,"20":662,"ntu":663,"Ġpara":664,"su":665,"bhu":666,"Ġkarayae":667,"par":668,"Ġsadharana":669,"riya":670,"shtha":671,"lika":672,"trare":673,"archcha":674,"kto":675,"nta":676,"Ġgra":677,"kshi":678,"dra":679,"Ġkala":680,"Ġbij":681,"Ġmo":682,"jara":683,"pte":684,"ulai":685,"para":686,"anuari":687,"Ġanya":688,"anta":689,"Ġbhi":690,"ko":691,"Ġkam":692,"dar":693,"Ġgu":694,"baku":695,"baru":696,"Ġaram":697,"ktobara":698,"pana":699,"sembara":700,"Ġmandira":701,"Ġgha":702,"go":703,"Ġf":704,"Ġat":705,"Ġdekha":706,"ptembara":707,"Ġabas":708,"Ġ4":709,"tsa":710,"Ġdia":711,"Ġsar":712,"ph":713,"gara":714,"Ġchalach":715,"Ġpha":716,"Ġ5":717,"in":718,"Ġarambha":719,"mo":720,"Ġrahichi":721,"Ġkama":722,"prela":723,"tire":724,"st":725,"Ġthe":726,"hari":727,"Ġhoithile":728,"Ġprathama":729,"tika":730,"tàŃ±":731,"Ġnird":732,"ĠsàŃ±a":733,"Ġko":734,"juna":735,"bita":736,"Ġanusare":737,"Ġpuraskara":738,"Ġaneka":739,"Ġmukhya":740,"Ġru":741,"bata":742,"pu":743,"Ġshri":744,"Ġabhinaya":745,"Ġtiari":746,"anya":747,"),":748,"Ġadi":749,"anare":750,"gata":751,"nara":752,"bala":753,"nu":754,"msha":755,"Ġupare":756,"ita":757,"pta":758,"gare":759,"ve":760,"shu":761,"ndi":762,"Ġ,":763,"anara":764,"bhaba":765,"bhara":766,"Ġkale":767,"ndra":768,"Ġausha":769,"Ġmrrityu":770,"Ġshiksha":771,"Ġpraya":772,"Ġjibana":773,"Ġsahita":774,"kitsa":775,"tah":776,"Ġ199":777,"Ġheba":778,"tion":779,"septembara":780,"januari":781,"julai":782,"marchcha":783,"mita":784,"kasha":785,"hila":786,"aktobara":787,"disembara":788,"aprela":789,"Ġpr":790,"Ġbaya":791,"Ġbhabe":792,"ĠĠ":793,"Ġjatiya":794,"khare":795,"Ġboli":796,"taka":797,"dyala":798,"thire":799,"nja":800,"ĠâĢ":801,"yaru":802,"Ġmana":803,"bahara":804,"yanta":805,"Ġ6":806,"tie":807,"janma":808,"thya":809,"Ġkichi":810,"Ġw":811,"iba":812,"Ġpada":813,"Ġbada":814,"àŃ±a":815,"ge":816,"bhinna":817,"kala":818,"Ġbyakti":819,"ÂłĊ":820,"Ġlekha":821,"je":822,"Ġaushadha":823,"Ġdina":824,"Ġmahila":825,"guda":826,"ina":827,"lpa":828,"Ġnirdde":829,"Ġnija":830,"kshana":831,"Ġniman":832,"al":833,"gan":834,"200":835,"Ġsehi":836,"mani":837,"Ġasi":838,"Ġbibhinna":839,"Ġhoithiba":840,"Ġbyabahara":841,"Ġbahu":842,"dhu":843,"Ġand":844,"pati":845,"ngita":846,"Ġnu":847,"Ġkintu":848,"Ġhoipare":849,"Ġnimante":850,"yyanta":851,"Ġtha":852,"Ġhoithae":853,"Ġnahi":854,"sya":855,"Ġhara":856,"à¤":857,"Ġbu":858,"dhya":859,"bada":860,"âĢį":861,"Ġchalachchitra":862,"kata":863,"tama":864,"Ġdeithile":865,"Ġkathachitratira":866,"Ġpat":867,"du":868,"Ġphu":869,"Ġbisha":870,"Ġtatha":871,"Ġparyyanta":872,"Ġabasthita":873,"bya":874,"Ġkuha":875,"Ġjillara":876,"Ġhele":877,"rrita":878,"Ġtari":879,"Ġgotie":880,"ksh":881,"Ġ198":882,"rrishti":883,"Ġ18":884,"no":885,"Ġdasa":886,"pada":887,"ehi":888,"Ġkimba":889,"ĠdàŃ±":890,"Ġdur":891,"Ġame":892,"Ġbele":893,"ndu":894,"hita":895,"chara":896,"uru":897,"Ġyeu":898,"bele":899,"ce":900,"bu":901,"ika":902,"Ġbrri":903,"mika":904,"Ġuchcha":905,"dia":906,"Ġsabu":907,"Ġpo":908,"Ġantar":909,"ban":910,"Ġdei":911,"thanti":912,"Ġshu":913,"unasi":914,"Ġheuchi":915,"Ġkaranti":916,"Ġmanda":917,"Ġkarayaithila":918,"ktara":919,"Ġbra":920,"Ġso":921,"Ġdhar":922,"dhika":923,"Ġ7":924,"Ġachi":925,"ishara":926,"mha":927,"Ġrajya":928,"Ġnirbachana":929,"nji":930,"Ġmili":931,"Ġ197":932,"Ġri":933,"Ġban":934,"Ġkan":935,"shàŃ±ra":936,"mra":937,"natha":938,"shra":939,"Ġkaunasi":940,"labha":941,"Ġatanti":942,"Ġhela":943,"Ġrakta":944,"Ġbharata":945,"Ġtara":946,"gala":947,"tan":948,"Ġameri":949,"Ġpurba":950,"201":951,"Ġpe":952,"Ġkare":953,"bo":954,"anika":955,"thana":956,"Ġdha":957,"Ġkhe":958,"Ġkarichanti":959,"rana":960,"Ġas":961,"bidyala":962,"Ġdui":963,"Ġyogu":964,"Ġmasihara":965,"gre":966,"Ġsan":967,"bani":968,"phi":969,"nt":970,"Ġphe":971,"Ġ8":972,"Ġchikitsa":973,"trana":974,"Ġud":975,"Ġprasa":976,"ran":977,"Ġrajani":978,"yoga":979,"Ġshe":980,"Ġpre":981,"Ġehaku":982,"Ġdiayae":983,"Ġsamu":984,"Ġsabhya":985,"shita":986,"kriya":987,"che":988,"kri":989,"shaka":990,"Ġ196":991,"Ġuttara":992,"bhe":993,"Ġsahitya":994,"mala":995,"Ġala":996,"Ġbai":997,"Ġkaribaku":998,"âĢĻ":999,"Ġrachana":1000,"Ġnei":1001,"krrita":1002,"Ġsahara":1003,"Ġjala":1004,"Ġdebi":1005,"Ġmadhyaru":1006,"stu":1007,"Ġmasiha":1008,"ty":1009,"Ġkete":1010,"Ġkend":1011,"san":1012,"ie":1013,"Ġyoga":1014,"rrishna":1015,"Ġati":1016,"nkadàŃ±ara":1017,"po":1018,"Ġbho":1019,"purnna":1020,"Ġje":1021,"basa":1022,"sala":1023,"Ġabhine":1024,"Ġdeba":1025,"mrrityu":1026,"Ġdekhi":1027,"Ġkshe":1028,"Ġbibha":1029,"Ġche":1030,"Ġdo":1031,"lita":1032,"rara":1033,"Ġbhasha":1034,"ngala":1035,"Ġparibar":1036,"Ġkarithila":1037,"mraji":1038,"Ġsams":1039,"baha":1040,"yata":1041,"Ġdala":1042,"Ġto":1043,"karana":1044,"yau":1045,"Ġbharatara":1046,"dare":1047,"Ġ10":1048,"gada":1049,"Ġshre":1050,"kshina":1051,"shesha":1052,"ksa":1053,"Ġ195":1054,"hasa":1055,"Ġtu":1056,"Ġtaha":1057,"Ġcho":1058,"niya":1059,"kiya":1060,"jita":1061,"rama":1062,"grahana":1063,"rare":1064,"Ġyai":1065,"Ġtarikhare":1066,"Ġmahanti":1067,"Ġ'":1068,"Ġmandali":1069,"yika":1070,"lli":1071,"shtra":1072,"Ġgan":1073,"Ġkarana":1074,"Ġthae":1075,"Ġnirbachita":1076,"ngi":1077,"kshara":1078,"Ġgar":1079,"Ġphi":1080,"Ġshata":1081,"phala":1082,"Ġgrahana":1083,"Ġgita":1084,"Ġsthana":1085,"Ġana":1086,"Ġkaruthile":1087,"nita":1088,"co":1089,"Ġdalara":1090,"Ġmasa":1091,"Ġsamasta":1092,"thara":1093,"Ġnamare":1094,"hani":1095,"lya":1096,"Ġsarakara":1097,"ddhi":1098,"Ġsabhara":1099,"Ġsammana":1100,"nika":1101,"Ġhei":1102,"Ġsethi":1103,"Ġsamkhya":1104,"Ġhoichi":1105,"bartti":1106,"Ġkuhayae":1107,"Ġkri":1108,"sho":1109,"ĠdàŃ±i":1110,"Ġam":1111,"Ġrakhi":1112,"Ġbhaga":1113,"so":1114,"Ġsrrishti":1115,"tari":1116,"Ġethare":1117,"Ġdar":1118,"Ġpadha":1119,"lan":1120,"samkhya":1121,"Ġbidha":1122,"Ġsimha":1123,"shya":1124,"laku":1125,"chanare":1126,"Ġartha":1127,"Ġrama":1128,"Ġdakshina":1129,"patra":1130,"Ġsamaya":1131,"Ġsemana":1132,"Ġmai":1133,"Ġpro":1134,"bh":1135,"Ġketeka":1136,"Ġau":1137,"Ġsarba":1138,"199":1139,"Ġshakti":1140,"Ġsethare":1141,"trara":1142,"do":1143,"besha":1144,"Ġmishra":1145,"kramana":1146,"yanya":1147,"Ġbayas":1148,"dita":1149,"Ġbhali":1150,"Ġbhashare":1151,"Ġmukti":1152,"Ġ9":1153,"Ġnari":1154,"Ġdekhayae":1155,"Ġpuja":1156,"Ġsabhare":1157,"Ġkarithiba":1158,"arare":1159,"Ġ15":1160,"Ġlakshana":1161,"Ġbhau":1162,"Ġyan":1163,"thibaru":1164,"Ġghatana":1165,"ter":1166,"ĠparshàŃ±":1167,"sti":1168,"Ġbhumi":1169,"ira":1170,"dina":1171,"Ġkahi":1172,"sia":1173,"gannatha":1174,"itika":1175,"huri":1176,"yukta":1177,"ghatana":1178,"ttàŃ±":1179,"Ġchari":1180,"desha":1181,"Ġpurbaru":1182,"lina":1183,"Ġbrah":1184,"Ġhindu":1185,"Ġguru":1186,"Ġnirbachanare":1187,"Ġkho":1188,"Ġpurusha":1189,"Ġyuktara":1190,"Ġbidhayaka":1191,"Ġprathame":1192,"Ġpaha":1193,"àŃ±e":1194,"198":1195,"msa":1196,"Ġlagi":1197,"sika":1198,"Ġparam":1199,"ila":1200,"Ġbibaha":1201,"Ġ194":1202,"Ġsana":1203,"Ġmar":1204,"dhare":1205,"Ġdura":1206,"vi":1207,"Ġpraka":1208,"Ġjanmagrahana":1209,"pani":1210,"18":1211,"Ġnirmana":1212,"mata":1213,"shata":1214,"Ġshab":1215,"bali":1216,"Ġtathya":1217,"Ġadhara":1218,"Ġjilla":1219,"Ġdesha":1220,"Ġnijara":1221,"Ġgre":1222,"pai":1223,"demi":1224,"Ġdasha":1225,"Ġseba":1226,"Ġkamgre":1227,"Ġmatra":1228,"Ġitya":1229,"ĠâĢĵ":1230,"shri":1231,"shchi":1232,"darshana":1233,"Ġshatab":1234,"Ġbara":1235,"Ġchandra":1236,"Ġsadharanatah":1237,"hrrita":1238,"pata":1239,"ver":1240,"thiti":1241,"ndara":1242,"Ġsthanare":1243,"Ġdh":1244,"lia":1245,"Ġnamaka":1246,"krriti":1247,"deba":1248,"Ġjanata":1249,"kana":1250,"000":1251,"Ġai":1252,"Ġco":1253,"pala":1254,"tebele":1255,"shyaka":1256,"Ġityadi":1257,"Ġanyanya":1258,"Ġadhya":1259,"Ġmata":1260,"Ġaga":1261,"Ġnadi":1262,"Ġnirddeshana":1263,"tisha":1264,"Ġdhari":1265,"Ġsampar":1266,"Ġyatha":1267,"bidha":1268,"rritya":1269,"bhaya":1270,"Ġekademi":1271,"Ġph":1272,"ĠbishàŃ±bidyala":1273,"Ġ12":1274,"Ġmuktilabha":1275,"harara":1276,"Ġpradana":1277,"graha":1278,"Ġjaga":1279,"Ġpani":1280,"Ġrupe":1281,"Ġ:":1282,"lle":1283,"phe":1284,"laya":1285,"jaya":1286,"tro":1287,"Ġchota":1288,"uro":1289,"chitrare":1290,"Ġho":1291,"Ġbishesha":1292,"Ġtri":1293,"Ġparibara":1294,"abhi":1295,"Ġnirmita":1296,"Ġlaksh":1297,"Ġchar":1298,"Ġprakasha":1299,"Ġksha":1300,"nal":1301,"ngara":1302,"asa":1303,"Ġabashyaka":1304,"rika":1305,"ĠsàŃ±adhi":1306,"jibita":1307,"kh":1308,"Ġkebala":1309,"Ġshesha":1310,"yaithila":1311,"kan":1312,"Ġethire":1313,"krama":1314,"ttana":1315,"Ġmota":1316,"Ġbarn":1317,"Ġ16":1318,"Ġakar":1319,"Ġlabha":1320,"nkare":1321,"Ġkarayaichi":1322,"Ġkendra":1323,"197":1324,"ai":1325,"Ġdhara":1326,"chikitsa":1327,"Ġtithi":1328,"Ġkarma":1329,"galika":1330,"ria":1331,"nchi":1332,"sthya":1333,"Ġpratishata":1334,"Ġkhadya":1335,"ju":1336,"laka":1337,"Ġbartta":1338,"manita":1339,"badi":1340,"Ġprri":1341,"Ġkami":1342,"Ġbasa":1343,"Ġsabhaku":1344,"Ġpatha":1345,"shchima":1346,"Ġprakara":1347,"yama":1348,"lar":1349,"aj":1350,"rom":1351,"daya":1352,"Ġbri":1353,"Ġsakshara":1354,"shti":1355,"Ġsamra":1356,"Ġim":1357,"Ġprabha":1358,"Ġprastu":1359,"Ġpita":1360,"Ġbhumikare":1361,"brri":1362,"Ġsemane":1363,"Ġbyabahrrita":1364,"ted":1365,"Ġsaksharata":1366,"ca":1367,"yojana":1368,"tantra":1369,"pan":1370,"Ġamsha":1371,"basi":1372,"Ġbishayare":1373,"bra":1374,"Ġbira":1375,"Ġdharma":1376,"Ġsada":1377,"Ġkhela":1378,"Ġtini":1379,"shthita":1380,"nchala":1381,"mukha":1382,"Ġ17":1383,"Ġkaruthiba":1384,"gori":1385,"gana":1386,"Ġchu":1387,"Ġgho":1388,"Ġmulya":1389,"Ġara":1390,"janaitika":1391,"Ġlekhi":1392,"sàŃ±":1393,"Ġnrritya":1394,"eha":1395,"Ġbadha":1396,"ĠsàŃ±asthya":1397,"Ġmandi":1398,"Ġrri":1399,"Ġsarakari":1400,"Ġshiba":1401,"nkatharu":1402,"Ġhai":1403,"Ġaph":1404,"Ġpila":1405,"Ġparyya":1406,"Ġthi":1407,"Ġdra":1408,"Ġshari":1409,"tran":1410,"nia":1411,"Ġmandaliru":1412,"10":1413,"pita":1414,"ye":1415,"bati":1416,"Ġ14":1417,"Ġbapa":1418,"hia":1419,"):":1420,"gri":1421,"nchalare":1422,"rani":1423,"Ġtra":1424,"Ġ2014":1425,"Ġprana":1426,"Ġmahapatra":1427,"Ġduiti":1428,"bharatiya":1429,"Ġiti":1430,"yiba":1431,"Ġ193":1432,"mna":1433,"Ġpattana":1434,"ile":1435,"Ġnara":1436,"Ġpusta":1437,"Ġpradhana":1438,"imraji":1439,"Ġpratishtha":1440,"dma":1441,"ahuri":1442,"ci":1443,"Ġgregori":1444,"kshe":1445,"gh":1446,"sra":1447,"Ġchitra":1448,"Ġubhaya":1449,"Ġkahani":1450,"Ġjati":1451,"21":1452,"Ġtebe":1453,"arita":1454,"keta":1455,"Ġkalakara":1456,"kula":1457,"Ġparabartti":1458,"Ġkumara":1459,"Ġjib":1460,"Ġasu":1461,"char":1462,"Ġshishu":1463,"deshara":1464,"Ġkabi":1465,"Ġratha":1466,"Ġnayaka":1467,"Ġhari":1468,"Ġsammanita":1469,"urtti":1470,"Ġpanda":1471,"Ġchali":1472,"ss":1473,"Ġbidyala":1474,"ĠĠĠĠ":1475,"uryya":1476,"Ġjani":1477,"phu":1478,"Ġabhinetri":1479,"Ġbala":1480,"Ġshabda":1481,"tita":1482,"bahi":1483,"haru":1484,"Ġkarithae":1485,"Ġtenu":1486,"Ġindia":1487,"yaichi":1488,"Ġkarithanti":1489,"Ġpattanayaka":1490,"Ġrajaniti":1491,"Ġbhala":1492,"es":1493,"Ġ11":1494,"Ġunna":1495,"kriyare":1496,"Ġani":1497,"Ġkshetrare":1498,"jika":1499,"Ġ13":1500,"Ġbrriddhi":1501,"Ġjagannatha":1502,"Ġjillare":1503,"mati":1504,"itihasa":1505,"jare":1506,"stra":1507,"Ġyadi":1508,"Ġkrrishna":1509,"Ġprar":1510,"bhasha":1511,"ld":1512,"arika":1513,"Ġkantha":1514,"bane":1515,"nthire":1516,"Ġraya":1517,"fe":1518,"Ġrajanitire":1519,"ment":1520,"ĠdàŃ±itiya":1521,"Ġphuta":1522,"uda":1523,"eta":1524,"maha":1525,"thibi":1526,"Ġmani":1527,"Ġrogi":1528,"Ġpan":1529,"Ġjha":1530,"Ġpalana":1531,"taru":1532,"Ġkana":1533,"Ġfrom":1534,"Ġpatni":1535,"sama":1536,"Ġlu":1537,"padana":1538,"krrishna":1539,"barsha":1540,"Ġada":1541,"Ġanti":1542,"Ġjiba":1543,"Ġutsa":1544,"Ġprastuta":1545,"lla":1546,"mp":1547,"Ġ=":1548,"Ġag":1549,"Ġpramukha":1550,"Ġesi":1551,"ĠâĢĺ":1552,"loka":1553,"Ġyantrana":1554,"Ġthare":1555,"Ġsura":1556,"Ġgrama":1557,"dika":1558,"Ġ25":1559,"15":1560,"Ġabastha":1561,"Ġnuhe":1562,"karara":1563,"Ġmunda":1564,"Ġparicha":1565,"Ġkhu":1566,"Ġnirnna":1567,"nahi":1568,"tala":1569,"Ġsamasya":1570,"Ġnaba":1571,"196":1572,"Ġsapta":1573,"ut":1574,"barana":1575,"Ġtrri":1576,"22":1577,"Ġape":1578,"Ġbhinna":1579,"Ġbhe":1580,"Ġhindi":1581,"Ġpashchima":1582,"Ġnya":1583,"Ġphala":1584,"Ġethi":1585,"Ġkarayaithae":1586,"iki":1587,"Ġshreni":1588,"Ġkali":1589,"lai":1590,"en":1591,"Ġjan":1592,"ĠsàŃ±adhinata":1593,"Ġabhineta":1594,"Ġmile":1595,"shishta":1596,"Ġpadar":1597,"ishare":1598,"Ġprabhaba":1599,"Ġkh":1600,"Ġbarttamana":1601,"nj":1602,"Ġpraja":1603,"Ġpau":1604,"gya":1605,"Ġprasha":1606,"Ġpariksha":1607,"mitara":1608,"Ġpustaka":1609,"adhika":1610,"Ġpratikriyare":1611,"laru":1612,"Ġthara":1613,"Ġbayaska":1614,"Ġnikata":1615,"tre":1616,"Ġbarnnana":1617,"sada":1618,"Ġ30":1619,"Ġkrri":1620,"Ġhra":1621,"Ġheuthiba":1622,"Ġnirnnaya":1623,"Ġgandhi":1624,"tma":1625,"Ġphil":1626,"sis":1627,"Ġyae":1628,"Ġshatabdi":1629,"dyu":1630,"Ġbikasha":1631,"Ġguda":1632,"priya":1633,"Ġmano":1634,"Ġup":1635,"tur":1636,"bhira":1637,"Ġmau":1638,"Ġkilo":1639,"Ġkhri":1640,"mar":1641,"mari":1642,"tor":1643,"Ġbrahma":1644,"kura":1645,"Ġparba":1646,"mpi":1647,"lata":1648,"jya":1649,"Ġchau":1650,"Ġ.":1651,"ly":1652,"Ġrogare":1653,"Ġmukhyatah":1654,"195":1655,"sthita":1656,"Ġbanda":1657,"tarare":1658,"Ġjanuari":1659,"paka":1660,"Ġnika":1661,"Ġchada":1662,"Ġprrithibi":1663,"Ġchalachchitrare":1664,"14":1665,"dhar":1666,"Ġatya":1667,"lpi":1668,"Ġgi":1669,"tho":1670,"bika":1671,"rodha":1672,"bhukta":1673,"Ġrajanitij":1674,"Ġrogara":1675,"Ġsaphala":1676,"Ġprachi":1677,"Ġju":1678,"Ġnish":1679,"Ġsadasya":1680,"Ġkabita":1681,"Ġsamudra":1682,"Ġshreshtha":1683,"nya":1684,"Ġpatra":1685,"12":1686,"naru":1687,"Ġgana":1688,"17":1689,"Ġnirddeshaka":1690,"Ġnua":1691,"'s":1692,"manara":1693,"Ġbam":1694,"Ġapha":1695,"Ġbhubane":1696,"beshana":1697,"ste":1698,"esa":1699,"16":1700,"sar":1701,"ĠàŃ±":1702,"Ġsahit":1703,"llekha":1704,"harana":1705,"yar":1706,"jatiya":1707,"Ġhasala":1708,"Ġjanasamkhya":1709,"Ġ)":1710,"Ġyatra":1711,"Ġdurare":1712,"lab":1713,"lapa":1714,"Ġprabhabita":1715,"Ġfor":1716,"Ġjo":1717,"nki":1718,"Ġsamkramana":1719,"Ġhuanti":1720,"Ġprada":1721,"Ġak":1722,"sisa":1723,"Ġsaharara":1724,"hna":1725,"bhika":1726,"Ġsuryya":1727,"Ġimraji":1728,"Ġsamar":1729,"Ġbharatare":1730,"Ġullekha":1731,"Ġparibarttana":1732,"Ġkarayau":1733,"Ġalpa":1734,"Ġno":1735,"Ġbiju":1736,"Ġmula":1737,"Ġdekhibaku":1738,"trika":1739,"Ġantargata":1740,"jan":1741,"Ġaksha":1742,"Ġbhaugalika":1743,"Ġsho":1744,"hire":1745,"Ġjaya":1746,"Ġphalare":1747,"Ġ2009":1748,"Ġnataka":1749,"Ġdilli":1750,"shika":1751,"ĠbishàŃ±asa":1752,"chu":1753,"Ġ2013":1754,"Ġ2015":1755,"Ġsnata":1756,"à¥":1757,"Ġrakha":1758,"13":1759,"njana":1760,"Ġnikatare":1761,"Ġprarthi":1762,"Ġjhia":1763,"sadharana":1764,"Ġbhai":1765,"yaithae":1766,"mina":1767,"Ġjulai":1768,"ddhare":1769,"Ġbhitare":1770,"Ġmahara":1771,"Ġyuddha":1772,"gar":1773,"Ġmahabidyala":1774,"chandra":1775,"Ġanushthita":1776,"jha":1777,"Ġpaithile":1778,"ili":1779,"nge":1780,"Ġepari":1781,"Ġ2019":1782,"Ġkra":1783,"Ġsampurnna":1784,"Ġrashtra":1785,"krame":1786,"kartta":1787,"Ġjari":1788,"shila":1789,"ganana":1790,"ction":1791,"sharu":1792,"Ġkya":1793,"yogi":1794,"pri":1795,"Ġbayasare":1796,"Ġkhanda":1797,"Ġpakshi":1798,"shtrare":1799,"Ġkalare":1800,"Ġon":1801,"Ġama":1802,"Ġpuri":1803,"Ġagashta":1804,"Ġaktobara":1805,"Ġpadma":1806,"Ġbijaya":1807,"Ġdisembara":1808,"bhumi":1809,"Ġaina":1810,"khara":1811,"Ġbish":1812,"Ġsambha":1813,"mantri":1814,"Ġpaki":1815,"fi":1816,"ts":1817,"Ġadhikamsha":1818,"Ġbyabastha":1819,"rajanaitika":1820,"Ġkarkata":1821,"arambhika":1822,"simha":1823,"Ġando":1824,"rupa":1825,"Ġadhikara":1826,"yayi":1827,"Ġnabhe":1828,"manda":1829,"Ġ2011":1830,"Ġdhu":1831,"Ġyie":1832,"Ġgarbhaba":1833,"Ġitihasa":1834,"nsa":1835,"Ġprabesha":1836,"Ġuda":1837,"Ġmarchcha":1838,"Ġmantri":1839,"Ġkamgresa":1840,"Ġapa":1841,"Ġjanaganana":1842,"Ġkaruchanti":1843,"Ġpadartha":1844,"Ġsai":1845,"mada":1846,"Ġghara":1847,"ĠsàŃ±tantra":1848,"shuna":1849,"Ġkaribara":1850,"Ġ50":1851,"tic":1852,"Ġrasa":1853,"gola":1854,"kam":1855,"purba":1856,"Ġrajyara":1857,"Ġgrri":1858,"chare":1859,"Ġsamga":1860,"Ġsta":1861,"Ġapeksha":1862,"Ġapara":1863,"Ġsakriya":1864,"Ġmala":1865,"Ġmurtti":1866,"eda":1867,"kshita":1868,"bai":1869,"Ġtan":1870,"krritika":1871,"Ġbyatita":1872,"Ġsamana":1873,"23":1874,"ala":1875,"Ġv":1876,"Ġbayasa":1877,"2001":1878,"yari":1879,"Ġdrrishti":1880,"kalina":1881,"Ġabi":1882,"Ġbau":1883,"Ġparichita":1884,"us":1885,"Ġprakarara":1886,"siddha":1887,"Ġdai":1888,"tio":1889,"Ġehapare":1890,"Ġyepari":1891,"Ġbana":1892,"Ġakhi":1893,"Ġ2012":1894,"Ġal":1895,"ghata":1896,"ture":1897,"Ġlekhaka":1898,"tna":1899,"Ġantarbhukta":1900,"Ġakramana":1901,"pariba":1902,"Ġpuni":1903,"Ġ2016":1904,"patti":1905,"Ġniyu":1906,"bandha":1907,"sthare":1908,"yam":1909,"Ġl":1910,"Ġpakhare":1911,"Ġbagha":1912,"bhau":1913,"Ġamerikare":1914,"Ġ0":1915,"pathi":1916,"nar":1917,"Ġpakha":1918,"Ġpati":1919,"Ġkhelali":1920,"trri":1921,"endra":1922,"Ġbayasaru":1923,"Ġhoiyae":1924,"dhani":1925,"Ġnabhembara":1926,"hira":1927,"Ġchatur":1928,"Ġanuyayi":1929,"ela":1930,"thira":1931,"Ġnimna":1932,"Ġkataka":1933,"rnna":1934,"Ġparu":1935,"ck":1936,"ibaku":1937,"abhinaya":1938,"Ġbidyalaya":1939,"Ġbata":1940,"trans":1941,"Ġ2010":1942,"Ġdurga":1943,"Ġjagatare":1944,"Ġjar":1945,"Ġamerikiya":1946,"stri":1947,"Ġjanashuna":1948,"Ġputra":1949,"puri":1950,"hanti":1951,"Ġpaka":1952,"Ġprakashita":1953,"jo":1954,"anaru":1955,"Ġindi":1956,"Ġsuddha":1957,"Ġseptembara":1958,"Ġsamgra":1959,"Ġhrri":1960,"Ġbhumika":1961,"Ġsahayya":1962,"Ġkampani":1963,"Ġsethiru":1964,"yyare":1965,"patha":1966,"brriari":1967,"Ġadh":1968,"Ġgran":1969,"Ġyetebele":1970,"Ġpho":1971,"Ġbishishta":1972,"30":1973,"Ġbali":1974,"Ġbyabasa":1975,"Ġwi":1976,"Ġshasana":1977,"Ġbritisha":1978,"nkata":1979,"mila":1980,"Ġmari":1981,"Ġdele":1982,"Ġyau":1983,"Ġsabutharu":1984,"rgha":1985,"um":1986,"Ġrahithae":1987,"rriti":1988,"Ġmaj":1989,"ghara":1990,"Ġsamajika":1991,"gani":1992,"Ġmya":1993,"matra":1994,"Ġnila":1995,"Ġtarikha":1996,"rd":1997,"janasamkhya":1998,"Ġghati":1999,"Ġjyo":2000,"Ġwe":2001,"Ġbh":2002,"tyeka":2003,"Ġmasare":2004,"dishta":2005,"Ġgathana":2006,"nni":2007,"Ġmadhyamare":2008,"âĢĵ":2009,"anyasa":2010,"lani":2011,"pho":2012,"Ġnira":2013,"Ġkilomitara":2014,"Ġjuna":2015,"ngu":2016,"Ġsahu":2017,"khita":2018,"Ġupalab":2019,"hata":2020,"Ġtrritiya":2021,"Ġmedi":2022,"Ġphilma":2023,"sari":2024,"hera":2025,"Ġnutana":2026,"rs":2027,"yura":2028,"Ġali":2029,"dro":2030,"Ġpala":2031,"chala":2032,"sthana":2033,"kshare":2034,"Ġpri":2035,"194":2036,"Ġsthapana":2037,"Ġ2004":2038,"Ġsena":2039,"Ġrahu":2040,"Ġanushtha":2041,"Ġkarmakartta":2042,"Ġachanti":2043,"Ġ24":2044,"karu":2045,"Ġmamsa":2046,"Ġdigri":2047,"Ġbichara":2048,"Ġpadhantu":2049,"Ġkaribare":2050,"ĠsàŃ±i":2051,"Ġanyatama":2052,"Ġphebrriari":2053,"shna":2054,"Ġdara":2055,"Ġtika":2056,"Ġbahi":2057,"und":2058,"Ġyahara":2059,"Ġprachina":2060,"Ġby":2061,"Ġdirgha":2062,"Ġshra":2063,"debi":2064,"tional":2065,"Ġsind":2066,"Ġatha":2067,"Ġkalara":2068,"Ġtala":2069,"Ġgati":2070,"Ġemana":2071,"darsha":2072,"Ġheithila":2073,"menta":2074,"Ġmasiharu":2075,"rritti":2076,"mpha":2077,"Ġgacha":2078,"Ġgadha":2079,"Ġis":2080,"Ġpatana":2081,"Ġtai":2082,"Ġsamaja":2083,"Ġ27":2084,"Ġshikara":2085,"harare":2086,"Ġbishaya":2087,"shilpi":2088,"ĠsàŃ±ami":2089,"cal":2090,"Ġpratikriya":2091,"Ġpua":2092,"Ġrahithila":2093,"Ġyuktarashtrare":2094,"Ġà¤":2095,"Ġbina":2096,"bli":2097,"Ġabasthiti":2098,"ttara":2099,"Ġpratyeka":2100,"Ġjene":2101,"stara":2102,"Ġbibhaga":2103,"bho":2104,"Ġbasi":2105,"Ġkheli":2106,"por":2107,"Ġgada":2108,"Ġlokapriya":2109,"Ġsatya":2110,"rtha":2111,"gale":2112,"Ġdarshana":2113,"cia":2114,"âĢĿ":2115,"Ġbahuta":2116,"Ġrahiba":2117,"Ġrupa":2118,"Ġtapa":2119,"Ġmrrityubarana":2120,"charyya":2121,"giri":2122,"Ġphula":2123,"Ġnyaya":2124,"Ġkamgresara":2125,"taku":2126,"Ġnia":2127,"ĠâĢľ":2128,"Ġbimana":2129,"Ġge":2130,"Ġraksha":2131,"Ġchand":2132,"dura":2133,"Ġsetebele":2134,"dhunika":2135,"Ġdak":2136,"pr":2137,"tt":2138,"Ġkal":2139,"Ġpradarshana":2140,"Ġprapta":2141,"Ġkata":2142,"11":2143,"chari":2144,"Ġbhakta":2145,"orld":2146,"Ġdarsha":2147,"Ġakarare":2148,"Ġniyan":2149,"Ġharatharu":2150,"hindi":2151,"ei":2152,"Ġkshetra":2153,"Ġkshu":2154,"va":2155,"sina":2156,"lugu":2157,"Ġmandirara":2158,"Ġdibasa":2159,"Ġyahaki":2160,"Ġutkala":2161,"ranta":2162,"leshàŃ±ra":2163,"Ġbhagare":2164,"mia":2165,"khu":2166,"dasha":2167,"Ġdekhantu":2168,"nan":2169,"dei":2170,"manare":2171,"Ġ2017":2172,"Ġasha":2173,"Ġ2000":2174,"il":2175,"Ġsarbadhika":2176,"ndha":2177,"dio":2178,"Ġneithile":2179,"Ġ2018":2180,"Ġsuraksha":2181,"Ġina":2182,"pashta":2183,"thu":2184,"lochana":2185,"gudika":2186,"parika":2187,"Ġpracha":2188,"Ġupara":2189,"itisa":2190,"tanu":2191,"Ġrana":2192,"tiku":2193,"Ġkarayaithiba":2194,"Ġbhoga":2195,"Ġjhada":2196,"Ġtarala":2197,"Ġyuktarashtra":2198,"Ġprasiddha":2199,"Ġgaa":2200,"Ġmilithila":2201,"Ġshaili":2202,"Ġaka":2203,"Ġdhire":2204,"Ġrahe":2205,"Ġ100":2206,"shiksha":2207,"ds":2208,"Ġbahara":2209,"mpa":2210,"Ġebe":2211,"Ġanda":2212,"Ġca":2213,"Ġpranali":2214,"Ġchatra":2215,"Ġrajadhani":2216,"Ġpurana":2217,"50":2218,"Ġdharabahi":2219,"kla":2220,"charana":2221,"ll":2222,"Ġmumba":2223,"roma":2224,"Ġbayu":2225,"Ġjiti":2226,"Ġ1990":2227,"hasika":2228,"raja":2229,"Ġmara":2230,"Ġ21":2231,"ndo":2232,"Ġ22":2233,"ĠàŃ±e":2234,"Ġdebata":2235,"Ġparusha":2236,"Ġheuchanti":2237,"baka":2238,"Ġyojana":2239,"Ġgarbha":2240,"tmaka":2241,").":2242,"Ġsamban":2243,"shira":2244,"Ġpheri":2245,"Ġsamstha":2246,"jagannatha":2247,"Ġlaksha":2248,"khe":2249,"sàŃ±a":2250,"Ġ2007":2251,"ehara":2252,"Ġguna":2253,"ct":2254,"nidhi":2255,"Ġkhar":2256,"Ġkaragala":2257,"Ġ2006":2258,"ĠbishàŃ±bidyalaya":2259,"for":2260,"Ġbas":2261,"Ġjami":2262,"uri":2263,"Ġprayojana":2264,"men":2265,"Ġhebara":2266,"Ġsthaniya":2267,"Ġbesha":2268,"Ġaiti":2269,"Ġash":2270,"Ġdayi":2271,"ĠâĢĮ":2272,"transla":2273,"mohana":2274,"iku":2275,"Ġrela":2276,"shada":2277,"Ġnarayana":2278,"Ġanubada":2279,"Ġsamparka":2280,"dashi":2281,"Ġbija":2282,"Ġbahari":2283,"it":2284,"Ġbika":2285,"bhida":2286,"Ġrahithiba":2287,"Ġ2008":2288,"shura":2289,"Ġbani":2290,"Ġhar":2291,"thika":2292,"kit":2293,"Ġsamgraha":2294,"Ġ26":2295,"prati":2296,"Ġ28":2297,"ghu":2298,"shma":2299,"Ġpriya":2300,"Ġgabeshana":2301,"Ġunnata":2302,"danti":2303,"Ġprathamika":2304,"Ġnanda":2305,"chapa":2306,"Ġgaja":2307,"Ġaprela":2308,"Ġrau":2309,"Ġsundara":2310,"Ġlakshmi":2311,"Ġ192":2312,"Ġbhagabana":2313,"Ġmitara":2314,"pratha":2315,"Ġshatabdira":2316,"com":2317,"bhali":2318,"Ġmaulika":2319,"niti":2320,"Ġpratya":2321,"Ġdeshara":2322,"Ġtre":2323,"Ġsamgha":2324,"Ġkshudra":2325,"sthiti":2326,"Ġchakra":2327,"cho":2328,"Ġthakura":2329,"ida":2330,"Ġprani":2331,"cle":2332,"àŃ±ra":2333,"Ġgri":2334,"Ġantarjatiya":2335,"wiki":2336,"Ġmaa":2337,"Ġshte":2338,"Ġupalabdha":2339,"pla":2340,"Ġapare":2341,"Ġaji":2342,"Ġgarbhabasthare":2343,"sabu":2344,"Ġprrish":2345,"Ġpla":2346,"Ġpatire":2347,"mula":2348,"Ġ2020":2349,"Ġcon":2350,"Ġ23":2351,"od":2352,"Ġtahara":2353,"bhare":2354,"stana":2355,"Ġbije":2356,"Ġyathakrame":2357,"er":2358,"ĠbhubaneshàŃ±ra":2359,"Ġsy":2360,"pharu":2361,"ghi":2362,"chitrara":2363,"Ġkriketa":2364,"Ġgola":2365,"||":2366,"Ġ%":2367,"Ġpuna":2368,"Ġdeshare":2369,"Ġyahaku":2370,"Ġsata":2371,"mbha":2372,"Ġhata":2373,"Ġdharana":2374,"Ġupanyasa":2375,"Ġkanya":2376,"Ġlamba":2377,"Ġor":2378,"binda":2379,"ĠdàŃ±ara":2380,"Ġtaku":2381,"àŃ±ar":2382,"ishi":2383,"mandira":2384,"Ġbishnu":2385,"ks":2386,"Ġpratinidhi":2387,"Ġsnataka":2388,"Ġyuro":2389,"Ġkarayaipare":2390,"masa":2391,"panna":2392,"Ġuni":2393,"Ġasa":2394,"prarambhika":2395,"Ġniti":2396,"ngare":2397,"Ġnirddesha":2398,"Ġpadaka":2399,"rala":2400,"die":2401,"Ġparbata":2402,"lisa":2403,"Ġhisa":2404,"Ġsim":2405,"qu":2406,"Ġneta":2407,"dela":2408,"lanare":2409,"Ġen":2410,"Ġkarichi":2411,"Ġkharchcha":2412,"Ġchapa":2413,"Ġkalakaramane":2414,"Ġbandhu":2415,"Ġtarapharu":2416,"Ġprema":2417,"Ġshatabdire":2418,"pro":2419,"kshama":2420,"Ġnirddishta":2421,"Ġghoshana":2422,"Ġrabi":2423,"âĢĮ~":2424,"193":2425,"Ġchih":2426,"bahita":2427,"shka":2428,"Ġtat":2429,"Ġmadhu":2430,"Ġshar":2431,"Ġghanta":2432,"Ġuchchatare":2433,"Ġsamudaya":2434,"kamgre":2435,"Ġanubhaba":2436,"Ġblaka":2437,"Ġpuratana":2438,"Ġ2005":2439,"bharata":2440,"Ġparamparika":2441,"Ġbelaku":2442,"Ġadhikari":2443,"puraskara":2444,"Ġpana":2445,"aba":2446,"Ġadhinare":2447,"Ġnet":2448,"gna":2449,"Ġad":2450,"Ġstara":2451,"saka":2452,"Ġbiru":2453,"cie":2454,"thibara":2455,"kamgresa":2456,"Ġmishi":2457,"Ġalaga":2458,"Ġkhrishta":2459,"Ġbauddha":2460,"Ġgiti":2461,"Ġakasha":2462,"yanara":2463,"Ġabha":2464,"Ġjanayae":2465,"sita":2466,"jani":2467,"Ġbla":2468,"Ġdaktara":2469,"Ġsantana":2470,"jibani":2471,"Ġ2021":2472,"ĠsàŃ±ra":2473,"rrishya":2474,"dhiya":2475,"translated":2476,"à¦":2477,"Ġemane":2478,"shthi":2479,"shcha":2480,"Ġlala":2481,"Ġgumpha":2482,"bharatara":2483,"pti":2484,"Ġadhunika":2485,"Ġ40":2486,"Ġena":2487,"karda":2488,"Ġmandirare":2489,"Ġkalika":2490,"Ġhala":2491,"yatra":2492,"Ġchikit":2493,"shora":2494,"Ġran":2495,"Ġsine":2496,"Ġcheshta":2497,"Ġhrasa":2498,"Ġkhara":2499,"Ġ29":2500,"Ġbidya":2501,"Ġkaranaru":2502,"Ġgramare":2503,"Ġdigare":2504,"Ġmisha":2505,"deshare":2506,"nanika":2507,"maya":2508,"Ġab":2509,"Ġkehi":2510,"Ġprasada":2511,"nce":2512,"Ġnije":2513,"Ġsambala":2514,"Ġaro":2515,"uthile":2516,"Ġpramana":2517,"Ġthai":2518,"Ġjibanu":2519,"Ġvi":2520,"hindu":2521,"Ġsambhabana":2522,"Ġsampra":2523,"Ġsubidha":2524,"Ġkamp":2525,"Ġlaga":2526,"wa":2527,"Ġpalita":2528,"Ġpurnna":2529,"Ġsahityika":2530,"cial":2531,"Ġsari":2532,"lam":2533,"Ġghare":2534,"Ġanumo":2535,"Ġsiddha":2536,"ino":2537,"Ġmane":2538,"versi":2539,"tina":2540,"ksi":2541,"masi":2542,"Ġmd":2543,"deshi":2544,"karare":2545,"ttama":2546,"Ġyepariki":2547,"dan":2548,"ithila":2549,"Ġbarga":2550,"Ġlan":2551,"Ġkshati":2552,"ary":2553,"Ġtale":2554,"Ġ190":2555,"Ġparampara":2556,"Ġandolana":2557,"lima":2558,"ĠàŃ±a":2559,"Ġpush":2560,"paru":2561,"prapta":2562,"Ġpahada":2563,"Ġbujha":2564,"Ġrashtrapati":2565,"ĠsàŃ±rupa":2566,"Ġdraghi":2567,"cy":2568,"kanta":2569,"tory":2570,"Ġmdwiki":2571,"Ġagra":2572,"pali":2573,"bira":2574,"Ġayo":2575,"bij":2576,"Ġsuchana":2577,"Ġ1980":2578,"shali":2579,"Ġmatha":2580,"Ġgalpa":2581,"Ġeksa":2582,"Ġmanaba":2583,"ithae":2584,"alth":2585,"nkha":2586,"Ġskula":2587,"Ġkaripari":2588,"Ġsarbo":2589,"Ġakshamsha":2590,"Ġmumbai":2591,"ĠdayitàŃ±":2592,"Ġsamyukta":2593,"Ġudde":2594,"shtri":2595,"Ġpata":2596,"Ġpitha":2597,"jata":2598,"Ġladha":2599,"Ġashta":2600,"Ġrachita":2601,"Ġmahapra":2602,"Ġes":2603,"Ġsamala":2604,"Ġabasthare":2605,"Ġsindroma":2606,"uthiba":2607,"dhuri":2608,"Ġdeshamana":2609,"cation":2610,"Ġchinta":2611,"Ġraktachapa":2612,"Ġbiro":2613,"am":2614,"Ġprasta":2615,"Ġabadana":2616,"Ġsamskrriti":2617,"Ġsm":2618,"Ġpradeshara":2619,"jiba":2620,"nchalara":2621,"bal":2622,"Ġpras":2623,"Ġbhadra":2624,"Ġkahithile":2625,"Ġth":2626,"Ġmanasika":2627,"bartta":2628,"as":2629,"ble":2630,"nes":2631,"ĠdàŃ±ipa":2632,"kahani":2633,"Ġsethire":2634,"Ġniyantrana":2635,"Ġst":2636,"Ġkrida":2637,"Ġjada":2638,"Ġyauna":2639,"Ġsain":2640,"Ġyog":2641,"Ġnamita":2642,"Ġkarmi":2643,"Ġaru":2644,"cu":2645,"kali":2646,"Ġbastu":2647,"yaipare":2648,"ausha":2649,"Ġpaddha":2650,"25":2651,"maku":2652,"Ġnaksha":2653,"Ġnew":2654,"noti":2655,"sraba":2656,"bhaugalika":2657,"Ġprayoga":2658,"mbhira":2659,"Ġaj":2660,"2009":2661,"Ġpathara":2662,"Ġbibhakta":2663,"ikara":2664,"shtara":2665,"Ġananda":2666,"Ġchina":2667,"Ġ1999":2668,"Ġjariare":2669,"\",":2670,"lek":2671,"Ġnashta":2672,"Ġhatya":2673,"Ġchitrana":2674,"Ġrani":2675,"Ġbanti":2676,"Ġaghata":2677,"bhuta":2678,"ĠgurutàŃ±":2679,"Ġkshamata":2680,"Ġabhaba":2681,"Ġpariba":2682,"Ġbiruddhare":2683,"Ġap":2684,"dhra":2685,"loji":2686,"Ġmanisha":2687,"Ġpatanatharu":2688,"Ġgrriha":2689,"Ġyakrrita":2690,"ĠshàŃ±a":2691,"Ġlikhita":2692,"Ġkanthashilpi":2693,"Ġjyoti":2694,"Ġbidyu":2695,"bhaga":2696,"Ġ2002":2697,"Ġamerika":2698,"Ġatyadhika":2699,"Ġmaharaja":2700,"thanara":2701,"bina":2702,"Ġgitikara":2703,"Ġ&":2704,"heba":2705,"Ġmanu":2706,"ttika":2707,"Ġpradaha":2708,"Ġutpadana":2709,"Ġparasta":2710,"Ġdaktari":2711,"Ġnetrrit":2712,"katha":2713,"nir":2714,"Ġpartira":2715,"60":2716,"kya":2717,"Ġcharma":2718,"Ġmanyata":2719,"Ġaya":2720,"Ġbibe":2721,"Ġpaithila":2722,"Ġpratibarsha":2723,"Ġbrahmana":2724,"Ġsharira":2725,"Ġdraghimare":2726,"Ġsamsada":2727,"sena":2728,"Ġrupare":2729,"khanda":2730,"ĠmahattàŃ±":2731,"Ġsamkra":2732,"yaithiba":2733,"sammana":2734,"khana":2735,"tori":2736,"Ġgoda":2737,"Ġduradarshana":2738,"bhar":2739,"nsi":2740,"sahi":2741,"24":2742,"Ġkla":2743,"Ġabar":2744,"Ġex":2745,"Ġbhauni":2746,"Ġrajanaitika":2747,"Ġratna":2748,"Ġhetu":2749,"Ġrahithile":2750,"Ġgujara":2751,"bitra":2752,"Ġdeha":2753,"padaka":2754,"Ġakranta":2755,"Ġanushthana":2756,"sai":2757,"Ġtinoti":2758,"Ġsupari":2759,"Ġmohana":2760,"daru":2761,"nani":2762,"Ġkanthadana":2763,"Ġmal":2764,"Ġlekhithile":2765,"Ġkaryyakrama":2766,"Ġmilita":2767,"Ġaitihasika":2768,"tapa":2769,"Ġ2003":2770,"Ġadhyayana":2771,"nthare":2772,"odha":2773,"ber":2774,"ms":2775,"Ġbhitara":2776,"peshi":2777,"asi":2778,"Ġkampyu":2779,"Ġmahi":2780,"Ġcharitra":2781,"antara":2782,"Ġhebaku":2783,"mon":2784,"Ġpas":2785,"dhita":2786,"manu":2787,"ena":2788,"Ġnag":2789,"Ġmish":2790,"Ġsahayyare":2791,"Ġ1995":2792,"Ġutsaba":2793,"kale":2794,"Ġprabhu":2795,"Ġkati":2796,"Ġkashta":2797,"Ġdiga":2798,"shkara":2799,"Ġbal":2800,"Ġdhala":2801,"Ġparamar":2802,"Ġsebaka":2803,"ww":2804,"ĠĠĊ":2805,"Ġstri":2806,"gamana":2807,"tes":2808,"miti":2809,"Ġchaudhuri":2810,"Ġsna":2811,"Ġhajara":2812,"Ġcharana":2813,"ghra":2814,"Ġbijayi":2815,"nama":2816,"bhadra":2817,"Ġlokamane":2818,"Ġbhutanu":2819,"reja":2820,"Ġyaithile":2821,"Ġrrishi":2822,"Ġprakrritika":2823,"bidhana":2824,"Ġsheshare":2825,"shyakiya":2826,"pakhi":2827,"Ġnai":2828,"tyaga":2829,"Ġ2001":2830,"Ġasubidha":2831,"Ġalu":2832,"Ġniyama":2833,"Ġkathachitratire":2834,"Ġbhota":2835,"dipa":2836,"hue":2837,"Ġuttama":2838,"un":2839,"Ġprachara":2840,"jala":2841,"Ġheuthila":2842,"Ġdanda":2843,"ĠjàŃ±ra":2844,"Ġbikra":2845,"Ġnirbhara":2846,"Ġniyuta":2847,"Ġpunar":2848,"ed":2849,"Ġbarana":2850,"achi":2851,"Ġnali":2852,"Ġdebaku":2853,"Ġshaha":2854,"Ġshukla":2855,"versity":2856,"Ġsamka":2857,"Ġyiba":2858,"Ġpratiyogi":2859,"bri":2860,"Ġspe":2861,"Ġparinata":2862,"Ġshta":2863,"Ġkhabara":2864,"taba":2865,"Ġmahabidyalaya":2866,"Ġweb":2867,"Ġaloka":2868,"Ġdharabahika":2869,"mai":2870,"dhe":2871,"Ġsamlapa":2872,"nra":2873,"Ġbhabi":2874,"jati":2875,"Ġtalika":2876,"Ġgathita":2877,"Ġkahile":2878,"handi":2879,"Ġsuna":2880,"Ġtur":2881,"Ġfo":2882,"rachana":2883,"Ġparichalana":2884,"Ġsku":2885,"Ġsamagra":2886,"à¤¾":2887,"Ġadha":2888,"shmi":2889,"gama":2890,"Ġsista":2891,"Ġ1998":2892,"Ġsaptaha":2893,"80":2894,"Ġbibar":2895,"Ġpratirodha":2896,"Ġjatila":2897,"Ġwith":2898,"Ġgya":2899,"Ġbikraya":2900,"rapi":2901,"Ġphar":2902,"Ġsuyoga":2903,"Ġparibarare":2904,"Ġmamsapeshi":2905,"kka":2906,"Ġkada":2907,"Ġkathachitrare":2908,"ĠbishàŃ±ra":2909,"Ġkalarapa":2910,"Ġmahana":2911,"Ġlist":2912,"puta":2913,"shaya":2914,"Ġstarare":2915,"shakti":2916,"Ġhisabare":2917,"der":2918,"Ġpaiba":2919,"parbani":2920,"nkana":2921,"hina":2922,"Ġhoithibaru":2923,"ĠsàŃ±lpa":2924,"Ġprrishtha":2925,"Ġbahare":2926,"Ġ60":2927,"Ġsamparkare":2928,"Ġyadio":2929,"Ġyogyata":2930,"Ġsima":2931,"Ġnata":2932,"Ġshara":2933,"ĠsàŃ±rnna":2934,"Ġbaij":2935,"les":2936,"purara":2937,"parba":2938,"2011":2939,"Ġunnati":2940,"echa":2941,"artha":2942,"Ġchasha":2943,"Ġtelugu":2944,"Ġworld":2945,"Ġbidhi":2946,"Ġkrama":2947,"Ġmatare":2948,"Ġhrrit":2949,"Ġlakshya":2950,"Ġsnana":2951,"Ġpabitra":2952,"Ġlipi":2953,"Ġtahaku":2954,"stro":2955,"Ġojana":2956,"Ġsamanya":2957,"Ġnaga":2958,"yauthiba":2959,"Ġrakhiba":2960,"ĠnetrritàŃ±":2961,"gy":2962,"nada":2963,"àŃ¤":2964,"Ġparibarara":2965,"Ġsamgita":2966,"landa":2967,"Ġsamgathanara":2968,"Ġindian":2969,"nre":2970,"Ġchalachchitrara":2971,"Ġbrrik":2972,"ssi":2973,"Ġmacha":2974,"bela":2975,"27":2976,"sm":2977,"mas":2978,"Ġata":2979,"Ġmati":2980,"Ġrai":2981,"jada":2982,"Ġjena":2983,"Ġkhola":2984,"nk":2985,"kshata":2986,"Ġtar":2987,"Ġ1977":2988,"madhya":2989,"Ġshanti":2990,"Ġteli":2991,"el":2992,"Ġmasti":2993,"za":2994,"Ġparibesha":2995,"Ġaphri":2996,"40":2997,"Ġakara":2998,"Ġmukta":2999,"Ġ1985":3000,"Ġcom":3001,"28":3002,"Ġghu":3003,"Ġsala":3004,"Ġmasara":3005,"Ġparishada":3006,"Ġkaleja":3007,"Ġhrada":3008,"maru":3009,"Ġkanika":3010,"Ġbhashara":3011,"dele":3012,"byakti":3013,"Ġsamuha":3014,"Ġmahaprabhu":3015,"jar":3016,"dàŃ±i":3017,"Ġr":3018,"antu":3019,"gaja":3020,"Ġdiayaithila":3021,"dri":3022,"Ġbarsharu":3023,"njeka":3024,"Ġukta":3025,"ls":3026,"Ġjhu":3027,"Ġbipada":3028,"Ġnan":3029,"Ġkarayiba":3030,"Ġadibasi":3031,"phar":3032,"Ġniyukta":3033,"Ġatma":3034,"Ġmajhi":3035,"ranti":3036,"Ġabasara":3037,"Ġparti":3038,"Ġ1971":3039,"Ġprakriya":3040,"dhàŃ±":3041,"Ġsamgrami":3042,"Ġpashu":3043,"Ġgayaka":3044,"Ġlage":3045,"Ġhis":3046,"Ġprrithibira":3047,"Ġpakhapakhi":3048,"Ġpunah":3049,"Ġchikitsare":3050,"Ġdan":3051,"ĠsàŃ±adhina":3052,"Ġdana":3053,"lire":3054,"Ġdabi":3055,"mandi":3056,"chaka":3057,"kita":3058,"Ġchihna":3059,"Ġchitranatya":3060,"jaka":3061,"Ġduh":3062,"bc":3063,"Ġsameta":3064,"Ġnar":3065,"mukhi":3066,"ns":3067,"Ġ189":3068,"Ġbhra":3069,"Ġsapa":3070,"Ġyuba":3071,"Ġpuras":3072,"aushadha":3073,"Ġbhar":3074,"Ġetha":3075,"ĠtattàŃ±":3076,"Ġatyanta":3077,"tarara":3078,"jyare":3079,"Ġbaha":3080,"site":3081,"njabi":3082,"Ġshuni":3083,"Ġyantra":3084,"Ġsarbochcha":3085,"Ġbaba":3086,"Ġgani":3087,"Ġloke":3088,"Ġbrriha":3089,"Ġdone":3090,"ema":3091,"guru":3092,"lei":3093,"Ġdhana":3094,"Ġpradesha":3095,"Ġpadi":3096,"Ġichcha":3097,"Ġshastri":3098,"Ġbandara":3099,"Ġyaithila":3100,"Ġpradhanamantri":3101,"Ġapareshana":3102,"Ġsagara":3103,"Ġjagata":3104,"Ġgai":3105,"29":3106,"mbi":3107,"Ġpali":3108,"Ġshira":3109,"Ġmora":3110,"Ġnatya":3111,"Ġnadira":3112,"kshepa":3113,"Ġchihnata":3114,"Ġgara":3115,"dhaba":3116,"Ġkoti":3117,"Ġshrenira":3118,"inosara":3119,"lasi":3120,"Ġbamsha":3121,"Ġsamapta":3122,"Ġpratishthita":3123,"àŃ±ala":3124,"ĠkàŃ±":3125,"Ġdalare":3126,"njekasana":3127,"yamita":3128,"Ġbanya":3129,"Ġmada":3130,"Ġgane":3131,"Ġ2022":3132,"shàŃ±ri":3133,"Ġbehera":3134,"Ġagni":3135,"Ġadharita":3136,"milana":3137,"trita":3138,"Ġudyana":3139,"tai":3140,"Ġchampi":3141,"Ġsamayara":3142,"Ġpurnni":3143,"Ġinter":3144,"shrama":3145,"Ġjanita":3146,"ase":3147,"ndare":3148,"kiri":3149,"Ġuchchata":3150,"Ġtamila":3151,"per":3152,"yanti":3153,"chyu":3154,"Ġsambhaba":3155,"Ġbarshara":3156,"Ġneba":3157,"26":3158,"70":3159,"Ġudaharana":3160,"Ġthibaru":3161,"Ġpatrika":3162,"bishàŃ±":3163,"Ġdeo":3164,"Ġkary":3165,"yani":3166,"saphu":3167,"ngamana":3168,"upa":3169,"Ġradha":3170,"beda":3171,"fo":3172,"kho":3173,"shtrara":3174,"Ġphara":3175,"Ġilek":3176,"Ġkarnna":3177,"Ġmadhyama":3178,"Ġrekarda":3179,"njama":3180,"Ġharahari":3181,"Ġprachalita":3182,"Ġbari":3183,"shala":3184,"Ġhada":3185,"Ġatyaba":3186,"tura":3187,"Ġabhinita":3188,"Ġrritu":3189,"laksh":3190,"Ġsami":3191,"Ġkaryyakari":3192,"ficial":3193,"ĠmahattàŃ±purnna":3194,"Ġnijaku":3195,"Ġasithile":3196,"Ġpurbatana":3197,"Ġprakalpa":3198,"Ġdrrishya":3199,"bishesha":3200,"Ġ1967":3201,".,":3202,"tani":3203,"Ġyuni":3204,"kottara":3205,"Ġdurbala":3206,"Ġmilithae":3207,"Ġpakist":3208,"Ġamerikara":3209,"Ġtripathi":3210,"rachanabali":3211,"Ġmukha":3212,"Ġchandana":3213,"Ġsthira":3214,"orda":3215,"Â°":3216,"Ġesia":3217,"shoka":3218,"ud":3219,"kal":3220,"Ġaushadhara":3221,"bhyan":3222,"Ġspashta":3223,"mg":3224,"ono":3225,"Ġkhai":3226,"2015":3227,"shre":3228,"ĠsarasàŃ±":3229,"paranti":3230,"Ġsaphalata":3231,"Ġstanya":3232,"Ġwebsite":3233,"war":3234,"Ġaha":3235,"thaka":3236,"Ġbikashita":3237,"Ġahuri":3238,"Ġbati":3239,"Ġhoichanti":3240,"Ġpuruna":3241,"2014":3242,"Ġhrrid":3243,"Ġgrantha":3244,"murtti":3245,"Ġsamiti":3246,"Ġraktasraba":3247,"Ġprajati":3248,"mmada":3249,"Ġkaripare":3250,"Ġbhaya":3251,"mini":3252,"Ġparis":3253,"paryya":3254,"Ġshrirama":3255,"Ġbibhagare":3256,"nkathare":3257,"Ġsthala":3258,"shedha":3259,"Ġtatkalina":3260,"Ġanumodita":3261,"ric":3262,"Ġmihira":3263,"golika":3264,"Ġbibarani":3265,"Ġpresa":3266,"yogita":3267,"bayo":3268,"Ġupastha":3269,"brritti":3270,"lanti":3271,"uha":3272,"Ġindra":3273,"Ġshrila":3274,"Ġuniversity":3275,"2004":3276,"Ġnakshatra":3277,"tive":3278,"bahya":3279,"Ġchanda":3280,"Ġsita":3281,"niyama":3282,"Ġprajatira":3283,"Ġyieki":3284,"saru":3285,"Ġpandita":3286,"Ġkrame":3287,"tarana":3288,"deithile":3289,"grama":3290,"Ġsthapita":3291,"Ġsarala":3292,"Ġmahilamana":3293,"ĠbishàŃ±bidyalayaru":3294,"Ġimreja":3295,"Ġpaunda":3296,"leri":3297,"Ġshilpa":3298,":/":3299,"stare":3300,"lama":3301,"ĠbaleshàŃ±ra":3302,"lood":3303,"Ġnational":3304,"Ġanumana":3305,"Ġgraha":3306,"ĠdhàŃ±":3307,"hoi":3308,"Ġmuha":3309,"Ġbarshika":3310,"Ġ1997":3311,"Ġbuddha":3312,"Ġ1974":3313,"Ġbandha":3314,"Ġrakhithile":3315,"Ġsnatakottara":3316,"ol":3317,"Ġalo":3318,"Ġurd":3319,"belaku":3320,"Ġadhina":3321,"Ġsamghatika":3322,"aneta":3323,"Ġyoda":3324,"Ġphusaphu":3325,"ttp":3326,"Ġabarodha":3327,"garu":3328,"ĠashàŃ±":3329,"Ġkrrishi":3330,"Ġsau":3331,"Ġdata":3332,"prila":3333,"byaktigata":3334,"nira":3335,"Ġchaka":3336,"pitha":3337,"yurabha":3338,"75":3339,"iare":3340,"shte":3341,"Ġrashi":3342,"Ġlokamana":3343,"shtriya":3344,"Ġbbc":3345,"Ġasam":3346,"Ġandhra":3347,"Ġ48":3348,"raru":3349,"Ġer":3350,"Ġgajapati":3351,"90":3352,"danare":3353,"prri":3354,"Ġem":3355,"Ġbipa":3356,"deha":3357,"mes":3358,"kosha":3359,"Ġ1996":3360,"baddha":3361,"Ġprabahita":3362,"Ġhoipari":3363,"yauthila":3364,"Ġganesha":3365,"ire":3366,"Ġkebe":3367,"Ġ1961":3368,"abhinita":3369,"Ġmini":3370,"gudi":3371,"karyya":3372,"bandhu":3373,"Ġpasanda":3374,"Ġema":3375,"Ġprabh":3376,"Ġhanu":3377,"phy":3378,"Ġsiddhanta":3379,"ĠshàŃ±asa":3380,"Ġsistama":3381,"bhai":3382,"://":3383,"ddhara":3384,"danda":3385,"rddha":3386,"nala":3387,"Ġayojana":3388,"Ġhatare":3389,"anup":3390,"ikare":3391,"mal":3392,"Ġmyu":3393,"Ġsammi":3394,"Ġsamarthana":3395,"Ġdis":3396,"Ġ31":3397,"sanika":3398,"pinda":3399,"Ġ35":3400,"Ġ1994":3401,"Ġkarayauchi":3402,"cleanup":3403,"bari":3404,"jhara":3405,"Ġnagara":3406,"Ġhati":3407,"Ġsome":3408,"imrajire":3409,"Ġatyabashyakiya":3410,"Ġbarambara":3411,"grri":3412,"liya":3413,"Ġrak":3414,"Ġlai":3415,"Ġshasaka":3416,"Ġdharmika":3417,"Ġalimpi":3418,"shyare":3419,"kila":3420,"yanare":3421,"Ġpadmashri":3422,"sin":3423,"sela":3424,"Ġsabhapati":3425,"Ġsyste":3426,"Ġprastaba":3427,"io":3428,"Ġ||":3429,"Ġparimana":3430,"Ġkishora":3431,"Ġrogamana":3432,"velo":3433,"Ġjibanara":3434,"Ġphalaphala":3435,"Ġbidro":3436,"patya":3437,"Ġpurnnima":3438,"jibana":3439,"Ġtirtha":3440,"ngo":3441,"Ġsamrata":3442,"Ġchadi":3443,"Ġce":3444,"ksharu":3445,"Ġdhyana":3446,"Ġkaribe":3447,"itis":3448,"bimsha":3449,"kela":3450,"Ġ80":3451,"Ġparyyatana":3452,"Ġalar":3453,"Ġbaja":3454,"Ġgabhira":3455,"ket":3456,"Ġchaturtha":3457,"Ġabhayar":3458,"Ġsainya":3459,"Ġsnayu":3460,"Ġpae":3461,"ndhi":3462,"bedana":3463,"Ġdija":3464,"Ġnyu":3465,"Ġbyapi":3466,"dasa":3467,"Ġnana":3468,"Ġ1991":3469,"Ġsamskrrita":3470,"myu":3471,"Ġehipari":3472,"lora":3473,"Ġdise":3474,"Ġmilu":3475,"Ġupadhi":3476,"Ġmishrana":3477,"thai":3478,"Ġbigraha":3479,"Ġbama":3480,"Ġchakiri":3481,"Ġkarai":3482,"à¤°":3483,"mple":3484,"Ġpratiyogitare":3485,"up":3486,"Ġsaharare":3487,"dhari":3488,"sanala":3489,"à¬¼,":3490,"nkada":3491,"Ġshikshaka":3492,"Ġnikatastha":3493,"Ġsambandhiya":3494,"saha":3495,"Ġghar":3496,"Ġhoithanti":3497,"Ġsthiti":3498,"rita":3499,"lekha":3500,"lila":3501,"pashchima":3502,"Ġkimbadanti":3503,"lala":3504,"shama":3505,"Ġshila":3506,"ĠsàŃ±r":3507,"yanda":3508,"kramare":3509,"Ġbrata":3510,"mya":3511,"Ġsampadaka":3512,"Ġteshta":3513,"Ġghatithila":3514,"ona":3515,"arara":3516,"tik":3517,"tibha":3518,"dhina":3519,"Ġprarambhika":3520,"ntara":3521,"japura":3522,"deo":3523,"Ġ1957":3524,"Ġsaura":3525,"Ġrasta":3526,"Ġtibhi":3527,"kora":3528,"phta":3529,"orta":3530,"lasa":3531,"Ġei":3532,"Ġbhaba":3533,"barnna":3534,"Ġesiya":3535,"ad":3536,"dur":3537,"Ġmahe":3538,"ding":3539,"Ġsure":3540,"Ġsamgathana":3541,"jhi":3542,"tim":3543,"teri":3544,"Ġkora":3545,"Ġ1984":3546,"Ġ1952":3547,"Ġshabdara":3548,"Ġparamarsha":3549,"33":3550,"mb":3551,"mation":3552,"Ġkeu":3553,"Ġpradatta":3554,"Ġkanthashilpimane":3555,"Ġkampyutara":3556,"kuda":3557,"Ġudbhida":3558,"ul":3559,"Ġbaisha":3560,"uranika":3561,"Ġekamatra":3562,"Ġjaha":3563,"Ġanusan":3564,"sthali":3565,"Ġitiha":3566,"panare":3567,"Ġsathi":3568,"ĠdàŃ±a":3569,"Ġsamkh":3570,"Ġdie":3571,"Ġasiba":3572,"Ġdharanara":3573,"Ġghoda":3574,"dharma":3575,"kro":3576,"kataka":3577,"Ġtama":3578,"Ġtali":3579,"at":3580,"nthi":3581,"yanika":3582,"Ġmali":3583,"Ġyaj":3584,"Ġ1993":3585,".)":3586,"ethare":3587,"Ġkon":3588,"Ġkhana":3589,"Ġpratika":3590,"brah":3591,"Ġdainosara":3592,"Ġanumati":3593,"pradeshara":3594,"Ġdharmara":3595,"Ġkarayauthila":3596,"kendra":3597,"Ġdru":3598,"Ġbela":3599,"Ġnamakarana":3600,"Ġchalachchitrati":3601,"Ġasthi":3602,"ĠàŃ±i":3603,"Ġpakistana":3604,"Ġsamkramita":3605,"Ġase":3606,"shari":3607,"padma":3608,"Ġbasu":3609,"Ġgramara":3610,"gati":3611,"Ġmur":3612,"Ġbabu":3613,"Ġanta":3614,"Ġkosha":3615,"masihare":3616,"ĠàŃ¤":3617,"gua":3618,"Ġbishala":3619,"Ġsharirika":3620,"Ġprabhrriti":3621,"99":3622,"Ġkai":3623,"Ġ1992":3624,"Ġkholi":3625,"guna":3626,"Ġpratiyogita":3627,"Ġsin":3628,"Ġchithare":3629,"Ġ1989":3630,"Ġganana":3631,"ĠbishàŃ±bidyalayare":3632,"Ġuddeshyare":3633,"nathile":3634,"Ġmukhyamantri":3635,"Ġsamskrritika":3636,"Ġsamkalana":3637,"ĠsattàŃ±":3638,"tela":3639,"logy":3640,"Ġjibani":3641,"yaithile":3642,"Ġparas":3643,"Ġantibayo":3644,"Ġpakai":3645,"Ġofficial":3646,"Ġheithae":3647,"Ġullekhaniya":3648,"bayu":3649,"Ġashoka":3650,"Ġdauda":3651,"Ġgopala":3652,"Ġbijeta":3653,"tions":3654,"Ġprasarita":3655,"88":3656,"sarana":3657,"Ġparibe":3658,"ngali":3659,"Ġsahayata":3660,"bhugola":3661,"Ġgupta":3662,"Ġmanonita":3663,"asu":3664,"we":3665,"Ġbasanta":3666,"Ġbajara":3667,"Ġnare":3668,"salamana":3669,"Ġparichaya":3670,"ĠbhubaneshàŃ±":3671,"yane":3672,"lim":3673,"sthara":3674,"ngira":3675,"prathama":3676,"nde":3677,"Ġarthika":3678,"Ġagaru":3679,"Ġyathe":3680,"Ġgala":3681,"check":3682,"kshetra":3683,"parbaparbani":3684,"Ġchandi":3685,"Ġdaka":3686,"Ġmela":3687,"Ġpilamana":3688,"Ġbicharapati":3689,"puna":3690,"Ġamara":3691,"galpa":3692,"jibi":3693,"Ġkhaiba":3694,"Ġkarmachari":3695,"cs":3696,"nanare":3697,"nje":3698,"ry":3699,"Ġ[":3700,"try":3701,"Ġkesha":3702,"darshita":3703,"oti":3704,"tera":3705,"Ġmahakasha":3706,"Ġparyyataka":3707,"ĠgurutàŃ±purnna":3708,"69":3709,"layara":3710,"Ġaphi":3711,"Ġsamskrri":3712,"Ġbyabasayika":3713,"Ġnathila":3714,"Ġkaryyakala":3715,"jena":3716,"2000":3717,"Ġkendriya":3718,"àŃ±arda":3719,"Ġmishai":3720,"sanare":3721,"Ġesa":3722,"Ġjayi":3723,"kira":3724,"sams":3725,"Ġbahula":3726,"2017":3727,"1995":3728,"Ġsystem":3729,"Ġrao":3730,"min":3731,"ĠĠĠ":3732,"njini":3733,"janana":3734,"Ġshastriya":3735,"Ġyatheshta":3736,"kshu":3737,"Ġsaro":3738,"Ġpeta":3739,"Ġmanushya":3740,"Ġpresakri":3741,"Ġ/":3742,"teda":3743,"Ġ1970":3744,"Ġamla":3745,"ĠparshàŃ±re":3746,"tin":3747,"Ġudya":3748,"ĠsarasàŃ±ti":3749,"35":3750,"kabi":3751,"Ġchati":3752,"Ġgau":3753,"Ġ47":3754,"Ġaruna":3755,"65":3756,"id":3757,"Ġve":3758,"Ġbirodha":3759,"chchi":3760,"barare":3761,"Ġadhyaksha":3762,"Ġpaddhati":3763,"anyanya":3764,"Ġchai":3765,"Ġrajyare":3766,"Ġkharapa":3767,"njara":3768,"rina":3769,"Ġgale":3770,"grahi":3771,"45":3772,"sto":3773,"Ġdehare":3774,"Ġsthanan":3775,"Ġbikashashila":3776,"tanara":3777,"tena":3778,"Ġnau":3779,"Ġdam":3780,"Ġsimita":3781,"Ġabhiyana":3782,"Ġpida":3783,"ther":3784,"Ġshrikrrishna":3785,"Ġshrijagannatha":3786,"tru":3787,"Ġstu":3788,"Ġjarmani":3789,"patana":3790,"tanali":3791,"Ġtibra":3792,"Ġkhuba":3793,"Ġparimanara":3794,"Ġshir":3795,"Ġniyukti":3796,"Ġsmrriti":3797,"sura":3798,"rea":3799,"Ġgaura":3800,"Ġshighra":3801,"mukhya":3802,"Ġpoli":3803,"Ġyuktarajyare":3804,"Ġà":3805,"Ġsakala":3806,"Ġbhakti":3807,"graphi":3808,"praya":3809,"Ġbasabasa":3810,"66":3811,"Ġpaksharu":3812,"mitta":3813,"Ġchadha":3814,"Ġmandiraku":3815,"Ġ1987":3816,"Ġaspashta":3817,"ska":3818,"Ġtran":3819,"Ġbarshare":3820,"Ġsharirara":3821,"Ġtapamatra":3822,"Ġarogya":3823,"Ġalarji":3824,"bda":3825,"Ġdianti":3826,"Ġparibeshana":3827,"Ġshishura":3828,"Ġriver":3829,"Ġsinema":3830,"sahitya":3831,"ĠsattàŃ±e":3832,"gari":3833,"Ġnayika":3834,"kimba":3835,"Ġbhitti":3836,"Ġ45":3837,"Ġsamrakshana":3838,"Ġnagarika":3839,"ple":3840,"Ġkoi":3841,"Ġprayo":3842,"Ġkathi":3843,"Ġrati":3844,"kesha":3845,"Ġbuda":3846,"tamata":3847,"Ġsamud":3848,"Ġkamiyae":3849,"Ġecha":3850,"Ġpatri":3851,"reta":3852,"Ġananta":3853,"Ġsamsa":3854,"Ġekadashi":3855,"shiya":3856,"Ġshrri":3857,"khyata":3858,"Ġ51":3859,"1990":3860,"Ġprakashana":3861,"chalach":3862,"nmane":3863,"shastra":3864,"Ġchalu":3865,"porta":3866,"Ġeprila":3867,"line":3868,"Ġnada":3869,"Ġduithara":3870,"Ġramachandra":3871,"Ġbihara":3872,"Ġnidra":3873,"pika":3874,"Ġkaruthila":3875,"Ġsambalapura":3876,"Ġmallika":3877,"dda":3878,"bahu":3879,"Ġbaj":3880,"bijada":3881,"Ġmina":3882,"Ġgobinda":3883,"Ġkaryyakshama":3884,"Ġanyamana":3885,"Ġgudi":3886,"Ġ49":3887,"Ġyaithae":3888,"Ġdarakara":3889,"Ġerro":3890,"ral":3891,"miya":3892,"kia":3893,"ngalare":3894,"Ġkhad":3895,"Ġbosha":3896,"Ġ75":3897,"Ġbarnnita":3898,"Ġkalikata":3899,"lakshmi":3900,"Ġrahanti":3901,"Ġraghu":3902,"rridha":3903,"Ġjata":3904,"sthanara":3905,"Ġchukti":3906,"Ġbyabasaya":3907,"Ġjayirama":3908,"santa":3909,"Ġjatira":3910,"ĠehadàŃ±ara":3911,"Ġbemari":3912,"Ġ90":3913,"muna":3914,"badara":3915,"Ġsadara":3916,"Ġmama":3917,"lin":3918,"Ġisra":3919,"ngama":3920,"Ġpadabi":3921,"uttara":3922,"Ġphusaphusa":3923,"Ġparbati":3924,"Ġpubli":3925,"Ġbandhi":3926,"layare":3927,"national":3928,"dhyaru":3929,"Ġhealth":3930,"Ġpress":3931,"Ġ1960":3932,"Ġpushpa":3933,"ir":3934,"kend":3935,"ksana":3936,"sko":3937,"leta":3938,"Ġsampadana":3939,"1980":3940,"Ġbamshara":3941,"ali":3942,"Ġkau":3943,"low":3944,"pida":3945,"shrita":3946,"38":3947,"jyara":3948,"klo":3949,"Ġbrritti":3950,"Ġjara":3951,"Ġandira":3952,"Ġsamyojana":3953,"taraya":3954,"Ġchaa":3955,"Ġ1988":3956,"Ġshtesana":3957,"48":3958,"kranti":3959,"Ġsamyoga":3960,"rota":3961,"thanaitika":3962,"Ġyogadana":3963,"77":3964,"Ġaja":3965,"Ġfe":3966,"Ġbyaktigata":3967,"Ġ70":3968,"taria":3969,"Ġ1947":3970,"Ġ1948":3971,"Ġacharyya":3972,"Ġeda":3973,"Ġmusalamana":3974,"Ġrajapatha":3975,"Ġprayatah":3976,"Ġ1950":3977,"Ġethipai":3978,"yagada":3979,"Ġmatrri":3980,"Ġmrrita":3981,"pasa":3982,"diya":3983,"àŃ±i":3984,"Ġhasta":3985,"purare":3986,"ces":3987,"2010":3988,"Ġkamiti":3989,"Ġbirodhare":3990,"Ġbro":3991,"Ġprashi":3992,"Ġmutra":3993,"Ġsiri":3994,"manta":3995,"Ġbibhagara":3996,"Ġnimitta":3997,"Ġkipari":3998,"Ġupakarana":3999,"samkh":4000,"dani":4001,"Ġindo":4002,"Ġgaya":4003,"Ġshikshagata":4004,"ĠsàŃ±ikrriti":4005,"gdha":4006,"world":4007,"tia":4008,"Ġeyara":4009,"ris":4010,"Ġekada":4011,"Ġyuddhare":4012,"Ġpresakripa":4013,"Ġac":4014,"Ġbikri":4015,"Ġbahana":4016,"Ġanuro":4017,"Ġpraram":4018,"Ġmahilamane":4019,"Ġsamspar":4020,"Ġhola":4021,"Ġkanadare":4022,"Ġshraddha":4023,"darshanare":4024,"lanara":4025,"ujhara":4026,"nathila":4027,"Ġhimala":4028,"Ġkaruchi":4029,"2012":4030,"Ġsamrajya":4031,"Ġashtre":4032,"ada":4033,"Ġprabandha":4034,"Ġbadya":4035,"dhanare":4036,"Ġbarnna":4037,"pila":4038,"Ġyukta":4039,"bhuja":4040,"tis":4041,"Ġpale":4042,"Ġbistara":4043,"Ġanna":4044,"jatika":4045,"Ġjaina":4046,"Ġkukura":4047,"Ġakarshana":4048,"zation":4049,"34":4050,"Ġsur":4051,"Ġmahadeba":4052,"Ġ1983":4053,"Ġpolisa":4054,"Ġ1975":4055,"95":4056,"phara":4057,"Ġalochana":4058,"bhabe":4059,"ser":4060,"Ġhaki":4061,"Ġ52":4062,"Ġ1962":4063,"panara":4064,"tte":4065,"Ġbrrit":4066,"ruti":4067,"Ġshrenire":4068,"Ġbidyut":4069,"banara":4070,"janara":4071,"vie":4072,"Ġakha":4073,"Ġtamilana":4074,"Ġekadhika":4075,"beshaka":4076,"meha":4077,"190":4078,"Ġkula":4079,"Ġarjuna":4080,"Ġ1986":4081,"Ġganasam":4082,"Ġanusandhana":4083,"garare":4084,"Ġamba":4085,"Ġchama":4086,"ngitakara":4087,"2016":4088,"Ġsethipai":4089,"ters":4090,"Ġharihara":4091,"Ġbidyalayare":4092,"Ġjanmita":4093,"sàŃ±ami":4094,"Ġpacha":4095,"Ġbeda":4096,"puja":4097,"Ġabashyakata":4098,"Ġabasthana":4099,"Ġmalaya":4100,"byabahara":4101,"Ġ1972":4102,"64":4103,"85":4104,"bidhi":4105,"karma":4106,"gane":4107,"ide":4108,"Ġkshira":4109,"Ġsaja":4110,"Ġbacha":4111,"grasta":4112,"Ġkamala":4113,"Ġbrriksha":4114,"Ġgarama":4115,"67":4116,"Ġjhi":4117,"ning":4118,"Ġkabya":4119,"ndana":4120,"Ġjini":4121,"ĠbishàŃ±bidyalayara":4122,"sila":4123,"side":4124,"chche":4125,"Ġshikha":4126,"Ġsidha":4127,"Ġkhali":4128,"yarata":4129,"à¥į":4130,"Ġmastishka":4131,"Ġdisease":4132,"dari":4133,"ine":4134,"kor":4135,"Ġedi":4136,"Ġun":4137,"Ġpratima":4138,"Ġkumari":4139,"purusha":4140,"Ġprashasanika":4141,"''":4142,"danta":4143,"prrish":4144,"pate":4145,"telugu":4146,"Ġgoshthi":4147,"Ġasile":4148,"Ġramayana":4149,"Ġlakshmana":4150,"87":4151,"kuma":4152,"rena":4153,"àŃ±ara":4154,"Ġuchita":4155,"Ġrahichanti":4156,"Ġheithiba":4157,"Ġsambadi":4158,"Ġparida":4159,"Ġsarbada":4160,"Ġyaithiba":4161,"dyumna":4162,"Ġakshaya":4163,"Ġnimo":4164,"Ġhoigala":4165,"piya":4166,"Ġpuj":4167,"Ġheuthile":4168,"batadàŃ±ara":4169,"2008":4170,"Ġdainika":4171,"Ġnyayalaya":4172,"is":4173,"ps":4174,"Ġnathile":4175,"Ġrekha":4176,"Ġrebhe":4177,"Ġstanyapana":4178,"Ġnarendra":4179,"32":4180,"thitire":4181,"sau":4182,"ses":4183,"Ġkulare":4184,"mulaka":4185,"37":4186,"py":4187,"Ġsanta":4188,"thaanti":4189,"Ġdaru":4190,"Ġprat":4191,"Ġraha":4192,"Ġsamadhana":4193,"ĠbishàŃ±ka":4194,"kshma":4195,"Ġ1982":4196,"formation":4197,"89":4198,"Ġhoisari":4199,"Ġheithile":4200,"Ġanupa":4201,"Ġshrimandira":4202,"ghatanabali":4203,"zo":4204,"chit":4205,"Ġbiphala":4206,"ĠshàŃ±e":4207,"Ġarjana":4208,"Ġtela":4209,"Ġsamskarana":4210,"Ġsamparkiya":4211,"Ġstambha":4212,"chalachchitra":4213,"Ġkaraithile":4214,"Ġkumbhira":4215,"Ġsthayi":4216,"Ġintar":4217,"mukhare":4218,"Ġpratishthata":4219,"con":4220,"lyu":4221,"hala":4222,"Ġhttp":4223,"Ġkahanti":4224,"Ġsambidha":4225,"Ġnacha":4226,"Ġita":4227,"heru":4228,"Ġkimi":4229,"Ġmandapa":4230,"Ġpanigrahi":4231,"Ġmedici":4232,"57":4233,"jaru":4234,"Ġsadhana":4235,"Ġgira":4236,"bidya":4237,"Ġdipa":4238,"84":4239,"fa":4240,"jma":4241,"uni":4242,"Ġastro":4243,"Ġbasta":4244,"Ġniyamita":4245,"Ġfa":4246,"Ġpadakshepa":4247,"Ġparichalita":4248,"Ġkalarapataria":4249,"kani":4250,"mali":4251,"àŃ±ana":4252,"Ġsenti":4253,"Ġtata":4254,"Ġdibya":4255,"tria":4256,"Ġkhub":4257,"Ġkhelithile":4258,"Ġorgani":4259,"kasana":4260,"Ġkor":4261,"Ġete":4262,"âĢĮâĢĮ":4263,"Ġtathapi":4264,"Ġposhaka":4265,"Ġkame":4266,"sim":4267,"mira":4268,"Ġdinare":4269,"ĠsàŃ±p":4270,"Ġnishchita":4271,"Ġanurodha":4272,"ntial":4273,"Ġabatara":4274,"Ġdeithila":4275,"Ġprasaba":4276,"Ġokila":4277,"Ġgari":4278,"Ġchini":4279,"njaya":4280,"Ġsehipari":4281,"Ġganthi":4282,"Ġkaha":4283,"Ġghana":4284,"bekshana":4285,"Ġpaile":4286,"ngana":4287,"Ġluna":4288,"Ġsete":4289,"Ġsamila":4290,"Ġpratibha":4291,"Ġhatha":4292,"nchayata":4293,"goti":4294,"Ġmrrityubelaku":4295,"njaba":4296,"1985":4297,"Ġrathayatra":4298,"bula":4299,"Ġmaya":4300,"Ġnirmala":4301,"Ġbeshi":4302,"Ġkathachitrati":4303,"Ġlila":4304,"Ġboo":4305,"im":4306,"khari":4307,"ptara":4308,"Ġandha":4309,"Ġshataka":4310,"Ġmeru":4311,"Ġbibechana":4312,"Ġbhramana":4313,"rasa":4314,"Ġkanta":4315,"nila":4316,"Ġprakrrita":4317,"Ġnaeka":4318,"Ġpitamata":4319,"ges":4320,"Ġbuli":4321,"2013":4322,"Ġjibanare":4323,"Ġaparajita":4324,"shnaba":4325,"Ġkani":4326,"china":4327,"shiba":4328,"Ġshakha":4329,"ĠsàŃ±yam":4330,"gene":4331,"Ġantibayotika":4332,"39":4333,"my":4334,"Ġbayo":4335,"Ġbadhya":4336,"Ġsamkranti":4337,"Ġmuni":4338,"Ġmitra":4339,"Ġpurbe":4340,"Ġkalejare":4341,"Ġbirata":4342,"Ġsharma":4343,"Ġprakrriti":4344,"Ġkashmi":4345,"janaka":4346,"Ġyugare":4347,"Ġbhima":4348,"2007":4349,"âĢį~":4350,"Ġyaichi":4351,"Ġsahityare":4352,"Ġananya":4353,"Ġbhabana":4354,"khala":4355,"yuni":4356,"lua":4357,"nchiba":4358,"ĠĠĠĠĠĠĠĠ":4359,"Ġnishpatti":4360,"Ġhanumana":4361,"kimbadanti":4362,"Ġmatrare":4363,"bhagare":4364,"Ġarthanaitika":4365,"ĠsàŃ±ai":4366,"Ġbibhajana":4367,"Ġgiri":4368,"Ġgrishma":4369,"Ġhistory":4370,"Ġholasela":4371,"cc":4372,"hai":4373,"Ġbila":4374,"Ġantara":4375,"bhabika":4376,"Ġsamskara":4377,"ndari":4378,"Ġyi":4379,"Ġbepara":4380,"Ġkhani":4381,"sarakari":4382,"bharatare":4383,"janare":4384,"Ġari":4385,"lipi":4386,"Ġkamare":4387,"Ġdebu":4388,"Ġmantra":4389,"putra":4390,"Ġdrabya":4391,"Ġprachalana":4392,"Ġabhayaranya":4393,"86":4394,"lda":4395,"sion":4396,"Ġmogala":4397,"Ġnirddeshita":4398,"mandala":4399,"Ġgharoi":4400,"ddi":4401,"Ġblood":4402,"bastu":4403,"Ġmamala":4404,"lira":4405,"pachara":4406,"Ġkausha":4407,"ngal":4408,"Ġrasayanika":4409,"Ġsebana":4410,"Ġbhagna":4411,"neta":4412,"nchama":4413,"Ġrajabam":4414,"Ġ53":4415,"Ġpota":4416,"Ġprrithibire":4417,"Ġilektro":4418,"brahma":4419,"esana":4420,"Ġkapa":4421,"Ġui":4422,"Ġkaryyare":4423,"ĠpratidàŃ±":4424,"janata":4425,"krrishta":4426,"Ġparatharu":4427,"Ġ1981":4428,"Ġ1976":4429,"Ġamshagrahana":4430,"kalara":4431,"Ġebhali":4432,"Ġpathya":4433,"Ġuiki":4434,"bega":4435,"Ġasithila":4436,"Ġmarga":4437,"Ġspar":4438,"Ġdakshi":4439,"Ġsthapatya":4440,"Ġupadesha":4441,"Ġinformation":4442,"Ġmeda":4443,"kona":4444,"Ġsandhya":4445,"Ġgitaguda":4446,"Ġrahuthiba":4447,"kyu":4448,"vo":4449,"Ġdanta":4450,"Ġglo":4451,"Ġchalana":4452,"kharu":4453,"juma":4454,"ght":4455,"Ġpuraskarare":4456,"Ġtyaga":4457,"Ġkarona":4458,"Ġ2023":4459,"Ġutpanna":4460,"1977":4461,"utkala":4462,"shisha":4463,"Ġira":4464,"Ġjam":4465,"Ġgayika":4466,"shàŃ±asa":4467,"2019":4468,"Ġdiayaichi":4469,"Ġtherapi":4470,"stitu":4471,"Ġsamprada":4472,"Ġparaspara":4473,"nment":4474,"Ġmapa":4475,"chada":4476,"Ġchabi":4477,"Ġsamagri":4478,"ntia":4479,"khila":4480,"Ġphai":4481,"Ġarthata":4482,"Ġdhupa":4483,"Ġnirddeshanare":4484,"Ġprashikshana":4485,"pya":4486,"à®":4487,"Ġepi":4488,"Ġdho":4489,"Ġbita":4490,"bida":4491,"Ġdine":4492,"Ġghata":4493,"Ġabasarare":4494,"Ġ500":4495,"Ġphra":4496,"Ġayojita":4497,"36":4498,":-":4499,"Ġadesha":4500,"bhijana":4501,"Ġparikshana":4502,"Ġlagu":4503,"mona":4504,"Ġ1964":4505,"Ġuparaku":4506,"74":4507,"Ġprajanana":4508,"Ġbadhi":4509,"Ġhoigale":4510,"hele":4511,"Ġroki":4512,"Ġpuru":4513,"Ġperi":4514,"chetana":4515,"Ġbirala":4516,"Ġabishkara":4517,"31":4518,"et":4519,"nanara":4520,"rei":4521,"Ġbili":4522,"Ġdeu":4523,"shia":4524,"Ġgambhira":4525,"Ġmishrita":4526,"bhra":4527,"bhoga":4528,"ini":4529,"pat":4530,"biya":4531,"Ġbelebele":4532,"Ġyuropare":4533,"Ġadya":4534,"Ġdrridha":4535,"res":4536,"brata":4537,"simhapura":4538,"Ġsambada":4539,"Ġ1979":4540,"1999":4541,"ĠpratinidhitàŃ±":4542,"Ġsammilani":4543,"Ġitihasare":4544,"79":4545,"au":4546,"Ġbist":4547,"Ġkaridia":4548,"bindha":4549,"Ġpratishedha":4550,"Ġsantu":4551,"siama":4552,"Ġtraphi":4553,"Ġjyotisha":4554,"Ġbhadraka":4555,"55":4556,"ntha":4557,"antar":4558,"Ġmrri":4559,"Ġdeula":4560,"Ġgabeshaka":4561,"mer":4562,"tosha":4563,"Ġhima":4564,"Ġ36":4565,"Ġnikatatama":4566,"Ġtantu":4567,"ganita":4568,"ĠurddhàŃ±":4569,"Ġgirapha":4570,"osi":4571,"Ġkriya":4572,"Ġpradarshita":4573,"Ġkasha":4574,"Ġmandela":4575,"Ġneheru":4576,"Ġkola":4577,"Ġkuhayaithae":4578,"Ġlagila":4579,"Ġrayagada":4580,"ghya":4581,"nch":4582,"yatare":4583,"Ġsathika":4584,"Ġmandirati":4585,"Ġsona":4586,"Ġmadhumeha":4587,"Ġskulare":4588,"Ġtho":4589,"Ġmayurabha":4590,"Ġsampatti":4591,"Ġmitar":4592,"Ġmahatma":4593,"prakasha":4594,"sheshare":4595,"Ġchara":4596,"Ġparama":4597,"Ġ1969":4598,"Ġlagile":4599,"kantha":4600,"Ġdrrishtiru":4601,")~":4602,"kàŃ±":4603,"las":4604,"Ġapana":4605,"Ġprasara":4606,"Ġupaya":4607,"Ġmahabidyalayare":4608,"Ġrebhensa":4609,"ghar":4610,"mma":4611,"takara":4612,"tish":4613,"Ġkhya":4614,"Ġayu":4615,"Ġdari":4616,"sabha":4617,"lipa":4618,"ngaku":4619,"Ġanushi":4620,"Ġsahayaka":4621,"Ġkaryyakramare":4622,"ngaladeshara":4623,"Ġamrrita":4624,"garara":4625,"Ġjitithile":4626,"nirba":4627,"44":4628,"Ġbhari":4629,"Ġashra":4630,"shto":4631,"Ġmadya":4632,"Ġmaru":4633,"Ġkarttika":4634,"Ġminita":4635,"Ġsudha":4636,"Ġrahile":4637,"ngha":4638,"luka":4639,"Ġphato":4640,"Ġphaund":4641,"Ġdashakare":4642,"Ġbidroha":4643,"Ġsamkhyare":4644,"Äģ":4645,"Ġchaula":4646,"Ġadhiniyama":4647,"Ġgoti":4648,"muda":4649,"bhuti":4650,"kota":4651,"Ġadire":4652,"2005":4653,"Ġbanijya":4654,"Ġsuparisha":4655,"Ġorganization":4656,"ame":4657,"tto":4658,"red":4659,"Ġudaya":4660,"Ġsamantara":4661,"Ġshikhi":4662,"Ġmahammada":4663,"Ġupatya":4664,"Ġ1978":4665,"khri":4666,"Ġjenerika":4667,"Ġsindhu":4668,"ĠshàŃ±eta":4669,"lec":4670,"mela":4671,"Ġanugola":4672,"Ġupadana":4673,"Ġutsabare":4674,"Ġprashanta":4675,"Ġsahityara":4676,"Ġmat":4677,"yuddha":4678,"Ġsustha":4679,"Ġbhushana":4680,"Ġhebapare":4681,"2006":4682,"Ġ1955":4683,"Ġ1956":4684,"Ġshirabhyan":4685,"cture":4686,"kon":4687,"|-":4688,"Ġpatala":4689,"Ġbastra":4690,"Ġmahakuma":4691,"natattàŃ±":4692,"bhushana":4693,"Ġbandi":4694,"Ġprerana":4695,"yauchi":4696,"Ġaparadha":4697,"76":4698,"Ġ+":4699,"baba":4700,"Ġsamaste":4701,"prada":4702,"Ġbhagabata":4703,"Ġkshaya":4704,"Ġsamgrama":4705,"Ġakashabani":4706,"Ġ;":4707,"siti":4708,"Ġsei":4709,"Ġhoinahi":4710,"Ġdirghakalina":4711,"aro":4712,"hini":4713,"Ġkro":4714,"Ġsamsho":4715,"Ġarpana":4716,"Ġarthat":4717,"bharu":4718,"phesara":4719,"Ġprarthana":4720,"Ġkatakara":4721,"punashcha":4722,"Ġsamsparshare":4723,"Ġkoda":4724,"Ġmahu":4725,"yojita":4726,"Ġ34":4727,"buda":4728,"',":4729,"esi":4730,"Ġnisha":4731,"Ġrajaneta":4732,"Ġphaina":4733,"Ġbuddhi":4734,"Ġlekhika":4735,"Ġpunithare":4736,"82":4737,"ddhana":4738,"Ġlar":4739,"Ġmate":4740,"yukti":4741,"Ġyogi":4742,"Ġsamkhyaka":4743,"Ġchua":4744,"Ġblakara":4745,"Ġkariparibe":4746,"barika":4747,"Ġbaram":4748,"Ġbahya":4749,"Ġnatha":4750,"Ġjanapada":4751,"tarita":4752,"Ġsharirare":4753,"nkita":4754,"Ġgharaku":4755,"Ġshrabana":4756,"barttamana":4757,"Ġethakara":4758,"ĠaàŃ±arda":4759,"Ġdhe":4760,"Ġsambidhana":4761,"Ġhoiyaithila":4762,"dhikari":4763,"Ġnrrit":4764,"khanare":4765,"Ġjama":4766,"Ġsishta":4767,"chchada":4768,"Ġhau":4769,"Ġnepa":4770,"Ġpanire":4771,"Ġaphrika":4772,"banare":4773,"à°":4774,"Ġyatna":4775,"pina":4776,"Ġabhiyoga":4777,"Ġyubaka":4778,"ĠbishàŃ±re":4779,"Ġdekhana":4780,"Ġdiagala":4781,"Ġbarttamanara":4782,"Ġkhabaraka":4783,"Ġpaleshta":4784,"glo":4785,"Ġtana":4786,"Ġage":4787,"Ġsad":4788,"Ġmade":4789,"Ġbalia":4790,"Ġniri":4791,"Ġuthi":4792,"muni":4793,"Ġ46":4794,"ndicha":4795,"Ġbharataku":4796,"Ġkshepana":4797,"Ġbirodhi":4798,"spati":4799,"dakshina":4800,"Ġmaho":4801,"nic":4802,"Ġmrrit":4803,"Ġpaksha":4804,"dilli":4805,"Ġur":4806,"jia":4807,"Ġbyayama":4808,"tsaba":4809,"Ġantarjatika":4810,"Ġjalabayu":4811,"kalare":4812,"Ġdel":4813,"Ġmilana":4814,"Ġshrimandi":4815,"Ġastra":4816,"Ġeksapre":4817,"paryyatana":4818,"jane":4819,"pto":4820,"arka":4821,"padita":4822,"Ġhebaru":4823,"nchalaku":4824,"Ġshubha":4825,"Ġ1965":4826,"Ġimlan":4827,"Ġprastuti":4828,"Ġjun":4829,"Ġamaba":4830,"Ġkalyana":4831,"Ġhaladia":4832,"saku":4833,"sagara":4834,"chiba":4835,"Ġprabaha":4836,"Ġbis":4837,"patta":4838,"Ġnaka":4839,"Ġkalahandi":4840,"indi":4841,"Ġshatapathi":4842,"Ġbhaugolika":4843,"Ġghosha":4844,"Ġthie":4845,"Ġphutabala":4846,"Ġmundabindha":4847,"Ġandolanare":4848,"Ġshailire":4849,"Ġganita":4850,"72":4851,"94":4852,"lanta":4853,"sanara":4854,"tamina":4855,"Ġkir":4856,"Ġgachara":4857,"Ġshita":4858,"Ġupayoga":4859,"Ġrajaku":4860,"Ġtulasi":4861,"Ġamlajana":4862,"jja":4863,"Ġratire":4864,"kshaka":4865,"ngadhara":4866,"Ġdiayaipare":4867,"Ġdeichanti":4868,"1974":4869,"Ġaraba":4870,"Ġchampiyana":4871,"Ġastropachara":4872,"58":4873,"mber":4874,"nko":4875,"prani":4876,"Ġniu":4877,"Ġsamarika":4878,"sential":4879,"Ġparila":4880,"Ġabhijita":4881,"Ġupayukta":4882,"Ġthika":4883,"Ġethiru":4884,"yarim":4885,"68":4886,"ys":4887,"ze":4888,"ance":4889,"Ġscie":4890,"Ġjaru":4891,"Ġbikrama":4892,"padi":4893,"chchita":4894,"mesha":4895,"Ġhira":4896,"Ġ1973":4897,"Ġsamparkita":4898,"61":4899,"Ġx":4900,"hika":4901,"Ġah":4902,"Ġdahana":4903,"Ġisala":4904,"Ġ32":4905,"Ġyogai":4906,"..":4907,"Ġpya":4908,"Ġsathire":4909,"shadara":4910,"shar":4911,"likhita":4912,"baratri":4913,"traru":4914,"ĠyahadàŃ±ara":4915,"www":4916,"nkanala":4917,"ĠnetrritàŃ±re":4918,"Ġprakrri":4919,"Ġprastara":4920,"Ġrabana":4921,"Ġsammukhare":4922,"Ġkunda":4923,"inara":4924,"Ġthaku":4925,"Ġbudha":4926,"Ġkrishna":4927,"Ġbambe":4928,"view":4929,"Ġsamalochana":4930,"Ġmudra":4931,"sundara":4932,"Ġbhitaru":4933,"mochana":4934,"Ġimrajire":4935,"Ġmedikala":4936,"Ġbipakshare":4937,"\")":4938,"Ġste":4939,"shkrrita":4940,"Ġmasala":4941,"Ġosha":4942,"Ġhare":4943,"bhabana":4944,"barttana":4945,"Ġ33":4946,"Ġadhyapaka":4947,"Ġhrrida":4948,"ĠpratnatattàŃ±":4949,"nte":4950,"Ġsati":4951,"Ġchata":4952,"health":4953,"Ġjai":4954,"Ġupasana":4955,"Ġbujhi":4956,"Ġtulanare":4957,"Ġuddeshya":4958,"Ġessential":4959,"81":4960,"nju":4961,"kamana":4962,"Ġchahi":4963,"Ġdiba":4964,"net":4965,"Ġsubhadra":4966,"ntala":4967,"2018":4968,"Ġdekhile":4969,"ngaladeshi":4970,"Ġyauthiba":4971,"Ġjinisha":4972,"Ġmedicines":4973,"hy":4974,"tanta":4975,"ping":4976,"dua":4977,"ranatha":4978,"Ġ?":4979,"Ġjanu":4980,"nire":4981,"Ġbalara":4982,"bitara":4983,"Ġpaichi":4984,"Ġshatru":4985,"Ġ1963":4986,"Ġ1968":4987,"Ġrautaraya":4988,"Ġdigaku":4989,"Ġkr":4990,"Ġ|\"":4991,"Ġprach":4992,"mili":4993,"Ġpicha":4994,"Ġchenna":4995,"Ġpakhaku":4996,"Ġrahuthile":4997,"59":4998,"Ġenu":4999,"kunda":5000,"Ġbhaira":5001,"Ġintara":5002,"njali":5003,"Ġjalapra":5004,"Ġ1958":5005,"Ġprabhabashali":5006,"ĠsàŃ±ikrrita":5007,"Ġtrena":5008,"62":5009,"danara":5010,"kulara":5011,"padanare":5012,"Ġshitala":5013,"Ġgopi":5014,"Ġkera":5015,"itanya":5016,"br":5017,"kaunasi":5018,"tiki":5019,"ting":5020,"Ġpraphesara":5021,"Ġpate":5022,"Ġ()":5023,"lor":5024,"Ġsamadhi":5025,"Ġsutra":5026,"munda":5027,"2003":5028,"Ġ1930":5029,"Ġjaniba":5030,"Ġbhitaraku":5031,"78":5032,"aja":5033,"ee":5034,"niara":5035,"Ġudara":5036,"Ġnathae":5037,"mida":5038,"Ġparimanare":5039,"Ġshyama":5040,"Ġyuga":5041,"ttita":5042,"Ġbadalare":5043,"Ġthanda":5044,"Ġgurutara":5045,"Ġcharoti":5046,"Ġbidyuta":5047,"Ġaura":5048,"paksha":5049,"Ġbhatta":5050,"Ġyibaku":5051,"Ġyatri":5052,"kin":5053,"Ġpindhi":5054,"narayana":5055,"Ġbrrihata":5056,"Ġdarshaka":5057,"khyana":5058,"Ġprashamsa":5059,"Ġkyu":5060,"Ġela":5061,"Ġhyu":5062,"Ġbibada":5063,"huta":5064,"Ġchatisha":5065,"Ġdaksha":5066,"Ġgopa":5067,"Ġ1954":5068,"shottama":5069,"Ġkarayauthiba":5070,"ous":5071,"Ġsaba":5072,"Ġparisara":5073,"Ġshastra":5074,"toni":5075,"prasada":5076,"paribe":5077,"sts":5078,"Ġuddhara":5079,"Ġ1942":5080,"Ġpunarbara":5081,"Ġtransa":5082,"kte":5083,"gal":5084,"Ġtalima":5085,"Ġbyapaka":5086,"paribara":5087,"purathare":5088,"shthana":5089,"Ġasithiba":5090,"Ġ1966":5091,"Ġproje":5092,"1971":5093,"Ġimmyu":5094,"Ġdair":5095,"Ġmarathi":5096,"ithiba":5097,"tanare":5098,"Ġkahu":5099,"Ġuch":5100,"Ġwa":5101,"Ġbaishnaba":5102,"Ġphoto":5103,"Ġraghunatha":5104,"ĠpratidàŃ±ndi":5105,"arji":5106,"shtami":5107,"Ġsthanara":5108,"therapi":5109,"Ġasichi":5110,"Ġkanthare":5111,"Ġkannada":5112,"bheda":5113,"Ġbaidika":5114,"Ġ1946":5115,"Ġrauta":5116,"49":5117,"Ġjhara":5118,"Ġdal":5119,"Ġmusa":5120,"Ġparibarttita":5121,"Ġlekhichanti":5122,"Ġesida":5123,"Ġmahabidyalayaru":5124,"Ġdharabahikare":5125,"43":5126,"rahi":5127,"kabita":5128,"Ġsadha":5129,"Ġmahar":5130,"Ġbio":5131,"Ġbalabha":5132,"Ġdehara":5133,"Ġlife":5134,"Ġbraja":5135,"Ġshaktishali":5136,"Ġphran":5137,"Ġgranthi":5138,"shreshtha":5139,"Ġerror":5140,"73":5141,"83":5142,"bastha":5143,"nayare":5144,"shtare":5145,"chakra":5146,"Ġbini":5147,"Ġraji":5148,"Ġsen":5149,"Ġsetha":5150,"Ġnayagada":5151,"Ġparisthiti":5152,"ngada":5153,"sheka":5154,"Ġwo":5155,"bodha":5156,"land":5157,"Ġrogira":5158,"Ġepariki":5159,"port":5160,"ichi":5161,"nanda":5162,"yaanti":5163,"Ġborda":5164,"nihita":5165,"Ġkap":5166,"kishora":5167,"yogya":5168,"Ġtrai":5169,"Ġnabakale":5170,"à¥Ģ":5171,"chcheda":5172,"Ġbalabhadra":5173,"hati":5174,"Ġstana":5175,"tamila":5176,"Ġbin":5177,"Ġmud":5178,"Ġsabya":5179,"Ġkaribapai":5180,"Ġupashama":5181,"Ġbadala":5182,"Ġatikrama":5183,"Ġdekhiba":5184,"phulla":5185,"Ġjenetika":5186,"kanda":5187,"Ġabo":5188,"hetu":5189,"tua":5190,"gram":5191,"pua":5192,"Ġchalachchitratira":5193,"Ġjagatara":5194,"Ġhaipara":5195,"Ġadhuna":5196,"car":5197,"shanara":5198,"Ġmalika":5199,"Ġpauranika":5200,"Ġrashtriya":5201,"Ġsamghar":5202,"rona":5203,"Ġnirmata":5204,"prakara":5205,"Ġmeta":5206,"Ġdekhayaichi":5207,"Ġriporta":5208,"Ġakarara":5209,"Ġsamrakshita":5210,"ĠshàŃ±asakriya":5211,"lis":5212,"aniya":5213,"Ġchayana":5214,"Ġanusarana":5215,"Ġsahajare":5216,"Ġ37":5217,"Ġnirapada":5218,"Ġpadare":5219,"dhyare":5220,"Ġdae":5221,"Ġchita":5222,"Ġutte":5223,"parshàŃ±":5224,"Ġdekhayauthiba":5225,"Ġsthanaku":5226,"Ġarthaniti":5227,"Ġimlanda":5228,"mahatya":5229,"gran":5230,"mk":5231,"wi":5232,"Ġsmara":5233,"Ġami":5234,"Ġashi":5235,"dama":5236,"Ġsakshata":5237,"bishishta":5238,"Ġdatta":5239,"khandara":5240,"graphy":5241,"shekhara":5242,"Ġshushka":5243,"Ġrise":5244,"sanna":5245,"siala":5246,"Ġjatilata":5247,"Ġchaturd":5248,"Ġmedication":5249,"shurama":5250,"ĠsàŃ±pna":5251,"gn":5252,"psi":5253,"Ġare":5254,"hada":5255,"bama":5256,"Ġpasa":5257,"Ġpath":5258,"liba":5259,"dhei":5260,"lona":5261,"Ġshishya":5262,"Ġjanaka":5263,"Ġupasthita":5264,"Ġ39":5265,"Ġmilichi":5266,"gyaleri":5267,"Ġkrriti":5268,"bedakara":5269,"Ġadhinayaka":5270,"56":5271,"Ġasama":5272,"Ġmadha":5273,"dine":5274,"thra":5275,"Ġchahu":5276,"deshika":5277,"mananda":5278,"Ġnele":5279,"Ġmegha":5280,"phin":5281,"Ġkahichanti":5282,"Ġbritish":5283,"Ġasuthiba":5284,"Ġnyayalayara":5285,"Ġsambadika":5286,"Ġato":5287,"Ġsaphta":5288,"nik":5289,"Ġsampanna":5290,"Ġdaga":5291,"Ġnrri":5292,"jira":5293,"âĢĮ,":5294,"Ġsamajara":5295,"gikarana":5296,"org":5297,"Ġupakara":5298,"Ġwor":5299,"Ġdhanu":5300,"Ġbisheshaj":5301,"jantu":5302,"Ġapekshakrrita":5303,"Ġkoraputa":5304,"aryya":5305,"Ġadarsha":5306,"Ġbindu":5307,"Ġdino":5308,"Ġtemple":5309,"Ġguli":5310,"Ġsabuja":5311,"Ġshuna":5312,"1998":5313,"shtichyu":5314,"Ġbheti":5315,"Ġkalarapatria":5316,"Ġsaroja":5317,"Ġdairghya":5318,"nne":5319,"shthira":5320,"Ġbhabani":5321,"Ġekathi":5322,"khai":5323,"Ġpune":5324,"Ġraju":5325,"Ġarddha":5326,"Ġphakira":5327,"Ġkandha":5328,"Ġphre":5329,"Ġmaharashtrara":5330,"Ġalumi":5331,"Ġinternational":5332,"grriha":5333,"Ġisraela":5334,"47":5335,"dy":5336,"mbu":5337,"pula":5338,"wn":5339,"Ġple":5340,"Ġpathana":5341,"dire":5342,"Ġniru":5343,"Ġhoipariba":5344,"roga":5345,"rome":5346,"logi":5347,"barga":5348,"Ġyogana":5349,"purana":5350,"njabara":5351,"cheri":5352,"Ġkendrapada":5353,"Ġathaba":5354,"Ġdehanta":5355,"jumadara":5356,"51":5357,"nkari":5358,"gami":5359,"chanda":5360,"Ġpradu":5361,"Ġpradyumna":5362,"yantra":5363,"Ġbujhae":5364,"Ġkranika":5365,"nari":5366,"xi":5367,"baya":5368,"Ġeje":5369,"Ġmajumadara":5370,"Ġprabala":5371,"Ġprachchada":5372,"Ġganda":5373,"develo":5374,"Ġkaraiba":5375,"Ġhas":5376,"Ġsupara":5377,"Ġpitta":5378,"Ġmeri":5379,"Ġmaharashtra":5380,"Ġkathina":5381,"Ġparilakshita":5382,"41":5383,"53":5384,"Ġsachetana":5385,"Ġpachare":5386,"Ġyukti":5387,"Ġkamyuni":5388,"Ġper":5389,"Ġprof":5390,"Ġparampar":5391,"vernment":5392,"à¥ĩ":5393,"Ġmajhire":5394,"Ġabhya":5395,"52":5396,"dala":5397,"Ġbiki":5398,"Ġnathiba":5399,"den":5400,"sed":5401,"Ġlalita":5402,"Ġchida":5403,"Ġsahayatare":5404,"Ġthibabele":5405,"Ġkendujhara":5406,"1961":5407,"Ġsampradaya":5408,"Ġnabakalebara":5409,"adi":5410,"Ġagraha":5411,"pathare":5412,"à¬¼~":5413,"Ġbak":5414,"àŃ±ita":5415,"Ġseguda":5416,"Ġsaman":5417,"Ġchaya":5418,"Ġmitha":5419,"Ġpratimurtti":5420,"sthayi":5421,"ker":5422,"Ġsoma":5423,"Ġdhamani":5424,"Ġalabam":5425,"1994":5426,"Ġakarshita":5427,"1967":5428,"Ġsainika":5429,"Ġstate":5430,"Ġupasthapana":5431,"bru":5432,"em":5433,"Ġsadhu":5434,"Ġbikhyata":5435,"Ġkaila":5436,"Ġ1000":5437,"mera":5438,"ton":5439,"Ġtithire":5440,"ÂłÂł":5441,"Ġinstitu":5442,"Ġanushilana":5443,"Ġamabasya":5444,"bla":5445,"clo":5446,"lsa":5447,"thale":5448,"jama":5449,"mic":5450,"Ġdistri":5451,"giya":5452,"tora":5453,"ness":5454,"Ġlekhiba":5455,"thora":5456,"Ġthakurani":5457,"cor":5458,"Ġ!":5459,"arch":5460,"Ġetharu":5461,"Ġsaund":5462,"Ġsakshama":5463,"bibhinna":5464,"Ġlabh":5465,"Ġshoi":5466,"ngapura":5467,"Ġyogya":5468,"Ġkarayaipariba":5469,"2002":5470,"Ġkuhanti":5471,"Ġdeithae":5472,"boli":5473,"Ġasura":5474,"Ġbisheshatah":5475,"rissa":5476,"ati":5477,"bro":5478,"Ġspa":5479,"rajya":5480,"Ġakshara":5481,"Ġkapura":5482,"Ġbedha":5483,"Ġgump":5484,"Ġuchchatama":5485,"Ġdalaku":5486,"1989":5487,"shchimare":5488,"Ġesiara":5489,"Ġdakshinare":5490,"Ġsampradayara":5491,"93":5492,"Ġmadela":5493,"Ġkathita":5494,"sipa":5495,"Ġinahi":5496,"jina":5497,"Ġpushti":5498,"karanare":5499,"Ġparaloka":5500,"Ġbanarji":5501,"Ġadhyat":5502,"Ġsamrajyara":5503,"Ġsaptama":5504,"Ġabishkrrita":5505,"Ġjyotir":5506,"can":5507,"randa":5508,"kathi":5509,"Ġphya":5510,"Ġpashcha":5511,"teka":5512,"Ġsetharu":5513,"Ġpunaru":5514,"yogare":5515,"Ġyoni":5516,"Ġyugara":5517,"Ġatmahatya":5518,"Ġthaanti":5519,"Ġsosa":5520,"1988":5521,"fere":5522,"Ġbheda":5523,"gamanagamana":5524,"Ġethaku":5525,"Ġkshepanastra":5526,"yur":5527,"Ġpapa":5528,"Ġgata":5529,"Ġtyu":5530,"nchalika":5531,"Ġ65":5532,"ĠnijasàŃ±":5533,"Ġantarnihita":5534,"Ġdola":5535,"Ġdurata":5536,"Ġesiare":5537,"Ġkalpana":5538,"46":5539,"92":5540,"97":5541,"Ġpp":5542,"mahara":5543,"Ġpama":5544,"Ġkarisari":5545,"Ġupani":5546,"mitar":5547,"yita":5548,"Ġpintu":5549,"mundi":5550,"Ġ1959":5551,"ments":5552,"Ġchautisha":5553,"ĠàŃ±ar":5554,"Ġdillire":5555,"áĢ":5556,"art":5557,"kasa":5558,"Ġhy":5559,"Ġkaridele":5560,"Ġnim":5561,"thari":5562,"Ġkie":5563,"Ġbyasa":5564,"Ġabadhi":5565,"Ġuttarare":5566,"Ġ38":5567,"1987":5568,"ama":5569,"Ġras":5570,"Ġrakshana":5571,"Ġbaki":5572,"Ġishta":5573,"seba":5574,"Ġnirgata":5575,"Ġlohita":5576,"Ġpratidina":5577,"gula":5578,"Ġkaryyalaya":5579,"mukta":5580,"Ġtantra":5581,"Ġnatyakara":5582,"Ġinahibitara":5583,"mshu":5584,"baleshàŃ±ra":5585,"Ġbir":5586,"des":5587,"Ġyajapura":5588,"sebi":5589,"gira":5590,"Ġkerala":5591,"sure":5592,"Ġpurbaka":5593,"Ġ1951":5594,"Ġtume":5595,"1992":5596,"Ġcolle":5597,"Ġgitare":5598,"ctions":5599,"Ġkampanira":5600,"Ġbhabishya":5601,"Ġbrrihattama":5602,"khar":5603,"chaya":5604,"Ġpratapa":5605,"Ġmasihayae":5606,"Ġkendrare":5607,"Ġrakhayaithila":5608,"Ġsambandhare":5609,"Ġsharata":5610,"Ġudyama":5611,"borda":5612,"cri":5613,"bit":5614,"Ġhaidra":5615,"1951":5616,"Ġdillira":5617,"Ġsambhabya":5618,"kathachitra":5619,"Ġnandi":5620,"Ġnimonia":5621,"Ġbalare":5622,"Ġbalaka":5623,"Ġrahila":5624,"press":5625,"Ġasanti":5626,"Ġjatisam":5627,"Ġmanoja":5628,"Ġduhkha":5629,"Ġraktare":5630,"54":5631,"nchare":5632,"rai":5633,"Ġkamana":5634,"Ġkagaja":5635,"hela":5636,"trima":5637,"Ġsahaja":5638,"kalahandi":5639,"Ġphut":5640,"Ġchena":5641,"Ġthik":5642,"Ġhaladi":5643,"Ġballabha":5644,"Ġsamshodhana":5645,"nsha":5646,"suryya":5647,"Ġasana":5648,"sht":5649,"Ġdrrish":5650,"Ġprayukti":5651,"Ġanura":5652,"Ġjanajati":5653,"shei":5654,"Ġutpatti":5655,"Ġbhula":5656,"Ġcar":5657,"Ġshobha":5658,"Ġsuparisa":5659,"ĠkàŃ±chita":5660,"Ġshirabhyantara":5661,"63":5662,"71":5663,"Ġkita":5664,"ner":5665,"Ġsubarnna":5666,"Ġadhibasi":5667,"staka":5668,"stapha":5669,"samuha":5670,"2020":5671,"Ġfil":5672,"Ġkhorddha":5673,"Ġprashasana":5674,"abasthiti":5675,"Ġgariba":5676,"uchi":5677,"Ġtya":5678,"Ġsapha":5679,"Ġkashi":5680,"siya":5681,"Ġanita":5682,"Ġsamanta":5683,"Ġyama":5684,"Ġparisra":5685,"ketana":5686,"urus":5687,"Ġhais":5688,"Ġnikatabartti":5689,"Ġashtrelia":5690,"Ġsparsha":5691,"Ġbistrrita":5692,"Ġjalaprapata":5693,"Ġstre":5694,"dae":5695,"Ġsamprri":5696,"Ġtalaku":5697,"Ġima":5698,"Ġdip":5699,"Ġkaraka":5700,"toti":5701,"khia":5702,"Ġyoge":5703,"pradesha":5704,"Ġtek":5705,"Ġbola":5706,"Ġbayasara":5707,"à¤¿":5708,"yeshtha":5709,"Ġbamla":5710,"Ġrakhayae":5711,"Ġanumodana":5712,"Ġscience":5713,"byu":5714,"Ġpoda":5715,"Ġkshi":5716,"Ġashrama":5717,"Ġdhira":5718,"Ġbipla":5719,"Ġyana":5720,"Ġime":5721,"Ġkarda":5722,"Ġpaila":5723,"Ġpariganita":5724,"trik":5725,"Ġabhisha":5726,"Ġkhan":5727,"Ġdebadebi":5728,"ngaladesha":5729,"Ġmaila":5730,"Ġprakal":5731,"ssion":5732,"98":5733,"jjita":5734,"Ġsaka":5735,"Ġghe":5736,"Ġniyojita":5737,"Ġiuro":5738,"Ġsamajare":5739,"Ġsahayoga":5740,"tiraeda":5741,"Ġkhoji":5742,"Ġparyyayare":5743,"Ġtalikare":5744,"Ġkaryyakalapa":5745,"Ġeksapresa":5746,"96":5747,"unda":5748,"data":5749,"Ġsat":5750,"Ġbideshi":5751,"Ġbhajana":5752,"mine":5753,"Ġparibarika":5754,"Ġlal":5755,"praja":5756,"kramika":5757,"Ġrogaku":5758,"Ġbhojana":5759,"kandha":5760,"mpho":5761,"Ġbrahmapura":5762,"Ġsharkara":5763,"gma":5764,"aruna":5765,"jagata":5766,"thy":5767,"shini":5768,"Ġdaya":5769,"Ġyaanti":5770,"Ġfi":5771,"ĠasàŃ±a":5772,"1997":5773,"Ġkhodita":5774,"Ġthia":5775,"Ġshabdati":5776,"Ġbaishayika":5777,"Ġshatakada":5778,"42":5779,"Ġagare":5780,"daba":5781,"Ġsammanare":5782,"Ġdakhala":5783,"kichi":5784,"Ġabasada":5785,"Ġbega":5786,"ĠbishàŃ±ala":5787,"Ġreda":5788,"Ġgunda":5789,"Ġbrriddha":5790,"Ġ1936":5791,")|":5792,"03":5793,"ĠÂł":5794,"Ġmakara":5795,"Ġpraba":5796,"Ġkarideithile":5797,"Ġgru":5798,"rrisha":5799,"Ġhoiyiba":5800,"Ġdisa":5801,"Ġ1920":5802,"Ġsite":5803,"Ġgovernment":5804,"prasha":5805,"itihasika":5806,"Ġhimsa":5807,"Ġaranya":5808,"Ġinte":5809,"Ġdekhayanti":5810,"Ġbadali":5811,"Ġagaku":5812,"Ġchakrabartti":5813,"Ġkhrishtapurba":5814,"Ġnews":5815,"Ġnatakare":5816,"Ġdruta":5817,"Ġpurushottama":5818,"nchana":5819,"nchu":5820,"à²":5821,"Ġeguda":5822,"chalana":5823,"Ġkaman":5824,"Ġbagi":5825,"disha":5826,"Ġnambara":5827,"yuta":5828,"Ġbeshare":5829,"Ġmehera":5830,"Ġarambhare":5831,"Ġsantha":5832,"1986":5833,"Ġrriture":5834,"Ġsurakshita":5835,"Ġ..":5836,"Ġbishle":5837,"Ġchatishagada":5838,"ek":5839,"raksha":5840,"Ġkyari":5841,"Ġbihari":5842,"Ġbalika":5843,"dharita":5844,"charu":5845,"Ġsamsara":5846,"Ġmahaka":5847,"Ġsup":5848,"Ġrahipare":5849,"barta":5850,"harika":5851,"ves":5852,"Ġshikshadana":5853,"Ġsandeha":5854,"Ġbhartti":5855,"à¸":5856,"Ġkapi":5857,"Ġrastare":5858,"jaga":5859,"Ġlata":5860,"Ġmis":5861,"Ġsiti":5862,"Ġtanma":5863,"prajati":5864,"2021":5865,"bhubane":5866,"Ġmote":5867,"Ġbaidha":5868,"Ġjela":5869,"1991":5870,"1996":5871,"abhinayare":5872,"phula":5873,"bhaugolika":5874,"Ġraupya":5875,"dàŃ±itiya":5876,"Ġsamsadara":5877,"Ġriseptara":5878,"Ġadhyatmika":5879,"05":5880,"iyae":5881,"lada":5882,"Ġekara":5883,"Ġpabana":5884,"thura":5885,"loma":5886,"Ġparishadara":5887,"Ġmanare":5888,"Ġmahala":5889,"nchati":5890,"Ġupasthiti":5891,"Ġarbuda":5892,"nataka":5893,"Ġdiayiba":5894,"Ġshukhila":5895,"Ġduijana":5896,"Ġyogayoga":5897,"Ġdoja":5898,"Ġambedakara":5899,"Ġ1949":5900,"kshepana":5901,"Ġsamgrahalaya":5902,"prathame":5903,"Ġsamudrika":5904,"Ġdelhi":5905,"dr":5906,"lari":5907,"ntharu":5908,"spe":5909,"naba":5910,"ring":5911,"kulare":5912,"Ġkaripariba":5913,"Ġbalya":5914,"Ġantah":5915,"Ġhebe":5916,"Ġupamaha":5917,"ĠrajatàŃ±":5918,"manika":5919,"Ġchera":5920,"Ġgandhiji":5921,"sadharanatah":5922,"Ġandolanara":5923,"njiniyarim":5924,"developing":5925,"Ġsosaiti":5926,"'re":5927,"à¨":5928,"Ġspi":5929,"Ġkanda":5930,"Ġmaga":5931,"Ġpathare":5932,"Ġsemi":5933,"Ġdevelo":5934,"dhikara":5935,"Ġroja":5936,"Ġyete":5937,"mbakiya":5938,"Ġbishakta":5939,"Ġasosi":5940,"1984":5941,"Ġ1945":5942,"phuta":5943,"Ġparibahana":5944,"Ġgautama":5945,"Ġindone":5946,"Ġprarambhare":5947,"nketa":5948,"ster":5949,"use":5950,"gathana":5951,"Ġprak":5952,"lishta":5953,"Ġbimsha":5954,"tenta":5955,"ndranatha":5956,"Ġsamalo":5957,"meshàŃ±ra":5958,"pia":5959,"Ġchira":5960,"Ġgote":5961,"anubada":5962,"Ġbarshaku":5963,"Ġlibr":5964,"peri":5965,"Ġpesha":5966,"Ġphelo":5967,"tarikhare":5968,"1993":5969,"Ġ1940":5970,"Ġshramika":5971,"Ġbabadare":5972,"samskrriti":5973,"Ġabhyasa":5974,"leria":5975,"chandana":5976,"Ġpabli":5977,"Ġkamuda":5978,"Ġbab":5979,"Ġgro":5980,"Ġuchit":5981,"Ġnala":5982,"anugola":5983,"Ġ300":5984,"1981":5985,"Ġupendra":5986,"1957":5987,"khuthile":5988,"Ġhimalaya":5989,"Ġhathat":5990,"ghare":5991,"bau":5992,"lik":5993,"mitra":5994,"Ġdebada":5995,"Ġshada":5996,"Ġsimare":5997,"Ġsula":5998,"ngh":5999,"2022":6000,"Ġmodi":6001,"Ġsabuthu":6002,"Ġ1953":6003,"Ġnabajata":6004,"Ġgarbhabastha":6005,"Ġinashtichyu":6006,"Ġhoisarichi":6007,"Ġmrrityura":6008,"ima":6009,"Ġtrans":6010,"ree":6011,"Ġchatu":6012,"Ġlabana":6013,"Ġbharati":6014,"arambha":6015,"Ġupakula":6016,"Ġmandala":6017,"Ġtula":6018,"Ġduradarshanare":6019,"ngaraja":6020,"Ġharina":6021,"ĠdàŃ±ipapu":6022,"njeksana":6023,"Ġbalarama":6024,"Ġprofile":6025,"aku":6026,"dula":6027,"ibare":6028,"batha":6029,"Ġakra":6030,"lio":6031,"lish":6032,"manatha":6033,"dena":6034,"Ġshadha":6035,"mena":6036,"Ġshti":6037,"Ġchin":6038,"karanara":6039,"Ġartic":6040,"samu":6041,"sambala":6042,"sudana":6043,"Ġkalejaru":6044,"Ġmiliba":6045,"Ġparyyaya":6046,"Ġnarasimha":6047,"Ġnikataku":6048,"Ġbyabasayi":6049,"ĠàŃ±iketa":6050,"rapy":6051,"Ġbishu":6052,"Ġkalaru":6053,"yuktara":6054,"Ġrahithanti":6055,"barddhana":6056,"yibara":6057,"Ġardra":6058,"Ġdurei":6059,"purna":6060,"Ġ400":6061,"Ġshuk":6062,"Ġkrike":6063,"shreni":6064,"upanyasa":6065,"Ġjahaja":6066,"smita":6067,"Ġeta":6068,"Ġbilu":6069,"oid":6070,"Ġdiji":6071,"Ġsthali":6072,"Ġnebaku":6073,"Ġpandu":6074,"Ġmyach":6075,"Ġtaipa":6076,"Ġbhaktamane":6077,"Ġlipibaddha":6078,"padmashri":6079,"Ġpresakripasana":6080,"Ġkamyunishta":6081,"\"~":6082,"mbo":6083,"pli":6084,"panika":6085,"à´":6086,"ard":6087,"kama":6088,"Ġkhi":6089,"nim":6090,"Ġkarihue":6091,"ndrome":6092,"Ġjalare":6093,"Ġjamata":6094,"sehi":6095,"Ġshashtha":6096,"Ġchyane":6097,"Ġbesarakari":6098,"Ġpuranare":6099,"phaila":6100,"Ġtera":6101,"Ġpokhari":6102,"kanatha":6103,"Ġkrrishaka":6104,"Ġchaturddashi":6105,"06":6106,"Ġqu":6107,"risha":6108,"Ġmor":6109,"Ġbibidha":6110,"pakhare":6111,"bhakta":6112,"Ġchakshu":6113,"Ġhemo":6114,"Ġyakshma":6115,"sen":6116,"gujara":6117,"Ġdiayai":6118,"Ġasustha":6119,"Ġsyndrome":6120,"04":6121,"epha":6122,"jyo":6123,"mpe":6124,"tm":6125,"mahila":6126,"Ġmadana":6127,"nird":6128,"Ġob":6129,"Ġprasanna":6130,"Ġpadu":6131,"pakshi":6132,"ury":6133,"Ġekatra":6134,"Ġdamana":6135,"Ġdinara":6136,"Ġgaithile":6137,"Ġmahabharata":6138,"Ġtani":6139,"nchaya":6140,"Ġkuhayaichi":6141,"Ġsocie":6142,"Ġbiraja":6143,"Ġmundabatha":6144,"Ġdhumra":6145,"Ġvideo":6146,"Ġgitikaramane":6147,"Ġprayojaka":6148,"ff":6149,"ano":6150,"paki":6151,"Ġkaba":6152,"Ġlauha":6153,"Ġpurbare":6154,"Ġparala":6155,"Ġgundicha":6156,"ĠbyaktitàŃ±":6157,"Ġkuhayauthila":6158,"Ġchetana":6159,"Ġprotsa":6160,"àŃ±era":6161,"Ġadhyaya":6162,"basita":6163,"Ġhaipo":6164,"Ġpranayana":6165,"Ġ1934":6166,"Ġpashchimaba":6167,"Ġkoila":6168,"mor":6169,"son":6170,"Ġsrri":6171,"Ġabhyan":6172,"rikta":6173,"Ġom":6174,"Ġnabina":6175,"neha":6176,"nchami":6177,"Ġkhata":6178,"Ġinto":6179,"Ġcen":6180,"Ġrese":6181,"puratana":6182,"Ġparamanu":6183,"stan":6184,"Ġchandrashekhara":6185,"Ġnrrityashilpi":6186,"Ġaphrikiya":6187,"ĠdhàŃ±msa":6188,"Ġbasudeba":6189,"Ġrokiba":6190,"Ġkhabarakagaja":6191,"'~":6192,"09":6193,"badare":6194,"Ġkshata":6195,"Ġsachiba":6196,"Ġkaura":6197,"Ġaniba":6198,"bio":6199,"dhinata":6200,"ĠishàŃ±ra":6201,"Ġmasika":6202,"Ġgamana":6203,"Ġshakta":6204,"Ġmantrana":6205,"prabha":6206,"Ġredio":6207,"Ġrudra":6208,"Ġthakka":6209,"Ġrajyapala":6210,"Ġpres":6211,"Ġdojara":6212,"Ġrasayana":6213,"jola":6214,"Ġsenapati":6215,"Ġbaharaku":6216,"samkhyara":6217,"gho":6218,"lma":6219,"ok":6220,"let":6221,"Ġpatta":6222,"paga":6223,"Ġratri":6224,"Ġsamrri":6225,"Ġhoina":6226,"kio":6227,"Ġjina":6228,"Ġlaho":6229,"Ġabashesha":6230,"Ġbodha":6231,"ĠbishàŃ±natha":6232,"Ġ44":6233,"Ġluha":6234,"Ġsthanantarita":6235,"Ġshirsha":6236,"Ġsamprrikta":6237,"08":6238,"91":6239,"lta":6240,"nchara":6241,"yaha":6242,"Ġpraj":6243,"Ġbhagane":6244,"lori":6245,"Ġhepata":6246,"Ġpartha":6247,"Ġkathachitrara":6248,"yananda":6249,"Ġchitaba":6250,"kshipta":6251,"Ġ41":6252,"à¤¦":6253,"1982":6254,"Ġnadire":6255,"lpika":6256,"Ġjenerala":6257,"Ġabout":6258,"pment":6259,"Ġstarara":6260,"madhyaru":6261,"lesana":6262,"Ġmaharana":6263,"padha":6264,"bhashi":6265,"shishu":6266,"king":6267,"Ġparikshare":6268,"Ġsthanaru":6269,"Ġupakari":6270,"gobinda":6271,"Ġ78":6272,"Ġpreside":6273,"Ġjibakosha":6274,"Ġmyacha":6275,"Ġlokapriyata":6276,"moda":6277,"strare":6278,"Ġendo":6279,"Ġmale":6280,"chandi":6281,"Ġdebara":6282,"Ġchaitanya":6283,"Ġila":6284,"Ġdipaka":6285,"Ġshilpi":6286,"neda":6287,"Ġriti":6288,"Ġdhada":6289,"nts":6290,"Ġ1932":6291,"Ġkanada":6292,"Ġtelibhijana":6293,"Ġpatrikare":6294,"ference":6295,"Ġimeji":6296,"100":6297,"=\"":6298,"stry":6299,"vara":6300,"Ġkhia":6301,"Ġashu":6302,"Ġabedana":6303,"Ġed":6304,"Ġmagha":6305,"Ġsammukhi":6306,"biju":6307,"bedi":6308,"Ġhani":6309,"karnna":6310,"Ġnirbaha":6311,"Ġ42":6312,"Ġwal":6313,"Ġposhta":6314,"Ġ76":6315,"Ġsimhasana":6316,"Ġmaikro":6317,"Ġsarbabrri":6318,"Ġdashama":6319,"pandana":6320,"Ġ1938":6321,"Ġkatakare":6322,"Ġlandana":6323,"aga":6324,"ghana":6325,"om":6326,"hinata":6327,"kai":6328,"mau":6329,"mayi":6330,"napana":6331,"Ġmagi":6332,"Ġyamuna":6333,"Ġsahayogi":6334,"Ġsadharanata":6335,"Ġbhitamina":6336,"gopala":6337,"Ġ55":6338,"âĢĻ~":6339,"1983":6340,"Ġadaku":6341,"Ġmanora":6342,"Ġindiana":6343,"Ġashtama":6344,"Ġgujarata":6345,"Ġkaryyarata":6346,"ĠbhubaneshàŃ±rara":6347,"Ġbooks":6348,"Ġsammukhina":6349,"lyan":6350,"shah":6351,"shaha":6352,"Ġmadra":6353,"Ġpapu":6354,"Ġbiharara":6355,"pal":6356,"Ġbajaya":6357,"siddhi":6358,"Ġ(\"":6359,"bitri":6360,"Ġistapha":6361,"Ġjapani":6362,"Ġgalu":6363,"pira":6364,"Ġhasya":6365,"Ġrahibaku":6366,"Ġbrrinda":6367,"Ġshunya":6368,"Ġsandhana":6369,"Ġbaishi":6370,"brriddhi":6371,"Ġganatantra":6372,"Ġakhila":6373,"Ġakalana":6374,"Ġexpress":6375,"Ġpakistanara":6376,"Ġparisarare":6377,"dehanta":6378,"01":6379,"nche":6380,"uth":6381,"Ġbrrishti":6382,"Ġbarika":6383,"Ġahata":6384,"Ġpade":6385,"pauranika":6386,"bijaya":6387,"Ġlake":6388,"Ġhal":6389,"shed":6390,"Ġbhuta":6391,"Ġdiayaithae":6392,"balambi":6393,"Ġasila":6394,"Ġuttaradhikari":6395,"Ġjeje":6396,"Ġgrrihita":6397,"nirmana":6398,"Ġsuresha":6399,"Ġsamgharsha":6400,"Ġsociety":6401,"ac":6402,"rja":6403,"tisa":6404,"Ġ|âĢĻ":6405,"Ġawar":6406,"Ġnabara":6407,"Ġdeuthile":6408,"Ġyehetu":6409,"Ġraje":6410,"peksha":6411,"anyasika":6412,"gen":6413,"Ġthaira":6414,"cen":6415,"Ġ85":6416,"Ġtulana":6417,"Ġbhoi":6418,"Ġbahini":6419,"Ġdaktarakhanare":6420,"Ġshriramakrrishna":6421,"Ġedition":6422,"Ġsamantaraya":6423,"Ġhyumana":6424,"Ġmusalima":6425,"ex":6426,"Ġbanara":6427,"Ġaa":6428,"Ġkadha":6429,"Ġsamayaru":6430,"ngalara":6431,"shàŃ±eta":6432,"Ġshibaratri":6433,"Ġsingh":6434,"Ġpidha":6435,"Ġparada":6436,"Ġkoshtha":6437,"Ġrupan":6438,"Ġanati":6439,"Ġkamitira":6440,"Ġjayapura":6441,"Ġpheriba":6442,"ft":6443,"ii":6444,"mga":6445,"Ġporta":6446,"balya":6447,"Ġmadhaba":6448,"Ġpraphulla":6449,"Ġjanasadharana":6450,"ĠgosàŃ±ami":6451,"Ġupayare":6452,"kena":6453,"Ġlimi":6454,"Ġasithae":6455,"Ġ77":6456,"Ġatirikta":6457,"Ġdosha":6458,"ngitara":6459,"Ġarthani":6460,"Ġantima":6461,"Ġjayadeba":6462,"Ġrakhayaichi":6463,"grantha":6464,"Ġnrrisimha":6465,"02":6466,"bre":6467,"kre":6468,"Ġ~":6469,"Ġskri":6470,"Ġksh":6471,"Ġakti":6472,"Ġdrrita":6473,"Ġprache":6474,"thar":6475,"Ġdakshata":6476,"Ġkaron":6477,"ney":6478,"Ġparka":6479,"Ġpitrri":6480,"tary":6481,"Ġheuthibaru":6482,"Ġsarbani":6483,"Ġatithi":6484,"Ġpakasthali":6485,"ĠàŃ±ebasa":6486,"ĠdàŃ±adasha":6487,"Ġganasampadanare":6488,"Ġkaushala":6489,"Ġjaruri":6490,"ebam":6491,"lyanda":6492,"ĠÂłĊ":6493,"badhi":6494,"Ġpramanita":6495,"Ġpad":6496,"Ġbyapta":6497,"Ġshala":6498,"order":6499,"Ġsarbasa":6500,"Ġ830":6501,"Ġchalichi":6502,"Ġnyasanala":6503,"Ġkhrishti":6504,"Ġsamaro":6505,"nguli":6506,"Ġkhrishtab":6507,"prrishtha":6508,"gni":6509,"Ġsra":6510,"pakha":6511,"àŃ±la":6512,"Ġnam":6513,"âĢĭ":6514,"jiu":6515,"Ġpaichanti":6516,"Ġsamas":6517,"Ġmukhar":6518,"Ġshaiba":6519,"Ġsudarshana":6520,"Ġkhasi":6521,"Ġindira":6522,"Ġtaraka":6523,"Ġshaktira":6524,"1978":6525,"Ġaniyamita":6526,"Ġsambandhita":6527,"Ġdurbalata":6528,"nchita":6529,"arda":6530,"rajani":6531,"Ġori":6532,"Ġkaribaru":6533,"tesana":6534,"Ġmul":6535,"Ġpratiro":6536,"Ġpratiraksha":6537,"nglish":6538,"Ġwhi":6539,"Ġ72":6540,"ĠĠĠĠĠ":6541,"Ġpharasi":6542,"Ġphaundesana":6543,"Ġgopinatha":6544,"Ġinstitute":6545,"--":6546,"cre":6547,"ryya":6548,"à§":6549,"Ġasadharana":6550,"shasana":6551,"Ġjyeshtha":6552,"Ġpaji":6553,"âĢĺ":6554,"bel":6555,"Ġparbani":6556,"Ġsukha":6557,"Ġhuenahi":6558,"Ġuttapa":6559,"phre":6560,"Ġharamona":6561,"byapi":6562,"Ġrakhile":6563,"Ġkhusi":6564,"Ġjarja":6565,"sàŃ±adhinata":6566,"Ġgujaratara":6567,"manusare":6568,"Ġmiluthiba":6569,"durga":6570,"Ġsurendra":6571,"Ġjammu":6572,"nirbachita":6573,"Ġdevelopment":6574,"nri":6575,"uthila":6576,"tasa":6577,"Ġbid":6578,"Ġkariparanti":6579,"bije":6580,"yanu":6581,"Ġrajendra":6582,"Ġupagraha":6583,"Ġaryya":6584,"Ġrajasthanara":6585,"Ġmeni":6586,"archchana":6587,"phyu":6588,"kshya":6589,"Ġdeithiba":6590,"Ġsobhi":6591,"Ġdharmare":6592,"phor":6593,"Ġgyaleri":6594,"Ġkonarka":6595,"Ġsamskrritira":6596,"Ġsarbanimna":6597,"cke":6598,"era":6599,"rabi":6600,"mayurabha":6601,"Ġamala":6602,"Ġjharana":6603,"Ġorissa":6604,"Ġgharara":6605,"Ġekaka":6606,"Ġjaiba":6607,"Ġkesh":6608,"gandhi":6609,"à¤¨":6610,"Ġamshika":6611,"Ġkahiba":6612,"Ġpratishthana":6613,"deithila":6614,"Ġlagai":6615,"Ġaphrikare":6616,"ĠdhàŃ±ni":6617,"07":6618,"edi":6619,"nla":6620,"val":6621,"kamane":6622,"Ġajita":6623,"Ġjya":6624,"chalita":6625,"kuta":6626,"Ġgali":6627,"gupta":6628,"parita":6629,"Ġcal":6630,"Ġdhatu":6631,"1975":6632,"ehapare":6633,"Ġjibanta":6634,"ĠĠĠĠĠĠĠ":6635,"Ġlangua":6636,"yuro":6637,"bhaira":6638,"mil":6639,"Ġkarakhana":6640,"Ġgalpika":6641,"ĠsàŃ±ya":6642,"ĠsàŃ±chcha":6643,"Ġsthanita":6644,"Ġkhada":6645,"yanatha":6646,"Ġrajakiya":6647,"Ġkalabele":6648,"Ġdurghatana":6649,"siasa":6650,"pheyara":6651,"Ġunnayana":6652,"Ġanimia":6653,"Ġakhire":6654,"Ġkalpanika":6655,"Ġmadhusudana":6656,"Ġmumbaire":6657,"udbhida":6658,"prrithibi":6659,"Ġdistrict":6660,"Ġpunaruddhara":6661,"Ġfilm":6662,"Ġresearch":6663,"Ġmukharji":6664,"wor":6665,"Ġkran":6666,"Ġbishrama":6667,"Ġnih":6668,"Ġdahi":6669,"Ġmundare":6670,"aranatha":6671,"Ġbhidio":6672,"Ġnirddharana":6673,"Ġbyaktira":6674,"Ġasima":6675,"Ġmilithiba":6676,"Ġparibartte":6677,"Ġ1944":6678,"Ġpandaba":6679,"Ġprachira":6680,"dananda":6681,"Ġpaddhatire":6682,"gudikara":6683,"mallika":6684,"chchinna":6685,"Ġbajra":6686,"Ġbilupta":6687,"apa":6688,"shtar":6689,"Ġpadhu":6690,"sima":6691,"Ġsela":6692,"ndon":6693,"Ġbarma":6694,"Ġhandi":6695,"Ġsucha":6696,"Ġutto":6697,"marathi":6698,"Ġbahuda":6699,"Ġhrridaya":6700,"Ġadharare":6701,"Ġkshetraphala":6702,"khela":6703,"Ġyuropiya":6704,"Ġkhrishtabda":6705,"Ġmahima":6706,"Ġgauraba":6707,"Ġpradushana":6708,"jari":6709,"yatri":6710,"Ġmono":6711,"Ġpatrare":6712,"Ġsebare":6713,"Ġgatha":6714,"Ġtib":6715,"Ġupayogi":6716,"Ġci":6717,"sona":6718,"Ġmyaleria":6719,"Ġtapasya":6720,"Ġpranalire":6721,"Ġnartta":6722,"Ġganasampadana":6723,"ibara":6724,"ola":6725,"ppa":6726,"Ġalli":6727,"Ġmura":6728,"Ġantari":6729,"Ġupar":6730,"Ġbhata":6731,"seta":6732,"Ġshikhara":6733,"Ġham":6734,"Ġnepala":6735,"Ġcric":6736,"Ġbhida":6737,"stura":6738,"Ġtinithara":6739,"bahini":6740,"Ġniyantrita":6741,"Ġpakistani":6742,"Ġchaitra":6743,"Ġsmaraki":6744,"ora":6745,"niba":6746,"Ġpradipa":6747,"Ġpam":6748,"Ġpaanti":6749,"Ġkaridie":6750,"Ġjapana":6751,"Ġkarantu":6752,"Ġkeshari":6753,"Ġkhaile":6754,"Ġmoha":6755,"Ġmotara":6756,"Ġkona":6757,"mrata":6758,"Ġmumbaira":6759,"Ġbandhuta":6760,"ĠbhubaneshàŃ±rare":6761,"Ġnirikshana":6762,"psa":6763,"param":6764,"ure":6765,"kaku":6766,"Ġel":6767,"Ġeri":6768,"Ġeli":6769,"Ġmashtara":6770,"Ġpataka":6771,"Ġpashchimare":6772,"huda":6773,"kim":6774,"Ġehachada":6775,"Ġsamatala":6776,"Ġyodi":6777,"Ġinfe":6778,"suguda":6779,"Ġkothari":6780,"noloji":6781,"Ġlakshanamana":6782,"Ġaradhana":6783,"Ġabir":6784,"Ġgujarati":6785,"Ġmahanadi":6786,"Ġaphisara":6787,"Ġprakrritare":6788,"Ġbikirana":6789,"Ġtanmadhyaru":6790,"nnti":6791,"tkara":6792,"ttu":6793,"Ġkuna":6794,"Ġdhi":6795,"niare":6796,"Ġbindha":6797,"sisi":6798,"bili":6799,"Ġbyakhya":6800,"Ġkua":6801,"sumi":6802,"Ġshuddha":6803,"Ġ1943":6804,"1972":6805,"Ġadala":6806,"Ġparbaparbani":6807,"Ġdaktare":6808,"Ġbikalpa":6809,"Ġturanta":6810,"dàŃ±ipa":6811,"Ġsadrrisha":6812,"banta":6813,"Ġsk":6814,"Ġsrota":6815,"kada":6816,"Ġpyari":6817,"Ġklo":6818,"shnu":6819,"saurus":6820,"Ġrathare":6821,"Ġrashtrare":6822,"Ġdah":6823,"debata":6824,"Ġsthale":6825,"Ġkhaibaku":6826,"ĠbishàŃ±yuddha":6827,"Ġdekhayaipare":6828,"phri":6829,"Ġdashami":6830,"Ġcoun":6831,"Ġtrriti":6832,"Ġtrrina":6833,"Ġnishkasana":6834,"Ġkramagata":6835,"Ġpuraskrrita":6836,"ĠsàŃ±rga":6837,"kathinya":6838,"Ġpajitibha":6839,"Ġpia":6840,"nagara":6841,"niyara":6842,"Ġmon":6843,"Ġpal":6844,"Ġglu":6845,"Ġuna":6846,"bia":6847,"rosis":6848,"bamsha":6849,"Ġcham":6850,"Ġdali":6851,"beri":6852,"bhita":6853,"rus":6854,"Ġpaithiba":6855,"Ġparija":6856,"Ġparikrama":6857,"Ġshanta":6858,"inan":6859,"ger":6860,"Ġlekhae":6861,"Ġnuha":6862,"Ġsthanamana":6863,"Ġlagiba":6864,"1970":6865,"Ġhaidro":6866,"Ġsamgramare":6867,"ĠsàŃ±ikara":6868,"Ġ1928":6869,"Ġblak":6870,"Ġklaba":6871,"Ġokilati":6872,"Ġmadyapana":6873,"Ġapari":6874,"Ġrashmi":6875,"Ġutha":6876,"Ġdalar":6877,"Ġnor":6878,"Ġjalara":6879,"Ġshirare":6880,"Ġshibali":6881,"guni":6882,"Ġbea":6883,"Ġkelu":6884,"Ġsthalare":6885,"Ġbhishma":6886,"Ġsarjana":6887,"Ġbyabaharakari":6888,"Ġalati":6889,"Ġproble":6890,"Ġkshama":6891,"kannada":6892,"Ġarabinda":6893,"Ġ1937":6894,"Ġluga":6895,"ctionary":6896,"Ġonline":6897,"bhumire":6898,"Ġaitihya":6899,"Ġ1929":6900,"Ġthaipare":6901,"Ġpujari":6902,"Ġchennai":6903,"logical":6904,"Ġsaundaryya":6905,"panyasika":6906,"snana":6907,"zi":6908,"Ġsmar":6909,"Ġemiti":6910,"chchare":6911,"bamshi":6912,"Ġjabahara":6913,"Ġmuta":6914,"Ġshtu":6915,"Ġhasa":6916,"Ġchinara":6917,"kesana":6918,"phla":6919,"Ġdinaku":6920,"ches":6921,"Ġbhotara":6922,"color":6923,"Ġaupanyasika":6924,"Ġcharipate":6925,"Ġpahandi":6926,"Ġ1941":6927,"mentare":6928,"Ġjanuyari":6929,"Ġajana":6930,"rimana":6931,"Ġbitarana":6932,"Ġbiparita":6933,"Ġkaksha":6934,"Ġuta":6935,"misha":6936,"Ġdela":6937,"Ġit":6938,"Ġgadhi":6939,"Ġshabaka":6940,"Ġshashthi":6941,"Ġsid":6942,"Ġyor":6943,"Ġ43":6944,"Ġkori":6945,"Ġdeithanti":6946,"Ġchori":6947,"Ġdhoi":6948,"Ġthibara":6949,"à¥ģ":6950,"tical":6951,"Ġkramashah":6952,"hama":6953,"Ġsneha":6954,"tirnna":6955,"Ġkuru":6956,"nasa":6957,"Ġsero":6958,"Ġsenara":6959,"Ġusha":6960,"Ġtapare":6961,"Ġher":6962,"jim":6963,"kshaya":6964,"Ġparanti":6965,"barara":6966,"Ġlig":6967,"Ġcla":6968,"ĠsàŃ±ada":6969,"Ġpran":6970,"salakha":6971,"Ġrakhibaku":6972,"shyama":6973,"yeu":6974,"Ġshtadi":6975,"Ġahamada":6976,"Ġabhishapa":6977,"Ġbishleshana":6978,"elara":6979,"nke":6980,"stika":6981,"Ġpradarsha":6982,"Ġantanali":6983,"Ġchak":6984,"Ġcor":6985,"Ġparajibi":6986,"Ġharai":6987,"Ġprotina":6988,"1950":6989,"baij":6990,"Ġkshudragalpa":6991,"ĠkàŃ±anta":6992,"sauria":6993,"Ġdhumrapana":6994,"Ġkoshthakathinya":6995,"adhunika":6996,"bad":6997,"basthare":6998,"Ġale":6999,"Ġele":7000,"Ġbil":7001,"payi":7002,"Ġkathare":7003,"Ġupana":7004,"Ġmahasa":7005,"barti":7006,"Ġyekaunasi":7007,"ndia":7008,"Ġprayasa":7009,"Ġsabubele":7010,"Ġpetenta":7011,"1976":7012,"Ġprrithaka":7013,"kshetrare":7014,"Ġadalata":7015,"Ġnabami":7016,"Ġmariba":7017,"shikshaka":7018,"Ġchintadhara":7019,"tural":7020,"Ġchitabagha":7021,"))":7022,"mbe":7023,"his":7024,"Ġbor":7025,"Ġsabitri":7026,"thala":7027,"ling":7028,"Ġbimala":7029,"sio":7030,"dhanya":7031,"Ġ(:":7032,"Ġanani":7033,"Ġbhaja":7034,"Ġnaa":7035,"Ġjagare":7036,"jima":7037,"Ġbargikarana":7038,"Ġanubhuta":7039,"neshàŃ±ra":7040,"chchana":7041,"Ġpulisa":7042,"Ġgua":7043,"Ġmanasa":7044,"cond":7045,"Ġ150":7046,"Ġyantrika":7047,"dyutika":7048,"1947":7049,"Ġbasinda":7050,"Ġprasarana":7051,"Ġdrrishyamana":7052,"Ġtibhire":7053,"Ġmahesha":7054,"Ġsidhasalakha":7055,"Ġpujarchchana":7056,"kanya":7057,"spa":7058,"Ġkur":7059,"nai":7060,"Ġ|.":7061,"Ġaksa":7062,"Ġprashna":7063,"Ġpakshare":7064,"ten":7065,"aruda":7066,"Ġnasa":7067,"Ġehibhali":7068,"sei":7069,"sthala":7070,"lue":7071,"Ġguide":7072,"jection":7073,"Ġtarakari":7074,"Ġuddishta":7075,"Ġpurushamane":7076,"Ġparyyabasita":7077,"Ġjanibaku":7078,"Ġantibadi":7079,"Ġjanana":7080,"Ġnuadilli":7081,"cyclo":7082,"Ġturnna":7083,"Ġgayala":7084,"antarjatiya":7085,"bs":7086,"blood":7087,"clu":7088,"cus":7089,"nmana":7090,"sy":7091,"Ã©":7092,"ananda":7093,"Ġet":7094,"thaira":7095,"Ġbida":7096,"Ġbaje":7097,"dima":7098,"siara":7099,"Ġsel":7100,"Ġdictionary":7101,"Ġkartta":7102,"sepha":7103,"Ġparshurama":7104,"Ġabhihita":7105,"Ġkhanana":7106,"keteka":7107,"Ġlin":7108,"Ġtele":7109,"Ġreji":7110,"Ġghaa":7111,"Ġphasa":7112,"Ġ74":7113,"Ġkhelare":7114,"Ġ84":7115,"Ġpaniya":7116,"1979":7117,"rombo":7118,"Ġpiladi":7119,"Ġpratyaksha":7120,"Ġgopabandhu":7121,"nnara":7122,"Ġplan":7123,"Ġaf":7124,"Ġek":7125,"nija":7126,"pathara":7127,"Ġraura":7128,"Ġbabi":7129,"sira":7130,"Ġuj":7131,"Ġsamsthara":7132,"ron":7133,"shilata":7134,"Ġtike":7135,"nei":7136,"Ġabashya":7137,"Ġkemo":7138,"pedia":7139,"sampadana":7140,"Ġwiki":7141,"Ġanasara":7142,"Ġprogra":7143,"Ġcharmare":7144,"ehaku":7145,"Ġmajor":7146,"Ġjamidara":7147,"Ġyuropa":7148,"Ġminaketana":7149,"Ġmamalare":7150,"Ġpadabire":7151,"Ġrahasya":7152,"Ġsambidhanara":7153,"Ġthietara":7154,"Ġkeralara":7155,"gne":7156,"ration":7157,"Ġboi":7158,"Ġmyane":7159,"Ġpatela":7160,"bidyu":7161,"Ġbyaghra":7162,"Ġmira":7163,"kramara":7164,"sanali":7165,"jen":7166,"Ġudbhabana":7167,"Ġkshetrara":7168,"Ġanaphaila":7169,"Ġ1935":7170,"njari":7171,"Ġgrrihare":7172,"Ġjarmana":7173,"Ġalimpik":7174,"Ġrajabamshara":7175,"Ġkhrishtabdare":7176,"ap":7177,"gs":7178,"Ġscho":7179,"lagna":7180,"bat":7181,"Ġear":7182,"shaniya":7183,"Ġpatara":7184,"resana":7185,"Ġkarithibaru":7186,"Ġgula":7187,"bhagya":7188,"Ġbhas":7189,"Ġhoithibara":7190,"Ġdaki":7191,"Ġdashara":7192,"aneka":7193,"Ġbeka":7194,"Ġadhiniya":7195,"nchalaru":7196,"Ġarchi":7197,"Ġmemo":7198,"Ġgud":7199,"Ġphuli":7200,"Ġdharmabalambi":7201,"Ġchui":7202,"sàŃ±rupa":7203,"Ġ1931":7204,"1962":7205,"Ġkraya":7206,"Ġpratyakhyana":7207,"Ġurddu":7208,"Ġsthanantara":7209,"Ġkashmira":7210,"Ġimlandare":7211,"ãģ":7212,"hiba":7213,"thili":7214,"Ġsaina":7215,"rin":7216,"Ġprasiddhi":7217,"ren":7218,"pas":7219,"tebe":7220,"Ġanan":7221,"Ġubha":7222,"baman":7223,"seum":7224,"Ġmus":7225,"Ġlada":7226,"meta":7227,"Ġparadina":7228,"part":7229,"Ġphri":7230,"Ġasuchi":7231,"Ġphilmare":7232,"Ġgrik":7233,"Ġayatana":7234,"Ġganitika":7235,"Ġbajarare":7236,"Ġisalama":7237,"Ġashir":7238,"Ġkelucharana":7239,"hrri":7240,"kanika":7241,"anyare":7242,"Ġsaru":7243,"Ġpoi":7244,"Ġsakshi":7245,"Ġkariasu":7246,"Ġracha":7247,"Ġser":7248,"bhabare":7249,"Ġnakari":7250,"Ġchale":7251,"Ġjabha":7252,"tus":7253,"medi":7254,"yansa":7255,"Ġty":7256,"Ġgoru":7257,"pen":7258,"ĠsàŃ±abhabika":7259,"Ġkotha":7260,"Ġruk":7261,"à¤¤":7262,"Ġshekhara":7263,"Ġnaribadi":7264,"Ġdashandhi":7265,"Ġdhru":7266,"Ġair":7267,"Ġabasthapita":7268,"Ġaphagani":7269,"Ġpurira":7270,"bhoji":7271,"Ġrandha":7272,"Ġkadali":7273,"Ġpatrikara":7274,"Ġnepalara":7275,"ĠasàŃ±abhabika":7276,"bauddha":7277,"ranare":7278,"Ġahi":7279,"shtre":7280,"chila":7281,"Ġbad":7282,"Ġbaksa":7283,"dim":7284,"Ġnibesha":7285,"Ġsampada":7286,"Ġindu":7287,"Ġyata":7288,"Ġparo":7289,"Ġbegama":7290,"Ġgol":7291,"Ġthat":7292,"Ġthail":7293,"duta":7294,"Ġsarbashreshtha":7295,"Ġpilamane":7296,"Ġkrritrima":7297,"Ġgitara":7298,"Ġjour":7299,"Ġnirapatta":7300,"Ġanushthanika":7301,"Ġsindura":7302,"Ġchandrara":7303,"Ġgarbhadharana":7304,"Ġsebakamane":7305,"Ġjagatasimhapura":7306,"Ġadyabadhi":7307,"Ġbhaganeithile":7308,"Ġuttolana":7309,"eph":7310,"à¯":7311,"mate":7312,"Ġec":7313,"Ġesabu":7314,"Ġgrika":7315,"desh":7316,"Ġmadhyamika":7317,"nela":7318,"Ġjanasamkhyara":7319,"ktibha":7320,"ort":7321,"mus":7322,"Ġshikshalabha":7323,"jene":7324,"malaya":7325,"Ġbaragada":7326,"kramaka":7327,"Ġnobela":7328,"Ġvo":7329,"Ġashadha":7330,"Ġkarnnataka":7331,"Ġparisthitire":7332,"Ġuikipida":7333,"Ġanaphailak":7334,"'m":7335,"ntare":7336,"yyara":7337,"Ġataka":7338,"sachi":7339,"Ġramesha":7340,"Ġsegudika":7341,"Ġsamhita":7342,"dhishta":7343,"Ġhebare":7344,"gika":7345,"Ġlaina":7346,"Ġmanara":7347,"Ġkeneda":7348,"kemia":7349,"Ġkalama":7350,"Ġ54":7351,"Ġkole":7352,"Ġpuraskaraprapta":7353,"ĠâĢĭ":7354,"Ġgandha":7355,"Ġanala":7356,"Ġprrith":7357,"Ġchuda":7358,"Ġutsahita":7359,"Ġbamshi":7360,"Ġyauthila":7361,"Ġathamallika":7362,"Ġkheliba":7363,"Ġniayae":7364,"ĠàŃ±eb":7365,"Ġpratyabarttana":7366,"Ġprrishthare":7367,"Ġgodabari":7368,"Ġminit":7369,"Ġsantushta":7370,"ameri":7371,"Ġnirupana":7372,"cts":7373,"iara":7374,"kreta":7375,"llu":7376,"ota":7377,"Ġalla":7378,"Ġoh":7379,"Ġkah":7380,"Ġnishedha":7381,"Ġkarpo":7382,"kina":7383,"Ġjibika":7384,"Ġduhe":7385,"info":7386,"Ġaushadhiya":7387,"Ġpathapadha":7388,"Ġpustakare":7389,"Ġpratyahara":7390,"Ġjhumara":7391,"Ġjarayu":7392,"ĠbishàŃ±kapa":7393,"Ġbispho":7394,"Ġkemotherapi":7395,"nkaru":7396,"rashtriya":7397,"dai":7398,"ler":7399,"Ġmatire":7400,"àŃ±r":7401,"Ġjadita":7402,"Ġjiban":7403,"Ġgauri":7404,"Ġsutim":7405,"praka":7406,"Ġteja":7407,"Ġmanaka":7408,"Ġamshare":7409,"Ġphy":7410,"troka":7411,"shtio":7412,"Ġ1939":7413,"Ġjorimana":7414,"Ġsamartha":7415,"tics":7416,"Ġbishayabastu":7417,"Ġbarishtha":7418,"Ġsamskrritire":7419,"Ġlibrary":7420,"Ġsulatana":7421,"Ġparthakya":7422,"dge":7423,"enta":7424,"ntri":7425,"panda":7426,"uli":7427,"malara":7428,"Ġsadana":7429,"Ġmam":7430,"sahara":7431,"Ġpradeshare":7432,"Ġbaji":7433,"Ġghia":7434,"Ġsamj":7435,"bamane":7436,"Ġchana":7437,"Ġjapanara":7438,"jini":7439,"Ġmudu":7440,"Ġshasya":7441,"Ġabashyakiya":7442,"Ġpunya":7443,"Ġpurbara":7444,"ĠkaribadàŃ±ara":7445,"Ġyoddha":7446,"Ġketoti":7447,"karshana":7448,"Ġrea":7449,"Ġparajita":7450,"Ġ62":7451,"Ġrajyaku":7452,"Ġrili":7453,"Ġudyanara":7454,"socia":7455,"Ġagna":7456,"Ġdhuma":7457,"Ġmyachare":7458,"Ġhisaba":7459,"Ġbibechita":7460,"Ġsamiksha":7461,"Ġbachaspati":7462,"Ġkanishtha":7463,"Ġshrimandirare":7464,"Ġmaharani":7465,"Ġpashchatya":7466,"sambalapura":7467,"ctor":7468,"ctive":7469,"njare":7470,"os":7471,"oga":7472,"arthi":7473,"Ġepha":7474,"Ġpachari":7475,"Ġnishi":7476,"karaka":7477,"Ġchashi":7478,"Ġchalani":7479,"Ġshani":7480,"Ġshikshara":7481,"Ġsundari":7482,"Ġkhalana":7483,"Ġlimpho":7484,"bhutanu":7485,"Ġshukra":7486,"Ġbhotare":7487,"Ġdashakara":7488,"Ġadhyapana":7489,"Ġagamana":7490,"Ġshailira":7491,"lojiyam":7492,"Ġgudiku":7493,"Ġkhyati":7494,"Ġprachchadapata":7495,"jura":7496,"mbarare":7497,"nthile":7498,"wo":7499,"andhra":7500,"Ġsaji":7501,"lini":7502,"Ġbaula":7503,"Ġbaksi":7504,"Ġkarti":7505,"Ġchilika":7506,"Ġkumbha":7507,"Ġbyabaharare":7508,"gora":7509,"Ġwas":7510,"gandha":7511,"bandhita":7512,"Ġneithila":7513,"Ġbidhayakagana":7514,"Ġkrrishnachandra":7515,"Ġnilagiri":7516,"Ġakabara":7517,"Ġsundaragada":7518,"Ġshariraku":7519,"Ġcell":7520,"Ġannapurnna":7521,"Ġdijija":7522,"ĠâĢĭâĢĭ":7523,"prana":7524,"uma":7525,"hida":7526,"batara":7527,"shyata":7528,"nisi":7529,"chatri":7530,"kumara":7531,"beta":7532,"Ġdinaru":7533,"Ġgasta":7534,"Ġabhisheka":7535,"Ġkum":7536,"Ġpindha":7537,"sthanare":7538,"Ġ59":7539,"india":7540,"Ġnimantrana":7541,"Ġdhani":7542,"Ġtouri":7543,"Ġcharitrare":7544,"Ġluchi":7545,"Ġjibabij":7546,"1960":7547,"Ġpakisthana":7548,"trritiya":7549,"Ġcali":7550,"Ġbidyamana":7551,"Ġbatighara":7552,"Ġsachetanata":7553,"nirdde":7554,"ast":7555,"ddh":7556,"http":7557,"maka":7558,"Ġadira":7559,"Ġmaka":7560,"Ġkariheba":7561,"Ġgaruda":7562,"Ġsentara":7563,"Ġanithile":7564,"âĢĶ":7565,"Ġekatrita":7566,"Ġchauda":7567,"Ġjali":7568,"Ġjayanti":7569,"Ġroda":7570,"Ġabalam":7571,"Ġsuta":7572,"yanaru":7573,"Ġchithi":7574,"grata":7575,"Ġarta":7576,"Ġyugma":7577,"Ġrelapa":7578,"Ġfir":7579,"Ġbandhana":7580,"phina":7581,"Ġkamishana":7582,"mandapa":7583,"Ġnimnalikhita":7584,"Ġphor":7585,"Ġpriyadar":7586,"kalpana":7587,"Ġbelabhumi":7588,"generic":7589,"Ġaluminiya":7590,"rajaniti":7591,"%)":7592,"ef":7593,"gro":7594,"radha":7595,"yatha":7596,"Ġbre":7597,"madhaba":7598,"Ġprakriyare":7599,"Ġkalo":7600,"Ġsambedana":7601,"Ġtada":7602,"Ġnamanusare":7603,"Ġnamrata":7604,"bibaha":7605,"Ġmadhura":7606,"Ġdiantu":7607,"Ġmuseum":7608,"Ġshoda":7609,"yaichanti":7610,"Ġlokara":7611,"Ġpujita":7612,"Ġlokagita":7613,"samarika":7614,"karini":7615,"Ġmecha":7616,"stru":7617,"Ġpeshi":7618,"Ġyogadeithile":7619,"Ġbaraha":7620,"Ġprabhabare":7621,"Ġ250":7622,"1968":7623,"mandalare":7624,"trrika":7625,"Ġashru":7626,"nkhala":7627,"Ġraktanali":7628,"Ġtamilanadura":7629,"Ġproblems":7630,"htm":7631,"sthi":7632,"ttira":7633,"haja":7634,"Ġsri":7635,"Ġbur":7636,"Ġapo":7637,"satya":7638,"Ġpathe":7639,"Ġpado":7640,"ditya":7641,"Ġsambandha":7642,"mim":7643,"Ġchatri":7644,"Ġyaya":7645,"sesa":7646,"Ġshaga":7647,"prachina":7648,"2023":7649,"Ġghada":7650,"Ġfu":7651,"Ġ58":7652,"Ġnirddharita":7653,"ĠâĢĶ":7654,"Ġris":7655,"Ġchopra":7656,"dom":7657,"Ġjibashma":7658,"Ġsamarpita":7659,"Ġgarbhapata":7660,"Ġpunashcha":7661,"Ġthrombo":7662,"Ġatmajibani":7663,"gudiku":7664,"thraitisa":7665,")-":7666,"poda":7667,"hima":7668,"tattàŃ±":7669,"Ġain":7670,"Ġayur":7671,"Ġmamu":7672,"Ġpage":7673,"Ġbaharu":7674,"Ġsenta":7675,"karatmaka":7676,"Ġsambo":7677,"Ġdes":7678,"jio":7679,"jida":7680,"Ġshai":7681,"manya":7682,"Ġhaluka":7683,"Ġsuchi":7684,"ons":7685,"Ġlimk":7686,"Ġtech":7687,"insa":7688,"njasya":7689,"Ġwar":7690,"Ġbadalai":7691,"Ġasita":7692,"greda":7693,"Ġudyanare":7694,"Ġbaid":7695,"Ġsaharaku":7696,"Ġjalase":7697,"Ġpurushamana":7698,"kananda":7699,"1973":7700,"Ġtrayo":7701,"Ġdarshai":7702,"Ġjitithila":7703,"sàŃ±adhina":7704,"Ġbahadura":7705,"Ġnimnare":7706,"aiba":7707,"brrit":7708,"Ġbulai":7709,"Ġakrrishta":7710,"shruti":7711,"Ġnirodha":7712,"Ġdebe":7713,"Ġehidina":7714,"Ġind":7715,"Ġyaba":7716,"gini":7717,"Ġmidia":7718,"triya":7719,"ĠsàŃ±e":7720,"Ġlekhare":7721,"Ġcul":7722,"Ġchalachala":7723,"ins":7724,"Ġ64":7725,"Ġphuti":7726,"Ġbantana":7727,"Ġsantosha":7728,"Ġjalashaya":7729,"Ġpahacha":7730,"Ġcharbi":7731,"ĠàŃ±an":7732,"Ġvol":7733,"cations":7734,"khorddha":7735,"Ġsambidhanika":7736,"indian":7737,"pranita":7738,"Ġthairaeda":7739,"Ġcalifor":7740,"epi":7741,"eds":7742,"sal":7743,"Ġram":7744,"Ġbachi":7745,"jatira":7746,"dhira":7747,"ĠsàŃ±tah":7748,"ĠtàŃ±":7749,"yibaru":7750,"sthapana":7751,"paryyanta":7752,"takalina":7753,"Ġasithanti":7754,"dhyaya":7755,"ddhita":7756,"Ġkyala":7757,"prathamika":7758,"cular":7759,"Ġpathyakrama":7760,"Ġrajakumari":7761,"Ġwomen":7762,"Ġsamalochaka":7763,"Ġsarbasadharana":7764,"partment":7765,"Ġ),":7766,"Ġklab":7767,"Ġenglish":7768,"Ġdr":7769,"Ġmatara":7770,"Ġmamata":7771,"sadhya":7772,"Ġkathora":7773,"Ġbaga":7774,"charita":7775,"urara":7776,"Ġpain":7777,"Ġjira":7778,"Ġsharana":7779,"shàŃ±rara":7780,"Ġtira":7781,"Ġbyabasthara":7782,"Ġutpada":7783,"Ġupaprajati":7784,"vel":7785,"Ġharaithile":7786,"njio":7787,"Ġchikitsaka":7788,"Ġatitare":7789,"Ġbhautika":7790,"Ġrrina":7791,"Ġphalaprada":7792,"Ġainagata":7793,"Ġgolakara":7794,"Ġarohana":7795,"Ġkarnnatakara":7796,"Ġdisorder":7797,"Ġbayopsi":7798,"Ġphainalare":7799,"Ġgheri":7800,"Ġhepataitisa":7801,"Ġjabaharalala":7802,"emi":7803,"mur":7804,"strara":7805,"basha":7806,"Ġmy":7807,"kuni":7808,"Ġrathara":7809,"Ġsecond":7810,"bet":7811,"bera":7812,"Ġ1922":7813,"Ġjibita":7814,"pindara":7815,"Ġmahanta":7816,"Ġjanaku":7817,"Ġbesh":7818,"barn":7819,"Ġhigh":7820,"Ġkaruthibaru":7821,"koma":7822,"Ġruchi":7823,"Ġpola":7824,"Ġdebashisha":7825,"Ġdhariba":7826,"Ġpustakara":7827,"Ġsaphalatara":7828,"Ġadrrita":7829,"Ġsambalapuri":7830,"Ġbhittire":7831,"khrishta":7832,"ĠahàŃ±ana":7833,"Ġbrrishtipata":7834,"Ġpriyadarshini":7835,"Ġcalifornia":7836,"banu":7837,"ncho":7838,"van":7839,"Ġsto":7840,"Ġakrriti":7841,"Ġpapi":7842,"palli":7843,"Ġraga":7844,"àŃ±ya":7845,"Ġnagar":7846,"mik":7847,"Ġekaki":7848,"Ġdalita":7849,"Ġdush":7850,"kola":7851,"Ġphasala":7852,"Ġpoka":7853,"Ġbarapha":7854,"phena":7855,"Ġghoshita":7856,"samayika":7857,"Ġkrripa":7858,"1956":7859,"Ġnagari":7860,"Ġmamsapeshire":7861,"Ġghur":7862,"maharashtrara":7863,"jyoti":7864,"by":7865,"ddara":7866,"spi":7867,"tyu":7868,"dayaka":7869,"lekhi":7870,"Ġmas":7871,"Ġmoda":7872,"Ġpashi":7873,"pakàŃ±":7874,"Ġkariparu":7875,"Ġbae":7876,"Ġgla":7877,"Ġnamara":7878,"Ġhoiyaithile":7879,"Ġshaila":7880,"Ġchuna":7881,"Ġsupri":7882,"ghaba":7883,"Ġbhittika":7884,"goni":7885,"Ġkobhida":7886,"Ġkolojiyam":7887,"Ġ66":7888,"Ġchitrakara":7889,"adhikamsha":7890,"Ġdrrishtikon":7891,"Ġchatrachatri":7892,"Ġ1924":7893,"Ġpharma":7894,"ngopasa":7895,"Ġtamilanadu":7896,"Ġupatyaka":7897,"Ġpaleshtaina":7898,"Ġrajakumara":7899,"Ġsabyasta":7900,"Ġkailasa":7901,"Ġarticle":7902,"hat":7903,"Ġstar":7904,"yala":7905,"Ġphita":7906,"Ġkanu":7907,"dab":7908,"thibe":7909,"Ġsaksh":7910,"shaili":7911,"ries":7912,"Ġsekend":7913,"dhyana":7914,"baraka":7915,"Ġdau":7916,"Ġhema":7917,"Ġdijita":7918,"bhisa":7919,"Ġparityaga":7920,"Ġbhie":7921,"gotie":7922,"cer":7923,"Ġsabhyata":7924,"Ġtuma":7925,"Ġbidhaba":7926,"Ġamshaku":7927,"Ġanubadaka":7928,"Ġasaha":7929,"Ġbandhuka":7930,"Ġrandhana":7931,"Ġashtami":7932,"Ġtelisko":7933,"mandirara":7934,"upadi":7935,"Ġcent":7936,"Ġudyamare":7937,"Ġrajabamsha":7938,"Ġteknoloji":7939,"Ġshuklapa":7940,"Ġaward":7941,"Ġfirst":7942,"*:":7943,"uchcha":7944,"Ġskora":7945,"tamilana":7946,"Ġkno":7947,"ariya":7948,"shabda":7949,"Ġmasha":7950,"Ġodha":7951,"Ġpadhi":7952,"Ġpataku":7953,"Ġbichchinna":7954,"khadya":7955,"Ġgama":7956,"Ġmadhyaku":7957,"ĠmahashàŃ±eta":7958,"Ġjanapriya":7959,"Ġyear":7960,"Ġnirddhishta":7961,"ved":7962,"àŃ±ai":7963,"Ġnijama":7964,"ngina":7965,"shodha":7966,"Ġshaktimana":7967,"1963":7968,"Ġethisaha":7969,"Ġyauthile":7970,"1948":7971,"ĠbastutàŃ±":7972,"Ġmahisha":7973,"Ġdampati":7974,"Ġmahotsaba":7975,"Ġproject":7976,"Ġsethakara":7977,"Ġyork":7978,"dney":7979,"jhu":7980,"koda":7981,"yajapura":7982,"naku":7983,"Ġamita":7984,"Ġrajiba":7985,"Ġbhandara":7986,"minal":7987,"Ġdaita":7988,"bhittika":7989,"Ġmishana":7990,"Ġanupranita":7991,"Ġkathaka":7992,"Ġtruti":7993,"Ġkukuda":7994,"ngs":7995,"ngaru":7996,"Ġkaryyaku":7997,"Ġrajaputa":7998,"Ġ73":7999,"Ġ79":8000,"Ġkandhei":8001,"bidyalaya":8002,"Ġudyoga":8003,"badiya":8004,"Ġnabama":8005,"Ġpurire":8006,"Ġencyclo":8007,"Ġdijain":8008,"lectro":8009,"Ġserotoni":8010,"Ã³":8011,"hile":8012,"Ġahara":8013,"lian":8014,"life":8015,"Ġbideshare":8016,"bisha":8017,"ship":8018,"Ġdada":8019,"Ġdaku":8020,"Ġheart":8021,"Ġdil":8022,"sel":8023,"Ġsamayika":8024,"Ġbyapara":8025,"gic":8026,"tanama":8027,"Ġmadhyapradeshara":8028,"Ġanubhuti":8029,"Ġchitta":8030,"keya":8031,"Ġliga":8032,"karithile":8033,"Ġkaruna":8034,"suchita":8035,"Ġdiayaithiba":8036,"mola":8037,"batah":8038,"puda":8039,"Ġmilila":8040,"Ġtokio":8041,"Ġpathagara":8042,"Ġchuti":8043,"sàŃ±tantra":8044,"Ġchaligale":8045,"Ġabasthaku":8046,"marga":8047,"mental":8048,"Ġrakshasa":8049,"shadata":8050,"Ġ1927":8051,"jania":8052,"Ġturki":8053,"Ġmiluchi":8054,"Ġerrors":8055,"Ġbook":8056,"Ġsarbabrrihata":8057,"achanti":8058,"ech":8059,"mka":8060,"odi":8061,"tali":8062,"napanare":8063,"Ġech":8064,"ley":8065,"Ġmayura":8066,"Ġmanika":8067,"Ġpatu":8068,"liver":8069,"Ġbiri":8070,"Ġkalpa":8071,"Ġkarina":8072,"Ġkarinathile":8073,"Ġbalu":8074,"Ġnibarana":8075,"Ġuthai":8076,"hur":8077,"mino":8078,"Ġdashaka":8079,"Ġkini":8080,"Ġbarse":8081,"Ġshil":8082,"Ġabatarana":8083,"puraru":8084,"goshthi":8085,"phra":8086,"modara":8087,"nushthana":8088,"Ġkichidina":8089,"Ġassocia":8090,"Ġtrashta":8091,"Ġshishumana":8092,"1969":8093,"fic":8094,"Ġgene":8095,"Ġthakuramana":8096,"Ġadre":8097,"Ġkashtakara":8098,"Ġyunibhar":8099,"Ġalokara":8100,"Ġkoili":8101,"kendujhara":8102,"Ġsentigreda":8103,"Ġpatharare":8104,"Ġnarttaki":8105,"Ġlinks":8106,"Ġabalambana":8107,"Ġkyalasiama":8108,"ĠÎ":8109,"Ġà¦":8110,"Ġsoda":8111,"Ġpl":8112,"Ġasthayi":8113,"shtika":8114,"leni":8115,"Ġother":8116,"Ġkab":8117,"dies":8118,"dharare":8119,"belu":8120,"kenda":8121,"Ġbhutan":8122,"Ġsandhi":8123,"sour":8124,"Ġdarpana":8125,"Ġpujaka":8126,"Ġbidhayakamane":8127,"Ġchalithiba":8128,"Ġkramare":8129,"Ġyunibhara":8130,"Ġkirtti":8131,"Ġrakshanabekshana":8132,"drya":8133,"Ġmantranalaya":8134,"ttare":8135,"ws":8136,"wer":8137,"han":8138,"hali":8139,"kas":8140,"Ġblo":8141,"shtro":8142,"Ġharana":8143,"sapta":8144,"sauri":8145,"Ġramana":8146,"rritire":8147,"ros":8148,"Ġpaika":8149,"Ġgatire":8150,"gue":8151,"Ġrahiasi":8152,"hararu":8153,"Ġutsar":8154,"ĠrajasàŃ±":8155,"Ġmetro":8156,"Ġmandiramana":8157,"nua":8158,"Ġ69":8159,"ngitaj":8160,"Ġbaidyutika":8161,"Ġbirada":8162,"city":8163,"Ġakshamata":8164,"Ġgarbhabati":8165,"way":8166,"Ġsamkramanara":8167,"Ġparamarshadata":8168,"Ġraimohana":8169,"pharma":8170,"Ġalimpika":8171,"crip":8172,"Ġportal":8173,"Ġpratiropana":8174,"\".":8175,"ab":8176,"cra":8177,"cto":8178,"kanti":8179,"á¹":8180,"Ġtext":8181,"Ġade":8182,"Ġbihina":8183,"padara":8184,"japa":8185,"Ġtaila":8186,"thyara":8187,"Ġday":8188,"bhila":8189,"Ġgadi":8190,"dhanatha":8191,"hola":8192,"Ġupabasa":8193,"Ġliu":8194,"krritira":8195,"muha":8196,"parabartti":8197,"injection":8198,"Ġramakrrishna":8199,"Ġchalithila":8200,"Ġjhala":8201,"Ġagrani":8202,"Ġsaptami":8203,"Ġpadarthara":8204,"Ġstates":8205,"Ġpalati":8206,"Ġajibana":8207,"Ġnakshatrare":8208,"Ġsamikshaka":8209,"Ġgudikara":8210,"Ġnrrityara":8211,"ĠpratnatattàŃ±ika":8212,"kteria":8213,"yuktarashtra":8214,"Ġmadrasa":8215,"Ġdrrishtikonaru":8216,"eding":8217,"ncy":8218,"uja":8219,"unta":8220,"yyo":8221,"Ġriya":8222,"kamp":8223,"matha":8224,"Ġayara":8225,"Ġabya":8226,"Ġakhanda":8227,"Ġmathura":8228,"chai":8229,"Ġpragati":8230,"Ġbakta":8231,"sip":8232,"Ġulla":8233,"Ġdena":8234,"Ġdab":8235,"ded":8236,"Ġyadaba":8237,"Ġparidhana":8238,"mano":8239,"Ġsahasra":8240,"Ġghasa":8241,"Ġtherapy":8242,"à¤¯":8243,"Ġalaka":8244,"Ġ1933":8245,"Ġpanthi":8246,"Ġ1925":8247,"Ġsmarana":8248,"Ġmatia":8249,"Ġduhkhi":8250,"Ġshirshaka":8251,"Ġkhadyare":8252,"Ġkamei":8253,"Ġashraya":8254,"Ġprachura":8255,"Ġyatayata":8256,"bapa":8257,"badita":8258,"Ġabu":8259,"Ġbale":8260,"Ġbasan":8261,"Ġsetu":8262,"Ġsamare":8263,"nder":8264,"Ġchalanti":8265,"Ġ1921":8266,"Ġgapa":8267,"Ġshtori":8268,"Ġsil":8269,"Ġparlia":8270,"Ġhasti":8271,"Ġchya":8272,"Ġpiecha":8273,"Ġart":8274,"suchi":8275,"Ġgramina":8276,"stani":8277,"Ġasthira":8278,"Ġ83":8279,"ngitare":8280,"Ġbhumire":8281,"kandara":8282,"ghna":8283,"Ġnabagata":8284,"Ġpauthile":8285,"Ġpakshira":8286,"Ġall":8287,"Ġalso":8288,"Ġaphrikara":8289,"saunda":8290,"Ġmatsya":8291,"Ġashirbada":8292,"Ġsakshyarata":8293,"\"|":8294,"</":8295,"fu":8296,"idha":8297,"mbri":8298,"oli":8299,"unt":8300,"ÃĹ":8301,"matrare":8302,"nikata":8303,"saur":8304,"Ġkapila":8305,"dini":8306,"kir":8307,"set":8308,"Ġkarae":8309,"gumpha":8310,"Ġjanaki":8311,"Ġmandapare":8312,"Ġsomanatha":8313,"Ġsamayakrame":8314,"Ġharichandana":8315,"Ġpauchanti":8316,"Ġakyuta":8317,"garh":8318,"Ġghatithae":8319,"Ġsariba":8320,"cul":8321,"Ġsharala":8322,"chyuta":8323,"ferences":8324,"ĠsàŃ±yamsha":8325,"Ġkhalanayaka":8326,"ori":8327,"okta":8328,"zine":8329,"Ġbuna":8330,"nisa":8331,"chau":8332,"chihna":8333,"Ġpradeshika":8334,"trasaunda":8335,"âĢİ":8336,"shilpa":8337,"deya":8338,"neya":8339,"Ġsujata":8340,"phaina":8341,"kera":8342,"tarka":8343,"Ġyugala":8344,"ĠbishàŃ±a":8345,"Ġ67":8346,"Ġbyaktibishesha":8347,"Ġbhashaku":8348,"Ġhindumana":8349,"nchithile":8350,"Ġchitrakala":8351,"1955":8352,"1959":8353,"Ġatyachara":8354,"Ġganamadhya":8355,"Ġshobhaya":8356,"Ġdarshanika":8357,"Ġrabindra":8358,"Ġrritusraba":8359,"Ġahammada":8360,"koraputa":8361,"Ġbaishakha":8362,"Ġpresakripasan":8363,"Ġjharasuguda":8364,"esan":8365,"gcolor":8366,"tiksa":8367,"Ġmatrara":8368,"Ġbichitra":8369,"Ġkaka":8370,"Ġkajala":8371,"diba":8372,"Ġ120":8373,"taraja":8374,"Ġheuna":8375,"yure":8376,"tula":8377,"Ġmigra":8378,"Ġshikari":8379,"Ġtiru":8380,"Ġlokare":8381,"Ġpratibandha":8382,"Ġabashishta":8383,"Ġmahalakshmi":8384,"Ġsukshma":8385,"Ġpunara":8386,"Ġpurna":8387,"phai":8388,"phalare":8389,"Ġupachara":8390,"purbaru":8391,"kshika":8392,"inter":8393,"Ġadima":8394,"Ġwho":8395,"âĢĻ,":8396,"Ġneithiba":8397,"Ġdoshi":8398,"1952":8399,"à¥ĭ":8400,"Ġrakhanti":8401,"Ġanushthanara":8402,"ford":8403,"Ġbhabishyata":8404,"Ġpadithila":8405,"Ġasamara":8406,"Ġvein":8407,"Ġashtreli":8408,"ngaluru":8409,"Ġayusha":8410,"Ġuchcharana":8411,"Ġbinoda":8412,"Ġejensi":8413,"Ġraurakela":8414,"kampyu":8415,"ksina":8416,"mshare":8417,"sma":8418,"arsa":8419,"Ġbgcolor":8420,"shan":8421,"Ġmasaru":8422,"Ġox":8423,"ref":8424,"Ġbichcheda":8425,"bhala":8426,"bigraha":8427,"Ġhoiasu":8428,"ndaru":8429,"Ġchaura":8430,"lon":8431,"Ġmusha":8432,"Ġbyaya":8433,"Ġlondon":8434,"Ġpratipha":8435,"Ġabakasha":8436,"Ġsub":8437,"Ġjanapadi":8438,"ghanta":8439,"samra":8440,"Ġmejara":8441,"Ġchalaka":8442,"Ġsarpa":8443,"bandara":8444,"Ġpheria":8445,"Ġphla":8446,"Ġparyyapta":8447,"Ġpande":8448,"sarara":8449,"chua":8450,"purbaka":8451,"Ġranaji":8452,"Ġbujhaithae":8453,"aushadhiya":8454,"ĠtattàŃ±aba":8455,"Ġjarmanira":8456,"Ġchamacha":8457,"Ġgumphare":8458,"Ġprakalpare":8459,"Ġaktiara":8460,"Ġpracheshta":8461,"Ġdaktareta":8462,"Ġunabimsha":8463,"inandina":8464,"Ġagnashaya":8465,"ĠsàŃ±echcha":8466,"aitihasika":8467,"kki":8468,"nguda":8469,"ptani":8470,"Ġson":8471,"Ġsaheba":8472,"Ġsalila":8473,"leksa":8474,"Ġbibi":8475,"tei":8476,"Ġsepte":8477,"Ġnahanti":8478,"dhishthira":8479,"lore":8480,"Ġkirana":8481,"Ġmilanti":8482,"Ġtimes":8483,"Ġhuma":8484,"Ġmahamari":8485,"Ġsunila":8486,"Ġchitrita":8487,"Ġbohu":8488,"Ġshridebi":8489,"Ġsehidina":8490,"nology":8491,"Ġsopana":8492,"Ġkhelu":8493,"tariya":8494,"Ġshabdaru":8495,"Ġdharayae":8496,"Ġchumbakiya":8497,"samaya":8498,"Ġgramabasi":8499,"1964":8500,"ĠàŃ±eshta":8501,"Ġparbatamala":8502,"Ġkalikatara":8503,"Ġbamshadhara":8504,"Ġbiphalata":8505,"Ġrojagara":8506,"Ġschool":8507,"Ġjournal":8508,"Ġashrumochana":8509,");":8510,"500":8511,"bor":8512,"áŀ":8513,"Ġver":8514,"Ġbane":8515,"bacha":8516,"shchita":8517,"Ġmaja":8518,"Ġmathara":8519,"pae":8520,"Ġbadana":8521,"Ġniuro":8522,"Ġnigama":8523,"hudi":8524,"Ġhoiyaichi":8525,"Ġdama":8526,"Ġsamasamayika":8527,"Ġparimita":8528,"Ġgabesha":8529,"Ġlasika":8530,"Ġmadhyabhagare":8531,"Ġabaidha":8532,"Ġhastare":8533,"Ġmahabala":8534,"Ġghani":8535,"Ġkota":8536,"publi":8537,"pustaka":8538,"Ġthana":8539,"à¤®":8540,"Ġpoe":8541,"Ġphipha":8542,"Ġkamishanara":8543,"Ġparbatara":8544,"1954":8545,"nguthi":8546,"dson":8547,"Ġmaramati":8548,"bhadraka":8549,"Ġmahendra":8550,"Ġintaranya":8551,"Ġsabyasachi":8552,"Ġgrup":8553,"Ġsamasyara":8554,"df":8555,"ffe":8556,"gli":8557,"ithanti":8558,"koi":8559,"myana":8560,"tyara":8561,"tyananda":8562,"rayagada":8563,"das":8564,"Ġprapti":8565,"Ġkacha":8566,"Ġrashira":8567,"tero":8568,"Ġbaghu":8569,"Ġ1914":8570,"Ġyadu":8571,"kintu":8572,"Ġbyasta":8573,"Ġrosha":8574,"Ġsitara":8575,"shtain":8576,"karmi":8577,"Ġmega":8578,"sub":8579,"Ġfra":8580,"Ġflu":8581,"Ġ56":8582,"Ġbulu":8583,"Ġbishakriya":8584,"sanaru":8585,"Ġbhot":8586,"Ġsamarpana":8587,"yanarayana":8588,"à¦¾":8589,"ĠdàŃ±adashi":8590,"Ġsamkhyara":8591,"Ġmadelim":8592,"Ġimlandara":8593,"bhubaneshàŃ±ra":8594,"Ġphelosipa":8595,"Ġsamrriddha":8596,"Ġabirbhaba":8597,"ot":8598,"Ġboda":8599,"baila":8600,"Ġayoga":8601,"aria":8602,"Ġdrama":8603,"Ġprashikshaka":8604,"Ġnianti":8605,"Ġsamlagna":8606,"Ġbhashana":8607,"trala":8608,"bin":8609,"bibhaga":8610,"Ġhemanta":8611,"Ġkiborda":8612,"tona":8613,"Ġbyabasthare":8614,"Ġutpadita":8615,"Ġnepali":8616,"Ġkarukaryya":8617,"Ġkalakrriti":8618,"Ġarambharu":8619,"Ġshrikshetra":8620,"Ġsamskaranare":8621,"Ġekademira":8622,"Ġhota":8623,"Ġprritha":8624,"jikali":8625,"Ġjibasara":8626,"Ġjayaprakasha":8627,"ngula":8628,"Ġsamajasebi":8629,"ĠdayitàŃ±re":8630,"Ġbhadraba":8631,"Ġsathik":8632,"nthiru":8633,"Ġparamparare":8634,"ĠsamanàŃ±ya":8635,"Ġsobhieta":8636,"gle":8637,"Ġz":8638,"yada":8639,"Ġbru":8640,"Ġbyan":8641,"Ġbasti":8642,"charika":8643,"Ġsamman":8644,"Ġsammukha":8645,"Ġtatare":8646,"Ġnati":8647,"oim":8648,"Ġdepartment":8649,"Ġii":8650,"Ġiu":8651,"âĢĮ-":8652,"Ġgabhar":8653,"Ġlabo":8654,"Ġsili":8655,"ushan":8656,"sthani":8657,"tarani":8658,"ghatare":8659,"Ġyuddhara":8660,"Ġsouth":8661,"phil":8662,"Ġ82":8663,"Ġphilipa":8664,"stic":8665,"Ġdashahara":8666,"Ġakarshaniya":8667,"aibhi":8668,"Ġdraupadi":8669,"Ġrahula":8670,"Ġà¤ķ":8671,"Ġbhaktamana":8672,"Ġenaecha":8673,"Ġsirij":8674,"Ġkaridiayae":8675,"Ġnrrityare":8676,"Ġrajuti":8677,"Ġhaiskula":8678,"suna":8679,"skri":8680,"Ġtransla":8681,"hibi":8682,"Ġpor":8683,"Ġakhya":8684,"Ġenda":8685,"shtya":8686,"nis":8687,"Ġprabana":8688,"Ġpradhanya":8689,"Ġbadhu":8690,"àŃ±ira":8691,"Ġul":8692,"Ġhoithai":8693,"Ġdainandina":8694,"Ġik":8695,"Ġjiu":8696,"Ġmil":8697,"Ġanudana":8698,"Ġsiddhi":8699,"manaru":8700,"Ġcharchcha":8701,"Ġchitrare":8702,"Ġyemiti":8703,"Ġgora":8704,"graph":8705,"Ġuttirnna":8706,"pesha":8707,"Ġbhushita":8708,"Ġkalapare":8709,"Ġmukhyalaya":8710,"Ġ68":8711,"Ġposhana":8712,"Ġrajyasabha":8713,"Ġ86":8714,"Ġdokana":8715,"tarina":8716,"landara":8717,"Ġainare":8718,"Ġasuchanti":8719,"Ġganatan":8720,"Ġdarshaniya":8721,"Ġbujhamana":8722,"Ġmutrashaya":8723,"Ġprarambha":8724,"Ġbhabanipatana":8725,"Ġkhrishtiana":8726,"Ġpiaja":8727,"banda":8728,"smas":8729,"yarare":8730,"ĠÂ":8731,"ram":8732,"yamana":8733,"dayi":8734,"Ġmatrik":8735,"rest":8736,"Ġbidesha":8737,"Ġkalina":8738,"nkabadi":8739,"Ġudita":8740,"Ġsamsthana":8741,"bija":8742,"baraha":8743,"Ġdini":8744,"Ġdire":8745,"kika":8746,"Ġparisamkh":8747,"Ġking":8748,"Ġshapatha":8749,"yaipariba":8750,"Ġloma":8751,"Ġabasa":8752,"Ġsuchita":8753,"anusare":8754,"ĠbishàŃ±karma":8755,"ndua":8756,"Ġkanuna":8757,"Ġatibahita":8758,"shyapa":8759,"tern":8760,"Ġphlu":8761,"mentari":8762,"1965":8763,"nyasa":8764,"nger":8765,"jona":8766,"Ġmaricha":8767,"Ġyauchi":8768,"Ġbasanti":8769,"Ġchintamani":8770,"Ġpaenta":8771,"Ġmamalara":8772,"Ġyogini":8773,"sundaragada":8774,"Ġjatisamgha":8775,"Ġpressure":8776,"Ġbrrindabana":8777,"Ġlanguage":8778,"yaba":8779,"tila":8780,"datta":8781,"Ġsate":8782,"shanta":8783,"Ġpake":8784,"Ġpatita":8785,"Ġkarine":8786,"Ġbatare":8787,"Ġbastura":8788,"Ġsenare":8789,"Ġbhanu":8790,"Ġkartti":8791,"Ġbyadhi":8792,"Ġtiki":8793,"dàŃ±a":8794,"darara":8795,"Ġ63":8796,"Ġbishakha":8797,"cep":8798,"poshaka":8799,"Ġcheli":8800,"Ġ''":8801,"Ġlagichi":8802,"Ġlaksharu":8803,"Ġbidyalayara":8804,"Ġkhuntia":8805,"1966":8806,"lait":8807,"Ġkilomitar":8808,"Ġmahabidyalayara":8809,"Ġkyale":8810,"pril":8811,"mentara":8812,"chota":8813,"Ġlagayae":8814,"bishàŃ±asa":8815,"ĠashàŃ±ina":8816,"ĠashàŃ±ini":8817,"Ġbrrittire":8818,"ancer":8819,"Ġdibasare":8820,"Ġbhattacharyya":8821,"Ġgumphara":8822,"Ġservi":8823,"Ġecono":8824,"brrita":8825,"dru":8826,"kli":8827,"mura":8828,"nor":8829,"ãĥ":8830,"day":8831,"Ġsajjita":8832,"shpa":8833,"Ġprata":8834,"Ġbibadiya":8835,"Ġtadanta":8836,"Ġnathibaru":8837,"bila":8838,"Ġjalabha":8839,"Ġmuhur":8840,"Ġkina":8841,"Ġgal":8842,"Ġgames":8843,"Ġanudhyana":8844,"iama":8845,"iachalachchitra":8846,"Ġsuchaka":8847,"Ġbedi":8848,"Ġupabhoga":8849,"Ġarti":8850,"pera":8851,"Ġsarani":8852,"Ġshritama":8853,"Ġshrikanta":8854,"Ġpoti":8855,"phia":8856,"Ġkendrara":8857,"Ġmasaku":8858,"pheta":8859,"Ġtribhu":8860,"shtita":8861,"panthi":8862,"Ġchaliba":8863,"samaja":8864,"Ġjantu":8865,"Ġupanya":8866,"Ġnot":8867,"phona":8868,"Ġbinayaka":8869,"toric":8870,"asihara":8871,"Ġprrishthabhumi":8872,"ĠkàŃ±chit":8873,"Ġgayatri":8874,"Ġbilamba":8875,"Ġkhanija":8876,"Ġsishtama":8877,"Ġbhabishyatare":8878,"Ġkrantiya":8879,"smara":8880,"Ġspandana":8881,"Ġaksh":8882,"Ġeph":8883,"Ġmap":8884,"Ġprahara":8885,"Ġprakare":8886,"kuntha":8887,"palita":8888,"Ġsere":8889,"Ġsetiki":8890,"Ġus":8891,"Ġsamba":8892,"Ġsamghara":8893,"Ġchalia":8894,"Ġchampa":8895,"Ġinda":8896,"Ġ1919":8897,"Ġjagi":8898,"Ġjagrata":8899,"Ġmadhyahna":8900,"Ġanusuchita":8901,"ned":8902,"yogu":8903,"dartha":8904,"darbha":8905,"ĠdàŃ±nd":8906,"ntanu":8907,"Ġjelare":8908,"Ġagneya":8909,"Ġnyayika":8910,"Ġsambhabatah":8911,"Ġdhua":8912,"Ġniayaichi":8913,"Ġinasu":8914,"Ġashtadasha":8915,"Ġsambhabapara":8916,"Ġdijaina":8917,"Ġupadhire":8918,"kendrapada":8919,"Ġmurmu":8920,"Ġnidralu":8921,"Ġhathata":8922,"Ġuttejana":8923,"Ġinashtichyuta":8924,"Ġaluminiyam":8925,"Ġbaidyanatha":8926,"Ġjalasechana":8927,"Ġbaernna":8928,"Ġsp":8929,"machi":8930,"thia":8931,"Ġsashastra":8932,"gacha":8933,"ĠbidàŃ±":8934,"Ġbilasa":8935,"Ġbamana":8936,"thro":8937,"tral":8938,"bihara":8939,"bikasha":8940,"shim":8941,"shing":8942,"Ġgaiba":8943,"Ġshasita":8944,"meri":8945,"Ġrom":8946,"Ġtir":8947,"Ġpartire":8948,"ĠmahatàŃ±":8949,"Ġsubrata":8950,"Ġbest":8951,"Ġabhibrriddhi":8952,"Ġyou":8953,"inf":8954,"stre":8955,"tikala":8956,"à¤ķ":8957,"Ġsorisha":8958,"basati":8959,"Ġ108":8960,"Ġkahithanti":8961,"Ġlagithae":8962,"Ġdashand":8963,"1010":8964,"mandalara":8965,"Ġva":8966,"ksiko":8967,"namakarana":8968,"Ġshilalekha":8969,"Ġbabushan":8970,"Ġmutabaka":8971,"Ġkartiko":8972,"Ġtourism":8973,"Ġbarselona":8974,"blika":8975,"Ġskandha":8976,"Ġatri":8977,"Ġadara":8978,"Ġakto":8979,"Ġeya":8980,"Ġsabata":8981,"nigdha":8982,"chanara":8983,"lisisa":8984,"Ġniko":8985,"jai":8986,"Ġuma":8987,"Ġupu":8988,"bhabi":8989,"Ġ1923":8990,"Ġparinama":8991,"Ġsham":8992,"ngathana":8993,"ngalora":8994,"Ġmithya":8995,"Ġrahithibaru":8996,"Ġgolare":8997,"Ġkaryyakartta":8998,"Ġduniare":8999,"Ġmehe":9000,"Ġgugala":9001,"Ġdekhai":9002,"Ġsarbekshana":9003,"Ġshrimati":9004,"ties":9005,"Ġthaba":9006,"byatita":9007,"Ġdurgara":9008,"bandhana":9009,"tanaru":9010,"Ġtahasila":9011,"Ġphika":9012,"Ġkhoju":9013,"Ġtripura":9014,"pitala":9015,"samajika":9016,"dharanare":9017,"jhada":9018,"Ġà¤®":9019,"que":9020,"cies":9021,"janita":9022,"Ġdaktarakhana":9023,"Ġmalti":9024,"enae":9025,"Ġnirbharashila":9026,"serva":9027,"Ġbastaba":9028,"eee":9029,"mpel":9030,"Ġpradarshani":9031,"Ġdasharatha":9032,"Ġmuduli":9033,"Ġbulaiba":9034,"ae":9035,"banya":9036,"gharara":9037,"kkana":9038,"pl":9039,"srri":9040,"Ġthu":9041,"Ġsanya":9042,"tini":9043,"Ġaur":9044,"Ġaci":9045,"Ġbibhuti":9046,"Ġkarithale":9047,"Ġrahani":9048,"Ġraptani":9049,"teshàŃ±ra":9050,"dhanara":9051,"Ġane":9052,"ndar":9053,"Ġdekhu":9054,"Ġparikalpana":9055,"Ġmulaka":9056,"Ġgah":9057,"Ġmanta":9058,"Ġroshei":9059,"Ġsijha":9060,"Ġhamsa":9061,"Ġmahataba":9062,"Ġkushtha":9063,"Ġpinda":9064,"ory":9065,"Ġlina":9066,"suma":9067,"sutra":9068,"Ġposha":9069,"Ġsodi":9070,"Ġpela":9071,"Ġalabama":9072,"Ġchemi":9073,"kanagiri":9074,"Ġjagamohana":9075,"Ġasuthile":9076,"Ġmausumi":9077,"Ġtantrika":9078,"Ġnilakantha":9079,"1946":9080,"Ġniayaithila":9081,"ballabha":9082,"Ġbibekananda":9083,"Ġupasthapika":9084,"Ġbishuba":9085,"eba":9086,"isharu":9087,"nshia":9088,"ugh":9089,"Ġ$":9090,"ananta":9091,"ratha":9092,"Ġbanu":9093,"Ġkre":9094,"thaba":9095,"Ġmatrika":9096,"Ġoshtio":9097,"Ġprakhyata":9098,"references":9099,"Ġbishara":9100,"Ġbird":9101,"Ġbapu":9102,"Ġanthu":9103,"bhakti":9104,"yibaku":9105,"Ġarddh":9106,"Ġyudhishthira":9107,"sus":9108,"darare":9109,"Ġghataka":9110,"Ġghatanara":9111,"Ġdekhayaithae":9112,"Ġ57":9113,"Ġmanaku":9114,"Ġchetri":9115,"kantu":9116,"Ġbidyalayaru":9117,"Ġmanishara":9118,"Ġshatabdiru":9119,"Ġgranthare":9120,"Ġyaugika":9121,"Ġbidyadhara":9122,"Ġsamkalpa":9123,"maisina":9124,"Ġgyasa":9125,"yanir":9126,"kshudra":9127,"Ġmatrribhasha":9128,"Ġpachaku":9129,"Ġshrimandirara":9130,"Ġparamparara":9131,"Ġmurali":9132,"Ġuparokta":9133,"Ġphysi":9134,"Ġshuklapaksha":9135,"ĠsàŃ±yamshasita":9136,"]]":9137,"boda":9138,"brea":9139,"nh":9140,"ohita":9141,"sthitire":9142,"à±":9143,"raj":9144,"yal":9145,"Ġaie":9146,"Ġabhaya":9147,"Ġacharana":9148,"Ġedu":9149,"Ġover":9150,"Ġkalia":9151,"Ġradhanatha":9152,"Ġbadi":9153,"Ġsammati":9154,"ania":9155,"shima":9156,"del":9157,"Ġ1918":9158,"yuna":9159,"Ġjin":9160,"Ġgauda":9161,"Ġbargara":9162,"Ġanukula":9163,"Ġkaryyakramara":9164,"lus":9165,"kariba":9166,"Ġsarathi":9167,"Ġshrijiu":9168,"nus":9169,"noma":9170,"cent":9171,"shori":9172,"ĠdàŃ±ipara":9173,"ternal":9174,"vid":9175,"riala":9176,"Ġpauthiba":9177,"Ġbandapana":9178,"Ġkyabi":9179,"Ġakhira":9180,"Ġpriti":9181,"Ġgem":9182,"janina":9183,"Ġkshatigrasta":9184,"Ġradhakrrishna":9185,"Ġstanyapayi":9186,"grrihita":9187,"terial":9188,"ĠsàŃ±ikrritiprapta":9189,"psy":9190,"ncharita":9191,"Ġdaridra":9192,"Ġagei":9193,"Ġlahora":9194,"Ġahimsa":9195,"opi":9196,"Ø§":9197,"ãĤ":9198,"arthe":9199,"anna":9200,"Ġska":9201,"Ġbranda":9202,"lagi":9203,"Ġkorta":9204,"nau":9205,"Ġact":9206,"Ġsadhaba":9207,"chatur":9208,"pade":9209,"palana":9210,"Ġbatika":9211,"Ġgrupa":9212,"Ġnima":9213,"Ġsamkramaka":9214,"Ġbhagya":9215,"belara":9216,"Ġ1912":9217,"Ġnirantara":9218,"unai":9219,"Ġsui":9220,"Ġjanai":9221,"Ġtru":9222,"Ġhueni":9223,"yakala":9224,"Ġutkrrishta":9225,"Ġpiiba":9226,"Ġarthraitisa":9227,"Ġrajamane":9228,"Ġrajasthana":9229,"Ġamerican":9230,"Ġbaideshika":9231,"sturi":9232,"Ġbrahmani":9233,"Ġmulyabana":9234,"Ġpantha":9235,"1958":9236,"Ġgatibidhi":9237,"duradarshanare":9238,"1934":9239,"britisha":9240,"Ġechaaibhi":9241,"nkochana":9242,"parshàŃ±re":9243,"Ġchyanela":9244,"Ġsraba":9245,"Ġantariksha":9246,"Ġutakshepana":9247,"Ġsuprima":9248,"afe":9249,"ganta":9250,"hn":9251,"ipare":9252,"llo":9253,"raka":9254,"Ġatta":9255,"Ġend":9256,"chali":9257,"chini":9258,"Ġprastha":9259,"Ġprako":9260,"Ġbicharana":9261,"Ġnihata":9262,"ĠanàŃ±e":9263,"jaku":9264,"Ġushu":9265,"Ġekatha":9266,"dhisha":9267,"Ġpaisa":9268,"Ġpaithae":9269,"Ġlokanatha":9270,"Ġsila":9271,"Ġhataku":9272,"Ġsud":9273,"prasa":9274,"ndama":9275,"kel":9276,"Ġkalakrame":9277,"Ġsartta":9278,"Ġkoria":9279,"Ġ61":9280,"dutika":9281,"Ġmiliyana":9282,"Ġkhelara":9283,"Ġ81":9284,"ield":9285,"Ġdodson":9286,"Ġkrismas":9287,"ĠdàŃ±ipare":9288,"Ġcharipakhare":9289,"Ġcomple":9290,"phen":9291,"trol":9292,"Ġhotela":9293,"Ġsamarthaka":9294,"Ġnyayalayare":9295,"khemundi":9296,"Ġplate":9297,"Ġbijepi":9298,"Ġchikitsara":9299,"Ġsamudrare":9300,"skopi":9301,"simhara":9302,"Ġastrashastra":9303,"Ġdinosauria":9304,"Ġdrrishtire":9305,"Ġbagicha":9306,"Ġupanadi":9307,"ĠdàŃ±ndàŃ±":9308,"'t":9309,"eo":9310,"ranara":9311,"ttrri":9312,"babu":9313,"Ġajaya":9314,"shtiya":9315,"shula":9316,"ĠhàŃ±a":9317,"Ġbapi":9318,"nkalana":9319,"Ġnibasi":9320,"charare":9321,"Ġtapu":9322,"thuna":9323,"dhiba":9324,"Ġits":9325,"bhima":9326,"Ġ1917":9327,"Ġjashti":9328,"Ġyatrare":9329,"metri":9330,"Ġmadhyabartti":9331,"Ġsina":9332,"Ġmahasagara":9333,"Ġsubhasha":9334,"Ġbesamarika":9335,"Ġlokasamkhya":9336,"barshara":9337,"Ġpira":9338,"Ġpithare":9339,"nchalana":9340,"kesan":9341,"taro":9342,"Ġgulma":9343,"stariya":9344,"njaitis":9345,"à¤²":9346,"à¤¸":9347,"byaba":9348,"Ġrichar":9349,"Ġsaharatharu":9350,"Ġramayanara":9351,"dosha":9352,"Ġkanaka":9353,"Ġwild":9354,"Ġgeo":9355,"Ġashcharyya":9356,"Ġ1926":9357,"Ġunited":9358,"1937":9359,"Ġsainsa":9360,"Ġbrrihat":9361,"samskrrita":9362,"Ġbastabare":9363,"Ġbiliyana":9364,"ĠàŃ±ebasaita":9365,"Ġdalararu":9366,"ĠprrithàŃ±ira":9367,"Ġsamaresha":9368,"ĠtattàŃ±abadhanare":9369,"kranta":9370,"spo":9371,"à©":9372,"andi":9373,"Ġsnigdha":9374,"Ġkrodha":9375,"Ġaharana":9376,"shrri":9377,"Ġmalla":9378,"nkala":9379,"Ġandi":9380,"Ġbhaji":9381,"bid":9382,"bindu":9383,"Ġdemo":9384,"Ġdamodara":9385,"Ġdibhi":9386,"Ġdipika":9387,"Ġparipurnna":9388,"Ġshrama":9389,"1930":9390,"Ġparsi":9391,"Ġkathabartta":9392,"phasa":9393,"thera":9394,"Ġinclu":9395,"nayagada":9396,"Ġjatiyata":9397,"Ġbut":9398,"ĠdàŃ±ya":9399,"Ġdharare":9400,"njina":9401,"tananda":9402,"sting":9403,"Ġbrite":9404,"Ġmausa":9405,"Ġparbatya":9406,"Ġsaiko":9407,"Ġtandra":9408,"Ġjarnna":9409,"1942":9410,"darshaniya":9411,"Ġskularu":9412,"Ġbaripada":9413,"paryyaya":9414,"Ġbabun":9415,"Ġpublished":9416,"Ġbadyayantra":9417,"Ġharekrrishna":9418,"Ġarthanitire":9419,"Ġrelapatha":9420,"Ġpratibandhaka":9421,"ethire":9422,"mbar":9423,"pp":9424,"rashtra":9425,"yadio":9426,"Ġblu":9427,"Ġbrea":9428,"mayo":9429,"bac":9430,"Ġajikali":9431,"rik":9432,"Ġkahe":9433,"Ġbag":9434,"din":9435,"Ġsekenda":9436,"Ġnitya":9437,"Ġ(;":9438,"Ġnajara":9439,"Ġisa":9440,"Ġ1900":9441,"ruta":9442,"Ġpaibare":9443,"Ġshtara":9444,"Ġmida":9445,"Ġmishei":9446,"Ġsua":9447,"Ġsumana":9448,"ishampel":9449,"Ġgolapa":9450,"Ġjanmasthana":9451,"Ġcancer":9452,"prema":9453,"mukhe":9454,"Ġsarbam":9455,"haria":9456,"Ġwri":9457,"Ġbadaka":9458,"àŃ±ada":9459,"krida":9460,"Ġbaigana":9461,"Ġbidhayika":9462,"Ġ95":9463,"sialishta":9464,"Ġityadire":9465,"Ġbisheshakari":9466,"sarba":9467,"Ġamadani":9468,"Ġaparahna":9469,"Ġsatyajita":9470,"Ġbanij":9471,"Ġ1905":9472,"brrittigata":9473,"sindhu":9474,"Ġyishu":9475,"Ġhimachala":9476,"Ġkhyata":9477,"Ġjyotirli":9478,"Ġhaidrabada":9479,"Ġvideos":9480,"Ġabhyantarina":9481,"Ġlimiteda":9482,"Ġadhiniyamara":9483,"Ġassociation":9484,"afeeee":9485,"aha":9486,"jàŃ±la":9487,"ubhaya":9488,"xa":9489,"Ġsmi":9490,"Ġbaru":9491,"naga":9492,"dainosara":9493,"Ġsal":9494,"Ġsachchi":9495,"Ġmathare":9496,"gai":9497,"pau":9498,"Ġkapada":9499,"à¬¼à¬¼":9500,"Ġkaridei":9501,"sipi":9502,"Ġtable":9503,"bibidha":9504,"Ġhoipada":9505,"urnna":9506,"Ġchalita":9507,"Ġjag":9508,"Ġparile":9509,"Ġshaka":9510,"Ġbargare":9511,"nnati":9512,"Ġroma":9513,"nee":9514,"Ġkaribapare":9515,"dàŃ±ya":9516,"Ġkaryyabidhi":9517,"parile":9518,"Ġnela":9519,"Ġhita":9520,"lution":9521,"Ġarthare":9522,"Ġmesina":9523,"Ġanyamane":9524,"bhabaka":9525,"Ġshikshabita":9526,"Ġthaka":9527,"à¤µ":9528,"Ġsora":9529,"Ġdhaka":9530,"Ġdhataba":9531,"Ġaspi":9532,"Ġrakhichanti":9533,"Ġgurubara":9534,"Ġjagabandhu":9535,"Ġpathaka":9536,"Ġaradhya":9537,"Ġkabitara":9538,"Ġà¤¤":9539,"duradarshana":9540,"ĠbhubaneshàŃ±rathare":9541,"Ġpurnnachandra":9542,"Ġeksache":9543,"sahit":9544,"lska":9545,"Ġpakistanare":9546,"Ġmalayalama":9547,"Ġirabati":9548,"Ġstrepto":9549,"gujaratara":9550,"Ġrajesha":9551,"Ġsanyasi":9552,"ddina":9553,"uiki":9554,"àµ":9555,"namala":9556,"riti":9557,"rire":9558,"led":9559,"lic":9560,"list":9561,"Ġbibhu":9562,"bhajapa":9563,"Ġnabhi":9564,"bishnu":9565,"âĢ²":9566,"manaba":9567,"Ġekadasha":9568,"bhisheka":9569,"Ġmunna":9570,"Ġlatin":9571,"Ġanubandhita":9572,"Ġabalo":9573,"Ġchinna":9574,"Ġkusha":9575,"phal":9576,"ekabimsha":9577,"sthapita":9578,"keshàŃ±ra":9579,"Ġbolara":9580,"Ġcy":9581,"parnna":9582,"darshaka":9583,"Ġkoli":9584,"à¤¡":9585,"urupa":9586,"Ġ71":9587,"Ġmilile":9588,"Ġria":9589,"book":9590,"Ġdhan":9591,"chera":9592,"Ġalako":9593,"Ġagami":9594,"basiya":9595,"Ġsaptahare":9596,"tors":9597,"khuda":9598,"Ġpranita":9599,"Ġpushkarini":9600,"Ġbhadrakali":9601,"Ġanandapura":9602,"monari":9603,"Ġbamshanu":9604,"Ġadhinastha":9605,"Ġkholiba":9606,"Ġhimalayara":9607,"ĠbishàŃ±kap":9608,"haidro":9609,"Ġsammilanire":9610,"Ġdaridrya":9611,"Ġmaharshi":9612,"Ġejenta":9613,"Ġkarisarichanti":9614,"Ġbamladesha":9615,"Ġsakashe":9616,"Ġindonesia":9617,"Ġnishiddha":9618,"kampyutara":9619,"phana":9620,"trrita":9621,"Ġtharu":9622,"bajara":9623,"Ġsap":9624,"shvara":9625,"thakare":9626,"Ġone":9627,"gas":9628,"saita":9629,"Ġnibaraka":9630,"mio":9631,"mily":9632,"Ġehisabu":9633,"Ġdaba":9634,"bedya":9635,"debaku":9636,"jik":9637,"Ġpaibaku":9638,"ging":9639,"Ġshaba":9640,"Ġshtora":9641,"neph":9642,"yogara":9643,"Ġpurohita":9644,"Ġgoshthira":9645,"Ġmechare":9646,"Ġdiayauthiba":9647,"Ġrunu":9648,"Ġ600":9649,"à¤Ĥ":9650,"Ġkuhagala":9651,"Ġdeichi":9652,"Ġkandi":9653,"Ġsamuhara":9654,"pota":9655,"dola":9656,"àŃ±ela":9657,"Ġhoma":9658,"Ġsamrachana":9659,"Ġkrrimi":9660,"Ġuparu":9661,"Ġkilograma":9662,"1953":9663,"Ġà¤¸":9664,"Ġmaratha":9665,"Ġmahaprasada":9666,"Ġitihasara":9667,"Ġsantala":9668,"Ġshikhithile":9669,"Ġbinimaya":9670,"Ġdaebe":9671,"Ġbiplaba":9672,"prashasanika":9673,"Ġprotsahita":9674,"ĠkàŃ±antama":9675,"html":9676,"Ġnagarjuna":9677,"ĠprrithàŃ±iraja":9678,"ath":9679,"gnan":9680,"phare":9681,"high":9682,"raghu":9683,"tamulaka":9684,"Ġbrana":9685,"tiru":9686,"Ġsakale":9687,"shalare":9688,"Ġprai":9689,"Ġpagala":9690,"patara":9691,"Ġkabaka":9692,"Ġghera":9693,"bhana":9694,"hula":9695,"shishtha":9696,"Ġinde":9697,"Ġkarpura":9698,"Ġmukunda":9699,"gikrrita":9700,"ngati":9701,"Ġmia":9702,"Ġtime":9703,"Ġmahat":9704,"Ġsushanta":9705,"Ġbegare":9706,"Ġyojanare":9707,"Ġkedara":9708,"prak":9709,"prabandha":9710,"samara":9711,"Ġkorona":9712,"Ġshikshanushthana":9713,"dhua":9714,"Ġthantia":9715,"Ġtarini":9716,"Ġbrrisha":9717,"Ġuchchashiksha":9718,"Ġkarei":9719,"Ġkareithile":9720,"Ġpreksha":9721,"Ġanabika":9722,"Ġityadira":9723,"Ġghora":9724,"yetebele":9725,"Ġpranaba":9726,"Ġbijuli":9727,"Ġweishampel":9728,"Ġtaim":9729,"1936":9730,"Ġsmrritire":9731,"ĠshàŃ±asanali":9732,"Ġnatakara":9733,"Ġkaryyanir":9734,"khola":9735,"ddama":9736,"bahula":9737,"Ġbrritta":9738,"Ġunmochana":9739,"ĠsaphtaàŃ±era":9740,"Ġanuradha":9741,"Ġgluko":9742,"historic":9743,"bidyut":9744,"Ġrachayita":9745,"aie":9746,"cro":9747,"ethi":9748,"mpo":9749,"Ġsti":9750,"mahe":9751,"Ġkli":9752,"Ġkyan":9753,"Ġmapi":9754,"Ġopi":9755,"kumari":9756,"sil":9757,"dharu":9758,"Ġushma":9759,"Ġsampadita":9760,"Ġnamuna":9761,"miki":9762,"yuga":9763,"Ġsamahara":9764,"Ġparita":9765,"Ġparisheshare":9766,"Ġjibati":9767,"Ġshahida":9768,"Ġlopa":9769,"1928":9770,"manyu":9771,"Ġsusa":9772,"Ġkhaanti":9773,"Ġkhapuri":9774,"Ġhim":9775,"Ġupala":9776,"Ġdunia":9777,"Ġbhuli":9778,"Ġreddi":9779,"mojo":9780,"Ġmanabika":9781,"Ġmanasimha":9782,"Ġuchchatara":9783,"Ġsabhyatara":9784,"bhena":9785,"Ġalama":9786,"Ġalatrasaunda":9787,"Ġdekhithile":9788,"Ġamshara":9789,"ĠguruttàŃ±":9790,"Ġhote":9791,"Ġprakashaka":9792,"Ġkyamera":9793,"Ġbinasha":9794,"Ġ10000":9795,"sàŃ±asthya":9796,"Ġajanta":9797,"mont":9798,"Ġà¨":9799,"jagatasimhapura":9800,"samudra":9801,"Ġsrrishta":9802,"phorda":9803,"Ġbaghuni":9804,"Ġbanijyika":9805,"iya":9806,"à³":9807,"ans":9808,"Ġsthi":9809,"mamsa":9810,"shanare":9811,"Ġmatira":9812,"ĠjàŃ±ala":9813,"sali":9814,"Ġpradesh":9815,"palara":9816,"Ġbachchana":9817,"dis":9818,"Ġgharu":9819,"siare":9820,"sibha":9821,"Ġtamba":9822,"bikrama":9823,"dhire":9824,"Ġ1911":9825,"kidney":9826,"senta":9827,"Ġparidarshana":9828,"endu":9829,"Ġbyati":9830,"Ġlaba":9831,"Ġshamba":9832,"Ġmadhyastha":9833,"Ġromana":9834,"Ġabagata":9835,"Ġmahabharatara":9836,"Ġcharu":9837,"Ġjanabasati":9838,"Ġyebe":9839,"Ġkenala":9840,"prastu":9841,"Ġutta":9842,"Ġbou":9843,"Ġrajamana":9844,"Ġsarbhe":9845,"Ġphate":9846,"Ġsehibhali":9847,"Ġshekha":9848,"poshana":9849,"Ġshreya":9850,"ngika":9851,"lands":9852,"Ġsarbajanina":9853,"Ġkamgresare":9854,"rikalina":9855,"nchile":9856,"phus":9857,"Ġprajapati":9858,"Ġmanorama":9859,"Ġsamanata":9860,"Ġbhrri":9861,"1940":9862,"Ġchakradhara":9863,"Ġpranimana":9864,"barttamanara":9865,"Ġmalayalam":9866,"maulika":9867,"Ġcity":9868,"Ġkarttabya":9869,"Ġdhrubiya":9870,"ĠbidàŃ±ana":9871,"cl":9872,"uta":9873,"Ġ>":9874,"Ġsrrish":9875,"madhyare":9876,"basta":9877,"ĠkàŃ±a":9878,"daka":9879,"aries":9880,"Ġjor":9881,"Ġojania":9882,"Ġhya":9883,"pattana":9884,"Ġkahara":9885,"Ġkabara":9886,"Ġradara":9887,"jami":9888,"Ġurddha":9889,"chchara":9890,"chuda":9891,"Ġsamgrrihita":9892,"Ġtahi":9893,"Ġhoiparanti":9894,"Ġhoithaanti":9895,"Ġdalaru":9896,"Ġisha":9897,"Ġshabara":9898,"Ġshastrare":9899,"Ġparbare":9900,"Ġkuda":9901,"Ġgod":9902,"Ġsahasi":9903,"Ġupahara":9904,"ken":9905,"Ġlea":9906,"Ġbhui":9907,"mudra":9908,"drashta":9909,"Ġkampana":9910,"Ġdinatharu":9911,"Ġdhakka":9912,"Ġyogaiba":9913,"ksharajana":9914,"sàŃ±ti":9915,"griba":9916,"Ġnarama":9917,"Ġbaladeba":9918,"Ġrayala":9919,"Ġtrripti":9920,"ence":9921,"tures":9922,"Ġdebatamana":9923,"Ġenvi":9924,"1932":9925,"ĠagraàŃ±ala":9926,"Ġmastish":9927,"Ġasamartha":9928,"lekhaka":9929,"Ġdampatti":9930,"Ġkamandara":9931,"Ġasosiesana":9932,"Ġcenter":9933,"agashta":9934,"Ġduhkhirama":9935,"apana":9936,"cted":9937,"ep":9938,"nura":9939,"roi":9940,"madhu":9941,"bahana":9942,"Ġkranti":9943,"shoda":9944,"Ġpaura":9945,"Ġbisho":9946,"Ġrajana":9947,"Ġrachanare":9948,"Ġradie":9949,"sing":9950,"siyam":9951,"Ġsambita":9952,"Ġyunai":9953,"Ġabadula":9954,"Ġchri":9955,"Ġjanajatira":9956,"Ġabhimukhe":9957,"Ġgoa":9958,"Ġsahayogare":9959,"pradhana":9960,"prasiddha":9961,"phalo":9962,"Ġhiro":9963,"Ġlekhuthile":9964,"samgha":9965,"nanapitha":9966,"Ġrecor":9967,"shthata":9968,"Ġmobaila":9969,"moha":9970,"shuri":9971,"Ġasia":9972,"duction":9973,"Ġdurgha":9974,"Ġsosialishta":9975,"Ġrachanabali":9976,"Ġprograma":9977,"Ġshrenibhukta":9978,"Ġpatraku":9979,"Ġkyalasi":9980,"Ġchaturbhuja":9981,"Ġisro":9982,"Ġjamire":9983,"Ġharnia":9984,"Ġandolanaku":9985,"Ġpharmula":9986,"Ġsammilita":9987,"Ġdrug":9988,"Ġwater":9989,"Ġphransa":9990,"Ġbaktrrita":9991,"Ġbodhahue":9992,"adhi":9993,"goda":9994,"oma":9995,"phila":9996,"plan":9997,"à·":9998,"Ġswa":9999,"Ġbula":10000,"bashesha":10001,"Ġabarana":10002,"dak":10003,"Ġsabhi":10004,"lena":10005,"Ġbicha":10006,"sial":10007,"chura":10008,"Ġname":10009,"Ġ1915":10010,"ntina":10011,"Ġgayana":10012,"meru":10013,"Ġanupra":10014,"1920":10015,"Ġbel":10016,"Ġkunti":10017,"Ġresour":10018,"Ġmoti":10019,"phari":10020,"mora":10021,"monia":10022,"put":10023,"shuni":10024,"Ġnirddeshika":10025,"dhyaksha":10026,"diama":10027,"Ġshukhi":10028,"Ġbraji":10029,"Ġphede":10030,"Ġpherai":10031,"Ġ87":10032,"Ġprerita":10033,"chen":10034,"Ġchora":10035,"Ġkaranamana":10036,"ngiya":10037,"ngiba":10038,"Ġsammanajanaka":10039,"Ġkriket":10040,"sophe":10041,"Ġ1500":10042,"Ġpathai":10043,"Ġshishuku":10044,"Ġnikataru":10045,"bhumira":10046,"Ġapaharana":10047,"Ġsaikela":10048,"Ġdrrishtikona":10049,"Ġbatali":10050,"Ġkampanire":10051,"Ġniladri":10052,"Ġsatyagraha":10053,"Ġrabibara":10054,"Ġkalikatare":10055,"Ġabrritti":10056,"Ġpratirodhaka":10057,"Ġchampiana":10058,"Ġnanadi":10059,"myuna":10060,"Ġstupa":10061,"rasayana":10062,"Ġsonapura":10063,"Ġudayagiri":10064,"Ġmadel":10065,"Ġkahuthile":10066,"Ġmudrare":10067,"piaeda":10068,"phlame":10069,"Ġkanun":10070,"Ġenaechaesa":10071,"ebe":10072,"Ä«":10073,"Ġkanti":10074,"Ġainara":10075,"Ġodisha":10076,"gajare":10077,"Ġmeka":10078,"Ġkamara":10079,"Ġkasturi":10080,"Ġniya":10081,"Ġuthe":10082,"bikshana":10083,"mis":10084,"Ġjapa":10085,"Ġmukabi":10086,"Ġladu":10087,"Ġshantanu":10088,"Ġpratishruti":10089,"tranare":10090,"Ġsihna":10091,"Ġhaji":10092,"barshare":10093,"Ġadhigrahana":10094,"Ġkusti":10095,"Ġkhatua":10096,"Ġyubati":10097,"Ġclare":10098,"Ġrajaguru":10099,"Ġgram":10100,"Ġmoksha":10101,"Ġdekhayiba":10102,"dui":10103,"bananda":10104,"ntaru":10105,"Ġprehistoric":10106,"Ġalapha":10107,"Ġlakshanaguda":10108,"Ġdeshaku":10109,"Ġbhedare":10110,"Ġjhiamana":10111,"Ġakramanakari":10112,"saria":10113,"1941":10114,"Ġanushthanare":10115,"Ġsampratika":10116,"Ġapli":10117,"Ġbijayini":10118,"Ġbahaghara":10119,"Ġkaryyara":10120,"Ġparibeshare":10121,"Ġkhadyara":10122,"Ġkhadyana":10123,"Ġbandhiba":10124,"Ġupatyakare":10125,"Ġimmyuniti":10126,"Ġshunayae":10127,"Ġcollege":10128,"Ġjatisamghara":10129,"Ġdiploma":10130,"Ġkriketare":10131,"Ġsamaroha":10132,"ĠtibàŃ±":10133,"Ġnorth":10134,"Ġmyaneja":10135,"Ġghurnni":10136,"Ġarddheka":10137,"ata":10138,"esia":10139,"uti":10140,"wal":10141,"Ġq":10142,"Ġskana":10143,"rakta":10144,"kalika":10145,"mato":10146,"malare":10147,"bas":10148,"Ġapre":10149,"Ġpradhi":10150,"Ġkaphi":10151,"Ġkarithaanti":10152,"sine":10153,"bim":10154,"bibha":10155,"rosisa":10156,"khandi":10157,"Ġkarabara":10158,"Ġmahabira":10159,"Ġbeta":10160,"Ġyoshi":10161,"Ġlitera":10162,"mukti":10163,"Ġreview":10164,"Ġkalasa":10165,"Ġkalejara":10166,"byabasa":10167,"Ġpremi":10168,"Ġambika":10169,"Ġbhagabati":10170,"Ġsrrishtikari":10171,"Ġmail":10172,"Ġprogram":10173,"Ġtinijana":10174,"Ġadau":10175,"Ġjora":10176,"Ġtrritiyamsha":10177,"Ġphilmapheyara":10178,"Ġdarama":10179,"Ġupasthapita":10180,"Ġhoiparichi":10181,"Ġdijaarda":10182,"Ġchaluthiba":10183,"Ġjarurikalina":10184,"Ġrasuna":10185,"girathi":10186,"Ġprakalpara":10187,"Ġprabadhana":10188,"Ġbirajamana":10189,"paramparika":10190,"glu":10191,"non":10192,"ore":10193,"via":10194,"xy":10195,"anyara":10196,"Ġsthitire":10197,"Ġklora":10198,"Ġakala":10199,"Ġsahararu":10200,"Ġmag":10201,"Ġmay":10202,"Ġmachara":10203,"chia":10204,"Ġprabasi":10205,"Ġkapha":10206,"Ġkathara":10207,"chchu":10208,"biryya":10209,"Ġchamada":10210,"Ġkarttrri":10211,"Ġyasho":10212,"senara":10213,"sensa":10214,"tuni":10215,"Ġshashi":10216,"meya":10217,"Ġmadhyayu":10218,"Ġanupata":10219,"Ġanugami":10220,"Ġhast":10221,"Ġlokakatha":10222,"Ġrajara":10223,"Ġfai":10224,"shunya":10225,"nathana":10226,"bhenta":10227,"Ġbaidutika":10228,"Ġdebapai":10229,"Ġsthanati":10230,"Ġheichi":10231,"ĠsimhadàŃ±ara":10232,"Ġlagithila":10233,"Ġdharitri":10234,"Ġprabhabaku":10235,"Ġchalithae":10236,"Ġjibajantu":10237,"ĠparikshadàŃ±ara":10238,"dharmara":10239,"Ġapasmara":10240,"laniya":10241,"ĠbhubaneshàŃ±ratharu":10242,"qua":10243,"1938":10244,"Ġsharan":10245,"Ġlagatara":10246,"arthat":10247,"Ġsaubhagya":10248,"gudikare":10249,"Ġgudikare":10250,"Ġhastakshepa":10251,"Ġchamatkara":10252,"Ġglobal":10253,"Ġpaleshtain":10254,"Ġbeaina":10255,"Ġturnnamenta":10256,"Ġvolu":10257,"Ġrisarchcha":10258,"tamilanadura":10259,"Ġacid":10260,"Ġmantabya":10261,"ktar":10262,"korta":10263,"nle":10264,"ski":10265,"ante":10266,"dam":10267,"shastrare":10268,"Ġmatre":10269,"Ġoma":10270,"Ġpakhe":10271,"Ġbidaya":10272,"pahada":10273,"Ġkashyapa":10274,"Ġratana":10275,"Ġrail":10276,"tent":10277,"Ġbabada":10278,"Ġniyojana":10279,"Ġdesi":10280,"Ġdevi":10281,"roja":10282,"Ġdasta":10283,"bhimukhi":10284,"Ġjibha":10285,"Ġbarddha":10286,"ngata":10287,"ngalo":10288,"Ġmicha":10289,"Ġhusena":10290,"Ġbesanta":10291,"ĠsàŃ±raja":10292,"prakrritika":10293,"nchai":10294,"karanti":10295,"parta":10296,"Ġghanti":10297,"Ġghatu":10298,"Ġfree":10299,"Ġprathamathara":10300,"tàŃ±ra":10301,"venti":10302,"geshàŃ±ra":10303,"Ġlekhani":10304,"Ġbuk":10305,"Ġsheyara":10306,"kriyara":10307,"Ġbhashabhashi":10308,"Ġyaipare":10309,"Ġ92":10310,"Ġtrigara":10311,"Ġsadaka":10312,"Ġadami":10313,"Ġshola":10314,"chumbakiya":10315,"Ġstam":10316,"Ġindiara":10317,"1945":10318,"Ġgajala":10319,"Ġrabindranatha":10320,"Ġagragati":10321,"Ġadhaka":10322,"smÃ³":10323,"Ġcommon":10324,"taigara":10325,"Ġasambhaba":10326,"Ġnyuyar":10327,"mintana":10328,"njiniyara":10329,"Ġbrrittigata":10330,"Ġsantali":10331,"Ġintarane":10332,"university":10333,"lectri":10334,"Ġchahida":10335,"Ġyonipatha":10336,"Ġprayuktibidya":10337,"Ġinfection":10338,"Ġparisamkhyana":10339,"Ġpraharaja":10340,"Ġradiesana":10341,"dre":10342,"nn":10343,"ople":10344,"yaram":10345,"tibh":10346,"batya":10347,"nadi":10348,"Ġasthana":10349,"Ġeki":10350,"shyara":10351,"thakura":10352,"Ġola":10353,"kul":10354,"Ġkarigara":10355,"dium":10356,"Ġupari":10357,"Ġtau":10358,"Ġbhagi":10359,"ming":10360,"Ġekadi":10361,"shiki":10362,"Ġir":10363,"bedara":10364,"Ġkarayibara":10365,"ĠparipakàŃ±":10366,"Ġbyape":10367,"gila":10368,"Ġmita":10369,"Ġrogaru":10370,"Ġsutrare":10371,"Ġpithi":10372,"Ġpipi":10373,"sthanika":10374,"Ġlipsa":10375,"Ġjanmagata":10376,"Ġsarada":10377,"koti":10378,"Ġkamsa":10379,"tàŃ±re":10380,"ĠsàŃ±as":10381,"Ġ88":10382,"Ġketebele":10383,"Ġbibhajita":10384,"Ġtushara":10385,"Ġchariti":10386,"vision":10387,"Ġhouse":10388,"Ġpathaithile":10389,"Ġhradara":10390,"Ġaparadhi":10391,"Ġpakhala":10392,"Ġnirakarana":10393,"1949":10394,"Ġchihni":10395,"dandare":10396,"Ġ1908":10397,"Ġdandita":10398,"Ġmurttira":10399,"Ġsambadikata":10400,"Ġmerudanda":10401,"bhramana":10402,"Ġsambadapatra":10403,"Ġmrriga":10404,"Ġjaibika":10405,"Ġilakare":10406,"bamandira":10407,"andhrapradeshara":10408,"brritta":10409,"Ġyunibharsiti":10410,"srripa":10411,"Ġsarbamota":10412,"Ġkarttrripaksha":10413,"Ġsharanarthi":10414,"smÃ³lska":10415,"atma":10416,"nto":10417,"à½":10418,"ĠØ":10419,"bagha":10420,"Ġachcha":10421,"Ġatala":10422,"nima":10423,"ĠosmÃ³lska":10424,"chasha":10425,"chand":10426,"Ġmrritya":10427,"Ġharare":10428,"sahita":10429,"Ġpasha":10430,"Ġbilam":10431,"Ġbilei":10432,"Ġkalua":10433,"Ġrakhe":10434,"Ġushna":10435,"Ġsamara":10436,"Ġbhaskara":10437,"Ġdefi":10438,"row":10439,"baragada":10440,"bamshara":10441,"loda":10442,"Ġshayana":10443,"tanatya":10444,"shàŃ±rare":10445,"Ġtaruna":10446,"Ġchili":10447,"Ġchidra":10448,"ngura":10449,"Ġinhibi":10450,"Ġtere":10451,"Ġmena":10452,"Ġred":10453,"sue":10454,"Ġghate":10455,"Ġfran":10456,"phlue":10457,"Ġphal":10458,"à¤¹":10459,"Ġphulara":10460,"cess":10461,"diayae":10462,"Ġpothi":10463,"Ġripa":10464,"Ġpena":10465,"Ġmandalire":10466,"Ġsarbabharatiya":10467,"Ġgreek":10468,"ĠbisheshatàŃ±":10469,"Ġarabi":10470,"Ġthiru":10471,"yer":10472,"Ġpalayana":10473,"Ġdaraja":10474,"Ġathati":10475,"Ġakashare":10476,"Ġ1909":10477,"Ġfounda":10478,"mbia":10479,"Ġbanyajantu":10480,"ĠsàŃ±rgata":10481,"Ġdainosarati":10482,"Ġbadhyatamulaka":10483,"Ġperiodi":10484,"Ġbiography":10485,"Ġbirth":10486,"Ġetad":10487,"Ġpandulipi":10488,"Ġwalters":10489,"phyujana":10490,"Ġguddu":10491,"Ġtype":10492,"Ġjanapadichi":10493,"Ġkaryyanirbahi":10494,"bhya":10495,"kanare":10496,"nru":10497,"nrritya":10498,"sla":10499,"uchanti":10500,"Ġstra":10501,"Ġstroka":10502,"yadi":10503,"shaja":10504,"Ġdre":10505,"Ġmayo":10506,"Ġjho":10507,"Ġojanara":10508,"sakha":10509,"Ġpatrara":10510,"Ġpaker":10511,"ĠnishàŃ±asa":10512,"Ġsamya":10513,"rodhi":10514,"Ġihudi":10515,"Ġ1910":10516,"Ġ1913":10517,"Ġnirmanare":10518,"Ġkidani":10519,"nkaracharyya":10520,"Ġshasanara":10521,"Ġanubadita":10522,"dàŃ±aja":10523,"Ġsthapati":10524,"phata":10525,"Ġkhandare":10526,"Ġduniara":10527,"krritare":10528,"puraka":10529,"puru":10530,"Ġdiayauthila":10531,"Ġkocha":10532,"Ġshunani":10533,"Ġtola":10534,"Ġsethimadhyaru":10535,"lananda":10536,"Ġprote":10537,"Ġnarimana":10538,"Ġkhojiba":10539,"Ġmarch":10540,"vir":10541,"Ġtiniti":10542,"cil":10543,"Ġchaliyaithile":10544,"Ġanichcha":10545,"Ġrakhayaithae":10546,"Ġamaku":10547,"Ġ1906":10548,"paliti":10549,"Ġkariparithile":10550,"Ġprastabita":10551,"Ġnaibedya":10552,"tabase":10553,"Ġgyas":10554,"ĠsàŃ±rnnapadaka":10555,"Ġimrejamana":10556,"Ġalimpikare":10557,"Ġantibayotik":10558,"Ġpolio":10559,"Ġjhilli":10560,"Ġsamantarala":10561,"Ġganitaj":10562,"Ġprakrritira":10563,"Ġmalesia":10564,"Ġbaishishtya":10565,"thairaedi":10566,"Ġearth":10567,"Ġmemori":10568,"nirddeshaka":10569,"Ġsammanarthe":10570,"Ġushuma":10571,"Ġmahatmya":10572,"drashtabya":10573,"Ġclaremont":10574,"Ġperiodic":10575,"byara":10576,"gla":10577,"grika":10578,"nyu":10579,"ukika":10580,"ĠÃĹ":10581,"Ġbharana":10582,"tirtha":10583,"Ġaca":10584,"Ġapurba":10585,"chak":10586,"chira":10587,"chitraru":10588,"Ġbigata":10589,"pad":10590,"palika":10591,"Ġraka":10592,"ĠrameshàŃ±ra":10593,"nkaku":10594,"sile":10595,"Ġnidarshana":10596,"Ġandhara":10597,"Ġsamsh":10598,"Ġbhalabha":10599,"Ġnahele":10600,"bihina":10601,"Ġdera":10602,"Ġchaha":10603,"Ġchapi":10604,"Ġpaitrrika":10605,"Ġkaraile":10606,"shàŃ±a":10607,"pie":10608,"Ġroman":10609,"Ġlokan":10610,"gundicha":10611,"Ġber":10612,"Ġlokalochana":10613,"Ġkey":10614,"pratya":10615,"Ġupakulare":10616,"Ġlegal":10617,"Ġrenu":10618,"koli":10619,"Ġshribigraha":10620,"ĠâĢł":10621,"Ġlekhayaichi":10622,"Ġasian":10623,"nola":10624,"âĢĻâĢĻ":10625,"Ġtumara":10626,"lling":10627,"Ġgarbharu":10628,"Ġmasajida":10629,"Ġsamayaku":10630,"Ġshaktipitha":10631,"Ġmarcha":10632,"panipaga":10633,"brriyari":10634,"Ġrripe":10635,"cine":10636,"fer":10637,"esati":10638,"nary":10639,"Ġdarshayaichi":10640,"Ġbikashare":10641,"Ġenaesa":10642,"masiha":10643,"limate":10644,"Ġaruchi":10645,"Ġsapakshare":10646,"Ġindradyumna":10647,"Ġtamilanada":10648,"Ġkromojo":10649,"Ġphotos":10650,"Ġobhari":10651,"prrishthabhumi":10652,"Ġshtadiyama":10653,"Ġpiladinaru":10654,"Ġpadonnati":10655,"Ġhoiasuchi":10656,"Ġbyatikrama":10657,"Ġmastishkare":10658,"ashàŃ±":10659,"bsa":10660,"ghe":10661,"usa":10662,"ham":10663,"taha":10664,"laina":10665,"basanta":10666,"Ġdri":10667,"Ġout":10668,"sas":10669,"saura":10670,"Ġpraban":10671,"Ġpramoda":10672,"patrare":10673,"Ġramanu":10674,"teja":10675,"disa":10676,"sian":10677,"Ġtalu":10678,"Ġtaita":10679,"bium":10680,"baraja":10681,"Ġchatar":10682,"shikesha":10683,"Ġheli":10684,"khata":10685,"rum":10686,"Ġgastare":10687,"Ġgachchita":10688,"Ġlatina":10689,"Ġshagada":10690,"Ġshtri":10691,"Ġtanti":10692,"Ġgota":10693,"Ġtentu":10694,"Ġclo":10695,"Ġmenta":10696,"Ġaditya":10697,"jesana":10698,"Ġthanta":10699,"bul":10700,"Ġasti":10701,"Ġsandhyare":10702,"Ġbaikuntha":10703,"Ġcheta":10704,"ngalaku":10705,"Ġtora":10706,"trola":10707,"Ġshibaji":10708,"Ġthis":10709,"Ġkahaniku":10710,"Ġbalakrrishna":10711,"Ġpandara":10712,"Ġprrithibiku":10713,"Ġgirja":10714,"Ġaksi":10715,"Ġshoshana":10716,"garbha":10717,"Ġsatyabadi":10718,"Ġadbhuta":10719,"Ġmastishkara":10720,"Ġpashumana":10721,"Ġbanyaprani":10722,"Ġsetebelara":10723,"ctures":10724,"Ġsethaku":10725,"Ġsakshatakara":10726,"Ġdinosaur":10727,"pakistana":10728,"yanushthana":10729,"Ġkariasuchanti":10730,"barnnana":10731,"Ġcentre":10732,"Ġintaranyasanala":10733,"Ġrajyasabhaku":10734,"Ġdinikia":10735,".\"":10736,"jhe":10737,"one":10738,"arjuna":10739,"artic":10740,"Ġspo":10741,"Ġstiraeda":10742,"Ġstariya":10743,"kaya":10744,"Ġbyu":10745,"laksha":10746,"balara":10747,"Ġkrrita":10748,"nas":10749,"Ġsale":10750,"chatra":10751,"sata":10752,"sami":10753,"kuli":10754,"Ġpalli":10755,"liana":10756,"Ġbibhaba":10757,"dianti":10758,"Ġgitika":10759,"siphi":10760,"Ġsebara":10761,"Ġsepari":10762,"Ġniharika":10763,"Ġuse":10764,"Ġbhal":10765,"Ġmutrana":10766,"tuka":10767,"Ġshahe":10768,"shàŃ±asi":10769,"mandara":10770,"shtaina":10771,"Ġsudhara":10772,"ishaku":10773,"Ġabhij":10774,"Ġsthane":10775,"Ġnamati":10776,"Ġarpita":10777,"pres":10778,"Ġmekani":10779,"Ġsarabaraha":10780,"Ġres":10781,"puraku":10782,"Ġparajaya":10783,"Ġbhikari":10784,"Ġbyaktimana":10785,"maniya":10786,"Ġ1800":10787,"njita":10788,"box":10789,"Ġuddh":10790,"Ġsamuhika":10791,"Ġjalaku":10792,"Ġbhogara":10793,"Ġgarbhasha":10794,"Ġbhagaku":10795,"Ġmarkan":10796,"Ġcour":10797,"Ġbritena":10798,"brrinda":10799,"Ġarati":10800,"Ġparyyabekshana":10801,"Ġlui":10802,"ĠâĢĺâĢĺ":10803,"Ġhindire":10804,"Ġsambhali":10805,"Ġdhuli":10806,"Ġsamgathita":10807,"nkatapanna":10808,"1943":10809,"rajasthanara":10810,"Ġbahariba":10811,"Ġabhabaru":10812,"Ġcommuni":10813,"dhàŃ±ja":10814,"Ġshuniba":10815,"leicha":10816,"Ġpadithae":10817,"Ġrahamana":10818,"Ġsetebelaku":10819,"Ġpresidensi":10820,"external":10821,"Ġkaronaru":10822,"ĠujjàŃ±la":10823,"Ġsambedanashila":10824,"Ġtechnology":10825,"Ġliukemia":10826,"Ġeyabata":10827,"Ġmukabila":10828,"Ġhastantara":10829,"athare":10830,"cla":10831,"glai":10832,"ik":10833,"ichanti":10834,"jon":10835,"kle":10836,"smo":10837,"Î±":10838,"Ð°":10839,"Ġâ":10840,"ardo":10841,"tam":10842,"yaj":10843,"ĠkàŃ±ar":10844,"nath":10845,"Ġera":10846,"Ġolata":10847,"Ġprakata":10848,"kuntala":10849,"Ġpalia":10850,"Ġbibhushana":10851,"padare":10852,"padartha":10853,"Ġbasana":10854,"Ġbaghara":10855,"Ġgranda":10856,"sie":10857,"Ġbhasharu":10858,"beshare":10859,"ders":10860,"Ġjah":10861,"Ġshayya":10862,"Ġshibamandira":10863,"Ġtilaka":10864,"1929":10865,"Ġbetara":10866,"Ġgov":10867,"Ġhipo":10868,"sanal":10869,"sua":10870,"Ġkalaku":10871,"Ġdekhayaanti":10872,"phlo":10873,"Ġphanda":10874,"Ġshikshagrahana":10875,"Ġjibanaku":10876,"Ġbolim":10877,"Ġlekhalekhi":10878,"à¤ļ":10879,"Ġphus":10880,"Ġpetare":10881,"Ġpheyara":10882,"cheta":10883,"Ġbaithaka":10884,"Ġrakhithae":10885,"tarikha":10886,"Ġauthare":10887,"Ġbarabati":10888,"cium":10889,"Ġhariyana":10890,"ĠĠĠĠĠĠ":10891,"Ġsaptahika":10892,"utpadana":10893,"Ġbheta":10894,"Ġbheshaja":10895,"Ġkyampa":10896,"bhautika":10897,"Ġnilamani":10898,"Ġnilamadhaba":10899,"Ġbasithiba":10900,"mentary":10901,"deshiya":10902,"Ġpatali":10903,"Ġshtak":10904,"Ġskul":10905,"Ġkeshaba":10906,"Ġsentimitara":10907,"Ġandhakara":10908,"Ġsudhamshu":10909,"Ġbhairaba":10910,"rahichi":10911,"Ġpushtisara":10912,"prajatantra":10913,"Ġrupantara":10914,"Ġdijitala":10915,"Ġknown":10916,"Ġbasantaraja":10917,"daranatha":10918,"ndira":10919,"pend":10920,"Ġske":10921,"yatrare":10922,"Ġbanare":10923,"Ġpli":10924,"Ġkreta":10925,"Ġdrona":10926,"ĠjàŃ±":10927,"gadha":10928,"Ġpablika":10929,"Ġbipula":10930,"Ġkariachanti":10931,"japani":10932,"bhanu":10933,"bibada":10934,"biharara":10935,"Ġhoinathila":10936,"manabha":10937,"bhid":10938,"jit":10939,"tual":10940,"Ġkishori":10941,"Ġbyakarana":10942,"yyada":10943,"Ġparttu":10944,"manna":10945,"Ġsushila":10946,"Ġabhiyanare":10947,"nganare":10948,"Ġarchchita":10949,"Ġinfo":10950,"Ġteki":10951,"Ġyunes":10952,"Ġdugdha":10953,"Ġ3000":10954,"Ġcro":10955,"pression":10956,"Ġhoithibabele":10957,"Ġ1857":10958,"Ġsabuku":10959,"Ġsorena":10960,"Ġrajyamana":10961,"Ġrajyagoshthi":10962,"Ġdhama":10963,"Ġbaitarani":10964,"Ġchesa":10965,"Ġshaktiku":10966,"Ġpanipaga":10967,"Ġrrisha":10968,"Ġrogimana":10969,"ĠbhubaneshàŃ±ri":10970,"Ġabibhakta":10971,"Ġbaghamane":10972,"Ġjenetik":10973,"ports":10974,"Ġcontrol":10975,"Ġ1901":10976,"Ġsarbottama":10977,"balpur":10978,"jararu":10979,"Ġinterview":10980,"Ġimrejamane":10981,"Ġmyutesana":10982,"Ġlaibre":10983,"Ġsainyabahini":10984,"Ġsirija":10985,"Ġdipabali":10986,"Ġhirakuda":10987,"Ġakramanara":10988,"yyodhana":10989,"Ġbisharada":10990,"sahityika":10991,"400":10992,"apara":10993,"grara":10994,"kran":10995,"Ġstory":10996,"yauna":10997,"Ġphari":10998,"Ġplata":10999,"lalita":11000,"tiari":11001,"tibhi":11002,"nayaka":11003,"Ġsae":11004,"lesa":11005,"Ġjon":11006,"nina":11007,"Ġmuru":11008,"Ġpadara":11009,"Ġpadaru":11010,"liti":11011,"lity":11012,"resan":11013,"Ġkabata":11014,"Ġraket":11015,"Ġbayana":11016,"sida":11017,"Ġsedina":11018,"Ġnityananda":11019,"jam":11020,"jabe":11021,"Ġsamkshipta":11022,"Ġtagora":11023,"Ġnachi":11024,"Ġchamunda":11025,"Ġdila":11026,"Ġ1916":11027,"Ġjahna":11028,"yuddhare":11029,"Ġparithile":11030,"Ġparibasa":11031,"Ġbyada":11032,"Ġgachare":11033,"Ġshashu":11034,"Ġshloka":11035,"Ġmirja":11036,"nnata":11037,"tyakta":11038,"tranara":11039,"Ġsikandara":11040,"Ġhasana":11041,"Ġhaus":11042,"Ġmahabharatare":11043,"Ġyodha":11044,"pratyeka":11045,"Ġmedha":11046,"Ġmeso":11047,"Ġchalapra":11048,"Ġatoim":11049,"Ġdekhanti":11050,"Ġdekhayai":11051,"Ġdekhayaithila":11052,"Ġabasthara":11053,"aller":11054,"Ġasibara":11055,"Ġsour":11056,"Ġphela":11057,"Ġdora":11058,"ngaladeshare":11059,"Ġmandaliya":11060,"Ġproto":11061,"Ġsarbapuratana":11062,"phebrriari":11063,"Ġparibaraku":11064,"Ġbasai":11065,"Ġkaruthibabele":11066,"Ġmilenahi":11067,"Ġphilda":11068,"dhartha":11069,"Ġnishchaya":11070,"Ġbhumikampa":11071,"Ġgatishila":11072,"Ġbimanabandara":11073,"Ġshteta":11074,"Ġchihnita":11075,"Ġthro":11076,"Ġfore":11077,"Ġasampurnna":11078,"prayatah":11079,"Ġsudhakara":11080,"esiara":11081,"Ġimmyuno":11082,"Ġaluminiyama":11083,"Ġnandini":11084,"Ġmadanamohana":11085,"Ġkaronari":11086,"Ġwhich":11087,"Ġpadhuthiba":11088,"ĠananishàŃ±asa":11089,"Ġasahayoga":11090,"Ġprrithak":11091,"Ġkarttikeya":11092,"Ġpradhikarana":11093,")(":11094,"bur":11095,"odhi":11096,"tle":11097,"hatta":11098,"habada":11099,"taki":11100,"yatrara":11101,"Ġopiaeda":11102,"padhyaya":11103,"Ġrakshi":11104,"Ġbasha":11105,"àŃ±ani":11106,"Ġsebe":11107,"rritira":11108,"Ġnibedana":11109,"Ġtak":11110,"Ġbhalu":11111,"mitha":11112,"Ġdeli":11113,"gija":11114,"Ġgaha":11115,"Ġlalana":11116,"Ġlaghu":11117,"new":11118,"Ġpark":11119,"Ġjanayai":11120,"Ġbohi":11121,"purama":11122,"sul":11123,"Ġmona":11124,"Ġanyati":11125,"pul":11126,"ven":11127,"Ġbyaktiku":11128,"Ġbyabaharaku":11129,"à¤Ĺ":11130,"Ġshun":11131,"Ġripor":11132,"Ġyogadei":11133,"Ġamrita":11134,"Ġrakhichi":11135,"Ġauta":11136,"Ġlagithiba":11137,"Ġanibaku":11138,"Ġparbatare":11139,"Ġshoka":11140,"Ġniyutaru":11141,"ĠàŃ±eba":11142,"Ġpherithile":11143,"Ġchikitsita":11144,"Ġfood":11145,"Ġghushuri":11146,"Ġsalabega":11147,"ĠsarasàŃ±ta":11148,"Ġshilale":11149,"Ġashramare":11150,"Ġshikhiba":11151,"Ġbiplabi":11152,"Ġbibidhata":11153,"Ġprotsahana":11154,"malayalama":11155,"Ġapolo":11156,"Ġsambodhana":11157,"Ġyabaksharajana":11158,"Ġkanunago":11159,"Ġservice":11160,"Ġinasulina":11161,"(;":11162,"ashta":11163,"indo":11164,"rhi":11165,"stiraeda":11166,"spandana":11167,"Ġsro":11168,"Ġspri":11169,"tal":11170,"Ġpiti":11171,"basare":11172,"basu":11173,"Ġatu":11174,"Ġagata":11175,"Ġsakhi":11176,"shadha":11177,"Ġmagana":11178,"nibasa":11179,"Ġmm":11180,"Ġprabartta":11181,"tenu":11182,"Ġbase":11183,"Ġgeta":11184,"Ġniga":11185,"Ġsamgi":11186,"Ġtam":11187,"Ġtamil":11188,"Ġdatabase":11189,"Ġjapanare":11190,"Ġnirmanara":11191,"Ġmudi":11192,"Ġmukhia":11193,"Ġbarddhita":11194,"tanalire":11195,"ĠbharadàŃ±aja":11196,"Ġshikshita":11197,"Ġparnna":11198,"Ġabaddha":11199,"Ġrahithibara":11200,"hol":11201,"Ġtro":11202,"Ġhueta":11203,"Ġsahakari":11204,"sthaniya":11205,"Ġupabho":11206,"samar":11207,"Ġbhugola":11208,"Ġkaruthibara":11209,"parama":11210,"Ġruti":11211,"Ġshrina":11212,"Ġadiku":11213,"njabare":11214,"Ġbund":11215,"Ġchalachchitratire":11216,"katapura":11217,"tamaha":11218,"Ġband":11219,"Ġasanaru":11220,"Ġalagori":11221,"Ġchotaraya":11222,"soma":11223,"Ġdakshinaku":11224,"Ġsarbabhau":11225,"Ġkhoja":11226,"àŃ±el":11227,"Ġduratare":11228,"Ġphlo":11229,"llery":11230,"shtik":11231,"Ġpiladina":11232,"Ġkabira":11233,"Ġshabdaku":11234,"Ġnikatatara":11235,"Ġphilmara":11236,"marara":11237,"Ġnishkriya":11238,"Ġnuapada":11239,"saro":11240,"ĠàŃ±ili":11241,"Ġakshama":11242,"Ġmalakanagiri":11243,"Ġispata":11244,"Ġtaima":11245,"Ġsamajabadi":11246,"Ġgarbhagrriha":11247,"Ġsarisrripa":11248,"Ġayodhya":11249,"Ġthar":11250,"Ġbidhibaddha":11251,"mbini":11252,"Ġminitaru":11253,"Ġtirthayatri":11254,"Ġsamsadare":11255,"united":11256,"genetic":11257,"Ġmunisi":11258,"Ġbhetithile":11259,"Ġasusthata":11260,"Ġritiniti":11261,"Ġkhiayae":11262,"Ġmuscle":11263,"Ġrukmini":11264,"Ġliterature":11265,"Ġfoundation":11266,"Ġmutranali":11267,"ashoka":11268,"etha":11269,"eksa":11270,"flu":11271,"ksan":11272,"syare":11273,"wan":11274,"zu":11275,"Ġstan":11276,"talika":11277,"maida":11278,"name":11279,"Ġadana":11280,"Ġakrritira":11281,"Ġengi":11282,"gali":11283,"gaura":11284,"gajara":11285,"Ġpaga":11286,"Ġbikara":11287,"Ġbibahara":11288,"dila":11289,"nkaja":11290,"dhoi":11291,"jaina":11292,"Ġnaj":11293,"Ġnaha":11294,"Ġnakala":11295,"Ġilaka":11296,"desharu":11297,"Ġyasha":11298,"yuri":11299,"giti":11300,"Ġshandha":11301,"Ġbharataru":11302,"Ġsubha":11303,"Ġabhina":11304,"Ġtanu":11305,"Ġutkantha":11306,"sthapatya":11307,"nchanana":11308,"therapy":11309,"Ġter":11310,"presanta":11311,"sundari":11312,"Ġsosiala":11313,"Ġphebrriyari":11314,"Ġcharithara":11315,"Ġsebayata":11316,"Ġhow":11317,"sàŃ±ra":11318,"Ġrogiku":11319,"dharara":11320,"Ġnishpati":11321,"Ġbamphi":11322,"Ġnobel":11323,"Ġrakhagala":11324,"Ġjhiamane":11325,"Ġpakisthanara":11326,"Ġvie":11327,"Ġjitiba":11328,"Ġpratyaha":11329,"1939":11330,"Ġsinemare":11331,"Ġbalmiki":11332,"gajapati":11333,"mandirare":11334,"chyutananda":11335,"Ġilektran":11336,"Ġpolitical":11337,"Ġsamsadiya":11338,"Ġintaraneta":11339,"Ġdhoni":11340,"Ġkolakata":11341,"ngham":11342,"ghosha":11343,"Ġcricket":11344,"ĠananishàŃ±asi":11345,"Ġohlai":11346,"Ġencyclopedia":11347,"Ġserotonina":11348,"Ġganatantrika":11349,"adya":11350,"aina":11351,"duna":11352,"lura":11353,"nchanti":11354,"win":11355,"}}":11356,"àª":11357,"à¶":11358,"hayaka":11359,"tiphi":11360,"badya":11361,"Ġkura":11362,"Ġsabishesha":11363,"riara":11364,"Ġmachi":11365,"Ġoli":11366,"Ġkauda":11367,"Ġghuri":11368,"sire":11369,"dhama":11370,"Ġunder":11371,"Ġdeshi":11372,"Ġchatura":11373,"beni":11374,"dekha":11375,"Ġkarbana":11376,"Ġsamapana":11377,"tude":11378,"Ġjite":11379,"ginal":11380,"1924":11381,"Ġjanapade":11382,"Ġpujara":11383,"Ġchila":11384,"Ġchief":11385,"Ġsahasa":11386,"prabhu":11387,"Ġsahiba":11388,"Ġuttar":11389,"Ġutkalara":11390,"Ġarka":11391,"yarama":11392,"Ġintra":11393,"Ġtest":11394,"Ġbhutala":11395,"Ġboma":11396,"Ġreshama":11397,"Ġreport":11398,"sup":11399,"Ġkalachara":11400,"Ġkamsya":11401,"Ġdekhagala":11402,"Ġkomala":11403,"manira":11404,"Ġpurbabartti":11405,"Ġcheyaram":11406,"Ġkaranaguda":11407,"bhyu":11408,"Ġmarka":11409,"Ġmaryyada":11410,"shrima":11411,"Ġbarala":11412,"Ġpanira":11413,"ganasampadana":11414,"Ġdrai":11415,"ghts":11416,"udaharana":11417,"Ġparichalaka":11418,"Ġmuladua":11419,"Ġmantrimandalare":11420,"Ġbahinira":11421,"Ġbayusena":11422,"rajadhani":11423,"qui":11424,"Ġspes":11425,"Ġmahanagara":11426,"dàŃ±ipara":11427,"Ġsamikarana":11428,"Ġbatikara":11429,"Ġsamitira":11430,"Ġshasakamane":11431,"Ġkonare":11432,"Ġchandini":11433,"Ġprayojita":11434,"Ġshrimandiraku":11435,"Ġsishtam":11436,"Ġhausa":11437,"Ġbiniyoga":11438,"Ġmudrana":11439,"ĠsaphtaàŃ±e":11440,"jirao":11441,"Ġupanibesha":11442,"Ġcollection":11443,"Ġgroup":11444,"Ġdebadasi":11445,"Ġjyami":11446,"Ġshtudio":11447,"à¯į":11448,"Ġteliskop":11449,"Ġtranslation":11450,"ksara":11451,"ranu":11452,"Ġpanti":11453,"Ġphila":11454,"baira":11455,"Ġkanare":11456,"shasita":11457,"Ġmauryya":11458,"chabi":11459,"lip":11460,"dirgha":11461,"dhaka":11462,"dhura":11463,"Ġanurupa":11464,"Ġudana":11465,"Ġbhada":11466,"Ġnahoi":11467,"urana":11468,"Ġiji":11469,"deli":11470,"hel":11471,"khandare":11472,"Ġjagu":11473,"Ġyatrara":11474,"kilo":11475,"semia":11476,"Ġnirbi":11477,"Ġparishkara":11478,"Ġmuga":11479,"Ġbyateri":11480,"Ġabasho":11481,"Ġmahapurusha":11482,"Ġabhimanyu":11483,"Ġsthalabha":11484,"Ġyunita":11485,"Ġduta":11486,"subarnna":11487,"Ġgramya":11488,"kshire":11489,"Ġmost":11490,"Ġbhiksha":11491,"Ġbhikto":11492,"stanara":11493,"njaitisa":11494,"duri":11495,"Ġkrima":11496,"Ġrakhithanti":11497,"landi":11498,"lanaru":11499,"Ġmargare":11500,"Ġchandramana":11501,"mahabharatara":11502,"njha":11503,"Ġprasham":11504,"Ġmanobhaba":11505,"lysis":11506,"Ġsadasyamane":11507,"Ġbyabasayare":11508,"Ġghatila":11509,"Ġbhru":11510,"Ġgachaku":11511,"Ġislands":11512,"Ġnyayadhisha":11513,"ttle":11514,"Ġbidyapati":11515,"version":11516,"kaliya":11517,"Ġlipire":11518,"Ġsalakha":11519,"Ġbanyajiba":11520,"ĠbishàŃ±kapare":11521,"Ġitali":11522,"rasayanika":11523,"Ġmahakabya":11524,"Ġchatuh":11525,"Ġparalakhemundi":11526,"work":11527,"Ġskle":11528,"Ġboita":11529,"Ġbisphorana":11530,"ntrikulara":11531,"inflam":11532,"Ġphysics":11533,"Ġsusajjita":11534,"prastuti":11535,"Ġchatarji":11536,"Ġchalaprachala":11537,"abi":11538,"nc":11539,"hajara":11540,"lal":11541,"Ġajada":11542,"date":11543,"Ġsabara":11544,"Ġsahana":11545,"Ġsapara":11546,"Ġsakaratmaka":11547,"Ġora":11548,"chaitanya":11549,"Ġpache":11550,"Ġpalla":11551,"Ġbiti":11552,"Ġbibahita":11553,"Ġbirena":11554,"patare":11555,"Ġkaya":11556,"Ġkapare":11557,"Ġkaun":11558,"tensi":11559,"diga":11560,"digare":11561,"jahana":11562,"Ġtaja":11563,"Ġtaki":11564,"Ġnabi":11565,"ndarara":11566,"lokare":11567,"Ġdaha":11568,"Ġdiphi":11569,"dera":11570,"kirnna":11571,"Ġsamagama":11572,"Ġlaw":11573,"medha":11574,"Ġshtar":11575,"Ġbharatanatya":11576,"antibio":11577,"Ġpratishodha":11578,"Ġhuman":11579,"Ġkathaku":11580,"Ġpujare":11581,"yoda":11582,"Ġchild":11583,"Ġsahida":11584,"Ġnebara":11585,"krritire":11586,"shthatri":11587,"koshare":11588,"ĠsàŃ±akshara":11589,"Ġkoka":11590,"balaya":11591,"Ġthala":11592,"Ġdurbhi":11593,"njia":11594,"Ġriu":11595,"tananta":11596,"Ġ800":11597,"Ġ99":11598,"ving":11599,"Ġgreat":11600,"Ġchandrabhaga":11601,"very":11602,"ĠaishàŃ±":11603,"Ġadhyayare":11604,"Ġmotapana":11605,"Ġdrabida":11606,"charara":11607,"Ġutsaha":11608,"Ġgramaku":11609,"Ġnababa":11610,"Ġjanani":11611,"mpika":11612,"dharani":11613,"Ġullekhayogya":11614,"Ġpakshimana":11615,"Ġbalishtha":11616,"Ġniraba":11617,"Ġakademi":11618,"Ġparbatamalara":11619,"Ġjyotishare":11620,"Ġkahaku":11621,"patni":11622,"Ġbhairabi":11623,"Ġimmyuna":11624,"Ġphakiramohana":11625,"pulation":11626,"Ġtulaithile":11627,"Ġsamrriddhi":11628,"Ġksharana":11629,"Ġadalatare":11630,"Ġlimphoma":11631,"Ġtrayodashi":11632,"Ġculture":11633,"Ġpratiphalita":11634,"Ġkingdom":11635,"servation":11636,"fie":11637,"gura":11638,"ike":11639,"idele":11640,"pdf":11641,"uthi":11642,"ÙĦ":11643,"Ġsmita":11644,"bale":11645,"Ġakta":11646,"Ġabana":11647,"Ġagri":11648,"Ġsaum":11649,"shthire":11650,"Ġmaye":11651,"nibesha":11652,"paha":11653,"Ġbakra":11654,"Ġseries":11655,"Ġnibida":11656,"bhama":11657,"Ġtamasa":11658,"Ġbhana":11659,"Ġbhayare":11660,"Ġnagarara":11661,"Ġehithare":11662,"shikha":11663,"Ġnirja":11664,"Ġparichi":11665,"meni":11666,"netri":11667,"Ġsuni":11668,"Ġsugriba":11669,"Ġjanaithile":11670,"Ġabhiyukta":11671,"Ġchipi":11672,"Ġnamaku":11673,"Ġneuthiba":11674,"ushadhi":11675,"nchaiba":11676,"sarala":11677,"Ġduri":11678,"Ġbhuya":11679,"Ġmeghana":11680,"Ġrekar":11681,"Ġrebati":11682,"Ġbhita":11683,"Ġphati":11684,"Ġ5000":11685,"balaka":11686,"njadeo":11687,"Ġmanamohana":11688,"gement":11689,"bone":11690,"Ġpheshti":11691,"ngalabara":11692,"llikhita":11693,"Ġphilo":11694,"Ġamkor":11695,"dora":11696,"Ġsanatana":11697,"Ġtathyaku":11698,"nchithila":11699,"Ġjuniyara":11700,"Ġprimi":11701,"Ġbasiba":11702,"Ġpranalira":11703,"Ġchatramana":11704,"Ġgolapi":11705,"Ġdandayamana":11706,"Ġpratiyogitara":11707,"Ġbibarttana":11708,"dern":11709,"madhyapradeshara":11710,"Ġcommi":11711,"Ġandhrapradeshara":11712,"Ġalimpiksa":11713,"Ġbidrohi":11714,"Ġsamskrritare":11715,"Ġstudies":11716,"Ġkameiba":11717,"antarjatika":11718,"Ġyubakamana":11719,"Ġsomabara":11720,"Ġsakalu":11721,"Ġdebadasa":11722,"Ġjejebapa":11723,"Ġkaloni":11724,"dablu":11725,"Ġchyale":11726,"Ġikono":11727,"Ġenaechaesaku":11728,"Ġuddhrrita":11729,"allergic":11730,"alu":11731,"ddhika":11732,"gon":11733,"ija":11734,"sur":11735,"sani":11736,"tter":11737,"lakshana":11738,"natya":11739,"Ġethara":11740,"Ġeparyyanta":11741,"Ġsali":11742,"Ġsauri":11743,"Ġopen":11744,"Ġpalai":11745,"Ġbibadara":11746,"Ġkariasi":11747,"Ġrabarta":11748,"Ġbadri":11749,"dinare":11750,"dinia":11751,"Ġgila":11752,"sic":11753,"Ġsesabu":11754,"Ġnipuna":11755,"Ġullikhita":11756,"heuchi":11757,"Ġyaa":11758,"Ġshrota":11759,"toma":11760,"official":11761,"Ġtiger":11762,"Ġpratibada":11763,"Ġmahama":11764,"khika":11765,"Ġchiki":11766,"Ġchinare":11767,"stada":11768,"Ġsthapat":11769,"Ġneuthile":11770,"tiraja":11771,"peyi":11772,"Ġteshtare":11773,"mulya":11774,"drata":11775,"Ġhebapai":11776,"Ġaushadhamana":11777,"Ġasibaku":11778,"Ġposhya":11779,"Ġbandana":11780,"Ġyogadeba":11781,"Ġbhoja":11782,"yauthile":11783,"ramakrrishna":11784,"Ġamshi":11785,"Ġyantri":11786,"Ġbrahmanda":11787,"Ġbarahi":11788,"Ġaisisi":11789,"Ġphrriti":11790,"juri":11791,"pital":11792,"Ġkahanira":11793,"Ġjibamana":11794,"ĠphalasàŃ±rupa":11795,"Ġbrahmaputra":11796,"Ġgini":11797,"nyasi":11798,"Ġgranthara":11799,"Ġbritishamane":11800,"1944":11801,"ĠbibhagadàŃ±ara":11802,"Ġranajita":11803,"1935":11804,"Ġrantha":11805,"Ġmanushyara":11806,"saiko":11807,"Ġkashtasadhya":11808,"Ġnaitro":11809,"Ġspecies":11810,"Ġabhayaranyare":11811,"Ġkonar":11812,"Ġchandigada":11813,"Ġmarubhumi":11814,"Ġshirabhyantarare":11815,"Ġmahumachi":11816,"Ġmrrittika":11817,"Ġaurasaru":11818,"Ġsadhaka":11819,"Ġsentrala":11820,"Ġanuraga":11821,"Ġkyariyara":11822,"Ġkriketara":11823,"karnnatakara":11824,"Ġsamarohare":11825,"Ġushasi":11826,"mbers":11827,"Ġyayati":11828,"Ġdushmanta":11829,"Ġyunibharasiti":11830,"ĠsàŃ±echchasebi":11831,"Ġindashtri":11832,"Ġdashandhire":11833,"Ġkhojuthiba":11834,"nephrina":11835,"Ġlokalochanaku":11836,"\"(":11837,"aka":11838,"ganti":11839,"yl":11840,"Ã¦":11841,"Ġski":11842,"Ġskin":11843,"yatana":11844,"Ġaleicha":11845,"Ġopana":11846,"chaeo":11847,"sakriya":11848,"pabana":11849,"Ġkaana":11850,"Ġkauna":11851,"Ġbhagara":11852,"Ġnakha":11853,"Ġhoiyaanti":11854,"Ġiko":11855,"Ġhepa":11856,"Ġkarka":11857,"rupe":11858,"seda":11859,"gio":11860,"Ġgadya":11861,"Ġmisa":11862,"antika":11863,"Ġsile":11864,"Ġchula":11865,"Ġsuda":11866,"Ġbetana":11867,"Ġbeshara":11868,"Ġabhimukhya":11869,"Ġkeshara":11870,"Ġsthagita":11871,"karttika":11872,"Ġupade":11873,"Ġledi":11874,"Ġleph":11875,"mbaka":11876,"Ġsarakarare":11877,"Ġreli":11878,"Ġchalaiba":11879,"Ġgul":11880,"Ġfield":11881,"tirekha":11882,"ĠâĢĻ":11883,"Ġlekhaithile":11884,"Ġbuka":11885,"buddha":11886,"Ġkhelanti":11887,"Ġphebru":11888,"Ġneichanti":11889,"Ġkendu":11890,"Ġbhogi":11891,"Ġsarbatra":11892,"stics":11893,"balira":11894,"Ġjillasthita":11895,"Ġtrishula":11896,"Ġbasati":11897,"Ġesian":11898,"Ġnishka":11899,"Ġainajibi":11900,"Ġapasarana":11901,"Ġbritishamana":11902,"Ġrahuthila":11903,"Ġlakshanare":11904,"plasia":11905,"Ġaparesana":11906,"Ġsatati":11907,"Ġsambalapurara":11908,"Ġparamparaku":11909,"Ġayojaka":11910,"Ġkadamba":11911,"ased":11912,"Ġlaipha":11913,"Ġpolis":11914,"Ġmedicine":11915,"Ġmayadhara":11916,"Ġilektrola":11917,"pattira":11918,"Ġthomas":11919,"globina":11920,"njuri":11921,"Ġshyamasundara":11922,"Ġuchchare":11923,"Ġprachchadapatta":11924,"Ġjeladanda":11925,"Ġskrini":11926,"Ġdablyu":11927,"public":11928,"Ġwildlife":11929,"Ġsarbabhauma":11930,")\"":11931,"ful":11932,"nshi":11933,"oloji":11934,"ogle":11935,"pane":11936,"santi":11937,"Ġly":11938,"Ġzo":11939,"Ġspai":11940,"tata":11941,"Ġble":11942,"lak":11943,"baga":11944,"batta":11945,"Ġadaya":11946,"rida":11947,"Ġdvara":11948,"Ġmahuri":11949,"Ġmatanu":11950,"Ġbire":11951,"pama":11952,"pakshare":11953,"Ġganta":11954,"Ġugra":11955,"Ġsamprati":11956,"Ġtamra":11957,"Ġbhabu":11958,"Ġdekhe":11959,"lopathi":11960,"Ġilu":11961,"Ġidima":11962,"kimi":11963,"Ġkit":11964,"Ġlati":11965,"Ġbarshiya":11966,"Ġpratij":11967,"Ġsie":11968,"trie":11969,"Ġmahalare":11970,"Ġbengal":11971,"Ġgor":11972,"lure":11973,"Ġbohiba":11974,"Ġcri":11975,"natama":11976,"Ġkambo":11977,"Ġshikshakata":11978,"Ġmanasi":11979,"Ġbishada":11980,"Ġkuhayauchi":11981,"Ġduryyodhana":11982,"Ġmandalare":11983,"Ġsola":11984,"Ġpeople":11985,"Ġdhali":11986,"Ġsannyasi":11987,"Ġdiayaenahi":11988,"Ġjalasha":11989,"Ġketejana":11990,"santana":11991,"ramachandra":11992,"ngire":11993,"Ġprakashani":11994,"Ġbarnnara":11995,"aidi":11996,"Ġparyyabe":11997,"mples":11998,"Ġkaliphar":11999,"dharmi":12000,"dharyya":12001,"Ġapabyabahara":12002,"Ġwest":12003,"ĠbhubaneshàŃ±rasthita":12004,"ĠnetaàŃ±ar":12005,"Ġ1907":12006,"Ġagrahi":12007,"Ġataeba":12008,"Ġtelibhi":12009,"dàŃ±ipare":12010,"Ġgabhirata":12011,"Ġparyyatakamana":12012,"Ġnausena":12013,"Ġstuti":12014,"Ġbhittibhumi":12015,"Ġakhapakha":12016,"Ġkulapati":12017,"Ġarindama":12018,"Ġanugolatharu":12019,"Ġnepalare":12020,"Ġbujhiba":12021,"Ġsemiphaina":12022,"Ġcouncil":12023,"ngopasagara":12024,"sauridae":12025,"Ġrahiasichi":12026,"Ġoxford":12027,"Ġchemistry":12028,"Ġvolume":12029,"Ġadhakapali":12030,"Ġtentuli":12031,"Ġlaibreri":12032,"apare":12033,"bhari":12034,"cti":12035,"eiba":12036,"electro":12037,"hra":12038,"pt":12039,"planta":12040,"yapana":12041,"mat":12042,"malli":12043,"time":12044,"back":12045,"thie":12046,"Ġeeph":12047,"Ġsatarka":12048,"rity":12049,"lesan":12050,"left":12051,"gaba":12052,"Ġmyana":12053,"Ġhor":12054,"sale":12055,"samana":12056,"Ġpahi":12057,"Ġpatare":12058,"Ġpausha":12059,"Ġpampa":12060,"Ġbisthapita":12061,"Ġkarithibara":12062,"diku":12063,"Ġgura":12064,"sithile":12065,"Ġsera":12066,"dhuna":12067,"chya":12068,"bhajana":12069,"Ġnasha":12070,"jilanda":12071,"Ġkaradanda":12072,"Ġmukuta":12073,"tuda":12074,"tola":12075,"Ġmila":12076,"Ġloda":12077,"neli":12078,"Ġbelu":12079,"Ġadhikrrita":12080,"Ġadhikarara":12081,"yojaka":12082,"Ġkeji":12083,"Ġkarayaiachi":12084,"Ġpithara":12085,"nchasakha":12086,"mbala":12087,"Ġdudha":12088,"parara":12089,"Ġmohini":12090,"njiba":12091,"Ġpremare":12092,"Ġsahityaku":12093,"Ġneithanti":12094,"sant":12095,"Ġdocu":12096,"Ġsamsthare":12097,"Ġgandhar":12098,"ngia":12099,"Ġgarbhare":12100,"Ġgitati":12101,"Ġrakhithiba":12102,"dosisa":12103,"Ġ1669":12104,"Ġnarada":12105,"kshepare":12106,"esanara":12107,"samasta":12108,"Ġprashasaka":12109,"Ġprachirara":12110,"sarjana":12111,"Ġbauddhika":12112,"Ġbanabasa":12113,"Ġphotaka":12114,"darshanara":12115,"Ġakaunta":12116,"Ġsamgrahalayare":12117,"Ġajira":12118,"Ġmanehue":12119,"Ġgrahaka":12120,"Ġadhinaku":12121,"Ġbajapeyi":12122,"ĠmaheshàŃ±ra":12123,"mbor":12124,"Ġmalikana":12125,"Ġantatah":12126,"zobium":12127,"Ġdiptirekha":12128,"Ġarticles":12129,"anottara":12130,"center":12131,"Ġclassi":12132,"Ġprogramim":12133,"Ġutsarga":12134,"Ġupanyasara":12135,"Ġthakapana":12136,"Ġanuprabesha":12137,"Ġlokanrritya":12138,"-(":12139,"aphri":12140,"dp":12141,"drrishti":12142,"|)":12143,"Ùħ":12144,"Ġrrit":12145,"hajare":12146,"hista":12147,"Ġsma":12148,"Ġsba":12149,"Ġsko":12150,"kabya":12151,"maba":12152,"Ġkle":12153,"Ġkane":12154,"Ġagha":12155,"Ġeffe":12156,"Ġmasta":12157,"Ġjhar":12158,"chikit":12159,"Ġpacheri":12160,"Ġpahuda":12161,"Ġkarideithila":12162,"Ġrakhu":12163,"dial":12164,"Ġniara":12165,"chro":12166,"bhata":12167,"bhabara":12168,"Ġnadia":12169,"bir":12170,"bishu":12171,"ndula":12172,"Ġdebare":12173,"Ġdepu":12174,"Ġdeuthiba":12175,"ronment":12176,"helita":12177,"nkuchita":12178,"Ġshtan":12179,"Ġmadhyapradesha":12180,"1922":12181,"Ġbedanta":12182,"hole":12183,"yantrara":12184,"Ġabhidhana":12185,"Ġchittara":12186,"onto":12187,"Ġlion":12188,"pes":12189,"samkshipta":12190,"Ġduhi":12191,"Ġbhuja":12192,"Ġcare":12193,"Ġcur":12194,"Ġmeksiko":12195,"Ġsarbhi":12196,"Ġphashi":12197,"intra":12198,"moti":12199,"ĠsàŃ±agata":12200,"Ġmukhyata":12201,"balabhadra":12202,"Ġpranta":12203,"à¤¼":12204,"byasa":12205,"Ġkuhayauthiba":12206,"njikrrita":12207,"Ġpurbapurusha":12208,"Ġdhamana":12209,"philma":12210,"Ġshera":12211,"chetaka":12212,"Ġbhoka":12213,"Ġyaithanti":12214,"Ġrakhithila":12215,"bhranta":12216,"Ġghatanaku":12217,"mataeda":12218,"Ġ125":12219,"tropi":12220,"Ġbisheshata":12221,"Ġcharchchita":12222,"sàŃ±i":12223,"Ġkrrishnagar":12224,"mahala":12225,"Ġbayaskamana":12226,"Ġjohn":12227,"minala":12228,"Ġgrrihara":12229,"Ġchaturthi":12230,"Ġchaturddha":12231,"Ġshasanadhina":12232,"Ġnirasha":12233,"ĠsàŃ±amiji":12234,"lls":12235,"Ġbayumandala":12236,"Ġsamparkaku":12237,"cient":12238,"Ġkharabela":12239,"Ġmanekasha":12240,"bhagabana":12241,"bharsa":12242,"Ġmahish":12243,"Ġprakriyaku":12244,"Ġyantrapati":12245,"rican":12246,"shtesana":12247,"Ġrashichakra":12248,"Ġbipaksha":12249,"Ġisraelara":12250,"Ġdibyasimha":12251,"Ġpotasiama":12252,"Ġpotasiyam":12253,"Ġmargashira":12254,"Ġphaibro":12255,"Ġepile":12256,"esiya":12257,"Ġthietarare":12258,"Ġimage":12259,"Ġpraktana":12260,"Ġashutosha":12261,"Ġtulanatmaka":12262,"Ġsiddhe":12263,"Ġayurbeda":12264,"Ġsudrridha":12265,"Ġalakohola":12266,"Ġmyanejamenta":12267,"Ġkretasiasa":12268,"rhizobium":12269,",\"":12270,"114":12271,"cb":12272,"climate":12273,"nba":12274,"ppani":12275,"spar":12276,"srota":12277,"Ġsth":12278,"nabhe":12279,"Ġdani":12280,"Ġprash":12281,"Ġpachi":12282,"Ġbig":12283,"palla":12284,"patrika":12285,"dhata":12286,"Ġnie":12287,"Ġ110":12288,"chch":12289,"Ġsamhi":12290,"Ġsambhoga":12291,"mide":12292,"âĢ³":12293,"bena":12294,"her":12295,"jil":12296,"jilla":12297,"Ġpaibe":12298,"Ġparimala":12299,"metho":12300,"Ġmithuna":12301,"Ġrahibe":12302,"Ġadhishthatri":12303,"banahi":12304,"Ġkeli":12305,"ushathi":12306,"Ġaranyare":12307,"kebala":12308,"Ġlembu":12309,"Ġcan":12310,"premi":12311,"mumba":12312,"Ġmethi":12313,"Ġdiayauchi":12314,"bharati":12315,"Ġwww":12316,"Ġbyaktimane":12317,"Ġthali":12318,"Ġpolo":12319,"Ġdharyya":12320,"Ġ700":12321,"Ġmilimitara":12322,"Ġpurbahna":12323,"bola":12324,"Ġphera":12325,"chena":12326,"Ġrakhibare":12327,"Ġbhauja":12328,"stival":12329,"Ġkhodei":12330,"Ġduraku":12331,"Ġdhrri":12332,"abhineta":12333,"Ġbrige":12334,"brriksha":12335,"Ġsadashiba":12336,"Ġhaidara":12337,"Ġpilati":12338,"samayare":12339,"Ġsaptahara":12340,"Ġprajatantra":12341,"ĠàŃ±ara":12342,"Ġnotti":12343,"chuala":12344,"Ġbanamali":12345,"Ġsahayyakari":12346,"Ġbhrama":12347,"Ġjitithiba":12348,"Ġnirddeshabali":12349,"Ġadrrishya":12350,"Ġgrrihapalita":12351,"Ġnalini":12352,"dhàŃ±ni":12353,"Ġbrrihaspati":12354,"Ġpadiba":12355,"Ġkhaibara":12356,"Ġrashire":12357,"Ġminitare":12358,"Ġaphisa":12359,"align":12360,"Ġanupama":12361,"Ġantarashtriya":12362,"Ġuttejita":12363,"Ġshoiba":12364,"Ġbolayae":12365,"Ġsimarekha":12366,"Ġkauraba":12367,"lyandara":12368,"Ġmulyare":12369,"Ġinfections":12370,"Ġkahnu":12371,"nhs":12372,"chaturtha":12373,"Ġjatiyatabadi":12374,"Ġswami":12375,"Ġkhadyanali":12376,"Ġaprel":12377,"()":12378,"banti":12379,"upadana":12380,"vira":12381,"ĉĉ":12382,"Ġsani":12383,"Ġsty":12384,"tale":12385,"Ġbanika":12386,"mad":12387,"magna":12388,"bashi":12389,"baisha":12390,"bastra":12391,"Ġkru":12392,"Ġkrani":12393,"letara":12394,"thaku":12395,"Ġodi":12396,"Ġobhara":12397,"saphta":12398,"kuha":12399,"Ġbima":12400,"paku":12401,"Ġkamu":12402,"Ġkalana":12403,"Ġkamanda":12404,"Ġkariyaichanti":12405,"Ġrakesha":12406,"Ġbatya":12407,"Ġbakya":12408,"nkasana":12409,"Ġset":12410,"Ġante":12411,"Ġbhagirathi":12412,"Ġnabika":12413,"Ġdeta":12414,"Ġdimen":12415,"Ġdilipa":12416,"tuli":12417,"Ġkis":12418,"Ġlam":12419,"Ġroyal":12420,"Ġsiniyara":12421,"Ġabakshaya":12422,"Ġsuphi":12423,"Ġbekare":12424,"Ġrahibara":12425,"Ġadhibeshana":12426,"yoma":12427,"Ġkusuma":12428,"grahare":12429,"Ġsahakarmi":12430,"praphulla":12431,"Ġintro":12432,"Ġmer":12433,"Ġmetho":12434,"Ġmendha":12435,"puram":12436,"Ġghatanare":12437,"Ġsarbe":12438,"sty":12439,"àŃ±ali":12440,"inasi":12441,"nous":12442,"Ġrida":12443,"Ġpenisi":12444,"cheda":12445,"bhela":12446,"malai":12447,"poli":12448,"landare":12449,"Ġsimhadeo":12450,"Ġmaranottara":12451,"Ġmatabada":12452,"Ġtrikona":12453,"Ġkahanire":12454,"Ġasubi":12455,"estern":12456,"njo":12457,"Ġpauchi":12458,"Ġjuly":12459,"Ġjuniara":12460,"Ġmulatah":12461,"churi":12462,"Ġbyabasthaku":12463,"bhauni":12464,"Ġkatakathare":12465,"Ġdurgapuja":12466,"Ġjarman":12467,"Ġathale":12468,"Ġtaip":12469,"Ġkshetraku":12470,"Ġlakshminarayana":12471,"Ġ1904":12472,"Ġmadala":12473,"Ġkaryyakarita":12474,"Ġshriramachandra":12475,"Ġbidrohara":12476,"Ġmurti":12477,"Ġpublic":12478,"Ġshraddhalu":12479,"Ġsentimitar":12480,"Ġyibara":12481,"Ġbiliru":12482,"Ġurbara":12483,"Ġkandhamala":12484,"Ġrupantarita":12485,"Ġsmarta":12486,"Ġanalaina":12487,"amerikiya":12488,"kretasiasa":12489,"Ġkumbhara":12490,"Ġhumayuna":12491,"ĠÂ£":12492,"Ġupalakshe":12493,"Ġripabli":12494,"Ġamshidara":12495,"Ġnottingham":12496,"300":12497,"ace":12498,"cn":12499,"igala":12500,"jhia":12501,"nrri":12502,"hakari":12503,"Ġslo":12504,"kami":12505,"tas":12506,"Ġbare":12507,"lasha":12508,"nayana":12509,"Ġathe":12510,"dali":12511,"Ġelina":12512,"Ġsas":12513,"ĠsatàŃ±":12514,"sathi":12515,"sajja":12516,"ĠprashàŃ±asa":12517,"Ġpadya":12518,"Ġbibhi":12519,"pathy":12520,"à¬¼)":12521,"Ġbate":12522,"dipta":12523,"Ġghrri":12524,"sipare":12525,"Ġtath":12526,"Ġnakaru":12527,"bimana":12528,"migra":12529,"Ġdefe":12530,"beshika":12531,"Ġdiksha":12532,"bhisi":12533,"deula":12534,"Ġyaka":12535,"Ġyaja":12536,"seph":12537,"Ġmukhare":12538,"med":12539,"metha":12540,"Ġsirosis":12541,"Ġkathabastu":12542,"Ġhatara":12543,"Ġsuara":12544,"Ġsubasa":12545,"barani":12546,"bargikarana":12547,"Ġadhikaru":12548,"Ġkuchi":12549,"Ġyetiki":12550,"Ġbyabadhanare":12551,"parithile":12552,"peta":12553,"yanama":12554,"Ġcana":12555,"Ġmera":12556,"Ġmere":12557,"Ġsarabhai":12558,"Ġrecep":12559,"Ġmore":12560,"Ġmodern":12561,"Ġsarddara":12562,"Ġasichanti":12563,"buli":12564,"Ġshubhara":12565,"njira":12566,"Ġdhania":12567,"Ġdebidatta":12568,"dosis":12569,"Ġyantrare":12570,"Ġmardda":12571,"Ġaiso":12572,"Ġ:-":12573,"Ġkshatriya":12574,"sàŃ±ini":12575,"Ġmandir":12576,"Ġmandiraru":12577,"kshetrara":12578,"Ġpadarpana":12579,"Ġmaunta":12580,"Ġsadasyamana":12581,"Ġdillipa":12582,"Ġpadarthaku":12583,"Ġgrrihini":12584,"Ġmalati":12585,"Ġpakaiba":12586,"Ġbaliuda":12587,"Ġtalachera":12588,"Ġdebatamane":12589,"Ġrelabai":12590,"Ġharpi":12591,"Ġpurnnami":12592,"parudra":12593,"Ġsamkramanare":12594,"tories":12595,"Ġexp":12596,"saiklo":12597,"unction":12598,"Ġshtada":12599,"Ġ1896":12600,"Ġshunibaku":12601,"Ġbhayabhita":12602,"Ġà®":12603,"Ġpublications":12604,"Ġsuryyara":12605,"1905":12606,"Ġpathyakramare":12607,"Ġlarda":12608,"Ġamisha":12609,"Ġwork":12610,"Ġpradushita":12611,"Ġhyper":12612,"Ġshirshananda":12613,"Ġnabaratra":12614,"bility":12615,"Ġphuliyae":12616,"Ġamitabha":12617,"Ġpunarabrritti":12618,"Ġashtreliare":12619,"Ġgabharnnara":12620,"Ġeconomic":12621,"ĠgahàŃ±ra":12622,"Ġeducation":12623,"Ġenvironment":12624,"Ġinhibitor":12625,"Ġyunesko":12626,"Ġatoimmyuna":12627,"Ġsebetharu":12628,"Ġupabhokta":12629,"Ġenginee":12630,"\">":12631,"dusha":12632,"eje":12633,"baja":12634,"nali":12635,"Ġaman":12636,"Ġadhu":12637,"Ġajan":12638,"Ġeitihasika":12639,"shanti":12640,"thapi":12641,"Ġmadri":12642,"nio":12643,"chalare":12644,"rela":12645,"Ġbikrriti":12646,"pashchimare":12647,"Ġkatya":12648,"tek":12649,"Ġbat":12650,"Ġbalaya":12651,"sili":12652,"Ġnio":12653,"Ġninda":12654,"Ġnidharyya":12655,"Ġsambarddhana":12656,"Ġbhaelara":12657,"Ġnaitika":12658,"oint":12659,"Ġdeath":12660,"Ġchatire":12661,"Ġdas":12662,"Ġid":12663,"Ġirana":12664,"Ġdimba":12665,"Ġdienae":12666,"Ġnyuro":12667,"Ġkarama":12668,"Ġparishrama":12669,"Ġmulare":12670,"turi":12671,"Ġjila":12672,"ngabada":12673,"Ġmigrara":12674,"Ġanumanika":12675,"Ġchro":12676,"barmana":12677,"Ġadhibasa":12678,"Ġkuntala":12679,"Ġyojanara":12680,"Ġsahakare":12681,"Ġindhana":12682,"Ġjanmadina":12683,"Ġdushta":12684,"mua":12685,"phrare":12686,"inches":12687,"Ġmanachitra":12688,"inathile":12689,"mania":12690,"Ġrio":12691,"Ġsandipa":12692,"Ġphesabu":12693,"Ġpremara":12694,"Ġatibada":12695,"Ġtumaku":12696,"Ġchola":12697,"Ġ98":12698,"shrimandira":12699,"patala":12700,"riasisa":12701,"Ġprabhata":12702,"samasthanika":12703,"Ġutsabara":12704,"Ġsaptaharu":12705,"Ġbhenti":12706,"gararu":12707,"simhasana":12708,"Ġadhikaraku":12709,"Ġghatichi":12710,"Ġtikasa":12711,"Ġrakshaka":12712,"Ġdarshaithile":12713,"Ġtrenim":12714,"Ġunion":12715,"Ġpushkara":12716,"Ġprastabaku":12717,"Ġpracharaka":12718,"Ġadhaksha":12719,"Ġprrishthaposhaka":12720,"hoichi":12721,"Ġsaudi":12722,"Ġbhagnabashesha":12723,"sabhapati":12724,"Ġuthithila":12725,"Ġpindhiba":12726,"Ġuttejaka":12727,"wing":12728,"Ġbhedabhaba":12729,"Ġinashtichyut":12730,"gujarati":12731,"nchayatara":12732,"Ġsrrijana":12733,"Ġalimpiksare":12734,"Ġaphaganistana":12735,"Ġsamikshakamane":12736,"Ġganamadhyama":12737,"Ġbhabanipatanatharu":12738,"Ġjalabhandara":12739,"Ġshambhu":12740,"rashtrapati":12741,"gnancy":12742,"raghunatha":12743,"Ġachchadita":12744,"Ġlephtananta":12745,"ate":12746,"ayae":12747,"ec":12748,"lf":12749,"osa":12750,"rna":12751,"ĠÂ°":12752,"kati":12753,"Ġbran":12754,"Ġbaruna":12755,"laghu":12756,"Ġelectro":12757,"nida":12758,"galani":12759,"chata":12760,"chalani":12761,"Ġhrrita":12762,"chinta":12763,"Ġpatua":12764,"Ġbino":12765,"Ġbimanare":12766,"Ġbiparyyaya":12767,"Ġkaridela":12768,"Ġbashishtha":12769,"dinara":12770,"Ġanila":12771,"Ġsambara":12772,"Ġsamira":12773,"Ġsamkirnna":12774,"Ġtadara":12775,"Ġbhagaru":12776,"Ġbhabanare":12777,"bis":12778,"barada":12779,"Ġicha":12780,"Ġhel":12781,"Ġhera":12782,"sephala":12783,"Ġniryya":12784,"nkucha":12785,"Ġgahana":12786,"Ġshau":12787,"Ġshaile":12788,"Ġtiada":12789,"Ġpratiti":12790,"Ġsibhila":12791,"mandu":12792,"Ġsum":12793,"Ġjanakara":12794,"Ġbekara":12795,"stabli":12796,"Ġyahaphalare":12797,"mune":12798,"Ġparaja":12799,"sudarshana":12800,"gov":12801,"Ġfre":12802,"Ġphauja":12803,"tikal":12804,"Ġkochi":12805,"Ġshria":12806,"dhupa":12807,"Ġbishama":12808,"ĠdàŃ±iti":12809,"Ġpost":12810,"Ġkanthara":12811,"Ġsandarbha":12812,"banijya":12813,"cher":12814,"Ġamlana":12815,"Ġmaikela":12816,"vity":12817,"shrila":12818,"Ġbarada":12819,"liama":12820,"ĠekademidàŃ±ara":12821,"pheyarare":12822,"Ġbadhaprapta":12823,"year":12824,"Ġkabitare":12825,"Ġesid":12826,"Ġpadarthare":12827,"dharmika":12828,"yarara":12829,"Ġsamarthya":12830,"Ġkhandapada":12831,"ĠsàŃ±tantrata":12832,"Ġmurttire":12833,"Ġdaire":12834,"Ġbanama":12835,"Ġbanaushadhi":12836,"Ġpalau":12837,"Ġbaharile":12838,"Ġajij":12839,"1933":12840,"Ġlandanare":12841,"Ġinternet":12842,"bisheshatàŃ±":12843,"Ġkhaithanti":12844,"Ġhoiparithila":12845,"Ġpakistanaku":12846,"Ġghanata":12847,"Ġkashmirara":12848,"Ġkaushalya":12849,"Ġphaundesan":12850,"Ġamino":12851,"bolijma":12852,"Ġimages":12853,"Ġakramanare":12854,"Ġtrrinabhumi":12855,"Ġgodabarisha":12856,"Ġbaharuthiba":12857,"Ġbishakhapatana":12858,"Ġkyalendara":12859,"Ġtribhubana":12860,"Ġdurghatanare":12861,"ĠsàŃ±asthyara":12862,"Ġgarbhashaya":12863,"akasha":12864,"bura":12865,"ctu":12866,"iji":12867,"isina":12868,"mrrita":12869,"ptika":12870,"sse":12871,"ansa":12872,"madana":12873,"Ġamo":12874,"Ġsachi":12875,"shani":12876,"Ġmath":12877,"nimna":12878,"gadara":12879,"saba":12880,"sait":12881,"Ġpasan":12882,"Ġpakshara":12883,"Ġbiyukta":12884,"pakhara":12885,"Ġkabadi":12886,"Ġkahna":12887,"Ġkarideba":12888,"Ġraghaba":12889,"Ġbadu":12890,"Ġbadhe":12891,"Ġujja":12892,"Ġsamketa":12893,"Ġnakaratmaka":12894,"âĢľ":12895,"Ġekata":12896,"Ġhere":12897,"Ġdipti":12898,"Ġdibhijana":12899,"bhia":12900,"Ġjaliya":12901,"Ġjabalpur":12902,"Ġyabana":12903,"sera":12904,"Ġmuhana":12905,"Ġmundara":12906,"gin":12907,"Ġmanya":12908,"Ġshik":12909,"Ġanujiba":12910,"1914":12911,"Ġparbara":12912,"iaku":12913,"Ġkemiti":12914,"Ġpin":12915,"Ġkhala":12916,"Ġyure":12917,"sarakara":12918,"ĠbishàŃ±byapi":12919,"Ġoffi":12920,"Ġparasi":12921,"suchaka":12922,"pard":12923,"harihara":12924,"Ġkoki":12925,"Ġshrigundicha":12926,"vement":12927,"Ġhebayae":12928,"Ġbadami":12929,"Ġnirddeshare":12930,"à¤¶":12931,"ĠdàŃ±arare":12932,"Ġripha":12933,"Ġamerikaru":12934,"Ġchikitsalaya":12935,"Ġpremika":12936,"Ġuttarapradesha":12937,"barttita":12938,"Ġsimhali":12939,"Ġkhodana":12940,"Ġbasabha":12941,"Ġlekhithiba":12942,"Ġtraka":12943,"Ġpattanatharu":12944,"Ġethimadhyaru":12945,"Ġchauhana":12946,"ĠàŃ±r":12947,"Ġdrrishtishakti":12948,"narjika":12949,"elabhi":12950,"Ġtaimas":12951,"khuna":12952,"Ġranapura":12953,"Ġasaphala":12954,"Ġ1903":12955,"Ġmahishura":12956,"Ġkatithila":12957,"Ġskulara":12958,"nkani":12959,"Ġsalamana":12960,"Ġgaichanti":12961,"Ġstudy":12962,"Ġsamskaraka":12963,"ĠpratidàŃ±nd":12964,"volution":12965,"Ġahla":12966,"bayaska":12967,"Ġkyariara":12968,"Ġbishuddha":12969,"Ġlanguages":12970,"Ġsiddhartha":12971,"banumana":12972,"Ġpiechadi":12973,"skrit":12974,"shimgha":12975,"breast":12976,"Ġyashobanta":12977,"Ġmadhyayugiya":12978,"vention":12979,"Ġshribigrahamana":12980,"Ġdurbhiksha":12981,"Ġrritura":12982,"aa":12983,"bdha":12984,"iyiba":12985,"kyo":12986,"lka":12987,"mbana":12988,"td":12989,"ua":12990,"kaksha":12991,"badaru":12992,"Ġacha":12993,"Ġadar":12994,"thina":12995,"Ġeve":12996,"nica":12997,"gauri":12998,"Ġpachapa":12999,"Ġrath":13000,"siji":13001,"Ġnibandha":13002,"bhasa":13003,"Ġtamanna":13004,"bitta":13005,"huti":13006,"Ġdayara":13007,"Ġdasia":13008,"Ġhektara":13009,"Ġdinia":13010,"dema":13011,"ural":13012,"Ġjalan":13013,"kini":13014,"kine":13015,"Ġparipre":13016,"Ġparityakta":13017,"Ġgam":13018,"Ġladhi":13019,"ĠshàŃ±":13020,"Ġmananti":13021,"Ġmir":13022,"Ġpratipada":13023,"Ġparara":13024,"Ġababahi":13025,"Ġhasi":13026,"Ġchintara":13027,"Ġgobarddhana":13028,"ngesa":13029,"ities":13030,"phakira":13031,"parichaya":13032,"Ġprathamaru":13033,"kes":13034,"Ġlikhana":13035,"Ġleu":13036,"Ġlepa":13037,"Ġtelare":13038,"Ġgugula":13039,"Ġghantaru":13040,"gochara":13041,"Ġathara":13042,"Ġsarthaka":13043,"Ġphasi":13044,"Ġabhinayaku":13045,"nusare":13046,"Ġwhe":13047,"àŃ±ata":13048,"ngitaku":13049,"Ġharamon":13050,"Ġshua":13051,"njika":13052,"Ġmilinahi":13053,"Ġrisar":13054,"Ġduigoti":13055,"Ġkendraru":13056,"Ġjemsa":13057,"Ġdebagana":13058,"sola":13059,"somala":13060,"Ġprotin":13061,"Ġ96":13062,"Ġhindumane":13063,"paniya":13064,"Ġmatradhika":13065,"Ġnadiku":13066,"Ġpaniku":13067,"Ġ160":13068,"Ġhaikor":13069,"Ġnarayan":13070,"harukha":13071,"Ġantisaiko":13072,"Ġhradare":13073,"Ġjune":13074,"Ġrakhantu":13075,"Ġapasara":13076,"edasa":13077,"Ġphona":13078,"Ġprin":13079,"Ġbahishkara":13080,"Ġmarahatta":13081,"Ġshtesanare":13082,"Ġstaraku":13083,"bert":13084,"Ġtalikabhukta":13085,"Ġataki":13086,"Ġ1893":13087,"Ġchampiyansa":13088,"Ġkaryyanushthana":13089,"Ġbyapithae":13090,"ĠdàŃ±aita":13091,"Ġshirshare":13092,"Ġpublishing":13093,"Ġchaati":13094,"'''":13095,"Ġmargadarshana":13096,"Ġkaridiagala":13097,"Ġtraphire":13098,"nirbachanare":13099,"Ġjyotirbij":13100,"Ġupakarita":13101,"Ġpadmanabha":13102,"Ġbajraka":13103,"ground":13104,"Ġbhietanama":13105,"Ġyears":13106,"cription":13107,"Ġsehidinatharu":13108,"Ġfracture":13109,"Ġjashtisa":13110,"Ġdaebetisa":13111,"pattanatharu":13112,"Ġrailway":13113,"Ġekadibasiya":13114,"Ġprabandhika":13115,"ĠaishàŃ±ryya":13116,"Ġmatanusare":13117,"Ġshubharambha":13118,"atha":13119,"starare":13120,"hasta":13121,"Ġskata":13122,"raeda":13123,"makara":13124,"labya":13125,"Ġkhila":13126,"Ġasara":13127,"Ġsaj":13128,"Ġsashakti":13129,"riture":13130,"shtan":13131,"Ġmastaka":13132,"sat":13133,"Ġpakharu":13134,"Ġbidita":13135,"Ġkakara":13136,"Ġkaju":13137,"Ġkainasi":13138,"Ġraba":13139,"Ġbaluka":13140,"dian":13141,"àŃ±ari":13142,"Ġnida":13143,"Ġandara":13144,"karayae":13145,"Ġtauna":13146,"oids":13147,"bie":13148,"Ġhoiyai":13149,"Ġmadhyara":13150,"Ġdikshita":13151,"demy":13152,"Ġjataka":13153,"Ġkarla":13154,"kikarana":13155,"Ġpaithanti":13156,"kshatra":13157,"Ġnirma":13158,"tui":13159,"endo":13160,"Ġgadhoi":13161,"Ġshakuntala":13162,"Ġshtra":13163,"Ġmanthara":13164,"Ġshitakalina":13165,"Ġsipi":13166,"Ġhabi":13167,"Ġmahadeshara":13168,"ktibh":13169,"Ġbesara":13170,"bart":13171,"Ġchiti":13172,"rritàŃ±":13173,"Ġsahamati":13174,"Ġkedaranatha":13175,"phaeda":13176,"parichi":13177,"Ġneu":13178,"karani":13179,"Ġhipa":13180,"keyi":13181,"themati":13182,"Ġmemb":13183,"Ġparadarshita":13184,"mos":13185,"Ġkol":13186,"Ġshrishrima":13187,"à¤Ł":13188,"Ġbul":13189,"Ġpataru":13190,"budha":13191,"Ġpen":13192,"ĠasàŃ±":13193,"Ġsanni":13194,"Ġsher":13195,"Ġpregnancy":13196,"Ġuttarakhandara":13197,"Ġalata":13198,"pokhari":13199,"Ġamma":13200,"Ġsarbaprathame":13201,"Ġ91":13202,"Ġtribhuja":13203,"Ġpranama":13204,"mahatma":13205,"mahabharata":13206,"Ġgir":13207,"blio":13208,"Ġger":13209,"Ġdarshanare":13210,"Ġgarbhagrri":13211,"Ġbanijyare":13212,"Ġthakuramane":13213,"ciency":13214,"Ġlandanara":13215,"Ġbalyaka":13216,"Ġchashama":13217,"Ġnagapura":13218,"Ġabasaraprapta":13219,"Ġlaiph":13220,"Ġnauka":13221,"Ġjarmanire":13222,"Ġuindo":13223,"Ġsammilanira":13224,"Ġlarbha":13225,"Ġhrridaghata":13226,"Ġgamanagamana":13227,"Ġhoinathae":13228,"Ġbhutapurba":13229,"Ġjejema":13230,"Ġlimited":13231,"Ġwhite":13232,"Ġreactions":13233,"khrishtapurba":13234,"Ġshailabala":13235,"Ġghanishtha":13236,"Ġbyanarare":13237,"Ġkartikostiraeda":13238,"Ġstreptoko":13239,"Ġsahasikata":13240,"Ġyunaiteda":13241,"Ġresources":13242,"Ġbilambita":13243,"shàŃ±asare":13244,"articles":13245,"Ġriumataeda":13246,"Ġnirjalana":13247,"Ġdeputi":13248,"nabhembara":13249,"Ġpariprekshire":13250,"ipa":13251,"nnika":13252,"sor":13253,"Ġchcha":13254,"hanu":13255,"araai":13256,"masta":13257,"naka":13258,"Ġatika":13259,"dal":13260,"daga":13261,"Ġsaita":13262,"rira":13263,"len":13264,"galara":13265,"gathita":13266,"Ġprathara":13267,"Ġkahari":13268,"Ġkahila":13269,"dhan":13270,"dhanu":13271,"Ġbhag":13272,"Ġnak":13273,"huni":13274,"urare":13275,"Ġchadma":13276,"deshàŃ±ra":13277,"urala":13278,"khani":13279,"Ġjamu":13280,"Ġpailata":13281,"Ġkarachi":13282,"Ġkaragarare":13283,"Ġsamata":13284,"Ġsamabaya":13285,"Ġmudira":13286,"Ġkil":13287,"gion":13288,"Ġmandra":13289,"Ġsikki":13290,"mante":13291,"Ġsudama":13292,"Ġadhibesha":13293,"sharata":13294,"Ġkuch":13295,"pradana":13296,"Ġutkaliya":13297,"nchadasha":13298,"kei":13299,"ketare":13300,"ĠrogadàŃ±ara":13301,"Ġteri":13302,"Ġrele":13303,"Ġparali":13304,"Ġparasya":13305,"Ġgrahara":13306,"Ġanyatha":13307,"Ġgudie":13308,"Ġdekhayauchi":13309,"mochi":13310,"Ġkolare":13311,"Ġkoshala":13312,"jeba":13313,"ĠaushadhadàŃ±ara":13314,"nota":13315,"Ġshubhra":13316,"Ġbrada":13317,"Ġdhamara":13318,"Ġkendri":13319,"Ġbhogu":13320,"Ġtopa":13321,"lansa":13322,"Ġsimhasanare":13323,"Ġnarira":13324,"Ġyuktarashtrara":13325,"Ġhome":13326,"Ġkendrashasita":13327,"Ġamshabishesha":13328,"Ġdharmagrantha":13329,"Ġkrrishnabrahma":13330,"Ġkrrishnapaksha":13331,"mahammada":13332,"Ġapekshika":13333,"Ġnishchetaka":13334,"fication":13335,"mandaliya":13336,"ĠkampanidàŃ±ara":13337,"Ġà¤ª":13338,"Ġniayai":13339,"Ġgunabatta":13340,"ĠjibanudàŃ±ara":13341,"Ġkshamataku":13342,"Ġratnagiri":13343,"berg":13344,"Ġkatiba":13345,"Ġsharada":13346,"Ġtarge":13347,"Ġadibasimana":13348,"Ġhistori":13349,"Ġ1891":13350,"Ġjagataku":13351,"Ġbamshaja":13352,"bisheshata":13353,"Ġchandabali":13354,"Ġchakiriru":13355,"ritage":13356,"Ġantagoni":13357,"graphic":13358,"Ġchuktinama":13359,"Ġfestival":13360,"Ġakhada":13361,"Ġsantulana":13362,"Ġphainal":13363,"sharma":13364,"Ġsmaraka":13365,"Ġiuropiya":13366,"Ġlibraries":13367,"Ġupakulabartti":13368,"balyajibana":13369,"prrithibira":13370,"Ġcorpo":13371,"nchoti":13372,"Ġcomplete":13373,"Ġbamshanukramika":13374,"Ġsrrishtira":13375,"Ġpliha":13376,"zures":13377,"Ġprashamsita":13378,"Ġbhojapuri":13379,"Ġranthambor":13380,"Ġphebruari":13381,"ĠsatàŃ±ki":13382,"cr":13383,"iuro":13384,"oshi":13385,"upare":13386,"uttama":13387,"var":13388,"hatya":13389,"bate":13390,"badha":13391,"Ġkshana":13392,"nathae":13393,"Ġachara":13394,"Ġamira":13395,"Ġeuro":13396,"Ġsahari":13397,"Ġsagarare":13398,"shastro":13399,"thanare":13400,"Ġpakshe":13401,"Ġpages":13402,"Ġbilua":13403,"Ġkashtha":13404,"Ġrashtrara":13405,"Ġbatra":13406,"Ġbatara":13407,"Ġganara":13408,"rrishi":13409,"Ġnibe":13410,"Ġsamna":13411,"Ġsamnare":13412,"Ġbhagata":13413,"Ġnaya":13414,"Ġnayara":13415,"ndarare":13416,"aniti":13417,"Ġkarnataka":13418,"Ġkarbet":13419,"Ġkaraithila":13420,"Ġpariyojana":13421,"Ġpariprakasha":13422,"Ġparipuraka":13423,"Ġmundia":13424,"Ġbyakta":13425,"Ġshakhara":13426,"Ġmanmatha":13427,"Ġanukarana":13428,"pine":13429,"Ġpratihari":13430,"nera":13431,"1921":13432,"1917":13433,"1916":13434,"1925":13435,"gun":13436,"iala":13437,"Ġabasheshare":13438,"Ġabayaba":13439,"Ġhauthiba":13440,"Ġmahasnana":13441,"bargara":13442,"yandara":13443,"janatha":13444,"grahara":13445,"ngar":13446,"kararu":13447,"ketu":13448,"Ġtemples":13449,"Ġbhupati":13450,"muno":13451,"Ġkaruthanti":13452,"Ġmenana":13453,"suddha":13454,"darshi":13455,"Ġdiayau":13456,"infe":13457,"Ġshriradha":13458,"Ġshrinibasa":13459,"njaima":13460,"Ġlekhayaithila":13461,"jela":13462,"all":13463,"dhyapaka":13464,"duh":13465,"byakteria":13466,"nosis":13467,"Ġdharani":13468,"Ġrijar":13469,"Ġsandrata":13470,"type":13471,"Ġjeru":13472,"Ġdori":13473,"Ġtum":13474,"Ġchopa":13475,"Ġgitaku":13476,"Ġanatha":13477,"Ġaustra":13478,"Ġautho":13479,"ĠparshàŃ±bartti":13480,"Ġtinigoti":13481,"Ġshariraru":13482,"yesha":13483,"nyaya":13484,"Ġdhumpa":13485,"Ġapabhra":13486,"Ġsaito":13487,"Ġupalabdhi":13488,"ĠsàŃ±ijara":13489,"Ġisland":13490,"Ġjamidari":13491,"Ġyuropara":13492,"1931":13493,"ĠàŃ±ai":13494,"cutta":13495,"Ġbrahmanamane":13496,"Ġsnatta":13497,"arthaniti":13498,"Ġmyujika":13499,"Ġmyuchuala":13500,"Ġmiluthila":13501,"Ġaseta":13502,"ĠbhubaneshàŃ±raru":13503,"Ġsarojini":13504,"gariya":13505,"Ġsamsparsha":13506,"Ġjhiara":13507,"Ġdhola":13508,"Ġsonali":13509,"Ġakashabanira":13510,"Ġkrodhita":13511,"Ġphainala":13512,"bruary":13513,"Ġetada":13514,"Ġcentral":13515,"bijeta":13516,"Ġgathanare":13517,"Ġsmaraniya":13518,"Ġarchive":13519,"medical":13520,"Ġjibanura":13521,"Ġdhumapana":13522,"Ġhastina":13523,"koili":13524,"Ġtikie":13525,"kshudragalpa":13526,"Ġprekshalayare":13527,"Ġgandharba":13528,"Ġstyle":13529,"Ġbilirubina":13530,"alpa":13531,"akshaya":13532,"ent":13533,"eprila":13534,"ing":13535,"jàŃ±":13536,"ky":13537,"llow":13538,"sarare":13539,"swa":13540,"swar":13541,"tz":13542,"tsam":13543,"zed":13544,"{{":13545,"Ġlya":13546,"and":13547,"Ġstro":13548,"Ġskor":13549,"yasa":13550,"Ġagoni":13551,"thing":13552,"Ġero":13553,"Ġsauda":13554,"Ġdhare":13555,"Ġmahari":13556,"nin":13557,"Ġbiba":13558,"Ġrabanara":13559,"àŃĸ":13560,"àŃ±an":13561,"Ġuchcheda":13562,"bhas":13563,"Ġsampa":13564,"bibarani":13565,"Ġdeharu":13566,"Ġchakara":13567,"Ġchamara":13568,"Ġchaushathi":13569,"lopa":13570,"heart":13571,"khasta":13572,"ĠjaleshàŃ±ra":13573,"Ġpaibara":13574,"yugare":13575,"Ġsamabesha":13576,"Ġsamashti":13577,"nkusha":13578,"Ġkishana":13579,"Ġjio":13580,"Ġjilara":13581,"Ġgambu":13582,"Ġshasta":13583,"Ġanubikshana":13584,"1900":13585,"Ġpart":13586,"Ġmahabidya":13587,"Ġsugandha":13588,"Ġbet":13589,"homa":13590,"Ġlokakala":13591,"ĠsàŃ±rare":13592,"ong":13593,"Ġbyabaharika":13594,"gramare":13595,"graphara":13596,"Ġsahadeba":13597,"yini":13598,"Ġupapraja":13599,"Ġarchaeo":13600,"sampurnna":13601,"suchana":13602,"push":13603,"Ġtiarire":13604,"Ġmanagement":13605,"ibahika":13606,"Ġthapa":13607,"Ġthakkana":13608,"Ġkuhayaipare":13609,"Ġtarikharu":13610,"Ġ180":13611,"ceous":13612,"bandi":13613,"Ġpesa":13614,"kriketa":13615,"Ġalaukika":13616,"Ġbhoji":13617,"Ġdoha":13618,"Ġtour":13619,"Ġtopi":13620,"Ġkaranaku":13621,"tarini":13622,"Ġnarimane":13623,"Ġpujapanda":13624,"Ġduradarshanara":13625,"Ġcolo":13626,"ller":13627,"Ġholi":13628,"Ġcharmara":13629,"nchila":13630,"Ġimjini":13631,"brriti":13632,"Ġbirajita":13633,"yepari":13634,"Ġjanipari":13635,"mahapatra":13636,"Ġpanthera":13637,"Ġnababarsha":13638,"Ġjanmara":13639,"Ġsamudrapattanatharu":13640,"Ġstati":13641,"Ġval":13642,"siddhanta":13643,"Ġgrand":13644,"Ġghatithiba":13645,"ngue":13646,"Ġdirghasthayi":13647,"Ġathamalli":13648,"Ġtalalikhita":13649,"ttanara":13650,"Ġkatakana":13651,"Ġharda":13652,"pratikriya":13653,"Ġsimhara":13654,"Ġnetwork":13655,
[...]
