#version: 0.2
a r
h a
h i
a n
ar a
Ġ s
r a
k a
t a
y a
Ġ b
Ġ p
m a
ar e
l a
t i
b a
Ġ k
n a
Ġ |
an a
Ġ a
d a
t hi
Ġ e
ar i
Ġs a
s ha
r i
s h
l e
t ha
Ġ d
Ġ ma
Ġ j
h ara
n i
Ġ o
g a
c ha
Ġ m
Ġ h
s a
c hi
Ġp ra
k u
Ġp a
l i
r e
Ġb i
p a
Ġ ka
¬ ¼
à ¬¼
Ġk ari
Ġ ra
t e
Ġb a
d i
à Ń
àŃ ±
thi le
n ka
Ġ g
s i
Ġs e
d ha
d h
r ri
Ġ ni
Ġ Ċ
Ġ 1
Ġ (
ar u
Ġ an
j a
Ġ u
c h
k ara
b ha
Ġsa m
Ġ ta
t h
Ġb ha
Ġ na
t ra
o i
b i
h u
m i
Ġh oi
n d
â Ģ
u r
m ana
Ġd e
Ġe ka
Ġ y
Ġ 2
Ġe hi
r o
an i
thi la
b ara
t ara
ba m
d hi
Ġ cha
Ġe bam
s hi
l o
Ġ da
Ġ i
Ġma dh
Ġh e
an e
Ġkari thile
b e
Ġd i
b hi
d e
Ġ n
u ra
Ġ1 9
thi ba
h e
k ha
Ġj a
Ġk ar
Ġ ya
k i
j i
âĢ Į
Ġe ha
y are
h are
r u
Ġpa i
Ġ2 0
s e
k sha
Ġk ara
Ġo da
y u
Ġni r
Ġsa ma
Ġp ari
n ti
Ġm u
t u
n ku
ti ya
Ġk i
e nd
Ġj i
Ġma si
d hara
Ġb ya
g i
ya e
Ġ ga
n kara
Ġ la
Ġs ha
m e
Ġb ar
p are
u na
Ġs h
t o
t ana
ar ana
n ga
Ġb hara
Ġm an
Ġmadh ya
ya i
b are
Ġm i
chi tra
y ya
h ya
n na
sh àŃ±
Ġs hi
tha e
Ġan u
t ya
o f
an ti
x t
te xt
p i
Ġ ro
< |
| >
end of
endof text
Ġ ti
Ġ lo
Â ł
dha na
th are
Ġpra ti
t r
n e
Ġs i
1 9
t ri
m bara
a dhara
Ġp ar
g u
i a
Ġa ba
Ġh u
m an
ch cha
Ġka tha
0 0
Ġ ha
l ara
Ġma ha
Ġ ch
t are
sh ta
Ġs u
Ġj ana
k ti
Ġbha bare
Ġb e
Ġra hi
an ma
Ġmasi hare
Ġp u
k ta
h o
Ġlo ka
Ġs àŃ±
Ġsa b
b ar
y an
Ġa dhi
y o
i sha
Ġp ur
sh ara
l are
j ana
k hi
Ġp are
m ane
Ġkari ba
Ġa bhi
Ġ t
k hya
Ġ chi
Ġhu e
d àŃ±
rri t
o n
h ar
Ġk u
Ġj ane
b ana
sha na
Ġy e
Ġg o
ara m
s are
Ġbya ba
g ra
s ta
ha na
Ġy o
cha na
Ġsa ha
n g
Ġk e
Ġkatha chitra
an u
p ra
cha nti
dàŃ± ara
Ġ20 1
Ġsa hi
Ġs tha
Ġkar yya
i ti
Ġna ma
Ġkara yai
y i
u la
d ya
sh e
n are
ya ka
k are
p ha
Ġbar sha
di ra
Ġ thile
p ari
Ġbi dhana
Ġra j
Ġu t
Ġp i
sh are
n da
an da
Ġbhara tiya
Ġn e
u sha
e ka
th aru
d dha
Ġpra tha
i thile
s tha
k ra
n cha
o r
rri sh
k ar
Ġk ha
Ġ hi
l u
Ġu pa
Ġ ar
Ġnir ba
k e
d ana
t ar
Ġ li
y ara
ti ra
p e
th e
Ġro ga
Ġ le
m are
Ġa te
Ġi n
dh arana
Ġe hara
o da
g ha
Ġ -
Ġ te
t ta
thi ta
Ġ "
y ana
sa m
rrit yu
k ari
s ana
Ġy u
Ġj anma
s ara
m ba
Ġya ha
Ġji l
Ġadhi ka
Ġd u
Ġb hu
Ġb o
Ġ 3
k rri
Ġ c
t ti
p re
Ġra ja
Ġ20 0
Ġhe u
m u
Ġp ura
Ġbi shàŃ±
Ġk aru
Ġhoi thila
Ġm e
Ġsa bha
gi ta
Ġo f
n ana
Ġ thiba
Ġmadh yare
Ġs ara
s kara
Ġ re
Ġsama yare
l ana
na ta
Ġ thila
m ara
d ara
p ura
na ya
chi ta
Ġcha la
p ur
2 0
n tu
Ġp ara
s u
b hu
Ġkara yae
p ar
Ġsa dharana
ri ya
sh tha
li ka
tr are
ar chcha
k to
n ta
Ġg ra
k shi
d ra
Ġka la
Ġbi j
Ġm o
j ara
p te
ula i
p ara
anu ari
Ġan ya
an ta
Ġb hi
k o
Ġka m
d ar
Ġg u
ba ku
b aru
Ġ aram
kto bara
p ana
se mbara
Ġman dira
Ġg ha
g o
Ġ f
Ġa t
Ġde kha
pte mbara
Ġaba s
Ġ 4
t sa
Ġdi a
Ġs ar
p h
g ara
Ġchala ch
Ġp ha
Ġ 5
i n
Ġaram bha
m o
Ġrahi chi
Ġka ma
pre la
ti re
s t
Ġ the
h ari
Ġhoi thile
Ġpratha ma
ti ka
t àŃ±
Ġnir d
ĠsàŃ± a
Ġk o
j una
bi ta
Ġanu sare
Ġpura skara
Ġan eka
Ġmu khya
Ġ ru
ba ta
p u
Ġsh ri
Ġabhi naya
Ġti ari
an ya
) ,
Ġa di
an are
ga ta
n ara
ba la
n u
m sha
Ġu pare
i ta
p ta
g are
v e
sh u
n di
Ġ ,
an ara
bha ba
b hara
Ġka le
nd ra
Ġa usha
Ġm rrityu
Ġshi ksha
Ġpra ya
Ġji bana
Ġsahi ta
ki tsa
ta h
Ġ19 9
Ġhe ba
ti on
se ptembara
j anuari
j ulai
m archcha
mi ta
ka sha
hi la
a ktobara
di sembara
a prela
Ġp r
Ġba ya
Ġbha be
Ġ Ġ
Ġja tiya
k hare
Ġbo li
ta ka
dya la
thi re
n ja
Ġ âĢ
y aru
Ġm ana
ba hara
yan ta
Ġ 6
ti e
j anma
th ya
Ġki chi
Ġ w
i ba
Ġpa da
Ġba da
àŃ± a
g e
bhi nna
ka la
Ġbya kti
Âł Ċ
Ġle kha
j e
Ġausha dha
Ġdi na
Ġma hila
gu da
i na
l pa
Ġnird de
Ġni ja
ksha na
Ġni man
a l
g an
2 00
Ġse hi
m ani
Ġa si
Ġbi bhinna
Ġhoi thiba
Ġbyaba hara
Ġba hu
dh u
Ġan d
pa ti
n gita
Ġn u
Ġki ntu
Ġhoi pare
Ġniman te
y yanta
Ġ tha
Ġhoi thae
Ġna hi
s ya
Ġ hara
à ¤
Ġb u
dh ya
ba da
âĢ į
Ġchalach chitra
ka ta
ta ma
Ġde ithile
Ġkathachitra tira
Ġpa t
d u
Ġp hu
Ġbi sha
Ġta tha
Ġpar yyanta
Ġabas thita
b ya
Ġku ha
Ġjil lara
Ġhe le
rri ta
Ġt ari
Ġgo tie
k sh
Ġ19 8
rrish ti
Ġ1 8
n o
Ġda sa
pa da
e hi
Ġki mba
Ġd àŃ±
Ġd ur
Ġa me
Ġbe le
nd u
hi ta
c hara
ur u
Ġye u
be le
c e
b u
i ka
Ġb rri
mi ka
Ġu chcha
di a
Ġsab u
Ġp o
Ġan tar
b an
Ġde i
tha nti
Ġs hu
una si
Ġheu chi
Ġkar anti
Ġman da
Ġkarayai thila
k tara
Ġb ra
Ġs o
Ġd har
dhi ka
Ġ 7
Ġa chi
i shara
m ha
Ġraj ya
Ġnirba chana
n ji
Ġmi li
Ġ19 7
Ġ ri
Ġb an
Ġk an
shàŃ± ra
m ra
na tha
sh ra
Ġka unasi
la bha
Ġat anti
Ġhe la
Ġra kta
Ġbhara ta
Ġ tara
ga la
t an
Ġame ri
Ġpur ba
20 1
Ġp e
Ġk are
b o
ani ka
tha na
Ġd ha
Ġk he
Ġkari chanti
r ana
Ġa s
bi dyala
Ġdu i
Ġyo gu
Ġmasi hara
g re
Ġs an
b ani
p hi
n t
Ġp he
Ġ 8
Ġchi kitsa
tr ana
Ġu d
Ġpra sa
r an
Ġraj ani
yo ga
Ġs he
Ġp re
Ġeha ku
Ġdia yae
Ġsam u
Ġsab hya
shi ta
k riya
ch e
k ri
sha ka
Ġ19 6
Ġut tara
b he
Ġsahi tya
ma la
Ġa la
Ġba i
Ġkariba ku
âĢ Ļ
Ġra chana
Ġne i
krri ta
Ġsa hara
Ġja la
Ġde bi
Ġmadh yaru
s tu
Ġmasi ha
t y
Ġke te
Ġk end
s an
i e
Ġyo ga
rrish na
Ġa ti
nka dàŃ±ara
p o
Ġb ho
pur nna
Ġj e
ba sa
sa la
Ġabhi ne
Ġde ba
m rrityu
Ġde khi
Ġk she
Ġbi bha
Ġch e
Ġd o
li ta
r ara
Ġbha sha
nga la
Ġpari bar
Ġkari thila
mra ji
Ġsam s
ba ha
ya ta
Ġda la
Ġ to
k arana
ya u
Ġbhara tara
d are
Ġ1 0
ga da
Ġsh re
kshi na
she sha
k sa
Ġ19 5
ha sa
Ġ tu
Ġta ha
Ġch o
ni ya
ki ya
ji ta
ra ma
gra hana
r are
Ġya i
Ġtari khare
Ġmaha nti
Ġ '
Ġmanda li
yi ka
l li
sh tra
Ġg an
Ġkar ana
Ġ thae
Ġnirba chita
n gi
k shara
Ġg ar
Ġp hi
Ġsha ta
pha la
Ġgra hana
Ġg ita
Ġstha na
Ġ ana
Ġkaru thile
ni ta
c o
Ġda lara
Ġma sa
Ġsama sta
t hara
Ġna mare
ha ni
l ya
Ġsara kara
d dhi
Ġsab hara
Ġsam mana
ni ka
Ġhe i
Ġse thi
Ġsam khya
Ġhoi chi
bar tti
Ġkuha yae
Ġk ri
sh o
ĠdàŃ± i
Ġa m
Ġra khi
Ġbha ga
s o
Ġs rrishti
t ari
Ġe thare
Ġd ar
Ġpa dha
l an
sam khya
Ġbi dha
Ġsi mha
sh ya
la ku
cha nare
Ġar tha
Ġra ma
Ġda kshina
pa tra
Ġsama ya
Ġse mana
Ġma i
Ġp ro
b h
Ġkete ka
Ġa u
Ġsar ba
19 9
Ġsha kti
Ġse thare
tr ara
d o
be sha
Ġmi shra
kra mana
yan ya
Ġbaya s
di ta
Ġbha li
Ġbha share
Ġmu kti
Ġ 9
Ġn ari
Ġdekha yae
Ġpu ja
Ġsab hare
Ġkari thiba
ar are
Ġ1 5
Ġla kshana
Ġbha u
Ġy an
thi baru
Ġgha tana
te r
Ġpar shàŃ±
s ti
Ġbhu mi
i ra
di na
Ġka hi
si a
gan natha
iti ka
hu ri
yu kta
gha tana
t tàŃ±
Ġch ari
de sha
Ġpur baru
li na
Ġbra h
Ġhi ndu
Ġg uru
Ġnirba chanare
Ġk ho
Ġpur usha
Ġyu ktara
Ġbidha yaka
Ġpratha me
Ġpa ha
àŃ± e
19 8
m sa
Ġla gi
si ka
Ġp aram
i la
Ġbi baha
Ġ19 4
Ġs ana
Ġm ar
dh are
Ġd ura
v i
Ġpra ka
Ġjanma grahana
p ani
1 8
Ġnir mana
ma ta
sha ta
Ġsha b
ba li
Ġta thya
Ġa dhara
Ġjil la
Ġde sha
Ġni jara
Ġg re
pa i
de mi
Ġda sha
Ġse ba
Ġkam gre
Ġma tra
Ġi tya
ĠâĢ ĵ
sh ri
sh chi
dar shana
Ġshata b
Ġb ara
Ġcha ndra
Ġsadharana tah
h rrita
pa ta
ve r
thi ti
nd ara
Ġstha nare
Ġd h
li a
Ġnama ka
krri ti
de ba
Ġjana ta
k ana
00 0
Ġa i
Ġc o
pa la
te bele
sh yaka
Ġitya di
Ġan yanya
Ġa dhya
Ġma ta
Ġa ga
Ġna di
Ġnirdde shana
ti sha
Ġd hari
Ġsam par
Ġya tha
bi dha
rri tya
bha ya
Ġeka demi
Ġp h
ĠbishàŃ± bidyala
Ġ1 2
Ġmukti labha
har ara
Ġpra dana
gra ha
Ġja ga
Ġp ani
Ġru pe
Ġ :
l le
p he
la ya
ja ya
t ro
Ġcho ta
ur o
chi trare
Ġh o
Ġbi shesha
Ġ tri
Ġpari bara
a bhi
Ġnir mita
Ġla ksh
Ġch ar
Ġpra kasha
Ġk sha
na l
ng ara
a sa
Ġaba shyaka
ri ka
ĠsàŃ±a dhi
ji bita
k h
Ġke bala
Ġshe sha
yai thila
k an
Ġe thire
kra ma
t tana
Ġmo ta
Ġbar n
Ġ1 6
Ġa kar
Ġla bha
n kare
Ġkarayai chi
Ġkend ra
19 7
a i
Ġd hara
chi kitsa
Ġti thi
Ġkar ma
ga lika
ri a
n chi
s thya
Ġprati shata
Ġkha dya
j u
la ka
Ġbar tta
mani ta
ba di
Ġp rri
Ġka mi
Ġba sa
Ġsabha ku
Ġpa tha
shchi ma
Ġpra kara
ya ma
l ar
a j
ro m
da ya
Ġb ri
Ġsa kshara
sh ti
Ġsam ra
Ġi m
Ġpra bha
Ġpra stu
Ġpi ta
Ġbhumi kare
b rri
Ġse mane
Ġbyaba hrrita
te d
Ġsakshara ta
c a
yo jana
tan tra
p an
Ġa msha
ba si
Ġbisha yare
b ra
Ġbi ra
Ġdhar ma
Ġsa da
Ġkhe la
Ġti ni
sh thita
ncha la
mu kha
Ġ1 7
Ġkaru thiba
go ri
g ana
Ġch u
Ġg ho
Ġmu lya
Ġ ara
jana itika
Ġle khi
s àŃ±
Ġn rritya
e ha
Ġba dha
ĠsàŃ±a sthya
Ġman di
Ġ rri
Ġsara kari
Ġshi ba
nka tharu
Ġha i
Ġa ph
Ġpi la
Ġpar yya
Ġ thi
Ġd ra
Ġsh ari
tr an
ni a
Ġmandali ru
1 0
pi ta
y e
ba ti
Ġ1 4
Ġba pa
hi a
) :
g ri
ncha lare
r ani
Ġ tra
Ġ201 4
Ġpr ana
Ġmaha patra
Ġdu iti
bhara tiya
Ġi ti
yi ba
Ġ19 3
m na
Ġpat tana
i le
Ġn ara
Ġpu sta
Ġpra dhana
i mraji
Ġprati shtha
d ma
a huri
c i
Ġgre gori
k she
g h
s ra
Ġ chitra
Ġu bhaya
Ġka hani
Ġja ti
2 1
Ġte be
ari ta
ke ta
Ġkala kara
ku la
Ġpara bartti
Ġku mara
Ġji b
Ġa su
ch ar
Ġshi shu
de shara
Ġka bi
Ġra tha
Ġna yaka
Ġh ari
Ġsam manita
ur tti
Ġp anda
Ġcha li
s s
Ġbi dyala
ĠĠ ĠĠ
ur yya
Ġj ani
p hu
Ġabhine tri
Ġba la
Ġshab da
ti ta
ba hi
h aru
Ġkari thae
Ġte nu
Ġin dia
yai chi
Ġkari thanti
Ġpattana yaka
Ġrajani ti
Ġbha la
e s
Ġ1 1
Ġu nna
kri yare
Ġan i
Ġkshe trare
ji ka
Ġ1 3
Ġbrri ddhi
Ġja gannatha
Ġjil lare
ma ti
iti hasa
j are
s tra
Ġya di
Ġk rrishna
Ġpr ar
bha sha
l d
ari ka
Ġkan tha
b ane
n thire
Ġra ya
f e
Ġrajani tire
me nt
ĠdàŃ±i tiya
Ġphu ta
u da
e ta
ma ha
thi bi
Ġm ani
Ġro gi
Ġp an
Ġj ha
Ġpa lana
t aru
Ġk ana
Ġf rom
Ġpat ni
sa ma
Ġ lu
pa dana
k rrishna
bar sha
Ġa da
Ġan ti
Ġji ba
Ġut sa
Ġprastu ta
l la
m p
Ġ =
Ġa g
Ġpra mukha
Ġe si
ĠâĢ ĺ
lo ka
Ġyan trana
Ġ thare
Ġs ura
Ġgra ma
di ka
Ġ2 5
1 5
Ġaba stha
Ġnu he
kar ara
Ġmu nda
Ġpari cha
Ġk hu
Ġnir nna
na hi
ta la
Ġsama sya
Ġna ba
19 6
Ġsa pta
u t
b arana
Ġt rri
2 2
Ġa pe
Ġbhi nna
Ġb he
Ġhi ndi
Ġpa shchima
Ġn ya
Ġpha la
Ġe thi
Ġkarayai thae
i ki
Ġshre ni
Ġka li
la i
e n
Ġj an
ĠsàŃ±adhi nata
Ġabhine ta
Ġmi le
shi shta
Ġpa dar
i share
Ġpra bhaba
Ġk h
Ġbartta mana
n j
Ġpra ja
Ġpa u
g ya
Ġpra sha
Ġpari ksha
mi tara
Ġpusta ka
a dhika
Ġprati kriyare
l aru
Ġt hara
Ġbayas ka
Ġni kata
t re
Ġbarn nana
sa da
Ġ3 0
Ġk rri
Ġh ra
Ġheu thiba
Ġnirnna ya
Ġgan dhi
t ma
Ġphi l
si s
Ġya e
Ġshatab di
d yu
Ġbi kasha
Ġgu da
p riya
Ġman o
Ġu p
t ur
bhi ra
Ġma u
Ġki lo
Ġkh ri
m ar
m ari
to r
Ġbrah ma
ku ra
Ġpar ba
m pi
la ta
j ya
Ġcha u
Ġ .
l y
Ġro gare
Ġmukhya tah
19 5
s thita
Ġb anda
tar are
Ġj anuari
pa ka
Ġni ka
Ġcha da
Ġprri thibi
Ġchalach chitrare
1 4
dh ar
Ġa tya
l pi
Ġg i
th o
bi ka
ro dha
bhu kta
Ġrajaniti j
Ġro gara
Ġsa phala
Ġpra chi
Ġj u
Ġni sh
Ġsada sya
Ġka bita
Ġsamu dra
Ġshre shtha
n ya
Ġpa tra
1 2
n aru
Ġg ana
1 7
Ġnirdde shaka
Ġnu a
' s
man ara
Ġba m
Ġa pha
Ġbhu bane
be shana
s te
e sa
1 6
s ar
Ġ àŃ±
Ġsahi t
lle kha
h arana
y ar
ja tiya
Ġha sala
Ġjana samkhya
Ġ )
Ġya tra
Ġdur are
la b
la pa
Ġprabha bita
Ġf or
Ġj o
n ki
Ġsam kramana
Ġhu anti
Ġpra da
Ġa k
si sa
Ġsa harara
h na
bhi ka
Ġs uryya
Ġi mraji
Ġsam ar
Ġbhara tare
Ġu llekha
Ġparibar ttana
Ġkara yau
Ġa lpa
Ġn o
Ġbij u
Ġmu la
Ġdekhi baku
tri ka
Ġantar gata
j an
Ġa ksha
Ġbhau galika
Ġsh o
hi re
Ġja ya
Ġpha lare
Ġ200 9
Ġna taka
Ġdi lli
shi ka
ĠbishàŃ± asa
ch u
Ġ201 3
Ġ201 5
Ġs nata
à ¥
Ġra kha
1 3
n jana
Ġnika tare
Ġprar thi
Ġj hia
sa dharana
Ġbha i
yai thae
mi na
Ġj ulai
d dhare
Ġbhi tare
Ġma hara
Ġyu ddha
g ar
Ġmaha bidyala
cha ndra
Ġanu shthita
j ha
Ġpai thile
i li
ng e
Ġe pari
Ġ20 19
Ġk ra
Ġsam purnna
Ġra shtra
kra me
kar tta
Ġj ari
shi la
gan ana
c tion
sh aru
Ġk ya
yo gi
p ri
Ġbaya sare
Ġkha nda
Ġpa kshi
sh trare
Ġka lare
Ġo n
Ġa ma
Ġpu ri
Ġaga shta
Ġa ktobara
Ġpa dma
Ġbi jaya
Ġdi sembara
bhu mi
Ġa ina
k hara
Ġbi sh
Ġsam bha
man tri
Ġpa ki
f i
t s
Ġadhika msha
Ġbyaba stha
ra janaitika
Ġkar kata
aram bhika
si mha
Ġand o
ru pa
Ġadhi kara
ya yi
Ġna bhe
man da
Ġ201 1
Ġd hu
Ġy ie
Ġgar bhaba
Ġiti hasa
n sa
Ġpra besha
Ġu da
Ġm archcha
Ġman tri
Ġkamgre sa
Ġa pa
Ġjana ganana
Ġkaru chanti
Ġpadar tha
Ġsa i
ma da
Ġg hara
ĠsàŃ± tantra
sh una
Ġkari bara
Ġ5 0
ti c
Ġra sa
go la
ka m
pur ba
Ġraj yara
Ġg rri
ch are
Ġsam ga
Ġs ta
Ġape ksha
Ġa para
Ġsa kriya
Ġma la
Ġm urtti
e da
kshi ta
ba i
Ġt an
krri tika
Ġbya tita
Ġsam ana
2 3
a la
Ġ v
Ġbaya sa
200 1
y ari
Ġd rrishti
ka lina
Ġa bi
Ġba u
Ġpari chita
u s
Ġpra karara
si ddha
Ġda i
ti o
Ġeha pare
Ġye pari
Ġb ana
Ġa khi
Ġ201 2
Ġa l
gha ta
tu re
Ġlekha ka
t na
Ġantar bhukta
Ġa kramana
pari ba
Ġpu ni
Ġ201 6
pa tti
Ġni yu
ban dha
s thare
ya m
Ġ l
Ġpa khare
Ġba gha
bha u
Ġameri kare
Ġ 0
pa thi
n ar
Ġpa kha
Ġpa ti
Ġkhela li
t rri
end ra
Ġbayas aru
Ġhoi yae
dha ni
Ġnabhe mbara
hi ra
Ġcha tur
Ġanu yayi
e la
thi ra
Ġni mna
Ġka taka
r nna
Ġp aru
c k
i baku
abhi naya
Ġbidyala ya
Ġba ta
tran s
Ġ201 0
Ġdur ga
Ġjaga tare
Ġj ar
Ġameri kiya
s tri
Ġjana shuna
Ġpu tra
pu ri
ha nti
Ġpa ka
Ġpraka shita
j o
an aru
Ġin di
Ġsu ddha
Ġse ptembara
Ġsam gra
Ġh rri
Ġbhu mika
Ġsaha yya
Ġkam pani
Ġsethi ru
y yare
pa tha
brri ari
Ġa dh
Ġg ran
Ġye tebele
Ġp ho
Ġbi shishta
3 0
Ġba li
Ġbyaba sa
Ġw i
Ġsha sana
Ġbri tisha
nka ta
mi la
Ġm ari
Ġde le
Ġya u
Ġsabu tharu
r gha
u m
Ġrahi thae
rri ti
Ġma j
g hara
Ġsama jika
g ani
Ġm ya
ma tra
Ġni la
Ġtari kha
r d
jana samkhya
Ġgha ti
Ġj yo
Ġw e
Ġb h
ty eka
Ġma sare
di shta
Ġga thana
n ni
Ġmadhya mare
âĢ ĵ
anya sa
l ani
p ho
Ġni ra
Ġkilo mitara
Ġj una
n gu
Ġsa hu
khi ta
Ġupa lab
ha ta
Ġtrri tiya
Ġme di
Ġphil ma
s ari
he ra
Ġnu tana
r s
y ura
Ġa li
d ro
Ġpa la
cha la
stha na
k share
Ġp ri
19 4
Ġstha pana
Ġ200 4
Ġse na
Ġra hu
Ġanu shtha
Ġkarma kartta
Ġa chanti
Ġ2 4
k aru
Ġma msa
Ġdi gri
Ġbi chara
Ġpadha ntu
Ġkari bare
ĠsàŃ± i
Ġanya tama
Ġphe brriari
sh na
Ġd ara
Ġti ka
Ġba hi
u nd
Ġya hara
Ġprachi na
Ġb y
Ġdi rgha
Ġsh ra
de bi
tio nal
Ġsi nd
Ġa tha
Ġka lara
Ġta la
Ġga ti
Ġe mana
dar sha
Ġhei thila
me nta
Ġmasi haru
rrit ti
m pha
Ġga cha
Ġga dha
Ġi s
Ġpa tana
Ġta i
Ġsama ja
Ġ2 7
Ġshi kara
har are
Ġbisha ya
shi lpi
ĠsàŃ±a mi
c al
Ġprati kriya
Ġpu a
Ġrahi thila
Ġyuktara shtrare
Ġ à¤
Ġbi na
b li
Ġabas thiti
t tara
Ġpra tyeka
Ġje ne
s tara
Ġbibha ga
b ho
Ġba si
Ġkhe li
p or
Ġga da
Ġloka priya
Ġsa tya
r tha
ga le
Ġdar shana
c ia
âĢ Ŀ
Ġbahu ta
Ġrahi ba
Ġru pa
Ġta pa
Ġmrrityu barana
char yya
gi ri
Ġphu la
Ġnya ya
Ġkamgre sara
ta ku
Ġni a
ĠâĢ ľ
Ġbi mana
Ġg e
Ġra ksha
Ġcha nd
d ura
Ġse tebele
dhu nika
Ġda k
p r
t t
Ġka l
Ġpra darshana
Ġpra pta
Ġka ta
1 1
ch ari
Ġbha kta
or ld
Ġdar sha
Ġakar are
Ġni yan
Ġhara tharu
hi ndi
e i
Ġkshe tra
Ġk shu
v a
si na
lu gu
Ġmandi rara
Ġdi basa
Ġyaha ki
Ġut kala
r anta
le shàŃ±ra
Ġbha gare
mi a
k hu
da sha
Ġdekha ntu
n an
de i
man are
Ġ201 7
Ġa sha
Ġ20 00
i l
Ġsarba dhika
n dha
di o
Ġne ithile
Ġ201 8
Ġsura ksha
Ġi na
pa shta
th u
lo chana
gu dika
pari ka
Ġpra cha
Ġu para
iti sa
t anu
Ġ rana
ti ku
Ġkarayai thiba
Ġbho ga
Ġjha da
Ġtara la
Ġyuktara shtra
Ġpra siddha
Ġga a
Ġmili thila
Ġsha ili
Ġa ka
Ġd hire
Ġra he
Ġ1 00
shi ksha
d s
Ġba hara
m pa
Ġe be
Ġan da
Ġc a
Ġprana li
Ġcha tra
Ġraja dhani
Ġpur ana
5 0
Ġdhara bahi
k la
ch arana
l l
Ġmu mba
ro ma
Ġba yu
Ġji ti
Ġ199 0
ha sika
ra ja
Ġm ara
Ġ2 1
nd o
Ġ2 2
Ġ àŃ±e
Ġde bata
Ġparu sha
Ġheu chanti
ba ka
Ġyo jana
Ġgar bha
tma ka
) .
Ġsam ban
shi ra
Ġphe ri
Ġsam stha
ja gannatha
Ġla ksha
k he
s àŃ±a
Ġ200 7
e hara
Ġg una
c t
ni dhi
Ġk har
Ġkara gala
Ġ200 6
ĠbishàŃ±bidyala ya
f or
Ġba s
Ġja mi
u ri
Ġpra yojana
me n
Ġhe bara
Ġstha niya
Ġbe sha
Ġa iti
Ġa sh
Ġda yi
Ġ âĢĮ
trans la
mo hana
i ku
Ġre la
sha da
Ġnara yana
Ġanu bada
Ġsampar ka
da shi
Ġbi ja
Ġba hari
i t
Ġbi ka
bhi da
Ġrahi thiba
Ġ200 8
sh ura
Ġb ani
Ġh ar
thi ka
ki t
Ġsam graha
Ġ2 6
pra ti
Ġ2 8
g hu
sh ma
Ġp riya
Ġga beshana
Ġunna ta
d anti
Ġpratha mika
Ġn anda
cha pa
Ġga ja
Ġa prela
Ġra u
Ġsu ndara
Ġlaksh mi
Ġ19 2
Ġbhaga bana
Ġmi tara
pra tha
Ġshatab dira
co m
bha li
Ġmau lika
ni ti
Ġpra tya
Ġde shara
Ġt re
Ġsam gha
Ġkshu dra
s thiti
Ġcha kra
ch o
Ġtha kura
i da
Ġpr ani
c le
àŃ± ra
Ġg ri
Ġantar jatiya
w iki
Ġma a
Ġsh te
Ġupalab dha
p la
Ġa pare
Ġa ji
Ġgarbhaba sthare
sa bu
Ġp rrish
Ġp la
Ġpa tire
m ula
Ġ20 20
Ġc on
Ġ2 3
o d
Ġta hara
b hare
s tana
Ġbij e
Ġyatha krame
e r
Ġbhubane shàŃ±ra
Ġs y
ph aru
g hi
chi trara
Ġkri keta
Ġgo la
| |
Ġ %
Ġp una
Ġde share
Ġyaha ku
Ġsa ta
m bha
Ġha ta
Ġdh arana
Ġup anyasa
Ġk anya
Ġla mba
Ġo r
bi nda
ĠdàŃ± ara
Ġta ku
àŃ± ar
i shi
man dira
Ġbish nu
k s
Ġprati nidhi
Ġsnata ka
Ġy uro
Ġkarayai pare
ma sa
pan na
Ġu ni
Ġa sa
pr arambhika
Ġni ti
ng are
Ġnirdde sha
Ġpada ka
ra la
di e
Ġpar bata
li sa
Ġhi sa
Ġsi m
q u
Ġne ta
de la
l anare
Ġe n
Ġkari chi
Ġkhar chcha
Ġcha pa
Ġkalakara mane
Ġban dhu
Ġtara pharu
Ġpre ma
Ġshatabdi re
p ro
ksha ma
Ġnird dishta
Ġgho shana
Ġra bi
âĢĮ ~
19 3
Ġchi h
ba hita
sh ka
Ġta t
Ġmadh u
Ġsh ar
Ġgha nta
Ġuchcha tare
Ġsamu daya
kam gre
Ġanu bhaba
Ġb laka
Ġpura tana
Ġ200 5
bhara ta
Ġparam parika
Ġbe laku
Ġadhi kari
pura skara
Ġp ana
a ba
Ġadhi nare
Ġne t
g na
Ġa d
Ġs tara
sa ka
Ġbi ru
c ie
thi bara
kamgre sa
Ġmi shi
Ġala ga
Ġkhri shta
Ġbau ddha
Ġg iti
Ġa kasha
yan ara
Ġa bha
Ġjana yae
si ta
j ani
Ġb la
Ġda ktara
Ġsan tana
ji bani
Ġ20 21
ĠsàŃ± ra
rrish ya
dhi ya
transla ted
à ¦
Ġe mane
sh thi
sh cha
Ġla la
Ġgu mpha
bhara tara
p ti
Ġa dhunika
Ġ4 0
Ġe na
kar da
Ġmandi rare
Ġka lika
Ġha la
ya tra
Ġchi kit
sho ra
Ġ ran
Ġsi ne
Ġche shta
Ġhra sa
Ġk hara
Ġ2 9
Ġbi dya
Ġkar anaru
Ġgra mare
Ġdi gare
Ġmi sha
de share
n anika
ma ya
Ġa b
Ġke hi
Ġprasa da
n ce
Ġni je
Ġsam bala
Ġar o
u thile
Ġpra mana
Ġtha i
Ġjib anu
Ġ vi
hi ndu
Ġsambha bana
Ġsam pra
Ġsu bidha
Ġkam p
Ġla ga
w a
Ġpa lita
Ġpur nna
Ġsahit yika
cia l
Ġs ari
la m
Ġg hare
Ġanu mo
Ġsi ddha
in o
Ġm ane
ver si
ti na
k si
ma si
Ġm d
de shi
kar are
tta ma
Ġyepari ki
d an
i thila
Ġbar ga
Ġ lan
Ġksha ti
ar y
Ġta le
Ġ19 0
Ġparam para
Ġando lana
li ma
Ġ àŃ±a
Ġpu sh
p aru
pra pta
Ġpaha da
Ġbu jha
Ġrashtra pati
ĠsàŃ± rupa
Ġdra ghi
c y
k anta
tor y
Ġmd wiki
Ġa gra
pa li
bi ra
Ġa yo
bi j
Ġsu chana
Ġ198 0
sha li
Ġma tha
Ġga lpa
Ġe ksa
Ġmana ba
i thae
al th
n kha
Ġs kula
Ġkari pari
Ġsar bo
Ġaksha msha
Ġmumba i
Ġdayi tàŃ±
Ġsam yukta
Ġud de
sh tri
Ġpa ta
Ġpi tha
ja ta
Ġla dha
Ġa shta
Ġra chita
Ġmaha pra
Ġe s
Ġsama la
Ġabas thare
Ġsind roma
u thiba
dhu ri
Ġdesha mana
ca tion
Ġchi nta
Ġrakta chapa
Ġbi ro
a m
Ġpra sta
Ġaba dana
Ġsams krriti
Ġs m
Ġpra deshara
ji ba
ncha lara
ba l
Ġpra s
Ġbha dra
Ġkahi thile
Ġ th
Ġmana sika
bar tta
a s
b le
ne s
ĠdàŃ±i pa
ka hani
Ġse thire
Ġniyan trana
Ġs t
Ġkri da
Ġja da
Ġya una
Ġsa in
Ġyo g
Ġna mita
Ġkar mi
Ġ aru
c u
ka li
Ġba stu
yai pare
a usha
Ġpa ddha
2 5
ma ku
Ġna ksha
Ġne w
no ti
sra ba
bhau galika
Ġpra yoga
m bhira
Ġa j
200 9
Ġpat hara
Ġbibha kta
i kara
sh tara
Ġan anda
Ġchi na
Ġ199 9
Ġjari are
" ,
le k
Ġna shta
Ġha tya
Ġchi trana
Ġ rani
Ġb anti
Ġa ghata
bhu ta
Ġguru tàŃ±
Ġksha mata
Ġa bhaba
Ġpari ba
Ġbiru ddhare
Ġa p
dh ra
lo ji
Ġmani sha
Ġpatana tharu
Ġgrri ha
Ġya krrita
Ġsh àŃ±a
Ġli khita
Ġkantha shilpi
Ġjyo ti
Ġbi dyu
bha ga
Ġ200 2
Ġameri ka
Ġatya dhika
Ġmahara ja
tha nara
bi na
Ġgiti kara
Ġ &
he ba
Ġman u
tti ka
Ġprada ha
Ġut padana
Ġpara sta
Ġdak tari
Ġnet rrit
ka tha
ni r
Ġpar tira
6 0
k ya
Ġchar ma
Ġman yata
Ġa ya
Ġbi be
Ġpai thila
Ġprati barsha
Ġbrah mana
Ġshari ra
Ġdraghi mare
Ġsam sada
se na
Ġru pare
kha nda
Ġmaha ttàŃ±
Ġsam kra
yai thiba
sam mana
kha na
to ri
Ġgo da
Ġdura darshana
b har
n si
sa hi
2 4
Ġk la
Ġa bar
Ġe x
Ġbhau ni
Ġra janaitika
Ġra tna
Ġhe tu
Ġrahi thile
Ġgu jara
bi tra
Ġde ha
pada ka
Ġak ranta
Ġanushtha na
sa i
Ġti noti
Ġsu pari
Ġmo hana
d aru
n ani
Ġkantha dana
Ġma l
Ġlekhi thile
Ġkaryya krama
Ġmili ta
Ġaiti hasika
ta pa
Ġ200 3
Ġadhya yana
n thare
o dha
be r
m s
Ġbhi tara
pe shi
a si
Ġkamp yu
Ġma hi
Ġchari tra
an tara
Ġhe baku
m on
Ġpa s
dhi ta
man u
e na
Ġna g
Ġmi sh
Ġsaha yyare
Ġ199 5
Ġutsa ba
ka le
Ġpra bhu
Ġka ti
Ġka shta
Ġdi ga
sh kara
Ġba l
Ġdha la
Ġparam ar
Ġseba ka
w w
Ġ ĠĊ
Ġs tri
ga mana
te s
mi ti
Ġchau dhuri
Ġs na
Ġha jara
Ġch arana
gh ra
Ġbija yi
na ma
bha dra
Ġloka mane
Ġbhu tanu
re ja
Ġya ithile
Ġrri shi
Ġpra krritika
bi dhana
Ġshe share
shya kiya
pa khi
Ġna i
tya ga
Ġ200 1
Ġasu bidha
Ġa lu
Ġni yama
Ġkathachitra tire
Ġbho ta
di pa
hu e
Ġut tama
u n
Ġpra chara
ja la
Ġheu thila
Ġd anda
Ġj àŃ±ra
Ġbi kra
Ġnir bhara
Ġniyu ta
Ġpu nar
e d
Ġbar ana
a chi
Ġna li
Ġde baku
Ġsha ha
Ġshu kla
versi ty
Ġsam ka
Ġy iba
Ġprati yogi
b ri
Ġs pe
Ġpari nata
Ġsh ta
Ġkha bara
ta ba
Ġmahabidyala ya
Ġwe b
Ġa loka
Ġdharabahi ka
ma i
dh e
Ġsam lapa
n ra
Ġbha bi
ja ti
Ġta lika
Ġga thita
Ġkahi le
ha ndi
Ġs una
Ġt ur
Ġf o
ra chana
Ġparicha lana
Ġs ku
Ġsama gra
à¤ ¾
Ġa dha
sh mi
ga ma
Ġsi sta
Ġ199 8
Ġsapta ha
8 0
Ġbi bar
Ġprati rodha
Ġjati la
Ġwi th
Ġg ya
Ġbikra ya
ra pi
Ġp har
Ġsu yoga
Ġparibar are
Ġmamsa peshi
k ka
Ġka da
Ġkatha chitrare
ĠbishàŃ± ra
Ġkalara pa
Ġmaha na
Ġli st
pu ta
sha ya
Ġs tarare
sha kti
Ġhisa bare
de r
Ġpai ba
par bani
n kana
hi na
Ġhoi thibaru
ĠsàŃ± lpa
Ġprrish tha
Ġba hare
Ġ6 0
Ġsampar kare
Ġyadi o
Ġyog yata
Ġsi ma
Ġna ta
Ġs hara
ĠsàŃ± rnna
Ġbai j
le s
pur ara
par ba
201 1
Ġunna ti
e cha
ar tha
Ġcha sha
Ġte lugu
Ġw orld
Ġbi dhi
Ġk rama
Ġma tare
Ġh rrit
Ġlaksh ya
Ġs nana
Ġpa bitra
Ġli pi
Ġtaha ku
st ro
Ġo jana
Ġsam anya
Ġna ga
yau thiba
Ġrakhi ba
Ġnetrrit àŃ±
g y
na da
àŃ ¤
Ġparibar ara
Ġsam gita
l anda
Ġsamga thanara
Ġindi an
n re
Ġchalach chitrara
Ġbrri k
s si
Ġma cha
be la
2 7
s m
ma s
Ġa ta
Ġma ti
Ġra i
ja da
Ġje na
Ġkho la
n k
ksha ta
Ġt ar
Ġ197 7
ma dhya
Ġsha nti
Ġte li
e l
Ġma sti
z a
Ġpari besha
Ġaph ri
4 0
Ġa kara
Ġmu kta
Ġ198 5
Ġco m
2 8
Ġg hu
Ġsa la
Ġma sara
Ġpari shada
Ġkale ja
Ġhra da
m aru
Ġk anika
Ġbha shara
de le
bya kti
Ġsamu ha
Ġmahapra bhu
j ar
dàŃ± i
Ġ r
an tu
ga ja
Ġdia yaithila
d ri
Ġbar sharu
nj eka
Ġu kta
l s
Ġj hu
Ġbi pada
Ġn an
Ġkara yiba
Ġadi basi
p har
Ġni yukta
Ġat ma
Ġmaj hi
r anti
Ġaba sara
Ġpar ti
Ġ197 1
Ġpra kriya
dh àŃ±
Ġsamgra mi
Ġpa shu
Ġga yaka
Ġla ge
Ġhi s
Ġprrithibi ra
Ġpakha pakhi
Ġpuna h
Ġchikit sare
Ġd an
ĠsàŃ±adhi na
Ġd ana
li re
Ġda bi
man di
cha ka
ki ta
Ġchi hna
Ġchitrana tya
ja ka
Ġdu h
b c
Ġsam eta
Ġn ar
mu khi
n s
Ġ18 9
Ġbh ra
Ġsa pa
Ġyu ba
Ġpura s
ausha dha
Ġb har
Ġe tha
Ġta ttàŃ±
Ġat yanta
tar ara
j yare
Ġba ha
si te
nja bi
Ġshu ni
Ġyan tra
Ġsarbo chcha
Ġba ba
Ġg ani
Ġlo ke
Ġbrri ha
Ġdo ne
e ma
g uru
le i
Ġd hana
Ġpra desha
Ġpa di
Ġi chcha
Ġsha stri
Ġban dara
Ġyai thila
Ġpradhana mantri
Ġapare shana
Ġsa gara
Ġja gata
Ġga i
2 9
m bi
Ġpa li
Ġshi ra
Ġmo ra
Ġna tya
Ġna dira
kshe pa
Ġchih nata
Ġg ara
dha ba
Ġko ti
Ġshreni ra
ino sara
la si
Ġba msha
Ġsama pta
Ġprati shthita
àŃ±a la
Ġk àŃ±
Ġda lare
njeka sana
ya mita
Ġb anya
Ġma da
Ġg ane
Ġ20 22
shàŃ± ri
Ġbe hera
Ġag ni
Ġadh arita
mi lana
tri ta
Ġud yana
ta i
Ġcha mpi
Ġsama yara
Ġpur nni
Ġin ter
shra ma
Ġjani ta
a se
nd are
ki ri
Ġuchcha ta
Ġta mila
pe r
y anti
ch yu
Ġsam bhaba
Ġbar shara
Ġne ba
2 6
7 0
Ġuda harana
Ġ thibaru
Ġpa trika
bi shàŃ±
Ġde o
Ġkar y
y ani
sa phu
nga mana
u pa
Ġra dha
be da
f o
k ho
sh trara
Ġp hara
Ġi lek
Ġkar nna
Ġmadhya ma
Ġre karda
nja ma
Ġhara hari
Ġpracha lita
Ġb ari
sha la
Ġha da
Ġatya ba
t ura
Ġabhi nita
Ġrri tu
la ksh
Ġsam i
Ġkaryya kari
fi cial
ĠmahattàŃ± purnna
Ġnija ku
Ġasi thile
Ġpurba tana
Ġpraka lpa
Ġd rrishya
bi shesha
Ġ196 7
. ,
t ani
Ġyu ni
ko ttara
Ġdur bala
Ġmili thae
Ġpaki st
Ġameri kara
Ġtri pathi
rachana bali
Ġmu kha
Ġchand ana
Ġs thira
or da
Â °
Ġe sia
sho ka
u d
ka l
Ġausha dhara
bh yan
Ġs pashta
m g
on o
Ġkha i
201 5
sh re
Ġsara sàŃ±
par anti
Ġsaphala ta
Ġst anya
Ġweb site
w ar
Ġa ha
tha ka
Ġbika shita
Ġa huri
Ġba ti
Ġhoi chanti
Ġpur una
201 4
Ġhrri d
Ġgran tha
m urtti
Ġsam iti
Ġrakta sraba
Ġpraja ti
m mada
Ġkari pare
Ġbha ya
mi ni
Ġpari s
par yya
Ġshri rama
Ġbibha gare
nka thare
Ġstha la
she dha
Ġtat kalina
Ġanumo dita
ri c
Ġmi hira
go lika
Ġbibar ani
Ġpre sa
yo gita
ba yo
Ġupa stha
b rritti
l anti
u ha
Ġi ndra
Ġshri la
Ġuni versity
200 4
Ġnaksha tra
ti ve
ba hya
Ġcha nda
Ġsi ta
niya ma
Ġpraja tira
Ġyie ki
s aru
Ġpan dita
Ġkra me
t arana
de ithile
gra ma
Ġstha pita
Ġsara la
Ġmahila mana
ĠbishàŃ±bidyala yaru
Ġim reja
Ġpau nda
le ri
Ġshi lpa
: /
s tare
la ma
Ġba leshàŃ±ra
lo od
Ġna tional
Ġanu mana
Ġgra ha
Ġdh àŃ±
h oi
Ġmu ha
Ġbar shika
Ġ199 7
Ġbu ddha
Ġ197 4
Ġban dha
Ġrakhi thile
Ġsnata kottara
o l
Ġa lo
Ġu rd
be laku
Ġadhi na
Ġsamgha tika
ane ta
Ġyo da
Ġphu saphu
tt p
Ġabar odha
g aru
Ġa shàŃ±
Ġkrri shi
Ġsa u
Ġda ta
pri la
byakti gata
ni ra
Ġcha ka
pi tha
yura bha
7 5
i are
sh te
Ġra shi
Ġloka mana
shtri ya
Ġb bc
Ġa sam
Ġan dhra
Ġ4 8
r aru
Ġe r
Ġgaja pati
9 0
d anare
p rri
Ġe m
Ġbi pa
de ha
me s
ko sha
Ġ199 6
ba ddha
Ġpra bahita
Ġhoi pari
yau thila
Ġgane sha
i re
Ġke be
Ġ196 1
abhi nita
Ġmi ni
gu di
kar yya
ban dhu
Ġpas anda
Ġe ma
Ġpra bh
Ġha nu
ph y
Ġsiddha nta
ĠshàŃ±a sa
Ġsista ma
bha i
:/ /
d dhara
d anda
r ddha
na la
Ġa yojana
Ġha tare
anu p
i kare
ma l
Ġm yu
Ġsam mi
Ġsamar thana
Ġdi s
Ġ3 1
s anika
pi nda
Ġ3 5
Ġ199 4
Ġkarayau chi
cle anup
b ari
j hara
Ġna gara
Ġha ti
Ġso me
imraji re
Ġatyaba shyakiya
Ġbara mbara
g rri
li ya
Ġra k
Ġla i
Ġsha saka
Ġdhar mika
Ġali mpi
sh yare
ki la
yan are
Ġpadma shri
si n
se la
Ġsabha pati
Ġsy ste
Ġprasta ba
i o
Ġ| |
Ġpari mana
Ġki shora
Ġroga mana
ve lo
Ġjib anara
Ġphala phala
Ġbi dro
pa tya
Ġpurnni ma
ji bana
Ġti rtha
ng o
Ġsamra ta
Ġcha di
Ġc e
ksh aru
Ġdh yana
Ġkari be
iti s
bi msha
ke la
Ġ8 0
Ġparyya tana
Ġa lar
Ġba ja
Ġga bhira
ke t
Ġchatur tha
Ġabha yar
Ġsain ya
Ġsna yu
Ġpa e
nd hi
be dana
Ġdi ja
Ġn yu
Ġbya pi
da sa
Ġn ana
Ġ199 1
Ġsams krrita
m yu
Ġehi pari
lo ra
Ġdi se
Ġmi lu
Ġupa dhi
Ġmish rana
tha i
Ġbi graha
Ġba ma
Ġcha kiri
Ġkara i
à¤ °
mp le
Ġpratiyogi tare
u p
Ġsa harare
dh ari
sana la
à¬¼ ,
nka da
Ġshiksha ka
Ġnikata stha
Ġsamban dhiya
sa ha
Ġg har
Ġhoi thanti
Ġs thiti
ri ta
le kha
li la
pa shchima
Ġkimba danti
la la
sha ma
Ġshi la
ĠsàŃ± r
yan da
kra mare
Ġbra ta
m ya
Ġsam padaka
Ġte shta
Ġghati thila
o na
ar ara
ti k
ti bha
dhi na
Ġpr arambhika
n tara
ja pura
de o
Ġ195 7
Ġsa ura
Ġra sta
Ġti bhi
ko ra
ph ta
or ta
la sa
Ġe i
Ġbha ba
bar nna
Ġesi ya
a d
d ur
Ġma he
di ng
Ġsu re
Ġsamga thana
j hi
ti m
te ri
Ġko ra
Ġ198 4
Ġ195 2
Ġshab dara
Ġparamar sha
3 3
m b
ma tion
Ġke u
Ġprada tta
Ġkanthashilpi mane
Ġkampyu tara
ku da
Ġud bhida
u l
Ġba isha
ur anika
Ġeka matra
Ġja ha
Ġanu san
stha li
Ġiti ha
p anare
Ġsa thi
Ġd àŃ±a
Ġsam kh
Ġdi e
Ġasi ba
Ġdhar anara
Ġgho da
dhar ma
k ro
ka taka
Ġta ma
Ġta li
a t
n thi
y anika
Ġma li
Ġya j
Ġ199 3
. )
e thare
Ġk on
Ġk hana
Ġprati ka
bra h
Ġda inosara
Ġanu mati
pra deshara
Ġdhar mara
Ġkarayau thila
k endra
Ġd ru
Ġbe la
Ġnama karana
Ġchalachchitra ti
Ġas thi
ĠàŃ± i
Ġpaki stana
Ġsamkra mita
Ġa se
sh ari
pa dma
Ġba su
Ġgra mara
ga ti
Ġm ur
Ġba bu
Ġan ta
Ġko sha
masi hare
Ġ àŃ¤
gu a
Ġbisha la
Ġshari rika
Ġprabh rriti
9 9
Ġka i
Ġ199 2
Ġkho li
g una
Ġprati yogita
Ġsi n
Ġchi thare
Ġ198 9
Ġgan ana
ĠbishàŃ±bidyala yare
Ġudde shyare
na thile
Ġmukhya mantri
Ġsams krritika
Ġsamka lana
Ġsa ttàŃ±
te la
lo gy
Ġji bani
yai thile
Ġpara s
Ġanti bayo
Ġpaka i
Ġof ficial
Ġhei thae
Ġullekha niya
ba yu
Ġa shoka
Ġda uda
Ġgo pala
Ġbij eta
tion s
Ġpras arita
8 8
s arana
Ġpari be
nga li
Ġsaha yata
bhu gola
Ġgu pta
Ġmano nita
a su
w e
Ġbas anta
Ġba jara
Ġn are
sala mana
Ġparicha ya
Ġbhubane shàŃ±
y ane
li m
st hara
ngi ra
pratha ma
nd e
Ġar thika
Ġag aru
Ġya the
Ġga la
che ck
kshe tra
parba parbani
Ġcha ndi
Ġda ka
Ġme la
Ġpila mana
Ġbichara pati
p una
Ġa mara
ga lpa
ji bi
Ġkha iba
Ġkarma chari
c s
n anare
n je
r y
Ġ [
tr y
Ġke sha
dar shita
o ti
te ra
Ġmaha kasha
Ġparyya taka
ĠgurutàŃ± purnna
6 9
la yara
Ġa phi
Ġsams krri
Ġbyabasa yika
Ġna thila
Ġkaryya kala
je na
200 0
Ġkend riya
àŃ±ar da
Ġmisha i
s anare
Ġe sa
Ġja yi
ki ra
sam s
Ġbahu la
201 7
199 5
Ġsyste m
Ġra o
mi n
ĠĠ Ġ
nji ni
jan ana
Ġshastri ya
Ġyathe shta
k shu
Ġsar o
Ġpe ta
Ġmanu shya
Ġpresa kri
Ġ /
te da
Ġ197 0
Ġam la
ĠparshàŃ± re
ti n
Ġu dya
ĠsarasàŃ± ti
3 5
ka bi
Ġcha ti
Ġga u
Ġ4 7
Ġaru na
6 5
i d
Ġ ve
Ġbi rodha
ch chi
bar are
Ġadhya ksha
Ġpaddha ti
an yanya
Ġcha i
Ġraj yare
Ġkhara pa
n jara
ri na
Ġga le
gra hi
4 5
s to
Ġde hare
Ġstha nan
Ġbikasha shila
t anara
te na
Ġna u
Ġda m
Ġsi mita
Ġabhi yana
Ġpi da
the r
Ġshri krrishna
Ġshri jagannatha
t ru
Ġs tu
Ġjar mani
pa tana
tana li
Ġti bra
Ġkhu ba
Ġpari manara
Ġshi r
Ġniyu kti
Ġsm rriti
s ura
re a
Ġga ura
Ġshi ghra
mu khya
Ġpo li
Ġyuktara jyare
Ġ à
Ġsa kala
Ġbha kti
gra phi
pra ya
Ġbasa basa
6 6
Ġpa ksharu
mi tta
Ġcha dha
Ġmandira ku
Ġ198 7
Ġas pashta
s ka
Ġ tran
Ġbar share
Ġshari rara
Ġtapa matra
Ġaro gya
Ġalar ji
b da
Ġdi anti
Ġpari beshana
Ġshi shura
Ġri ver
Ġsine ma
sahi tya
ĠsattàŃ± e
g ari
Ġna yika
ki mba
Ġbhi tti
Ġ4 5
Ġsamra kshana
Ġnag arika
p le
Ġk oi
Ġpra yo
Ġka thi
Ġra ti
ke sha
Ġbu da
tama ta
Ġsamu d
Ġkami yae
Ġe cha
Ġpa tri
re ta
Ġan anta
Ġsam sa
Ġeka dashi
shi ya
Ġsh rri
khya ta
Ġ5 1
199 0
Ġpraka shana
chala ch
n mane
sha stra
Ġcha lu
por ta
Ġe prila
li ne
Ġna da
Ġdui thara
Ġrama chandra
Ġbi hara
Ġni dra
pi ka
Ġkaru thila
Ġsambala pura
Ġmal lika
d da
ba hu
Ġba j
bi jada
Ġmi na
Ġgo binda
Ġkaryya kshama
Ġanya mana
Ġgu di
Ġ4 9
Ġyai thae
Ġdara kara
Ġer ro
ra l
mi ya
ki a
nga lare
Ġkha d
Ġbo sha
Ġ7 5
Ġbarn nita
Ġkalika ta
laksh mi
Ġra hanti
Ġra ghu
rri dha
Ġja ta
stha nara
Ġchu kti
Ġbyabasa ya
Ġjayi rama
s anta
Ġja tira
Ġeha dàŃ±ara
Ġbe mari
Ġ9 0
m una
ba dara
Ġsa dara
Ġma ma
li n
Ġi sra
nga ma
Ġpada bi
ut tara
Ġphusaphu sa
Ġpar bati
Ġpu bli
Ġban dhi
la yare
na tional
dh yaru
Ġhe alth
Ġpre ss
Ġ196 0
Ġpush pa
i r
k end
k sana
s ko
le ta
Ġsam padana
198 0
Ġbam shara
a li
Ġka u
lo w
pi da
shri ta
3 8
j yara
k lo
Ġb rritti
Ġj ara
Ġan dira
Ġsam yojana
tara ya
Ġcha a
Ġ198 8
Ġshte sana
4 8
k ranti
Ġsam yoga
ro ta
thana itika
Ġyoga dana
7 7
Ġa ja
Ġf e
Ġbyakti gata
Ġ7 0
tari a
Ġ194 7
Ġ194 8
Ġa charyya
Ġe da
Ġmu salamana
Ġraja patha
Ġpraya tah
Ġ195 0
Ġethi pai
ya gada
Ġma trri
Ġm rrita
pa sa
di ya
àŃ± i
Ġha sta
pur are
ce s
201 0
Ġkami ti
Ġbiro dhare
Ġb ro
Ġpra shi
Ġmu tra
Ġsi ri
man ta
Ġbibha gara
Ġni mitta
Ġki pari
Ġupa karana
sam kh
d ani
Ġi ndo
Ġga ya
Ġshiksha gata
ĠsàŃ±i krriti
g dha
w orld
ti a
Ġe yara
ri s
Ġeka da
Ġyu ddhare
Ġpresakri pa
Ġa c
Ġbi kri
Ġba hana
Ġan uro
Ġpr aram
Ġmahila mane
Ġsams par
Ġho la
Ġkana dare
Ġshra ddha
darsha nare
l anara
u jhara
na thila
Ġhi mala
Ġkaru chi
201 2
Ġsamra jya
Ġash tre
a da
Ġpra bandha
Ġba dya
dha nare
Ġbar nna
pi la
Ġyu kta
bhu ja
ti s
Ġpa le
Ġbi stara
Ġan na
ja tika
Ġja ina
Ġku kura
Ġakar shana
za tion
3 4
Ġs ur
Ġmaha deba
Ġ198 3
Ġpo lisa
Ġ197 5
9 5
p hara
Ġa lochana
bha be
se r
Ġha ki
Ġ5 2
Ġ196 2
p anara
t te
Ġb rrit
ru ti
Ġshreni re
Ġbidyu t
b anara
j anara
v ie
Ġa kha
Ġta milana
Ġeka dhika
be shaka
me ha
19 0
Ġku la
Ġar juna
Ġ198 6
Ġgana sam
Ġanusan dhana
g arare
Ġa mba
Ġcha ma
ngita kara
201 6
Ġsethi pai
ter s
Ġhari hara
Ġbidyala yare
Ġjan mita
sàŃ±a mi
Ġpa cha
Ġbe da
pu ja
Ġabashyaka ta
Ġabastha na
Ġma laya
bya bahara
Ġ197 2
6 4
8 5
bi dhi
kar ma
g ane
i de
Ġk shira
Ġsa ja
Ġba cha
gra sta
Ġkama la
Ġbrri ksha
Ġgara ma
6 7
Ġj hi
ni ng
Ġka bya
nd ana
Ġji ni
ĠbishàŃ±bidyala yara
si la
si de
ch che
Ġshi kha
Ġsi dha
Ġkha li
yara ta
à¥ į
Ġmasti shka
Ġdise ase
d ari
i ne
k or
Ġe di
Ġu n
Ġprati ma
Ġku mari
pur usha
Ġprasha sanika
' '
d anta
p rrish
pa te
te lugu
Ġgo shthi
Ġasi le
Ġrama yana
Ġlaksh mana
8 7
ku ma
re na
àŃ± ara
Ġu chita
Ġrahi chanti
Ġhei thiba
Ġsam badi
Ġpari da
Ġsar bada
Ġyai thiba
dyu mna
Ġaksha ya
Ġni mo
Ġhoi gala
pi ya
Ġpu j
Ġheu thile
bata dàŃ±ara
200 8
Ġdai nika
Ġnyaya laya
i s
p s
Ġna thile
Ġre kha
Ġre bhe
Ġstanya pana
Ġnare ndra
3 2
thi tire
sa u
se s
Ġku lare
mula ka
3 7
p y
Ġs anta
tha anti
Ġd aru
Ġpra t
Ġra ha
Ġsama dhana
ĠbishàŃ± ka
ksh ma
Ġ198 2
for mation
8 9
Ġhoi sari
Ġhe ithile
Ġanu pa
Ġshri mandira
ghatana bali
z o
chi t
Ġbi phala
Ġsh àŃ±e
Ġar jana
Ġte la
Ġsams karana
Ġsampar kiya
Ġsta mbha
chalach chitra
Ġkara ithile
Ġku mbhira
Ġstha yi
Ġin tar
mu khare
Ġpratishtha ta
c on
l yu
ha la
Ġh ttp
Ġka hanti
Ġsam bidha
Ġna cha
Ġi ta
he ru
Ġki mi
Ġmanda pa
Ġpani grahi
Ġmedi ci
5 7
j aru
Ġsa dhana
Ġg ira
bi dya
Ġdi pa
8 4
f a
j ma
u ni
Ġa stro
Ġba sta
Ġni yamita
Ġf a
Ġpada kshepa
Ġparicha lita
Ġkalarapa taria
k ani
ma li
àŃ± ana
Ġse nti
Ġta ta
Ġdi bya
tri a
Ġkhu b
Ġkheli thile
Ġor gani
ka sana
Ġk or
Ġe te
âĢĮ âĢĮ
Ġtatha pi
Ġpo shaka
Ġka me
si m
mi ra
Ġdi nare
ĠsàŃ± p
Ġnish chita
Ġanuro dha
nti al
Ġaba tara
Ġdei thila
Ġprasa ba
Ġo kila
Ġg ari
Ġchi ni
nja ya
Ġsehi pari
Ġgan thi
Ġka ha
Ġg hana
be kshana
Ġpai le
ng ana
Ġl una
Ġse te
Ġsam ila
Ġprati bha
Ġha tha
ncha yata
go ti
Ġmrrityu belaku
nja ba
198 5
Ġratha yatra
b ula
Ġma ya
Ġnir mala
Ġbe shi
Ġkathachitra ti
Ġli la
Ġbo o
i m
k hari
p tara
Ġan dha
Ġsha taka
Ġme ru
Ġbibe chana
Ġbhra mana
ra sa
Ġk anta
ni la
Ġpra krrita
Ġna eka
Ġpi tamata
ge s
Ġbu li
201 3
Ġjib anare
Ġapara jita
shna ba
Ġk ani
chi na
shi ba
Ġsha kha
ĠsàŃ± yam
ge ne
Ġantibayo tika
3 9
m y
Ġba yo
Ġba dhya
Ġsam kranti
Ġmu ni
Ġmi tra
Ġpur be
Ġkale jare
Ġbira ta
Ġshar ma
Ġpra krriti
Ġka shmi
jana ka
Ġyu gare
Ġbhi ma
200 7
âĢį ~
Ġyai chi
Ġsahit yare
Ġan anya
Ġbha bana
kha la
yu ni
lu a
nchi ba
ĠĠĠĠ ĠĠĠĠ
Ġnish patti
Ġhanu mana
kimba danti
Ġma trare
bha gare
Ġar thanaitika
ĠsàŃ±a i
Ġbibha jana
Ġgi ri
Ġgri shma
Ġhis tory
Ġhola sela
c c
ha i
Ġbi la
Ġan tara
bha bika
Ġsam skara
nd ari
Ġy i
Ġbe para
Ġkha ni
sara kari
bhara tare
j anare
Ġ ari
li pi
Ġka mare
Ġde bu
Ġman tra
pu tra
Ġdra bya
Ġpracha lana
Ġabhayar anya
8 6
l da
si on
Ġmo gala
Ġnirdde shita
manda la
Ġghar oi
d di
Ġb lood
ba stu
Ġma mala
li ra
pa chara
Ġka usha
nga l
Ġrasa yanika
Ġse bana
Ġbha gna
ne ta
ncha ma
Ġraja bam
Ġ5 3
Ġpo ta
Ġprrithibi re
Ġilek tro
brah ma
e sana
Ġka pa
Ġu i
Ġkar yyare
Ġprati dàŃ±
jana ta
krri shta
Ġpara tharu
Ġ198 1
Ġ197 6
Ġamsha grahana
ka lara
Ġe bhali
Ġpa thya
Ġu iki
be ga
Ġasi thila
Ġmar ga
Ġs par
Ġda kshi
Ġstha patya
Ġupa desha
Ġin formation
Ġme da
ko na
Ġsan dhya
Ġgita guda
Ġrahu thiba
k yu
v o
Ġd anta
Ġg lo
Ġcha lana
kh aru
ju ma
gh t
Ġpuras karare
Ġ tyaga
Ġkar ona
Ġ20 23
Ġut panna
197 7
ut kala
shi sha
Ġi ra
Ġja m
Ġga yika
shàŃ± asa
20 19
Ġdia yaichi
Ġthe rapi
sti tu
Ġsampra da
Ġparas para
n ment
Ġma pa
cha da
Ġcha bi
Ġsama gri
nti a
khi la
Ġpha i
Ġartha ta
Ġdhu pa
Ġnirddesha nare
Ġprashi kshana
p ya
à ®
Ġe pi
Ġd ho
Ġbi ta
bi da
Ġdi ne
Ġgha ta
Ġabas arare
Ġ5 00
Ġph ra
Ġayo jita
3 6
: -
Ġa desha
bhi jana
Ġpari kshana
Ġla gu
mo na
Ġ196 4
Ġupara ku
7 4
Ġpra janana
Ġba dhi
Ġhoi gale
he le
Ġro ki
Ġpur u
Ġpe ri
che tana
Ġbira la
Ġabi shkara
3 1
e t
n anara
re i
Ġbi li
Ġde u
shi a
Ġga mbhira
Ġmi shrita
bh ra
bho ga
i ni
pa t
bi ya
Ġbele bele
Ġyuro pare
Ġa dya
Ġd rridha
re s
bra ta
simha pura
Ġsam bada
Ġ197 9
199 9
Ġpratinidhi tàŃ±
Ġsammi lani
Ġitiha sare
7 9
a u
Ġbi st
Ġkari dia
bi ndha
Ġprati shedha
Ġsan tu
sia ma
Ġtra phi
Ġjyo tisha
Ġbhadra ka
5 5
n tha
an tar
Ġm rri
Ġde ula
Ġga beshaka
me r
to sha
Ġhi ma
Ġ3 6
Ġnikata tama
Ġtan tu
gani ta
Ġurd dhàŃ±
Ġgira pha
o si
Ġk riya
Ġpra darshita
Ġka sha
Ġman dela
Ġne heru
Ġko la
Ġkuha yaithae
Ġlagi la
Ġraya gada
g hya
n ch
ya tare
Ġsa thika
Ġmandira ti
Ġso na
Ġmadhu meha
Ġsku lare
Ġ tho
Ġma yurabha
Ġsam patti
Ġmi tar
Ġmaha tma
pra kasha
she share
Ġc hara
Ġpara ma
Ġ196 9
Ġlagi le
kan tha
Ġdrrishti ru
) ~
k àŃ±
la s
Ġa pana
Ġpra sara
Ġupa ya
Ġmahabidyala yare
Ġrebhe nsa
g har
m ma
ta kara
ti sh
Ġk hya
Ġa yu
Ġd ari
sa bha
li pa
nga ku
Ġanu shi
Ġsaha yaka
Ġkaryya kramare
ngala deshara
Ġam rrita
gar ara
Ġjiti thile
nir ba
4 4
Ġb hari
Ġa shra
sh to
Ġma dya
Ġm aru
Ġkar ttika
Ġmi nita
Ġsu dha
Ġrahi le
ng ha
lu ka
Ġpha to
Ġpha und
Ġdasha kare
Ġbidro ha
Ġsamkh yare
Ä ģ
Ġcha ula
Ġadhi niyama
Ġgo ti
mu da
bhu ti
ko ta
Ġadi re
200 5
Ġbani jya
Ġsupari sha
Ġorgani zation
a me
t to
re d
Ġu daya
Ġsam antara
Ġshi khi
Ġmaha mmada
Ġupa tya
Ġ197 8
kh ri
Ġjene rika
Ġsin dhu
ĠshàŃ±e ta
le c
me la
Ġanu gola
Ġupa dana
Ġutsa bare
Ġprasha nta
Ġsahit yara
Ġma t
yu ddha
Ġsu stha
Ġbhu shana
Ġheba pare
200 6
Ġ195 5
Ġ195 6
Ġshira bhyan
c ture
k on
| -
Ġpa tala
Ġba stra
Ġmaha kuma
nata ttàŃ±
bhu shana
Ġban di
Ġpre rana
yau chi
Ġapara dha
7 6
Ġ +
ba ba
Ġsama ste
pra da
Ġbhaga bata
Ġksha ya
Ġsamgra ma
Ġakasha bani
Ġ ;
si ti
Ġse i
Ġhoi nahi
Ġdirgha kalina
ar o
hi ni
Ġk ro
Ġsam sho
Ġar pana
Ġartha t
bh aru
phe sara
Ġprar thana
Ġkata kara
puna shcha
Ġsamspar share
Ġk oda
Ġma hu
yo jita
Ġ3 4
bu da
' ,
e si
Ġni sha
Ġraj aneta
Ġpha ina
Ġbu ddhi
Ġlekhi ka
Ġpuni thare
8 2
d dhana
Ġ lar
Ġma te
yu kti
Ġyo gi
Ġsamkhya ka
Ġchu a
Ġbla kara
Ġkaripari be
b arika
Ġb aram
Ġba hya
Ġna tha
Ġjana pada
tari ta
Ġshari rare
nki ta
Ġghara ku
Ġshra bana
bartta mana
Ġetha kara
Ġa àŃ±arda
Ġd he
Ġsam bidhana
Ġhoi yaithila
dhi kari
Ġn rrit
kha nare
Ġja ma
Ġsi shta
chcha da
Ġha u
Ġne pa
Ġpani re
Ġaph rika
b anare
à °
Ġya tna
pi na
Ġabhi yoga
Ġyu baka
ĠbishàŃ± re
Ġdekha na
Ġdia gala
Ġbartta manara
Ġkhabara ka
Ġpale shta
g lo
Ġ tana
Ġa ge
Ġsa d
Ġma de
Ġba lia
Ġni ri
Ġu thi
mu ni
Ġ4 6
ndi cha
Ġbharata ku
Ġkshe pana
Ġbiro dhi
s pati
da kshina
Ġma ho
ni c
Ġm rrit
Ġpa ksha
di lli
Ġu r
ji a
Ġbya yama
tsa ba
Ġantar jatika
Ġjala bayu
ka lare
Ġde l
Ġmi lana
Ġshri mandi
Ġas tra
Ġeksa pre
paryya tana
j ane
p to
ar ka
pa dita
Ġhe baru
ncha laku
Ġshu bha
Ġ196 5
Ġim lan
Ġprastu ti
Ġju n
Ġama ba
Ġkal yana
Ġhala dia
sa ku
sa gara
chi ba
Ġpra baha
Ġbi s
pa tta
Ġna ka
Ġkala handi
in di
Ġshata pathi
Ġbhau golika
Ġgho sha
Ġthi e
Ġphuta bala
Ġmunda bindha
Ġando lanare
Ġshaili re
Ġgani ta
7 2
9 4
l anta
s anara
ta mina
Ġki r
Ġga chara
Ġshi ta
Ġupa yoga
Ġraja ku
Ġtu lasi
Ġamla jana
j ja
Ġra tire
ksha ka
nga dhara
Ġdia yaipare
Ġdei chanti
197 4
Ġara ba
Ġchampi yana
Ġastro pachara
5 8
m ber
n ko
p rani
Ġni u
Ġsam arika
se ntial
Ġpari la
Ġabhi jita
Ġupa yukta
Ġthi ka
Ġethi ru
yari m
6 8
y s
z e
an ce
Ġs cie
Ġj aru
Ġbi krama
pa di
ch chita
me sha
Ġhi ra
Ġ197 3
Ġsampar kita
6 1
Ġ x
hi ka
Ġa h
Ġda hana
Ġi sala
Ġ3 2
Ġyoga i
. .
Ġp ya
Ġsa thire
sha dara
sh ar
li khita
bara tri
tr aru
Ġyaha dàŃ±ara
ww w
nkana la
ĠnetrritàŃ± re
Ġpra krri
Ġpra stara
Ġra bana
Ġsam mukhare
Ġku nda
in ara
Ġtha ku
Ġbu dha
Ġkri shna
Ġbam be
vie w
Ġsama lochana
Ġmu dra
su ndara
Ġbhi taru
mo chana
Ġimraji re
Ġmedi kala
Ġbipa kshare
" )
Ġs te
sh krrita
Ġma sala
Ġo sha
Ġh are
bha bana
bar ttana
Ġ3 3
Ġadhya paka
Ġhrri da
Ġprat natattàŃ±
n te
Ġsa ti
Ġcha ta
he alth
Ġja i
Ġupa sana
Ġbu jhi
Ġtu lanare
Ġudde shya
Ġes sential
8 1
n ju
ka mana
Ġcha hi
Ġdi ba
ne t
Ġsu bhadra
nta la
201 8
Ġdekhi le
ngala deshi
Ġyau thiba
Ġjini sha
Ġmedici nes
h y
t anta
pi ng
du a
rana tha
Ġ ?
Ġj anu
ni re
Ġba lara
bi tara
Ġpai chi
Ġsha tru
Ġ196 3
Ġ196 8
Ġrau taraya
Ġdiga ku
Ġk r
Ġ| "
Ġpra ch
mi li
Ġpi cha
Ġche nna
Ġpakha ku
Ġrahu thile
5 9
Ġe nu
ku nda
Ġbha ira
Ġin tara
nja li
Ġjala pra
Ġ195 8
Ġprabhaba shali
ĠsàŃ±i krrita
Ġtre na
6 2
d anara
ku lara
pa danare
Ġshi tala
Ġgo pi
Ġke ra
it anya
b r
ka unasi
ti ki
ti ng
Ġpra phesara
Ġpa te
Ġ( )
lo r
Ġsama dhi
Ġsu tra
mu nda
200 3
Ġ193 0
Ġjani ba
Ġbhitara ku
7 8
a ja
e e
ni ara
Ġu dara
Ġna thae
mi da
Ġpari manare
Ġsh yama
Ġyu ga
tti ta
Ġbada lare
Ġtha nda
Ġguru tara
Ġchar oti
Ġbidyu ta
Ġa ura
pa ksha
Ġbha tta
Ġy ibaku
Ġya tri
ki n
Ġpi ndhi
nara yana
Ġbrri hata
Ġdar shaka
kh yana
Ġprasha msa
Ġk yu
Ġe la
Ġh yu
Ġbi bada
hu ta
Ġcha tisha
Ġda ksha
Ġgo pa
Ġ195 4
sho ttama
Ġkarayau thiba
o us
Ġsa ba
Ġpari sara
Ġsha stra
to ni
pra sada
pari be
st s
Ġud dhara
Ġ194 2
Ġpunar bara
Ġtran sa
k te
ga l
Ġta lima
Ġbya paka
pari bara
pura thare
shtha na
Ġasi thiba
Ġ196 6
Ġpro je
197 1
Ġim myu
Ġdai r
Ġmara thi
i thiba
t anare
Ġka hu
Ġu ch
Ġw a
Ġbai shnaba
Ġpho to
Ġraghu natha
ĠpratidàŃ± ndi
ar ji
shta mi
Ġstha nara
the rapi
Ġasi chi
Ġkan thare
Ġkan nada
bhe da
Ġbai dika
Ġ194 6
Ġrau ta
4 9
Ġj hara
Ġda l
Ġmu sa
Ġparibar ttita
Ġlekhi chanti
Ġesi da
Ġmahabidyala yaru
Ġdharabahi kare
4 3
ra hi
ka bita
Ġsa dha
Ġma har
Ġbi o
Ġba labha
Ġde hara
Ġli fe
Ġbra ja
Ġshakti shali
Ġph ran
Ġgran thi
shre shtha
Ġerro r
7 3
8 3
ba stha
na yare
sh tare
cha kra
Ġbi ni
Ġra ji
Ġse n
Ġse tha
Ġna yagada
Ġpari sthiti
nga da
she ka
Ġw o
bo dha
lan d
Ġrogi ra
Ġepari ki
por t
i chi
n anda
ya anti
Ġb orda
ni hita
Ġka p
ki shora
yo gya
Ġtra i
Ġnaba kale
à¥ Ģ
chche da
Ġbalabha dra
ha ti
Ġs tana
ta mila
Ġbi n
Ġmu d
Ġsab ya
Ġkariba pai
Ġupa shama
Ġbada la
Ġati krama
Ġdekhi ba
phu lla
Ġjene tika
k anda
Ġa bo
he tu
tu a
gra m
pu a
Ġchalachchitra tira
Ġjaga tara
Ġhai para
Ġadh una
c ar
sha nara
Ġma lika
Ġpa uranika
Ġra shtriya
Ġsam ghar
ro na
Ġnir mata
pra kara
Ġme ta
Ġdekha yaichi
Ġri porta
Ġakar ara
Ġsamra kshita
ĠshàŃ±asa kriya
li s
ani ya
Ġcha yana
Ġanu sarana
Ġsaha jare
Ġ3 7
Ġnira pada
Ġpa dare
dh yare
Ġda e
Ġchi ta
Ġut te
par shàŃ±
Ġdekha yauthiba
Ġsthana ku
Ġartha niti
Ġim landa
maha tya
g ran
m k
w i
Ġs mara
Ġa mi
Ġa shi
da ma
Ġsa kshata
bi shishta
Ġda tta
kha ndara
gra phy
she khara
Ġshu shka
Ġri se
san na
sia la
Ġjati lata
Ġchatur d
Ġmedi cation
shura ma
ĠsàŃ±p na
g n
p si
Ġ are
ha da
ba ma
Ġpa sa
Ġpa th
li ba
dh ei
lo na
Ġshi shya
Ġjana ka
Ġupa sthita
Ġ3 9
Ġmili chi
gya leri
Ġkrri ti
beda kara
Ġadhina yaka
5 6
Ġa sama
Ġma dha
di ne
th ra
Ġcha hu
de shika
man anda
Ġne le
Ġme gha
phi n
Ġkahi chanti
Ġbri tish
Ġasu thiba
Ġnyaya layara
Ġsambadi ka
Ġa to
Ġsa phta
ni k
Ġsam panna
Ġda ga
Ġn rri
ji ra
âĢĮ ,
Ġsama jara
gi karana
or g
Ġupa kara
Ġw or
Ġdha nu
Ġbishesha j
jan tu
Ġapeksha krrita
Ġkora puta
ar yya
Ġa darsha
Ġbi ndu
Ġdi no
Ġte mple
Ġgu li
Ġsabu ja
Ġshu na
199 8
shti chyu
Ġbhe ti
Ġkalarapa tria
Ġsaro ja
Ġdair ghya
n ne
sh thira
Ġbha bani
Ġeka thi
kha i
Ġpu ne
Ġraj u
Ġar ddha
Ġpha kira
Ġkan dha
Ġph re
Ġmahara shtrara
Ġalu mi
Ġinter national
grri ha
Ġisra ela
4 7
d y
m bu
p ula
w n
Ġp le
Ġpa thana
di re
Ġni ru
Ġhoi pariba
ro ga
ro me
lo gi
bar ga
Ġyo gana
pur ana
nja bara
che ri
Ġkendra pada
Ġatha ba
Ġdeha nta
juma dara
5 1
n kari
ga mi
cha nda
Ġpra du
Ġpra dyumna
yan tra
Ġbujha e
Ġkr anika
n ari
x i
ba ya
Ġe je
Ġma jumadara
Ġpra bala
Ġpra chchada
Ġg anda
de velo
Ġkara iba
Ġha s
Ġsu para
Ġpi tta
Ġme ri
Ġmahara shtra
Ġkathi na
Ġparila kshita
4 1
5 3
Ġsa chetana
Ġpa chare
Ġyu kti
Ġkam yuni
Ġpe r
Ġpro f
Ġparam par
ver nment
à¥ ĩ
Ġmaj hire
Ġab hya
5 2
da la
Ġbi ki
Ġna thiba
de n
se d
Ġla lita
Ġchi da
Ġsaha yatare
Ġthiba bele
Ġkend ujhara
196 1
Ġsampra daya
Ġnabakale bara
a di
Ġa graha
pa thare
à¬¼ ~
Ġba k
àŃ± ita
Ġse guda
Ġsam an
Ġcha ya
Ġmi tha
Ġprati murtti
stha yi
ke r
Ġso ma
Ġdha mani
Ġala bam
199 4
Ġakar shita
196 7
Ġsai nika
Ġsta te
Ġupastha pana
b ru
e m
Ġsa dhu
Ġbi khyata
Ġka ila
Ġ1 000
me ra
to n
Ġti thire
Âł Âł
Ġin stitu
Ġanushi lana
Ġamaba sya
b la
c lo
l sa
tha le
ja ma
mi c
Ġdi stri
gi ya
to ra
ne ss
Ġlekhi ba
tho ra
Ġthaku rani
c or
Ġ !
ar ch
Ġe tharu
Ġsa und
Ġsa kshama
bi bhinna
Ġla bh
Ġsh oi
nga pura
Ġyo gya
Ġkarayai pariba
200 2
Ġkuha nti
Ġdei thae
bo li
Ġas ura
Ġbishesha tah
ris sa
a ti
b ro
Ġs pa
ra jya
Ġa kshara
Ġka pura
Ġbe dha
Ġgu mp
Ġuchcha tama
Ġdala ku
198 9
shchi mare
Ġesi ara
Ġdakshi nare
Ġsamprada yara
9 3
Ġma dela
Ġka thita
si pa
Ġi nahi
ji na
Ġpu shti
kar anare
Ġpara loka
Ġban arji
Ġadhya t
Ġsamra jyara
Ġsapta ma
Ġabi shkrrita
Ġjyoti r
c an
r anda
ka thi
Ġp hya
Ġpa shcha
te ka
Ġse tharu
Ġpu naru
yo gare
Ġyo ni
Ġyu gara
Ġat mahatya
Ġtha anti
Ġso sa
198 8
fe re
Ġbhe da
gamana gamana
Ġetha ku
Ġkshepana stra
y ur
Ġpa pa
Ġga ta
Ġt yu
ncha lika
Ġ6 5
Ġnija sàŃ±
Ġantar nihita
Ġdo la
Ġdura ta
Ġesi are
Ġkal pana
4 6
9 2
9 7
Ġp p
ma hara
Ġpa ma
Ġkari sari
Ġu pani
mi tar
yi ta
Ġpi ntu
mu ndi
Ġ195 9
ment s
Ġchau tisha
ĠàŃ± ar
Ġdilli re
á Ģ
ar t
ka sa
Ġh y
Ġkari dele
Ġni m
th ari
Ġki e
Ġbya sa
Ġaba dhi
Ġut tarare
Ġ3 8
198 7
a ma
Ġra s
Ġra kshana
Ġba ki
Ġi shta
se ba
Ġnir gata
Ġlo hita
Ġprati dina
gu la
Ġkaryya laya
mu kta
Ġtan tra
Ġnatya kara
Ġinahi bitara
m shu
ba leshàŃ±ra
Ġbi r
de s
Ġya japura
se bi
gi ra
Ġke rala
su re
Ġpurba ka
Ġ195 1
Ġtu me
199 2
Ġco lle
Ġgi tare
ction s
Ġkampani ra
Ġbhabi shya
Ġbrriha ttama
k har
cha ya
Ġpra tapa
Ġmasiha yae
Ġkend rare
Ġrakha yaithila
Ġsamban dhare
Ġshara ta
Ġudya ma
b orda
c ri
bi t
Ġhai dra
195 1
Ġdilli ra
Ġsambha bya
katha chitra
Ġnan di
Ġnimo nia
Ġba lare
Ġba laka
Ġrahi la
pre ss
Ġas anti
Ġjati sam
Ġmano ja
Ġduh kha
Ġrak tare
5 4
n chare
ra i
Ġka mana
Ġka gaja
he la
tri ma
Ġsaha ja
kala handi
Ġphu t
Ġche na
Ġthi k
Ġhala di
Ġbal labha
Ġsamsho dhana
n sha
s uryya
Ġa sana
sh t
Ġd rrish
Ġpra yukti
Ġan ura
Ġjana jati
she i
Ġut patti
Ġbhu la
Ġc ar
Ġsho bha
Ġsupari sa
ĠkàŃ± chita
Ġshirabhyan tara
6 3
7 1
Ġki ta
ne r
Ġsu barnna
Ġadhi basi
sta ka
sta pha
sam uha
20 20
Ġf il
Ġkho rddha
Ġprasha sana
aba sthiti
Ġgari ba
u chi
Ġ tya
Ġsa pha
Ġka shi
si ya
Ġan ita
Ġsam anta
Ġya ma
Ġpari sra
ke tana
uru s
Ġhai s
Ġnikata bartti
Ġashtre lia
Ġspar sha
Ġbist rrita
Ġjalapra pata
Ġs tre
da e
Ġsam prri
Ġta laku
Ġi ma
Ġdi p
Ġkara ka
to ti
khi a
Ġyo ge
pra desha
Ġte k
Ġbo la
Ġbaya sara
à¤ ¿
ye shtha
Ġbam la
Ġrakha yae
Ġanumo dana
Ġscie nce
b yu
Ġp oda
Ġk shi
Ġa shrama
Ġd hira
Ġbi pla
Ġy ana
Ġi me
Ġkar da
Ġpai la
Ġpari ganita
tri k
Ġabhi sha
Ġkha n
Ġdeba debi
ngala desha
Ġmai la
Ġpraka l
ssi on
9 8
j jita
Ġsa ka
Ġg he
Ġni yojita
Ġi uro
Ġsama jare
Ġsaha yoga
tira eda
Ġkho ji
Ġparyya yare
Ġtali kare
Ġkaryyakala pa
Ġeksapre sa
9 6
u nda
da ta
Ġsa t
Ġbi deshi
Ġbha jana
mi ne
Ġpari barika
Ġla l
pra ja
kra mika
Ġroga ku
Ġbho jana
kan dha
mp ho
Ġbrahma pura
Ġshar kara
g ma
aru na
ja gata
th y
shi ni
Ġda ya
Ġya anti
Ġf i
Ġas àŃ±a
199 7
Ġkho dita
Ġthi a
Ġshabda ti
Ġbaisha yika
Ġshataka da
4 2
Ġa gare
da ba
Ġsam manare
Ġda khala
ki chi
Ġaba sada
Ġbe ga
ĠbishàŃ± ala
Ġre da
Ġgu nda
Ġbrri ddha
Ġ193 6
) |
0 3
Ġ Âł
Ġma kara
Ġpra ba
Ġkari deithile
Ġg ru
rri sha
Ġhoi yiba
Ġdi sa
Ġ19 20
Ġsi te
Ġgo vernment
pra sha
iti hasika
Ġhi msa
Ġar anya
Ġin te
Ġdekha yanti
Ġbada li
Ġaga ku
Ġchakra bartti
Ġkhrishta purba
Ġnew s
Ġnata kare
Ġdru ta
Ġpuru shottama
n chana
n chu
à ²
Ġe guda
cha lana
Ġka man
Ġba gi
di sha
Ġna mbara
yu ta
Ġbe share
Ġme hera
Ġaram bhare
Ġsan tha
198 6
Ġrri ture
Ġsura kshita
Ġ. .
Ġbish le
Ġchatisha gada
e k
ra ksha
Ġk yari
Ġbi hari
Ġba lika
dh arita
ch aru
Ġsam sara
Ġmaha ka
Ġsu p
Ġrahi pare
bar ta
hari ka
ve s
Ġshiksha dana
Ġsan deha
Ġbhar tti
à ¸
Ġka pi
Ġra stare
ja ga
Ġla ta
Ġmi s
Ġsi ti
Ġt anma
pra jati
20 21
bhu bane
Ġmo te
Ġbai dha
Ġje la
199 1
199 6
abhi nayare
phu la
bhau golika
Ġrau pya
dàŃ±i tiya
Ġsamsa dara
Ġrise ptara
Ġadhyat mika
0 5
i yae
la da
Ġe kara
Ġpa bana
th ura
lo ma
Ġpari shadara
Ġman are
Ġmaha la
ncha ti
Ġupa sthiti
Ġar buda
nata ka
Ġdia yiba
Ġshu khila
Ġdui jana
Ġyoga yoga
Ġdo ja
Ġam bedakara
Ġ194 9
kshe pana
Ġsamgraha laya
pratha me
Ġsamud rika
Ġdel hi
d r
l ari
n tharu
s pe
na ba
ri ng
ku lare
Ġkari pariba
Ġba lya
Ġan tah
Ġhe be
Ġupa maha
Ġraja tàŃ±
mani ka
Ġche ra
Ġgandhi ji
sadharana tah
Ġando lanara
njini yarim
develo ping
Ġsosa iti
' re
à ¨
Ġs pi
Ġk anda
Ġma ga
Ġpa thare
Ġse mi
Ġde velo
dhi kara
Ġro ja
Ġye te
mba kiya
Ġbisha kta
Ġas osi
198 4
Ġ194 5
phu ta
Ġpariba hana
Ġgau tama
Ġindo ne
Ġpraram bhare
n keta
s ter
u se
ga thana
Ġpra k
li shta
Ġbi msha
te nta
nd ranatha
Ġsama lo
me shàŃ±ra
pi a
Ġchi ra
Ġgo te
anu bada
Ġbarsha ku
Ġli br
pe ri
Ġpe sha
Ġphe lo
tari khare
199 3
Ġ194 0
Ġshra mika
Ġbaba dare
sams krriti
Ġabhya sa
le ria
cha ndana
Ġpa bli
Ġka muda
Ġba b
Ġg ro
Ġu chit
Ġna la
anu gola
Ġ3 00
198 1
Ġup endra
195 7
khu thile
Ġhimala ya
Ġhatha t
g hare
ba u
li k
mi tra
Ġde bada
Ġsha da
Ġsi mare
Ġsu la
ng h
20 22
Ġmo di
Ġsabu thu
Ġ195 3
Ġnaba jata
Ġgarbhaba stha
Ġina shtichyu
Ġhoisari chi
Ġmrrit yura
i ma
Ġ trans
re e
Ġcha tu
Ġla bana
Ġbhara ti
aram bha
Ġupa kula
Ġmanda la
Ġtu la
Ġdura darshanare
ngara ja
Ġhari na
ĠdàŃ±ipa pu
nje ksana
Ġbalara ma
Ġprof ile
a ku
d ula
i bare
ba tha
Ġa kra
li o
li sh
mana tha
de na
Ġsha dha
me na
Ġsh ti
Ġchi n
kar anara
Ġar tic
sam u
sam bala
su dana
Ġkale jaru
Ġmili ba
Ġparyya ya
Ġnara simha
Ġnikata ku
Ġbyabasa yi
ĠàŃ±i keta
ra py
Ġbi shu
Ġka laru
yu ktara
Ġrahi thanti
bar ddhana
yi bara
Ġar dra
Ġdu rei
pur na
Ġ4 00
Ġshu k
Ġkri ke
shre ni
up anyasa
Ġjaha ja
s mita
Ġe ta
Ġbi lu
oi d
Ġdi ji
Ġstha li
Ġne baku
Ġpan du
Ġmya ch
Ġtai pa
Ġbhakta mane
Ġlipi baddha
padma shri
Ġpresakripa sana
Ġkamyuni shta
" ~
m bo
p li
p anika
à ´
ar d
ka ma
Ġk hi
ni m
Ġkari hue
nd rome
Ġja lare
Ġja mata
se hi
Ġsha shtha
Ġch yane
Ġbe sarakari
Ġpur anare
pha ila
Ġte ra
Ġpo khari
kana tha
Ġkrri shaka
Ġchaturd dashi
0 6
Ġ qu
ri sha
Ġm or
Ġbi bidha
pa khare
bha kta
Ġcha kshu
Ġhe mo
Ġya kshma
se n
gu jara
Ġdia yai
Ġasu stha
Ġsy ndrome
0 4
e pha
j yo
m pe
t m
ma hila
Ġma dana
ni rd
Ġo b
Ġpra sanna
Ġpa du
pa kshi
ur y
Ġeka tra
Ġda mana
Ġdi nara
Ġga ithile
Ġmaha bharata
Ġt ani
ncha ya
Ġkuha yaichi
Ġso cie
Ġbira ja
Ġmunda batha
Ġdhu mra
Ġvi deo
Ġgitikara mane
Ġprayo jaka
f f
an o
pa ki
Ġka ba
Ġla uha
Ġpur bare
Ġpara la
Ġgu ndicha
Ġbyakti tàŃ±
Ġkuha yauthila
Ġche tana
Ġpro tsa
àŃ±e ra
Ġadhya ya
basi ta
Ġhai po
Ġprana yana
Ġ193 4
Ġpashchima ba
Ġkoi la
m or
s on
Ġs rri
Ġa bhyan
ri kta
Ġo m
Ġna bina
ne ha
ncha mi
Ġkha ta
Ġin to
Ġc en
Ġre se
pura tana
Ġpara manu
st an
Ġchandra shekhara
Ġnrritya shilpi
Ġaphri kiya
ĠdhàŃ± msa
Ġbasu deba
Ġroki ba
Ġkhabaraka gaja
' ~
0 9
ba dare
Ġk shata
Ġsa chiba
Ġka ura
Ġan iba
bi o
dhi nata
Ġi shàŃ±ra
Ġmasi ka
Ġga mana
Ġsha kta
Ġman trana
pra bha
Ġre dio
Ġru dra
Ġtha kka
Ġrajya pala
Ġpre s
Ġdo jara
Ġrasa yana
jo la
Ġsena pati
Ġbahara ku
samkh yara
g ho
l ma
o k
le t
Ġpa tta
pa ga
Ġra tri
Ġsam rri
Ġhoi na
ki o
Ġji na
Ġla ho
Ġaba shesha
Ġbo dha
ĠbishàŃ± natha
Ġ4 4
Ġlu ha
Ġsthanan tarita
Ġshir sha
Ġsamprri kta
0 8
9 1
l ta
n chara
ya ha
Ġpra j
Ġbha gane
lo ri
Ġhe pata
Ġpar tha
Ġkatha chitrara
yan anda
Ġchi taba
kshi pta
Ġ4 1
à¤ ¦
198 2
Ġnadi re
lpi ka
Ġjene rala
Ġabo ut
p ment
Ġs tarara
ma dhyaru
le sana
Ġma harana
pa dha
bha shi
shi shu
ki ng
Ġpari kshare
Ġstha naru
Ġupa kari
go binda
Ġ7 8
Ġpre side
Ġjiba kosha
Ġmya cha
Ġlokapriya ta
m oda
s trare
Ġe ndo
Ġma le
cha ndi
Ġde bara
Ġcha itanya
Ġi la
Ġdi paka
Ġshi lpi
ne da
Ġri ti
Ġdha da
nt s
Ġ193 2
Ġkana da
Ġteli bhijana
Ġpatri kare
fere nce
Ġime ji
1 00
= "
s try
v ara
Ġk hia
Ġa shu
Ġa bedana
Ġe d
Ġma gha
Ġsam mukhi
bi ju
be di
Ġha ni
kar nna
Ġnirba ha
Ġ4 2
Ġw al
Ġpo shta
Ġ7 6
Ġsimha sana
Ġmai kro
Ġsarba brri
Ġdasha ma
pan dana
Ġ193 8
Ġkata kare
Ġlan dana
a ga
g hana
o m
hi nata
ka i
ma u
ma yi
na pana
Ġma gi
Ġya muna
Ġsaha yogi
Ġsadharana ta
Ġbhi tamina
go pala
Ġ5 5
âĢĻ ~
198 3
Ġada ku
Ġmano ra
Ġindi ana
Ġashta ma
Ġgujara ta
Ġkary yarata
ĠbhubaneshàŃ± rara
Ġboo ks
Ġsammukhi na
l yan
sha h
sha ha
Ġma dra
Ġpa pu
Ġbi harara
pa l
Ġba jaya
si ddhi
Ġ( "
bi tri
Ġi stapha
Ġja pani
Ġga lu
pi ra
Ġha sya
Ġrahi baku
Ġbrri nda
Ġshu nya
Ġsan dhana
Ġbai shi
brri ddhi
Ġgana tantra
Ġakhi la
Ġaka lana
Ġex press
Ġpakist anara
Ġparis arare
deha nta
0 1
n che
u th
Ġb rrishti
Ġb arika
Ġa hata
Ġpa de
pa uranika
bi jaya
Ġla ke
Ġha l
she d
Ġbhu ta
Ġdia yaithae
bala mbi
Ġasi la
Ġuttara dhikari
Ġje je
Ġgrri hita
nir mana
Ġsure sha
Ġsamghar sha
Ġsocie ty
a c
r ja
ti sa
Ġ| âĢĻ
Ġa war
Ġna bara
Ġde uthile
Ġye hetu
Ġraj e
pe ksha
anya sika
ge n
Ġtha ira
ce n
Ġ8 5
Ġtu lana
Ġbh oi
Ġbahi ni
Ġdaktara khanare
Ġshrirama krrishna
Ġedi tion
Ġsamantara ya
Ġhyu mana
Ġmusa lima
e x
Ġb anara
Ġa a
Ġka dha
Ġsama yaru
nga lara
shàŃ± eta
Ġshi baratri
Ġsi ngh
Ġpi dha
Ġpara da
Ġko shtha
Ġru pan
Ġana ti
Ġkami tira
Ġjaya pura
Ġpheri ba
f t
i i
m ga
Ġp orta
ba lya
Ġma dhaba
Ġpra phulla
Ġjana sadharana
Ġgo sàŃ±ami
Ġupa yare
ke na
Ġli mi
Ġasi thae
Ġ7 7
Ġati rikta
Ġdo sha
ngi tara
Ġartha ni
Ġanti ma
Ġjaya deba
Ġrakha yaichi
gran tha
Ġnrri simha
0 2
b re
k re
Ġ ~
Ġs kri
Ġk sh
Ġa kti
Ġd rrita
Ġpra che
th ar
Ġda kshata
Ġkar on
ne y
Ġpar ka
Ġpi trri
tar y
Ġheu thibaru
Ġsar bani
Ġati thi
Ġpaka sthali
ĠàŃ±e basa
ĠdàŃ±a dasha
Ġganasam padanare
Ġkausha la
Ġjaru ri
e bam
l yanda
Ġ ÂłĊ
ba dhi
Ġpra manita
Ġpa d
Ġbya pta
Ġsha la
or der
Ġsar basa
Ġ8 30
Ġchali chi
Ġnya sanala
Ġkhri shti
Ġsamar o
ngu li
Ġkhrishta b
prrish tha
g ni
Ġs ra
pa kha
àŃ± la
Ġna m
âĢ ĭ
ji u
Ġpai chanti
Ġsama s
Ġmu khar
Ġsha iba
Ġsu darshana
Ġkha si
Ġin dira
Ġtara ka
Ġshakti ra
197 8
Ġani yamita
Ġsamban dhita
Ġdurbala ta
n chita
ar da
ra jani
Ġo ri
Ġkari baru
te sana
Ġmu l
Ġprati ro
Ġprati raksha
ng lish
Ġw hi
Ġ7 2
ĠĠĠĠ Ġ
Ġphara si
Ġphaund esana
Ġgopi natha
Ġinstitu te
- -
c re
r yya
à §
Ġa sadharana
sha sana
Ġj yeshtha
Ġpa ji
âĢ ĺ
be l
Ġpar bani
Ġsu kha
Ġhue nahi
Ġut tapa
ph re
Ġhara mona
bya pi
Ġrakhi le
Ġkhu si
Ġjar ja
sàŃ±a dhinata
Ġgujara tara
manu sare
Ġmilu thiba
dur ga
Ġsure ndra
Ġjam mu
nirba chita
Ġdevelo pment
n ri
u thila
ta sa
Ġbi d
Ġkari paranti
bi je
yan u
Ġraj endra
Ġupa graha
Ġar yya
Ġraja sthanara
Ġme ni
archcha na
ph yu
ksh ya
Ġdei thiba
Ġso bhi
Ġdhar mare
pho r
Ġgya leri
Ġkon arka
Ġsamskrri tira
Ġsarbani mna
c ke
e ra
ra bi
ma yurabha
Ġa mala
Ġj harana
Ġo rissa
Ġg harara
Ġeka ka
Ġja iba
Ġke sh
gan dhi
à¤ ¨
Ġam shika
Ġkahi ba
Ġpratishtha na
dei thila
Ġlaga i
Ġaphri kare
ĠdhàŃ± ni
0 7
e di
n la
v al
ka mane
Ġa jita
Ġj ya
cha lita
ku ta
Ġga li
gu pta
pari ta
Ġc al
Ġdha tu
197 5
eha pare
Ġjib anta
ĠĠĠĠ ĠĠĠ
Ġlan gua
y uro
bha ira
mi l
Ġkara khana
Ġga lpika
ĠsàŃ± ya
ĠsàŃ± chcha
Ġstha nita
Ġkha da
yana tha
Ġraja kiya
Ġkala bele
Ġdur ghatana
sia sa
phe yara
Ġunna yana
Ġani mia
Ġakhi re
Ġkal panika
Ġmadhu sudana
Ġmumbai re
ud bhida
prri thibi
Ġdistri ct
Ġpunaru ddhara
Ġfil m
Ġrese arch
Ġmukhar ji
w or
Ġk ran
Ġbi shrama
Ġni h
Ġda hi
Ġmu ndare
arana tha
Ġbhi dio
Ġnird dharana
Ġbyakti ra
Ġasi ma
Ġmili thiba
Ġparibar tte
Ġ194 4
Ġpanda ba
Ġprachi ra
dan anda
Ġpaddha tire
gudi kara
mal lika
chchi nna
Ġbaj ra
Ġbilu pta
a pa
sh tar
Ġpa dhu
si ma
Ġse la
nd on
Ġbar ma
Ġha ndi
Ġsu cha
Ġut to
mara thi
Ġbahu da
Ġhrri daya
Ġadh arare
Ġkshetra phala
khe la
Ġyuro piya
Ġkhrishta bda
Ġmahi ma
Ġgaura ba
Ġpradu shana
j ari
ya tri
Ġm ono
Ġpa trare
Ġse bare
Ġga tha
Ġti b
Ġupa yogi
Ġc i
so na
Ġmya leria
Ġtapa sya
Ġpranali re
Ġnar tta
Ġganasam padana
i bara
o la
p pa
Ġa lli
Ġm ura
Ġan tari
Ġu par
Ġbha ta
se ta
Ġshi khara
Ġha m
Ġne pala
Ġc ric
Ġbhi da
st ura
Ġtini thara
bahi ni
Ġniyan trita
Ġpakist ani
Ġchai tra
Ġsmara ki
o ra
ni ba
Ġpra dipa
Ġpa m
Ġpa anti
Ġkari die
Ġja pana
Ġkar antu
Ġke shari
Ġkha ile
Ġmo ha
Ġmo tara
Ġko na
mra ta
Ġmumba ira
Ġbandhu ta
ĠbhubaneshàŃ± rare
Ġniri kshana
p sa
p aram
u re
ka ku
Ġe l
Ġe ri
Ġe li
Ġma shtara
Ġpa taka
Ġpa shchimare
hu da
ki m
Ġeha chada
Ġsama tala
Ġyo di
Ġin fe
su guda
Ġko thari
no loji
Ġlakshana mana
Ġara dhana
Ġabi r
Ġgujara ti
Ġmahana di
Ġaphi sara
Ġprakrri tare
Ġbiki rana
Ġtanma dhyaru
n nti
t kara
t tu
Ġk una
Ġd hi
ni are
Ġbi ndha
si si
bi li
Ġbya khya
Ġku a
su mi
Ġshu ddha
Ġ194 3
197 2
Ġada la
Ġparba parbani
Ġdak tare
Ġbika lpa
Ġtur anta
dàŃ±i pa
Ġsad rrisha
b anta
Ġs k
Ġs rota
ka da
Ġp yari
Ġk lo
sh nu
sa urus
Ġra thare
Ġra shtrare
Ġda h
de bata
Ġstha le
Ġkha ibaku
ĠbishàŃ± yuddha
Ġdekha yaipare
ph ri
Ġdasha mi
Ġco un
Ġtrri ti
Ġtrri na
Ġnish kasana
Ġkrama gata
Ġpuras krrita
ĠsàŃ±r ga
kathi nya
Ġpaji tibha
Ġp ia
na gara
ni yara
Ġm on
Ġpa l
Ġg lu
Ġu na
bi a
ro sis
bam sha
Ġcha m
Ġda li
be ri
bhi ta
ru s
Ġpai thiba
Ġpari ja
Ġpari krama
Ġsha nta
in an
ge r
Ġlekha e
Ġnu ha
Ġsthana mana
Ġlagi ba
197 0
Ġhai dro
Ġsamgra mare
ĠsàŃ±i kara
Ġ192 8
Ġbla k
Ġkla ba
Ġokila ti
Ġmadya pana
Ġa pari
Ġra shmi
Ġu tha
Ġda lar
Ġn or
Ġja lara
Ġshi rare
Ġshi bali
gu ni
Ġbe a
Ġke lu
Ġstha lare
Ġbhi shma
Ġsar jana
Ġbyabahara kari
Ġala ti
Ġpro ble
Ġksha ma
kan nada
Ġara binda
Ġ193 7
Ġlu ga
ction ary
Ġon line
bhumi re
Ġaiti hya
Ġ192 9
Ġthai pare
Ġpuj ari
Ġchenna i
logi cal
Ġsaund aryya
p anyasika
s nana
z i
Ġs mar
Ġe miti
ch chare
bam shi
Ġja bahara
Ġmu ta
Ġsh tu
Ġha sa
Ġchi nara
ke sana
ph la
Ġdina ku
che s
Ġbho tara
co lor
Ġau panyasika
Ġchari pate
Ġpaha ndi
Ġ194 1
men tare
Ġjanu yari
Ġa jana
ri mana
Ġbi tarana
Ġbi parita
Ġka ksha
Ġu ta
mi sha
Ġde la
Ġi t
Ġga dhi
Ġsha baka
Ġsha shthi
Ġsi d
Ġyo r
Ġ4 3
Ġko ri
Ġdei thanti
Ġcho ri
Ġdh oi
Ġthi bara
à¥ ģ
tic al
Ġkrama shah
ha ma
Ġs neha
ti rnna
Ġk uru
na sa
Ġse ro
Ġse nara
Ġu sha
Ġta pare
Ġhe r
ji m
ksha ya
Ġpar anti
bar ara
Ġli g
Ġc la
ĠsàŃ±a da
Ġpr an
sala kha
Ġrakhi baku
shya ma
ye u
Ġshta di
Ġaha mada
Ġabhisha pa
Ġbishle shana
e lara
n ke
s tika
Ġpra darsha
Ġan tanali
Ġcha k
Ġc or
Ġpara jibi
Ġhara i
Ġpro tina
195 0
bai j
Ġkshudra galpa
ĠkàŃ± anta
sau ria
Ġdhumra pana
Ġkoshtha kathinya
a dhunika
ba d
ba sthare
Ġa le
Ġe le
Ġbi l
pa yi
Ġka thare
Ġu pana
Ġmaha sa
bar ti
Ġye kaunasi
ndi a
Ġpraya sa
Ġsabu bele
Ġpe tenta
197 6
Ġprri thaka
kshe trare
Ġada lata
Ġnaba mi
Ġmari ba
shiksha ka
Ġchinta dhara
tura l
Ġchitaba gha
) )
m be
hi s
Ġb or
Ġsa bitri
tha la
li ng
Ġbi mala
si o
dha nya
Ġ( :
Ġan ani
Ġbha ja
Ġna a
Ġja gare
ji ma
Ġbar gikarana
Ġanu bhuta
ne shàŃ±ra
chcha na
Ġpu lisa
Ġgu a
Ġmana sa
co nd
Ġ15 0
Ġyan trika
dyu tika
194 7
Ġbasi nda
Ġpras arana
Ġdrrishya mana
Ġtibhi re
Ġmahe sha
Ġsidha salakha
Ġpuj archchana
k anya
s pa
Ġk ur
na i
Ġ| .
Ġa ksa
Ġpra shna
Ġpa kshare
te n
aru da
Ġna sa
Ġehi bhali
se i
stha la
lu e
Ġgu ide
je ction
Ġtara kari
Ġud dishta
Ġpurusha mane
Ġparyya basita
Ġjani baku
Ġanti badi
Ġjan ana
Ġnua dilli
cy clo
Ġtur nna
Ġgaya la
antar jatiya
b s
b lood
c lu
c us
n mana
s y
Ã ©
an anda
Ġe t
tha ira
Ġbi da
Ġba je
di ma
si ara
Ġse l
Ġdi ctionary
Ġkar tta
se pha
Ġpar shurama
Ġabhi hita
Ġkha nana
ke teka
Ġli n
Ġte le
Ġre ji
Ġgha a
Ġpha sa
Ġ7 4
Ġkhe lare
Ġ8 4
Ġpani ya
197 9
rom bo
Ġpila di
Ġpratya ksha
Ġgopa bandhu
n nara
Ġp lan
Ġa f
Ġe k
ni ja
pa thara
Ġra ura
Ġba bi
si ra
Ġu j
Ġsam sthara
ro n
shi lata
Ġti ke
ne i
Ġaba shya
Ġke mo
pe dia
sam padana
Ġw iki
Ġana sara
Ġpro gra
Ġchar mare
eha ku
Ġmaj or
Ġjami dara
Ġyuro pa
Ġmina ketana
Ġmama lare
Ġpadabi re
Ġraha sya
Ġsambidha nara
Ġthie tara
Ġkera lara
g ne
ra tion
Ġb oi
Ġm yane
Ġpa tela
bi dyu
Ġbya ghra
Ġmi ra
kra mara
sana li
je n
Ġud bhabana
Ġkshe trara
Ġana phaila
Ġ193 5
nj ari
Ġgrri hare
Ġjar mana
Ġalimpi k
Ġrajabam shara
Ġkhrishtab dare
a p
g s
Ġs cho
la gna
ba t
Ġe ar
sha niya
Ġpa tara
re sana
Ġkari thibaru
Ġg ula
bha gya
Ġbha s
Ġhoi thibara
Ġda ki
Ġda shara
ane ka
Ġbe ka
Ġadhi niya
ncha laru
Ġar chi
Ġme mo
Ġgu d
Ġphu li
Ġdharma balambi
Ġchu i
sàŃ± rupa
Ġ193 1
196 2
Ġkra ya
Ġpratya khyana
Ġurd du
Ġsthanan tara
Ġkashmi ra
Ġimlan dare
ã ģ
hi ba
thi li
Ġsa ina
ri n
Ġpra siddhi
re n
pa s
te be
Ġan an
Ġu bha
bam an
se um
Ġmu s
Ġla da
me ta
Ġpara dina
par t
Ġph ri
Ġasu chi
Ġphil mare
Ġgri k
Ġaya tana
Ġgani tika
Ġbaj arare
Ġisala ma
Ġashi r
Ġkelu charana
h rri
k anika
an yare
Ġs aru
Ġp oi
Ġsa kshi
Ġkari asu
Ġra cha
Ġse r
bha bare
Ġna kari
Ġcha le
Ġja bha
tu s
me di
yan sa
Ġt y
Ġgo ru
pe n
ĠsàŃ±a bhabika
Ġko tha
Ġru k
à¤ ¤
Ġshe khara
Ġnari badi
Ġdasha ndhi
Ġdh ru
Ġai r
Ġabastha pita
Ġapha gani
Ġpuri ra
bho ji
Ġran dha
Ġkada li
Ġpatri kara
Ġnepa lara
ĠasàŃ±a bhabika
bau ddha
r anare
Ġa hi
sh tre
chi la
Ġba d
Ġba ksa
di m
Ġni besha
Ġsam pada
Ġi ndu
Ġya ta
Ġpar o
Ġbe gama
Ġgo l
Ġtha t
Ġtha il
du ta
Ġsarba shreshtha
Ġpila mane
Ġkrri trima
Ġgi tara
Ġjo ur
Ġnira patta
Ġanushtha nika
Ġsind ura
Ġchand rara
Ġgarbha dharana
Ġsebaka mane
Ġjagata simhapura
Ġadya badhi
Ġbhagane ithile
Ġutto lana
e ph
à ¯
ma te
Ġe c
Ġe sabu
Ġg rika
de sh
Ġmadhya mika
ne la
Ġjana samkhyara
kti bha
or t
mu s
Ġshiksha labha
je ne
mala ya
Ġbara gada
krama ka
Ġno bela
Ġv o
Ġasha dha
Ġkarnna taka
Ġparis thitire
Ġuiki pida
Ġanaphaila k
' m
n tare
y yara
Ġa taka
sa chi
Ġra mesha
Ġse gudika
Ġsam hita
dhi shta
Ġhe bare
gi ka
Ġla ina
Ġman ara
Ġke neda
ke mia
Ġkala ma
Ġ5 4
Ġko le
Ġpuraskara prapta
ĠâĢ ĭ
Ġgan dha
Ġana la
Ġprri th
Ġchu da
Ġutsa hita
Ġbam shi
Ġyau thila
Ġatha mallika
Ġkheli ba
Ġnia yae
ĠàŃ±e b
Ġpratya barttana
Ġprrish thare
Ġgoda bari
Ġmini t
Ġsantu shta
ame ri
Ġniru pana
c ts
i ara
k reta
l lu
o ta
Ġa lla
Ġo h
Ġka h
Ġni shedha
Ġkar po
ki na
Ġji bika
Ġdu he
in fo
Ġausha dhiya
Ġpatha padha
Ġpusta kare
Ġpratya hara
Ġjhu mara
Ġjara yu
ĠbishàŃ±ka pa
Ġbis pho
Ġkemo therapi
n karu
ra shtriya
da i
le r
Ġma tire
àŃ± r
Ġja dita
Ġji ban
Ġga uri
Ġsu tim
pra ka
Ġte ja
Ġmana ka
Ġam share
Ġph y
tro ka
shti o
Ġ193 9
Ġjo rimana
Ġsamar tha
tic s
Ġbishaya bastu
Ġbari shtha
Ġsamskrri tire
Ġlibr ary
Ġsula tana
Ġpartha kya
d ge
e nta
n tri
p anda
u li
ma lara
Ġsa dana
Ġma m
sa hara
Ġpra deshare
Ġba ji
Ġg hia
Ġsam j
bam ane
Ġcha na
Ġja panara
ji ni
Ġmu du
Ġsha sya
Ġaba shyakiya
Ġpu nya
Ġpur bara
Ġkariba dàŃ±ara
Ġyo ddha
Ġke toti
kar shana
Ġre a
Ġpara jita
Ġ6 2
Ġrajya ku
Ġri li
Ġud yanara
so cia
Ġag na
Ġdhu ma
Ġmya chare
Ġhisa ba
Ġbibe chita
Ġsami ksha
Ġbacha spati
Ġkani shtha
Ġshrimandi rare
Ġmahar ani
Ġpashcha tya
sambala pura
c tor
c tive
n jare
o s
o ga
ar thi
Ġe pha
Ġpa chari
Ġni shi
kara ka
Ġcha shi
Ġcha lani
Ġsha ni
Ġshi kshara
Ġsu ndari
Ġkha lana
Ġli mpho
bhu tanu
Ġshu kra
Ġbho tare
Ġdasha kara
Ġadhya pana
Ġaga mana
Ġshaili ra
loji yam
Ġgudi ku
Ġkhya ti
Ġprachchada pata
j ura
m barare
n thile
w o
an dhra
Ġsa ji
li ni
Ġba ula
Ġba ksi
Ġkar ti
Ġchi lika
Ġku mbha
Ġbyaba harare
go ra
Ġw as
gan dha
ban dhita
Ġnei thila
Ġbidhayaka gana
Ġkrrishna chandra
Ġnila giri
Ġaka bara
Ġsundara gada
Ġsharira ku
Ġce ll
Ġanna purnna
Ġdiji ja
ĠâĢĭ âĢĭ
p rana
u ma
hi da
ba tara
sh yata
ni si
cha tri
ku mara
be ta
Ġdi naru
Ġga sta
Ġabhi sheka
Ġku m
Ġpi ndha
stha nare
Ġ5 9
in dia
Ġniman trana
Ġdha ni
Ġto uri
Ġchari trare
Ġlu chi
Ġjiba bij
196 0
Ġpaki sthana
trri tiya
Ġca li
Ġbidya mana
Ġbati ghara
Ġsachetana ta
nird de
a st
d dh
h ttp
ma ka
Ġa dira
Ġma ka
Ġkari heba
Ġg aruda
Ġse ntara
Ġan ithile
âĢ Ķ
Ġeka trita
Ġcha uda
Ġja li
Ġja yanti
Ġro da
Ġaba lam
Ġsu ta
yan aru
Ġchi thi
gra ta
Ġar ta
Ġyu gma
Ġre lapa
Ġf ir
Ġban dhana
phi na
Ġkami shana
manda pa
Ġnimna likhita
Ġpho r
Ġpriya dar
kal pana
Ġbela bhumi
gene ric
Ġalumi niya
rajani ti
% )
e f
g ro
ra dha
ya tha
Ġb re
ma dhaba
Ġpra kriyare
Ġka lo
Ġsam bedana
Ġta da
Ġna manusare
Ġna mrata
bi baha
Ġmadh ura
Ġdi antu
Ġmu seum
Ġsh oda
yai chanti
Ġlo kara
Ġpu jita
Ġloka gita
sam arika
kari ni
Ġme cha
st ru
Ġpe shi
Ġyoga deithile
Ġbara ha
Ġprabha bare
Ġ25 0
196 8
manda lare
trri ka
Ġash ru
nkha la
Ġrak tanali
Ġtamilana dura
Ġproble ms
h tm
s thi
t tira
ha ja
Ġs ri
Ġb ur
Ġa po
sa tya
Ġpa the
Ġpa do
di tya
Ġsam bandha
mi m
Ġcha tri
Ġya ya
se sa
Ġsha ga
pra china
20 23
Ġgha da
Ġf u
Ġ5 8
Ġnird dharita
ĠâĢ Ķ
Ġri s
Ġcho pra
do m
Ġjiba shma
Ġsamar pita
Ġgarbha pata
Ġpuna shcha
Ġth rombo
Ġatma jibani
gudi ku
thra itisa
) -
p oda
hi ma
ta ttàŃ±
Ġa in
Ġa yur
Ġma mu
Ġpa ge
Ġba haru
Ġse nta
kara tmaka
Ġsam bo
Ġde s
ji o
ji da
Ġsha i
man ya
Ġha luka
Ġsu chi
on s
Ġli mk
Ġte ch
in sa
nja sya
Ġw ar
Ġbada lai
Ġasi ta
gre da
Ġud yanare
Ġbai d
Ġsahara ku
Ġjala se
Ġpurusha mana
kan anda
197 3
Ġtra yo
Ġdarsha i
Ġjiti thila
sàŃ±a dhina
Ġbaha dura
Ġnim nare
a iba
b rrit
Ġb ulai
Ġa krrishta
sh ruti
Ġni rodha
Ġde be
Ġehi dina
Ġi nd
Ġya ba
gi ni
Ġmi dia
tri ya
ĠsàŃ± e
Ġle khare
Ġc ul
Ġchala chala
in s
Ġ6 4
Ġphu ti
Ġban tana
Ġsan tosha
Ġjala shaya
Ġpaha cha
Ġchar bi
ĠàŃ± an
Ġv ol
cation s
kho rddha
Ġsambidha nika
indi an
prani ta
Ġthaira eda
Ġcali for
e pi
e ds
sa l
Ġra m
Ġba chi
ja tira
dhi ra
ĠsàŃ± tah
Ġt àŃ±
yi baru
stha pana
par yyanta
taka lina
Ġasi thanti
dhya ya
ddhi ta
Ġkya la
pratha mika
cu lar
Ġpathya krama
Ġrajaku mari
Ġwo men
Ġsamalo chaka
Ġsarbasa dharana
part ment
Ġ ),
Ġk lab
Ġe nglish
Ġd r
Ġma tara
Ġma mata
sa dhya
Ġka thora
Ġba ga
ch arita
ur ara
Ġpai n
Ġji ra
Ġsh arana
shàŃ± rara
Ġti ra
Ġbyaba sthara
Ġut pada
Ġupa prajati
ve l
Ġhara ithile
nji o
Ġchikitsa ka
Ġati tare
Ġbhau tika
Ġrri na
Ġphala prada
Ġaina gata
Ġgola kara
Ġaro hana
Ġkarnna takara
Ġdis order
Ġbayo psi
Ġphaina lare
Ġghe ri
Ġhepata itisa
Ġjabahara lala
e mi
m ur
s trara
ba sha
Ġm y
ku ni
Ġra thara
Ġse cond
be t
be ra
Ġ19 22
Ġji bita
pi ndara
Ġmaha nta
Ġjana ku
Ġbe sh
bar n
Ġhi gh
Ġkaru thibaru
ko ma
Ġru chi
Ġpo la
Ġdeba shisha
Ġdhari ba
Ġpusta kara
Ġsaphala tara
Ġad rrita
Ġsambala puri
Ġbhitti re
khri shta
Ġah àŃ±ana
Ġbrrishti pata
Ġpriyadar shini
Ġcalifor nia
b anu
n cho
v an
Ġs to
Ġa krriti
Ġpa pi
pa lli
Ġra ga
àŃ± ya
Ġna gar
mi k
Ġeka ki
Ġda lita
Ġdu sh
ko la
Ġpha sala
Ġpo ka
Ġbara pha
phe na
Ġgho shita
sama yika
Ġkrri pa
195 6
Ġnag ari
Ġmamsapeshi re
Ġghu r
mahara shtrara
jyo ti
b y
d dara
s pi
t yu
da yaka
le khi
Ġma s
Ġm oda
Ġpa shi
pa kàŃ±
Ġkari paru
Ġba e
Ġg la
Ġna mara
Ġhoi yaithile
Ġsha ila
Ġch una
Ġsu pri
gha ba
Ġbhi ttika
go ni
Ġko bhida
Ġko lojiyam
Ġ6 6
Ġchitra kara
adhika msha
Ġdrrishti kon
Ġchatra chatri
Ġ192 4
Ġphar ma
ngo pasa
Ġtamilana du
Ġupatya ka
Ġpaleshta ina
Ġrajaku mara
Ġsabya sta
Ġkaila sa
Ġartic le
ha t
Ġs tar
ya la
Ġp hita
Ġk anu
da b
thi be
Ġsa ksh
sha ili
ri es
Ġse kend
dh yana
bara ka
Ġda u
Ġhe ma
Ġdi jita
bhi sa
Ġpari tyaga
Ġbhi e
go tie
ce r
Ġsabhya ta
Ġtu ma
Ġbidha ba
Ġamsha ku
Ġanubada ka
Ġasa ha
Ġbandhu ka
Ġran dhana
Ġashta mi
Ġteli sko
mandi rara
upa di
Ġce nt
Ġudya mare
Ġrajabam sha
Ġtek noloji
Ġshuk lapa
Ġawar d
Ġfir st
* :
u chcha
Ġs kora
ta milana
Ġk no
ari ya
sha bda
Ġma sha
Ġo dha
Ġpa dhi
Ġpa taku
Ġbi chchinna
kha dya
Ġga ma
Ġmadhya ku
Ġmaha shàŃ±eta
Ġjana priya
Ġye ar
Ġnird dhishta
ve d
àŃ±a i
Ġnija ma
ngi na
sho dha
Ġshakti mana
196 3
Ġethi saha
Ġyau thile
194 8
Ġbastu tàŃ±
Ġmahi sha
Ġdam pati
Ġmaho tsaba
Ġproje ct
Ġsetha kara
Ġyor k
d ney
j hu
k oda
ya japura
na ku
Ġa mita
Ġra jiba
Ġbha ndara
mi nal
Ġda ita
bhi ttika
Ġmi shana
Ġanu pranita
Ġkatha ka
Ġt ruti
Ġku kuda
ng s
ng aru
Ġkaryya ku
Ġraja puta
Ġ7 3
Ġ7 9
Ġkan dhei
bidyala ya
Ġud yoga
badi ya
Ġnaba ma
Ġpuri re
Ġen cyclo
Ġdija in
lec tro
Ġsero toni
Ã ³
hi le
Ġa hara
li an
li fe
Ġbi deshare
bi sha
shi p
Ġda da
Ġda ku
Ġhe art
Ġdi l
se l
Ġsama yika
Ġbya para
gi c
tana ma
Ġmadhya pradeshara
Ġanu bhuti
Ġchi tta
ke ya
Ġli ga
kari thile
Ġkaru na
su chita
Ġdia yaithiba
mo la
bata h
pu da
Ġmili la
Ġto kio
Ġpatha gara
Ġchu ti
sàŃ± tantra
Ġchali gale
Ġabastha ku
mar ga
menta l
Ġraksha sa
shada ta
Ġ192 7
jani a
Ġtur ki
Ġmilu chi
Ġerro rs
Ġboo k
Ġsarbabrri hata
a chanti
e ch
m ka
o di
ta li
na panare
Ġe ch
le y
Ġma yura
Ġm anika
Ġpa tu
li ver
Ġbi ri
Ġka lpa
Ġkari na
Ġkari nathile
Ġba lu
Ġni barana
Ġu thai
hu r
mi no
Ġda shaka
Ġki ni
Ġbar se
Ġshi l
Ġaba tarana
pur aru
go shthi
ph ra
mo dara
nu shthana
Ġkichi dina
Ġas socia
Ġtra shta
Ġshishu mana
196 9
fi c
Ġge ne
Ġthakura mana
Ġad re
Ġkashta kara
Ġyuni bhar
Ġalo kara
Ġkoi li
kend ujhara
Ġsenti greda
Ġpath arare
Ġnartta ki
Ġlin ks
Ġabalam bana
Ġkyala siama
Ġ Î
Ġ à¦
Ġs oda
Ġp l
Ġa sthayi
sh tika
le ni
Ġo ther
Ġka b
di es
dh arare
be lu
ke nda
Ġbhu tan
Ġsan dhi
so ur
Ġdar pana
Ġpuja ka
Ġbidhayaka mane
Ġchali thiba
Ġkra mare
Ġyuni bhara
Ġkir tti
Ġrakshana bekshana
dr ya
Ġmantrana laya
t tare
w s
w er
ha n
ha li
ka s
Ġb lo
sh tro
Ġh arana
sa pta
sa uri
Ġra mana
rri tire
ro s
Ġpai ka
Ġga tire
gu e
Ġrahi asi
har aru
Ġut sar
Ġraja sàŃ±
Ġme tro
Ġmandira mana
nu a
Ġ6 9
ngita j
Ġbai dyutika
Ġbira da
ci ty
Ġaksha mata
Ġgarbhaba ti
wa y
Ġsamkra manara
Ġparamar shadata
Ġrai mohana
phar ma
Ġalimpi ka
cri p
Ġporta l
Ġpratiro pana
" .
a b
c ra
c to
k anti
á ¹
Ġ text
Ġa de
Ġbi hina
pa dara
ja pa
Ġta ila
th yara
Ġda y
bhi la
Ġga di
dhana tha
ho la
Ġupa basa
Ġli u
krri tira
mu ha
para bartti
in jection
Ġrama krrishna
Ġchali thila
Ġjha la
Ġag rani
Ġsapta mi
Ġpadar thara
Ġsta tes
Ġpala ti
Ġaji bana
Ġnaksha trare
Ġsami kshaka
Ġgudi kara
Ġnrrit yara
ĠpratnatattàŃ± ika
kte ria
yuktara shtra
Ġmadra sa
Ġdrrishtikon aru
e ding
n cy
u ja
u nta
y yo
Ġ riya
ka mp
ma tha
Ġa yara
Ġa bya
Ġa khanda
Ġma thura
cha i
Ġpra gati
Ġba kta
si p
Ġu lla
Ġde na
Ġda b
de d
Ġya daba
Ġpari dhana
man o
Ġsaha sra
Ġgha sa
Ġthe rapy
à¤ ¯
Ġala ka
Ġ193 3
Ġpan thi
Ġ192 5
Ġsm arana
Ġmati a
Ġduh khi
Ġshir shaka
Ġkhad yare
Ġkame i
Ġashra ya
Ġprach ura
Ġyata yata
ba pa
ba dita
Ġa bu
Ġba le
Ġba san
Ġse tu
Ġsam are
nd er
Ġcha lanti
Ġ19 21
Ġga pa
Ġsh tori
Ġsi l
Ġpar lia
Ġha sti
Ġch ya
Ġpi echa
Ġar t
su chi
Ġgra mina
st ani
Ġas thira
Ġ8 3
ngi tare
Ġbhumi re
kan dara
gh na
Ġnaba gata
Ġpau thile
Ġpakshi ra
Ġal l
Ġal so
Ġaphri kara
sau nda
Ġmat sya
Ġashir bada
Ġsaksh yarata
" |
< /
f u
i dha
m bri
o li
u nt
Ã Ĺ
ma trare
ni kata
sa ur
Ġka pila
di ni
ki r
se t
Ġkara e
gu mpha
Ġjana ki
Ġmanda pare
Ġso manatha
Ġsamaya krame
Ġhari chandana
Ġpau chanti
Ġak yuta
gar h
Ġghati thae
Ġsari ba
cu l
Ġshara la
chyu ta
ference s
ĠsàŃ±ya msha
Ġkhalana yaka
o ri
o kta
z ine
Ġb una
ni sa
cha u
chi hna
Ġpra deshika
tra saunda
âĢ İ
shi lpa
de ya
ne ya
Ġsu jata
pha ina
ke ra
tar ka
Ġyu gala
ĠbishàŃ± a
Ġ6 7
Ġbyakti bishesha
Ġbhasha ku
Ġhindu mana
nchi thile
Ġchitra kala
195 5
195 9
Ġatya chara
Ġgana madhya
Ġsho bhaya
Ġdarsha nika
Ġrabi ndra
Ġrritu sraba
Ġaha mmada
kora puta
Ġbaisha kha
Ġpresakripa san
Ġjhara suguda
e san
g color
ti ksa
Ġma trara
Ġbi chitra
Ġka ka
Ġka jala
di ba
Ġ1 20
tara ja
Ġhe una
yu re
tu la
Ġmi gra
Ġshi kari
Ġti ru
Ġlo kare
Ġprati bandha
Ġaba shishta
Ġmaha lakshmi
Ġsu kshma
Ġpu nara
Ġpur na
pha i
pha lare
Ġupa chara
pur baru
kshi ka
in ter
Ġadi ma
Ġw ho
âĢĻ ,
Ġnei thiba
Ġdo shi
195 2
à¥ ĭ
Ġrakha nti
Ġanushtha nara
for d
Ġbhabi shyata
Ġpadi thila
Ġasam ara
Ġve in
Ġashtre li
ngal uru
Ġayu sha
Ġuch charana
Ġbin oda
Ġeje nsi
Ġraura kela
kamp yu
k sina
m share
s ma
ar sa
Ġb gcolor
sha n
Ġma saru
Ġo x
re f
Ġbi chcheda
bha la
bi graha
Ġhoi asu
nd aru
Ġcha ura
lo n
Ġmu sha
Ġbya ya
Ġlo ndon
Ġprati pha
Ġaba kasha
Ġsu b
Ġjana padi
gha nta
sam ra
Ġme jara
Ġchala ka
Ġsar pa
ban dara
Ġphe ria
Ġph la
Ġparyya pta
Ġpan de
sar ara
chu a
purba ka
Ġrana ji
Ġbujha ithae
ausha dhiya
ĠtattàŃ± aba
Ġjarmani ra
Ġchama cha
Ġgump hare
Ġprakal pare
Ġakti ara
Ġprache shta
Ġdaktare ta
Ġuna bimsha
inan dina
Ġagna shaya
ĠsàŃ±e chcha
a itihasika
k ki
n guda
p tani
Ġs on
Ġsa heba
Ġsa lila
le ksa
Ġbi bi
te i
Ġse pte
Ġna hanti
dhi shthira
lo re
Ġki rana
Ġmi lanti
Ġti mes
Ġhu ma
Ġmaha mari
Ġsu nila
Ġchi trita
Ġbo hu
Ġshri debi
Ġsehi dina
no logy
Ġso pana
Ġkhe lu
tari ya
Ġshab daru
Ġdhara yae
Ġchu mbakiya
sama ya
Ġgrama basi
196 4
ĠàŃ±e shta
Ġparbata mala
Ġkalika tara
Ġbamsha dhara
Ġbiphala ta
Ġroja gara
Ġscho ol
Ġjour nal
Ġashru mochana
) ;
5 00
b or
á ŀ
Ġ ver
Ġb ane
ba cha
sh chita
Ġma ja
Ġma thara
pa e
Ġba dana
Ġni uro
Ġni gama
hu di
Ġhoi yaichi
Ġda ma
Ġsama samayika
Ġpari mita
Ġga besha
Ġla sika
Ġmadhya bhagare
Ġaba idha
Ġha stare
Ġmaha bala
Ġgha ni
Ġko ta
pu bli
pu staka
Ġtha na
à¤ ®
Ġpo e
Ġphi pha
Ġkami shanara
Ġparba tara
195 4
ngu thi
ds on
Ġmara mati
bhadra ka
Ġmahe ndra
Ġintar anya
Ġsabya sachi
Ġgru p
Ġsamas yara
d f
f fe
g li
i thanti
k oi
m yana
t yara
t yananda
ra yagada
da s
Ġpra pti
Ġka cha
Ġra shira
te ro
Ġba ghu
Ġ19 14
Ġya du
ki ntu
Ġbya sta
Ġro sha
Ġsi tara
shta in
kar mi
Ġme ga
su b
Ġf ra
Ġf lu
Ġ5 6
Ġbu lu
Ġbisha kriya
san aru
Ġbho t
Ġsamar pana
yanara yana
à¦ ¾
ĠdàŃ±a dashi
Ġsamkh yara
Ġmade lim
Ġimlan dara
bhubane shàŃ±ra
Ġphelo sipa
Ġsamrri ddha
Ġabir bhaba
o t
Ġb oda
ba ila
Ġa yoga
ari a
Ġd rama
Ġpra shikshaka
Ġni anti
Ġsam lagna
Ġbha shana
tra la
bi n
bi bhaga
Ġhe manta
Ġki borda
to na
Ġbyaba sthare
Ġut padita
Ġne pali
Ġkaru karyya
Ġkala krriti
Ġaram bharu
Ġshri kshetra
Ġsams karanare
Ġekademi ra
Ġho ta
Ġprri tha
jika li
Ġjiba sara
Ġjaya prakasha
ngu la
Ġsamaja sebi
ĠdayitàŃ± re
Ġbhadra ba
Ġsathi k
nthi ru
Ġparampar are
Ġsaman àŃ±ya
Ġsobhi eta
g le
Ġ z
ya da
Ġb ru
Ġb yan
Ġba sti
ch arika
Ġsam man
Ġsam mukha
Ġta tare
Ġna ti
oi m
Ġde partment
Ġi i
Ġi u
âĢĮ -
Ġga bhar
Ġla bo
Ġsi li
usha n
stha ni
tar ani
gha tare
Ġyu ddhara
Ġso uth
phi l
Ġ8 2
Ġphi lipa
sti c
Ġdasha hara
Ġakar shaniya
ai bhi
Ġdra upadi
Ġrahu la
Ġà¤ ķ
Ġbhakta mana
Ġena echa
Ġsiri j
Ġkaridia yae
Ġnrrit yare
Ġraju ti
Ġhais kula
s una
s kri
Ġ transla
hi bi
Ġp or
Ġa khya
Ġe nda
sh tya
ni s
Ġpra bana
Ġpra dhanya
Ġba dhu
àŃ± ira
Ġu l
Ġhoi thai
Ġda inandina
Ġi k
Ġji u
Ġmi l
Ġanu dana
Ġsi ddhi
man aru
Ġch archcha
Ġchi trare
Ġye miti
Ġgo ra
gra ph
Ġut tirnna
pe sha
Ġbhu shita
Ġkala pare
Ġmukhya laya
Ġ6 8
Ġpo shana
Ġrajya sabha
Ġ8 6
Ġdo kana
tari na
lan dara
Ġai nare
Ġasu chanti
Ġgana tan
Ġdarsha niya
Ġbujha mana
Ġmutra shaya
Ġpraram bha
Ġbhabani patana
Ġkhrishti ana
Ġpia ja
b anda
s mas
y arare
Ġ Â
ra m
ya mana
da yi
Ġma trik
re st
Ġbi desha
Ġka lina
nka badi
Ġu dita
Ġsam sthana
bi ja
bara ha
Ġdi ni
Ġdi re
ki ka
Ġpari samkh
Ġki ng
Ġsha patha
yai pariba
Ġlo ma
Ġaba sa
Ġsu chita
anu sare
ĠbishàŃ± karma
ndu a
Ġkan una
Ġati bahita
shya pa
ter n
Ġph lu
ment ari
196 5
nya sa
nge r
jo na
Ġmari cha
Ġyau chi
Ġbas anti
Ġchinta mani
Ġpae nta
Ġmama lara
Ġyogi ni
sundara gada
Ġjatisam gha
Ġpres sure
Ġbrrinda bana
Ġlangua ge
ya ba
ti la
da tta
Ġsa te
sha nta
Ġpa ke
Ġpa tita
Ġkari ne
Ġba tare
Ġba stura
Ġse nare
Ġbha nu
Ġkar tti
Ġbya dhi
Ġti ki
dàŃ± a
dar ara
Ġ6 3
Ġbisha kha
ce p
po shaka
Ġche li
Ġ' '
Ġlagi chi
Ġlaksh aru
Ġbidyala yara
Ġkhu ntia
196 6
lai t
Ġkilo mitar
Ġmahabidyala yara
Ġkya le
pri l
men tara
cho ta
Ġlaga yae
bishàŃ± asa
ĠashàŃ± ina
ĠashàŃ± ini
Ġbrrit tire
ance r
Ġdiba sare
Ġbhatta charyya
Ġgump hara
Ġser vi
Ġec ono
b rrita
d ru
k li
m ura
n or
ã ĥ
da y
Ġsa jjita
sh pa
Ġpra ta
Ġbi badiya
Ġta danta
Ġna thibaru
bi la
Ġja labha
Ġmu hur
Ġki na
Ġga l
Ġga mes
Ġanu dhyana
ia ma
ia chalachchitra
Ġsu chaka
Ġbe di
Ġupa bhoga
Ġar ti
pe ra
Ġsar ani
Ġshri tama
Ġshri kanta
Ġpo ti
phi a
Ġkend rara
Ġmasa ku
phe ta
Ġtri bhu
shti ta
pan thi
Ġchali ba
sama ja
Ġjan tu
Ġup anya
Ġno t
pho na
Ġbina yaka
tori c
asi hara
Ġprrishtha bhumi
ĠkàŃ± chit
Ġgaya tri
Ġbila mba
Ġkhani ja
Ġsishta ma
Ġbhabishya tare
Ġkran tiya
s mara
Ġs pandana
Ġa ksh
Ġe ph
Ġma p
Ġpra hara
Ġpra kare
ku ntha
pa lita
Ġse re
Ġse tiki
Ġu s
Ġsam ba
Ġsam ghara
Ġcha lia
Ġcha mpa
Ġi nda
Ġ19 19
Ġja gi
Ġja grata
Ġmadhya hna
Ġanu suchita
ne d
yo gu
dar tha
dar bha
ĠdàŃ± nd
nt anu
Ġje lare
Ġag neya
Ġnya yika
Ġsambha batah
Ġdhu a
Ġnia yaichi
Ġina su
Ġashta dasha
Ġsambhaba para
Ġdija ina
Ġupadhi re
kendra pada
Ġmur mu
Ġnidra lu
Ġhatha ta
Ġutte jana
Ġinashtichyu ta
Ġaluminiya m
Ġbaid yanatha
Ġjalase chana
Ġbae rnna
Ġs p
ma chi
thi a
Ġsa shastra
ga cha
Ġbi dàŃ±
Ġbi lasa
Ġba mana
th ro
tra l
bi hara
bi kasha
shi m
shi ng
Ġga iba
Ġsha sita
me ri
Ġro m
Ġti r
Ġpar tire
Ġmaha tàŃ±
Ġsu brata
Ġbe st
Ġabhi brriddhi
Ġyo u
in f
st re
tika la
à¤ ķ
Ġso risha
basa ti
Ġ10 8
Ġkahi thanti
Ġlagi thae
Ġdasha nd
10 10
manda lara
Ġv a
ksi ko
nama karana
Ġshila lekha
Ġbab ushan
Ġmuta baka
Ġkarti ko
Ġtouri sm
Ġbarse lona
b lika
Ġs kandha
Ġa tri
Ġa dara
Ġa kto
Ġe ya
Ġsa bata
ni gdha
cha nara
li sisa
Ġni ko
ja i
Ġu ma
Ġu pu
bha bi
Ġ19 23
Ġpari nama
Ġsha m
nga thana
nga lora
Ġmi thya
Ġrahi thibaru
Ġgo lare
Ġkaryya kartta
Ġdu niare
Ġme he
Ġgu gala
Ġdekha i
Ġsar bekshana
Ġshri mati
tie s
Ġtha ba
bya tita
Ġdur gara
ban dhana
tan aru
Ġtaha sila
Ġphi ka
Ġkho ju
Ġtri pura
pita la
sama jika
dhar anare
jha da
Ġà¤ ®
qu e
cie s
jani ta
Ġdaktara khana
Ġmal ti
ena e
Ġnirbhara shila
ser va
Ġbasta ba
ee e
mpe l
Ġpradarsha ni
Ġdashara tha
Ġmudu li
Ġbulai ba
a e
b anya
g harara
k kana
p l
s rri
Ġ thu
Ġs anya
ti ni
Ġa ur
Ġa ci
Ġbi bhuti
Ġkari thale
Ġra hani
Ġra ptani
te shàŃ±ra
dha nara
Ġan e
nd ar
Ġde khu
Ġpari kalpana
Ġmu laka
Ġga h
Ġman ta
Ġro shei
Ġsi jha
Ġha msa
Ġmaha taba
Ġku shtha
Ġpi nda
or y
Ġli na
su ma
su tra
Ġpo sha
Ġso di
Ġpe la
Ġala bama
Ġche mi
kana giri
Ġjaga mohana
Ġasu thile
Ġmau sumi
Ġtan trika
Ġnila kantha
194 6
Ġnia yaithila
bal labha
Ġbibe kananda
Ġupastha pika
Ġbishu ba
e ba
i sharu
n shia
u gh
Ġ $
an anta
ra tha
Ġb anu
Ġk re
tha ba
Ġma trika
Ġo shtio
Ġpra khyata
re ferences
Ġbi shara
Ġbi rd
Ġba pu
Ġan thu
bha kti
yi baku
Ġar ddh
Ġyu dhishthira
su s
dar are
Ġgha taka
Ġgha tanara
Ġdekha yaithae
Ġ5 7
Ġmana ku
Ġche tri
kan tu
Ġbidyala yaru
Ġmani shara
Ġshatabdi ru
Ġgran thare
Ġyau gika
Ġbidya dhara
Ġsamka lpa
mai sina
Ġgya sa
yani r
kshu dra
Ġmatrri bhasha
Ġpacha ku
Ġshrimandi rara
Ġparampar ara
Ġmura li
Ġupar okta
Ġphy si
Ġshuklapa ksha
ĠsàŃ±yamsha sita
] ]
b oda
b rea
n h
o hita
s thitire
à ±
ra j
ya l
Ġa ie
Ġa bhaya
Ġa charana
Ġe du
Ġo ver
Ġka lia
Ġra dhanatha
Ġba di
Ġsam mati
ani a
shi ma
de l
Ġ19 18
yu na
Ġji n
Ġga uda
Ġbar gara
Ġanu kula
Ġkaryya kramara
lu s
kari ba
Ġsara thi
Ġshri jiu
nu s
no ma
ce nt
sho ri
ĠdàŃ±i para
ter nal
vi d
ria la
Ġpau thiba
Ġbanda pana
Ġkya bi
Ġakhi ra
Ġpri ti
Ġge m
jani na
Ġkshati grasta
Ġradha krrishna
Ġstanya payi
grri hita
teri al
ĠsàŃ±ikrriti prapta
ps y
nch arita
Ġdari dra
Ġage i
Ġlaho ra
Ġahi msa
o pi
Ø §
ã Ĥ
ar the
an na
Ġs ka
Ġb randa
la gi
Ġk orta
na u
Ġa ct
Ġsa dhaba
cha tur
pa de
pa lana
Ġba tika
Ġg rupa
Ġni ma
Ġsam kramaka
Ġbha gya
be lara
Ġ19 12
Ġnir antara
una i
Ġsu i
Ġjana i
Ġt ru
Ġhue ni
yaka la
Ġut krrishta
Ġpi iba
Ġar thraitisa
Ġraja mane
Ġraja sthana
Ġameri can
Ġbai deshika
stu ri
Ġbrah mani
Ġmulya bana
Ġpan tha
195 8
Ġgati bidhi
dura darshanare
193 4
bri tisha
Ġecha aibhi
nko chana
parshàŃ± re
Ġchyane la
Ġsra ba
Ġantari ksha
Ġuta kshepana
Ġsupri ma
a fe
g anta
h n
i pare
l lo
ra ka
Ġa tta
Ġe nd
cha li
chi ni
Ġpra stha
Ġpra ko
Ġbi charana
Ġni hata
Ġan àŃ±e
ja ku
Ġu shu
Ġeka tha
dhi sha
Ġpai sa
Ġpai thae
Ġlo kanatha
Ġsi la
Ġha taku
Ġsu d
pra sa
nda ma
ke l
Ġkala krame
Ġsar tta
Ġko ria
Ġ6 1
du tika
Ġmili yana
Ġkhe lara
Ġ8 1
ie ld
Ġdo dson
Ġkri smas
ĠdàŃ±i pare
Ġchari pakhare
Ġco mple
phe n
tro l
Ġho tela
Ġsamar thaka
Ġnyaya layare
khe mundi
Ġpla te
Ġbije pi
Ġchikit sara
Ġsamud rare
sko pi
sim hara
Ġastra shastra
Ġdino sauria
Ġdrrish tire
Ġbagi cha
Ġupana di
ĠdàŃ±nd àŃ±
' t
e o
r anara
t trri
ba bu
Ġa jaya
sh tiya
sh ula
Ġh àŃ±a
Ġba pi
nka lana
Ġni basi
ch arare
Ġta pu
th una
dhi ba
Ġi ts
bhi ma
Ġ19 17
Ġja shti
Ġya trare
me tri
Ġmadhya bartti
Ġsi na
Ġmaha sagara
Ġsu bhasha
Ġbe samarika
Ġloka samkhya
bar shara
Ġpi ra
Ġpi thare
ncha lana
ke san
tar o
Ġgu lma
st ariya
nja itis
à¤ ²
à¤ ¸
bya ba
Ġri char
Ġsahara tharu
Ġrama yanara
do sha
Ġkana ka
Ġwi ld
Ġge o
Ġash charyya
Ġ192 6
Ġuni ted
193 7
Ġsain sa
Ġbrriha t
sams krrita
Ġbasta bare
Ġbili yana
ĠàŃ±ebasa ita
Ġdalar aru
Ġprrith àŃ±ira
Ġsamare sha
ĠtattàŃ±aba dhanare
k ranta
s po
à ©
an di
Ġs nigdha
Ġk rodha
Ġa harana
sh rri
Ġma lla
nka la
Ġan di
Ġbha ji
bi d
bi ndu
Ġde mo
Ġda modara
Ġdi bhi
Ġdi pika
Ġpari purnna
Ġsh rama
19 30
Ġpar si
Ġkatha bartta
pha sa
the ra
Ġin clu
naya gada
Ġjatiya ta
Ġbu t
ĠdàŃ± ya
Ġdhar are
nji na
tan anda
sti ng
Ġbri te
Ġmau sa
Ġparba tya
Ġsai ko
Ġtan dra
Ġjar nna
194 2
darsha niya
Ġsku laru
Ġbari pada
paryya ya
Ġbabu n
Ġpubli shed
Ġbadya yantra
Ġhare krrishna
Ġarthani tire
Ġrelapa tha
Ġpratibandha ka
e thire
m bar
p p
ra shtra
ya dio
Ġb lu
Ġb rea
ma yo
ba c
Ġa jikali
ri k
Ġka he
Ġba g
di n
Ġse kenda
Ġni tya
Ġ( ;
Ġna jara
Ġi sa
Ġ19 00
ru ta
Ġpai bare
Ġsh tara
Ġmi da
Ġmi shei
Ġsu a
Ġsu mana
isha mpel
Ġgo lapa
Ġjanma sthana
Ġc ancer
pre ma
mu khe
Ġsar bam
hari a
Ġw ri
Ġbada ka
àŃ±a da
kri da
Ġbai gana
Ġbidha yika
Ġ9 5
sia lishta
Ġityadi re
Ġbishesha kari
sar ba
Ġama dani
Ġapara hna
Ġsatya jita
Ġbani j
Ġ190 5
brritti gata
sin dhu
Ġyi shu
Ġhima chala
Ġkhya ta
Ġjyotir li
Ġhaidra bada
Ġvideo s
Ġabhyan tarina
Ġlimi teda
Ġadhiniya mara
Ġassocia tion
afe eee
a ha
j àŃ±la
u bhaya
x a
Ġs mi
Ġb aru
na ga
da inosara
Ġsa l
Ġsa chchi
Ġma thare
ga i
pa u
Ġka pada
à¬¼ à¬¼
Ġkari dei
si pi
Ġta ble
bi bidha
Ġhoi pada
ur nna
Ġcha lita
Ġja g
Ġpari le
Ġsha ka
Ġbar gare
nna ti
Ġro ma
ne e
Ġkariba pare
dàŃ± ya
Ġkaryya bidhi
pari le
Ġne la
Ġhi ta
lu tion
Ġar thare
Ġme sina
Ġanya mane
bhaba ka
Ġshiksha bita
Ġtha ka
à¤ µ
Ġso ra
Ġdha ka
Ġdha taba
Ġas pi
Ġrakhi chanti
Ġguru bara
Ġjaga bandhu
Ġpatha ka
Ġara dhya
Ġkabi tara
Ġà¤ ¤
dura darshana
ĠbhubaneshàŃ±ra thare
Ġpurnna chandra
Ġeksa che
sahi t
ls ka
Ġpakist anare
Ġmalaya lama
Ġira bati
Ġstre pto
gujara tara
Ġraje sha
Ġsanya si
d dina
u iki
à µ
na mala
ri ti
ri re
le d
li c
li st
Ġbi bhu
bha japa
Ġna bhi
bi shnu
âĢ ²
mana ba
Ġeka dasha
bhi sheka
Ġmu nna
Ġla tin
Ġanu bandhita
Ġaba lo
Ġchi nna
Ġku sha
pha l
eka bimsha
stha pita
ke shàŃ±ra
Ġbo lara
Ġc y
par nna
dar shaka
Ġko li
à¤ ¡
uru pa
Ġ7 1
Ġmili le
Ġri a
bo ok
Ġdha n
che ra
Ġala ko
Ġaga mi
basi ya
Ġsapta hare
tor s
khu da
Ġprani ta
Ġpush karini
Ġbhadra kali
Ġananda pura
mon ari
Ġbamsha nu
Ġadhina stha
Ġkholi ba
Ġhimala yara
ĠbishàŃ±ka p
hai dro
Ġsammilani re
Ġdari drya
Ġmahar shi
Ġeje nta
Ġkarisari chanti
Ġbamla desha
Ġsaka she
Ġindone sia
Ġnishi ddha
kampyu tara
p hana
t rrita
Ġ tharu
ba jara
Ġsa p
sh vara
tha kare
Ġo ne
ga s
sa ita
Ġni baraka
mi o
mi ly
Ġehi sabu
Ġda ba
be dya
de baku
ji k
Ġpai baku
gi ng
Ġsha ba
Ġsh tora
ne ph
yo gara
Ġpur ohita
Ġgo shthira
Ġme chare
Ġdia yauthiba
Ġru nu
Ġ6 00
à¤ Ĥ
Ġkuha gala
Ġdei chi
Ġkan di
Ġsamu hara
po ta
do la
àŃ±e la
Ġho ma
Ġsamra chana
Ġkrri mi
Ġup aru
Ġkilo grama
195 3
Ġà¤ ¸
Ġmara tha
Ġmahapra sada
Ġitiha sara
Ġsanta la
Ġshikhi thile
Ġbini maya
Ġdae be
Ġbipla ba
prasha sanika
Ġprotsa hita
ĠkàŃ±anta ma
htm l
Ġnagar juna
ĠprrithàŃ±ira ja
a th
g nan
p hare
hi gh
ra ghu
ta mulaka
Ġb rana
ti ru
Ġsa kale
sha lare
Ġpra i
Ġpa gala
pa tara
Ġka baka
Ġg hera
bha na
hu la
shi shtha
Ġi nde
Ġkar pura
Ġmu kunda
gi krrita
nga ti
Ġmi a
Ġti me
Ġmaha t
Ġsu shanta
Ġbe gare
Ġyo janare
Ġke dara
pra k
pra bandha
sam ara
Ġko rona
Ġshiksha nushthana
dhu a
Ġtha ntia
Ġtari ni
Ġbrri sha
Ġuchcha shiksha
Ġkare i
Ġkare ithile
Ġpre ksha
Ġana bika
Ġitya dira
Ġgho ra
ye tebele
Ġprana ba
Ġbiju li
Ġwe ishampel
Ġtai m
193 6
Ġsm rritire
ĠshàŃ±a sanali
Ġnata kara
Ġkary yanir
kho la
dda ma
bahu la
Ġbrrit ta
Ġun mochana
Ġsaphta àŃ±era
Ġanura dha
Ġglu ko
his toric
bidyu t
Ġracha yita
a ie
c ro
e thi
m po
Ġs ti
ma he
Ġk li
Ġk yan
Ġma pi
Ġo pi
ku mari
si l
dh aru
Ġu shma
Ġsam padita
Ġna muna
mi ki
yu ga
Ġsama hara
Ġpari ta
Ġpari sheshare
Ġji bati
Ġsha hida
Ġlo pa
19 28
man yu
Ġsu sa
Ġkha anti
Ġkha puri
Ġhi m
Ġupa la
Ġdu nia
Ġbhu li
Ġre ddi
mo jo
Ġmana bika
Ġmana simha
Ġuchcha tara
Ġsabhya tara
bhe na
Ġala ma
Ġala trasaunda
Ġdekhi thile
Ġam shara
Ġguru ttàŃ±
Ġho te
Ġprakasha ka
Ġkya mera
Ġbina sha
Ġ100 00
sàŃ±a sthya
Ġaj anta
mon t
Ġà ¨
jagata simhapura
samu dra
Ġsrri shta
phor da
Ġbaghu ni
Ġbanij yika
i ya
à ³
an s
Ġs thi
ma msa
sha nare
Ġma tira
Ġj àŃ±ala
sa li
Ġpra desh
pa lara
Ġba chchana
di s
Ġg haru
si are
si bha
Ġta mba
bi krama
dhi re
Ġ19 11
ki dney
se nta
Ġpari darshana
end u
Ġbya ti
Ġla ba
Ġsha mba
Ġmadhya stha
Ġro mana
Ġaba gata
Ġmaha bharatara
Ġch aru
Ġjana basati
Ġye be
Ġke nala
pra stu
Ġut ta
Ġbo u
Ġraja mana
Ġsar bhe
Ġpha te
Ġsehi bhali
Ġshe kha
po shana
Ġshre ya
ngi ka
lan ds
Ġsarba janina
Ġkamgre sare
rika lina
nchi le
phu s
Ġpraja pati
Ġmano rama
Ġsamana ta
Ġbh rri
194 0
Ġchakra dhara
Ġprani mana
bartta manara
Ġmalaya lam
mau lika
Ġci ty
Ġkartta bya
Ġdhru biya
ĠbidàŃ± ana
c l
u ta
Ġ >
Ġs rrish
ma dhyare
ba sta
Ġk àŃ±a
da ka
ari es
Ġj or
Ġo jania
Ġh ya
pa ttana
Ġka hara
Ġka bara
Ġra dara
ja mi
Ġu rddha
ch chara
ch uda
Ġsam grrihita
Ġta hi
Ġhoi paranti
Ġhoi thaanti
Ġda laru
Ġi sha
Ġsha bara
Ġsha strare
Ġpar bare
Ġku da
Ġgo d
Ġsaha si
Ġupa hara
ke n
Ġle a
Ġbhu i
mu dra
dra shta
Ġkam pana
Ġdina tharu
Ġdha kka
Ġyoga iba
kshara jana
sàŃ± ti
gri ba
Ġnara ma
Ġbala deba
Ġraya la
Ġtrri pti
en ce
ture s
Ġdebata mana
Ġen vi
193 2
Ġagra àŃ±ala
Ġmasti sh
Ġasam artha
lekha ka
Ġdam patti
Ġkaman dara
Ġasosi esana
Ġcen ter
aga shta
Ġduhkhi rama
a pana
c ted
e p
n ura
r oi
ma dhu
ba hana
Ġk ranti
sh oda
Ġpa ura
Ġbi sho
Ġra jana
Ġra chanare
Ġra die
si ng
si yam
Ġsam bita
Ġy unai
Ġaba dula
Ġch ri
Ġjana jatira
Ġabhi mukhe
Ġgo a
Ġsaha yogare
pra dhana
pra siddha
pha lo
Ġhi ro
Ġle khuthile
sam gha
nana pitha
Ġre cor
shtha ta
Ġmo baila
mo ha
shu ri
Ġasi a
du ction
Ġdur gha
Ġso sialishta
Ġrachana bali
Ġpro grama
Ġshreni bhukta
Ġpatra ku
Ġkya lasi
Ġchatur bhuja
Ġis ro
Ġjami re
Ġhar nia
Ġandolana ku
Ġphar mula
Ġsammi lita
Ġdru g
Ġwa ter
Ġphran sa
Ġbak trrita
Ġbodha hue
a dhi
g oda
o ma
p hila
p lan
à ·
Ġs wa
Ġb ula
ba shesha
Ġa barana
da k
Ġsa bhi
le na
Ġbi cha
si al
ch ura
Ġna me
Ġ19 15
nti na
Ġga yana
me ru
Ġanu pra
19 20
Ġbe l
Ġku nti
Ġre sour
Ġmo ti
ph ari
mo ra
mo nia
pu t
shu ni
Ġnirdde shika
dhya ksha
dia ma
Ġshu khi
Ġbra ji
Ġphe de
Ġphe rai
Ġ8 7
Ġpre rita
che n
Ġcho ra
Ġkarana mana
ngi ya
ngi ba
Ġsammana janaka
Ġkri ket
so phe
Ġ15 00
Ġpatha i
Ġshishu ku
Ġnika taru
bhumi ra
Ġapa harana
Ġsai kela
Ġdrrishti kona
Ġbata li
Ġkampani re
Ġnila dri
Ġsatya graha
Ġrabi bara
Ġkalika tare
Ġab rritti
Ġpratirodha ka
Ġchampi ana
Ġnana di
myu na
Ġstu pa
rasa yana
Ġsona pura
Ġudaya giri
Ġmade l
Ġkahu thile
Ġmud rare
pia eda
phla me
Ġkanu n
Ġenaecha esa
e be
Ä «
Ġk anti
Ġa inara
Ġo disha
ga jare
Ġm eka
Ġka mara
Ġka sturi
Ġni ya
Ġu the
bi kshana
mi s
Ġja pa
Ġmu kabi
Ġla du
Ġsha ntanu
Ġprati shruti
tr anare
Ġsi hna
Ġha ji
bar share
Ġadhi grahana
Ġku sti
Ġkha tua
Ġyu bati
Ġc lare
Ġraja guru
Ġgra m
Ġmo ksha
Ġdekha yiba
du i
ban anda
nt aru
Ġpre historic
Ġala pha
Ġlakshana guda
Ġdesha ku
Ġbhe dare
Ġjhia mana
Ġakramana kari
sari a
194 1
Ġanushtha nare
Ġsampra tika
Ġap li
Ġbijayi ni
Ġbaha ghara
Ġkary yara
Ġparibe share
Ġkhad yara
Ġkhad yana
Ġbandhi ba
Ġupatya kare
Ġimmyu niti
Ġshuna yae
Ġcolle ge
Ġjatisam ghara
Ġdip loma
Ġkrike tare
Ġsamaro ha
Ġtib àŃ±
Ġnor th
Ġmyane ja
Ġghur nni
Ġarddh eka
a ta
e sia
u ti
w al
Ġ q
Ġs kana
ra kta
ka lika
ma to
ma lare
ba s
Ġa pre
Ġpra dhi
Ġka phi
Ġkari thaanti
si ne
bi m
bi bha
ro sisa
kha ndi
Ġkara bara
Ġmaha bira
Ġbe ta
Ġyo shi
Ġli tera
mu kti
Ġre view
Ġkala sa
Ġkale jara
bya basa
Ġpre mi
Ġam bika
Ġbhaga bati
Ġsrrishti kari
Ġmai l
Ġpro gram
Ġtini jana
Ġada u
Ġjo ra
Ġtrritiya msha
Ġphilma pheyara
Ġdara ma
Ġupastha pita
Ġhoipari chi
Ġdija arda
Ġchalu thiba
Ġjaru rikalina
Ġras una
gira thi
Ġprakal para
Ġpraba dhana
Ġbiraja mana
param parika
g lu
n on
o re
v ia
x y
an yara
Ġs thitire
Ġk lora
Ġa kala
Ġsa hararu
Ġma g
Ġma y
Ġma chara
chi a
Ġpra basi
Ġka pha
Ġka thara
ch chu
bi ryya
Ġcha mada
Ġkar ttrri
Ġya sho
se nara
se nsa
tu ni
Ġsha shi
me ya
Ġmadhya yu
Ġanu pata
Ġanu gami
Ġha st
Ġloka katha
Ġraj ara
Ġf ai
shu nya
natha na
bhe nta
Ġbai dutika
Ġdeba pai
Ġsthana ti
Ġhei chi
Ġsimha dàŃ±ara
Ġlagi thila
Ġdhari tri
Ġprabha baku
Ġchali thae
Ġjiba jantu
Ġpariksha dàŃ±ara
dhar mara
Ġapa smara
lani ya
ĠbhubaneshàŃ±ra tharu
qu a
193 8
Ġshar an
Ġlaga tara
artha t
Ġsau bhagya
gudi kare
Ġgudi kare
Ġhasta kshepa
Ġchama tkara
Ġglo bal
Ġpaleshta in
Ġbea ina
Ġturnna menta
Ġvo lu
Ġris archcha
tamilana dura
Ġaci d
Ġmanta bya
k tar
k orta
n le
s ki
an te
da m
sha strare
Ġma tre
Ġo ma
Ġpa khe
Ġbi daya
pa hada
Ġka shyapa
Ġra tana
Ġra il
te nt
Ġba bada
Ġni yojana
Ġde si
Ġde vi
ro ja
Ġda sta
bhi mukhi
Ġji bha
Ġbar ddha
nga ta
nga lo
Ġmi cha
Ġhu sena
Ġbe santa
ĠsàŃ± raja
pra krritika
ncha i
kar anti
par ta
Ġgha nti
Ġgha tu
Ġf ree
Ġprathama thara
tàŃ± ra
ve nti
ge shàŃ±ra
Ġlekha ni
Ġbu k
Ġshe yara
kri yara
Ġbhasha bhashi
Ġyai pare
Ġ9 2
Ġtri gara
Ġsada ka
Ġada mi
Ġsho la
chu mbakiya
Ġsta m
Ġindi ara
194 5
Ġgaja la
Ġrabi ndranatha
Ġagra gati
Ġadha ka
sm Ã³
Ġcom mon
tai gara
Ġasam bhaba
Ġnyu yar
min tana
njini yara
Ġbrritti gata
Ġsanta li
Ġintar ane
uni versity
lec tri
Ġchahi da
Ġyoni patha
Ġprayukti bidya
Ġinfe ction
Ġparisamkh yana
Ġprahara ja
Ġradie sana
d re
n n
o ple
y aram
ti bh
ba tya
na di
Ġa sthana
Ġe ki
sh yara
tha kura
Ġo la
ku l
Ġkari gara
di um
Ġu pari
Ġta u
Ġbha gi
mi ng
Ġeka di
shi ki
Ġi r
be dara
Ġkara yibara
Ġpari pakàŃ±
Ġbya pe
gi la
Ġmi ta
Ġro garu
Ġsu trare
Ġpi thi
Ġpi pi
stha nika
Ġli psa
Ġjanma gata
Ġsara da
ko ti
Ġkam sa
tàŃ± re
ĠsàŃ±a s
Ġ8 8
Ġkete bele
Ġbibha jita
Ġtu shara
Ġchari ti
vi sion
Ġho use
Ġpatha ithile
Ġhra dara
Ġapara dhi
Ġpakha la
Ġnira karana
194 9
Ġchih ni
dan dare
Ġ190 8
Ġdan dita
Ġmur ttira
Ġsambadi kata
Ġmeru danda
bhra mana
Ġsambada patra
Ġmrri ga
Ġjai bika
Ġila kare
baman dira
andhra pradeshara
brrit ta
Ġyunibhar siti
srri pa
Ġsarbam ota
Ġkarttrri paksha
Ġsharan arthi
smÃ³ lska
a tma
n to
à ½
Ġ Ø
ba gha
Ġa chcha
Ġa tala
ni ma
Ġo smÃ³lska
cha sha
cha nd
Ġm rritya
Ġh arare
sa hita
Ġpa sha
Ġbi lam
Ġbi lei
Ġka lua
Ġra khe
Ġu shna
Ġsam ara
Ġbha skara
Ġde fi
ro w
bara gada
bam shara
lo da
Ġsha yana
tana tya
shàŃ± rare
Ġt aruna
Ġchi li
Ġchi dra
ng ura
Ġin hibi
Ġte re
Ġme na
Ġre d
su e
Ġgha te
Ġf ran
ph lue
Ġpha l
à¤ ¹
Ġphu lara
ce ss
dia yae
Ġpo thi
Ġri pa
Ġpe na
Ġmandali re
Ġsarba bharatiya
Ġgre ek
Ġbishesha tàŃ±
Ġara bi
Ġthi ru
ye r
Ġpala yana
Ġdara ja
Ġatha ti
Ġaka share
Ġ190 9
Ġfo unda
mbi a
Ġbanya jantu
ĠsàŃ±r gata
Ġdainosara ti
Ġbadhya tamulaka
Ġperi odi
Ġbio graphy
Ġbir th
Ġeta d
Ġpandu lipi
Ġwal ters
phyu jana
Ġgud du
Ġty pe
Ġjanapadi chi
Ġkaryyanir bahi
b hya
k anare
n ru
n rritya
s la
u chanti
Ġs tra
Ġs troka
ya di
sha ja
Ġd re
Ġma yo
Ġj ho
Ġo janara
sa kha
Ġpa trara
Ġpa ker
Ġni shàŃ±asa
Ġsam ya
ro dhi
Ġi hudi
Ġ19 10
Ġ19 13
Ġnir manare
Ġki dani
nkara charyya
Ġsha sanara
Ġanu badita
dàŃ± aja
Ġstha pati
pha ta
Ġkha ndare
Ġdu niara
krri tare
pura ka
pur u
Ġdia yauthila
Ġko cha
Ġshu nani
Ġto la
Ġsethi madhyaru
lan anda
Ġpro te
Ġnari mana
Ġkho jiba
Ġmar ch
vi r
Ġtini ti
ci l
Ġchali yaithile
Ġani chcha
Ġrakha yaithae
Ġama ku
Ġ190 6
pali ti
Ġkaripari thile
Ġprasta bita
Ġnai bedya
taba se
Ġgya s
ĠsàŃ±rnna padaka
Ġimreja mana
Ġalimpi kare
Ġantibayo tik
Ġpoli o
Ġjhi lli
Ġsamantara la
Ġganita j
Ġprakrri tira
Ġmale sia
Ġbaishi shtya
thaira edi
Ġear th
Ġmemo ri
nirdde shaka
Ġsamman arthe
Ġushu ma
Ġmahat mya
drashta bya
Ġclare mont
Ġperiodi c
b yara
g la
g rika
n yu
u kika
Ġ ÃĹ
Ġb harana
ti rtha
Ġa ca
Ġa purba
cha k
chi ra
chi traru
Ġbi gata
pa d
pa lika
Ġra ka
Ġra meshàŃ±ra
nka ku
si le
Ġni darshana
Ġan dhara
Ġsam sh
Ġbha labha
Ġna hele
bi hina
Ġde ra
Ġcha ha
Ġcha pi
Ġpai trrika
Ġkara ile
shàŃ± a
pi e
Ġro man
Ġlo kan
gu ndicha
Ġbe r
Ġloka lochana
Ġke y
pra tya
Ġupa kulare
Ġle gal
Ġre nu
ko li
Ġshri bigraha
ĠâĢ ł
Ġlekha yaichi
Ġasi an
no la
âĢĻ âĢĻ
Ġtu mara
lli ng
Ġgar bharu
Ġmasa jida
Ġsamaya ku
Ġshakti pitha
Ġmar cha
pani paga
brri yari
Ġrri pe
ci ne
fe r
esa ti
nar y
Ġdarsha yaichi
Ġbika share
Ġena esa
masi ha
lima te
Ġaru chi
Ġsapa kshare
Ġindra dyumna
Ġtamilana da
Ġkro mojo
Ġphoto s
Ġob hari
prrishtha bhumi
Ġshtadi yama
Ġpiladi naru
Ġpado nnati
Ġhoiasu chi
Ġbyati krama
Ġmastish kare
a shàŃ±
b sa
g he
u sa
ha m
ta ha
la ina
ba santa
Ġd ri
Ġo ut
sa s
sa ura
Ġpra ban
Ġpra moda
pa trare
Ġra manu
te ja
di sa
si an
Ġta lu
Ġta ita
bi um
bara ja
Ġcha tar
shi kesha
Ġhe li
kha ta
ru m
Ġga stare
Ġga chchita
Ġla tina
Ġsha gada
Ġsh tri
Ġt anti
Ġgo ta
Ġte ntu
Ġc lo
Ġme nta
Ġadi tya
je sana
Ġtha nta
bu l
Ġas ti
Ġsan dhyare
Ġbai kuntha
Ġche ta
ngala ku
Ġto ra
tro la
Ġshiba ji
Ġthi s
Ġkahani ku
Ġbala krrishna
Ġpan dara
Ġprrithibi ku
Ġgi rja
Ġak si
Ġsho shana
gar bha
Ġsatya badi
Ġad bhuta
Ġmasti shkara
Ġpashu mana
Ġbanya prani
Ġsete belara
cture s
Ġsetha ku
Ġsakshata kara
Ġdino saur
paki stana
yanu shthana
Ġkariasu chanti
barn nana
Ġcent re
Ġintaranya sanala
Ġrajyasabha ku
Ġdini kia
. "
j he
o ne
ar juna
ar tic
Ġs po
Ġs tiraeda
Ġs tariya
ka ya
Ġb yu
la ksha
ba lara
Ġk rrita
na s
Ġsa le
cha tra
sa ta
sa mi
ku li
Ġpa lli
li ana
Ġbi bhaba
di anti
Ġg itika
si phi
Ġse bara
Ġse pari
Ġni harika
Ġu se
Ġbha l
Ġmu trana
tu ka
Ġsha he
shàŃ± asi
man dara
shta ina
Ġsu dhara
isha ku
Ġabhi j
Ġstha ne
Ġnama ti
Ġar pita
pre s
Ġme kani
Ġsara baraha
Ġre s
pura ku
Ġpara jaya
Ġbhi kari
Ġbyakti mana
mani ya
Ġ18 00
nji ta
bo x
Ġud dh
Ġsamu hika
Ġjala ku
Ġbho gara
Ġgar bhasha
Ġbhaga ku
Ġmar kan
Ġco ur
Ġbri tena
brri nda
Ġara ti
Ġparyya bekshana
Ġlu i
ĠâĢĺ âĢĺ
Ġhindi re
Ġsambha li
Ġdhu li
Ġsamga thita
nkata panna
194 3
raja sthanara
Ġbahari ba
Ġabha baru
Ġcom muni
dhàŃ± ja
Ġshuni ba
lei cha
Ġpadi thae
Ġraha mana
Ġsete belaku
Ġpreside nsi
ex ternal
Ġkaron aru
Ġuj jàŃ±la
Ġsambedana shila
Ġtech nology
Ġliu kemia
Ġeya bata
Ġmukabi la
Ġhast antara
a thare
c la
g lai
i k
i chanti
j on
k le
s mo
Î ±
Ð °
Ġ â
ar do
ta m
ya j
Ġk àŃ±ar
na th
Ġe ra
Ġo lata
Ġpra kata
ku ntala
Ġpa lia
Ġbi bhushana
pa dare
pa dartha
Ġba sana
Ġba ghara
Ġg randa
si e
Ġbha sharu
be share
de rs
Ġja h
Ġsha yya
Ġshi bamandira
Ġti laka
19 29
Ġbe tara
Ġgo v
Ġhi po
sana l
su a
Ġkala ku
Ġdekha yaanti
ph lo
Ġpha nda
Ġshiksha grahana
Ġjibana ku
Ġboli m
Ġlekha lekhi
à¤ ļ
Ġphu s
Ġpe tare
Ġphe yara
che ta
Ġbai thaka
Ġrakhi thae
tari kha
Ġau thare
Ġbara bati
ci um
Ġhari yana
ĠĠĠĠ ĠĠ
Ġsapta hika
ut padana
Ġbhe ta
Ġbhe shaja
Ġkya mpa
bhau tika
Ġnila mani
Ġnila madhaba
Ġbasi thiba
men tary
deshi ya
Ġpata li
Ġshta k
Ġsku l
Ġkesha ba
Ġsenti mitara
Ġandha kara
Ġsudha mshu
Ġbhaira ba
rahi chi
Ġpushti sara
praja tantra
Ġrupan tara
Ġdijita la
Ġkno wn
Ġbasan taraja
d aranatha
n dira
p end
Ġs ke
ya trare
Ġb anare
Ġp li
Ġk reta
Ġd rona
Ġj àŃ±
ga dha
Ġpa blika
Ġbi pula
Ġkari achanti
ja pani
bha nu
bi bada
bi harara
Ġhoi nathila
mana bha
bhi d
ji t
tu al
Ġki shori
Ġbya karana
yya da
Ġpar ttu
man na
Ġsu shila
Ġabhi yanare
ng anare
Ġar chchita
Ġin fo
Ġte ki
Ġyu nes
Ġdu gdha
Ġ3 000
Ġc ro
pre ssion
Ġhoithiba bele
Ġ18 57
Ġsabu ku
Ġso rena
Ġrajya mana
Ġrajya goshthi
Ġdha ma
Ġbai tarani
Ġche sa
Ġshakti ku
Ġpani paga
Ġrri sha
Ġrogi mana
Ġbhubane shàŃ±ri
Ġabi bhakta
Ġbagha mane
Ġjene tik
por ts
Ġcon trol
Ġ190 1
Ġsarbo ttama
bal pur
jar aru
Ġinter view
Ġimreja mane
Ġmyu tesana
Ġlai bre
Ġsainya bahini
Ġsiri ja
Ġdipa bali
Ġhira kuda
Ġakra manara
yyo dhana
Ġbishara da
sahit yika
4 00
a para
g rara
k ran
Ġs tory
ya una
Ġp hari
Ġp lata
la lita
ti ari
ti bhi
na yaka
Ġsa e
le sa
Ġj on
ni na
Ġm uru
Ġpa dara
Ġpa daru
li ti
li ty
re san
Ġka bata
Ġra ket
Ġba yana
si da
Ġse dina
Ġni tyananda
ja m
ja be
Ġsam kshipta
Ġta gora
Ġna chi
Ġcha munda
Ġdi la
Ġ19 16
Ġja hna
yu ddhare
Ġpari thile
Ġpari basa
Ġbya da
Ġga chare
Ġsha shu
Ġsh loka
Ġmi rja
nna ta
tya kta
tr anara
Ġsi kandara
Ġha sana
Ġha us
Ġmaha bharatare
Ġyo dha
pra tyeka
Ġme dha
Ġme so
Ġchala pra
Ġat oim
Ġdekha nti
Ġdekha yai
Ġdekha yaithila
Ġabas thara
al ler
Ġasi bara
Ġso ur
Ġphe la
Ġdo ra
ngala deshare
Ġmandali ya
Ġpro to
Ġsarba puratana
phe brriari
Ġparibara ku
Ġbasa i
Ġkaruthiba bele
Ġmile nahi
Ġphil da
dhar tha
Ġnish chaya
Ġbhumika mpa
Ġgati shila
Ġbimana bandara
Ġshte ta
Ġchih nita
Ġth ro
Ġfo re
Ġasam purnna
praya tah
Ġsudha kara
esi ara
Ġimmyu no
Ġalumi niyama
Ġnandi ni
Ġmadana mohana
Ġkaron ari
Ġwhi ch
Ġpadhu thiba
Ġanani shàŃ±asa
Ġasaha yoga
Ġprritha k
Ġkartti keya
Ġpradhi karana
) (
b ur
o dhi
t le
ha tta
ha bada
ta ki
ya trara
Ġo piaeda
pa dhyaya
Ġra kshi
Ġba sha
àŃ± ani
Ġse be
rri tira
Ġni bedana
Ġta k
Ġbha lu
mi tha
Ġde li
gi ja
Ġga ha
Ġla lana
Ġla ghu
ne w
Ġpar k
Ġjana yai
Ġbo hi
pura ma
su l
Ġmo na
Ġanya ti
pu l
ve n
Ġbyakti ku
Ġbyabahara ku
à¤ Ĺ
Ġshu n
Ġri por
Ġyoga dei
Ġam rita
Ġrakhi chi
Ġau ta
Ġlagi thiba
Ġani baku
Ġparba tare
Ġsho ka
Ġniyu taru
ĠàŃ±e ba
Ġpheri thile
Ġchikit sita
Ġfo od
Ġghu shuri
Ġsala bega
ĠsarasàŃ± ta
Ġshila le
Ġashra mare
Ġshikhi ba
Ġbipla bi
Ġbibidha ta
Ġprotsa hana
malaya lama
Ġapo lo
Ġsambo dhana
Ġyaba ksharajana
Ġkanuna go
Ġservi ce
Ġinasu lina
( ;
a shta
i ndo
r hi
s tiraeda
s pandana
Ġs ro
Ġs pri
ta l
Ġp iti
ba sare
ba su
Ġa tu
Ġa gata
Ġsa khi
sha dha
Ġma gana
ni basa
Ġm m
Ġpra bartta
te nu
Ġba se
Ġg eta
Ġni ga
Ġsam gi
Ġta m
Ġta mil
Ġda tabase
Ġja panare
Ġnir manara
Ġmu di
Ġmu khia
Ġbar ddhita
tana lire
Ġbhara dàŃ±aja
Ġshi kshita
Ġpar nna
Ġaba ddha
Ġrahi thibara
ho l
Ġt ro
Ġhue ta
Ġsaha kari
stha niya
Ġupa bho
sam ar
Ġbhu gola
Ġkaru thibara
para ma
Ġru ti
Ġshri na
Ġadi ku
nja bare
Ġbu nd
Ġchalachchitra tire
kata pura
tama ha
Ġban d
Ġas anaru
Ġala gori
Ġcho taraya
so ma
Ġdakshina ku
Ġsarba bhau
Ġkho ja
àŃ±e l
Ġdura tare
Ġph lo
lle ry
shti k
Ġpila dina
Ġkabi ra
Ġshabda ku
Ġnikata tara
Ġphil mara
mar ara
Ġnish kriya
Ġnua pada
sar o
ĠàŃ± ili
Ġaksha ma
Ġmala kanagiri
Ġis pata
Ġtai ma
Ġsamaja badi
Ġgarbha grriha
Ġsari srripa
Ġayo dhya
Ġth ar
Ġbidhi baddha
mbi ni
Ġmini taru
Ġtirtha yatri
Ġsamsa dare
uni ted
gene tic
Ġmuni si
Ġbheti thile
Ġasustha ta
Ġriti niti
Ġkhia yae
Ġmus cle
Ġruk mini
Ġlitera ture
Ġfounda tion
Ġmutrana li
a shoka
e tha
e ksa
f lu
k san
s yare
w an
z u
Ġs tan
ta lika
ma ida
na me
Ġa dana
Ġa krritira
Ġe ngi
ga li
ga ura
ga jara
Ġpa ga
Ġbi kara
Ġbi bahara
di la
nka ja
dh oi
ja ina
Ġna j
Ġna ha
Ġna kala
Ġi laka
de sharu
Ġya sha
yu ri
gi ti
Ġsha ndha
Ġbhara taru
Ġsu bha
Ġabhi na
Ġt anu
Ġut kantha
stha patya
ncha nana
the rapy
Ġte r
pre santa
su ndari
Ġso siala
Ġphe brriyari
Ġchari thara
Ġseba yata
Ġho w
sàŃ± ra
Ġrogi ku
dhar ara
Ġnish pati
Ġbam phi
Ġno bel
Ġrakha gala
Ġjhia mane
Ġpaki sthanara
Ġv ie
Ġjiti ba
Ġpratya ha
193 9
Ġsine mare
Ġbal miki
gaja pati
mandi rare
chyu tananda
Ġilek tran
Ġpoli tical
Ġsamsa diya
Ġintar aneta
Ġdho ni
Ġkola kata
ngha m
gho sha
Ġcric ket
Ġanani shàŃ±asi
Ġoh lai
Ġencyclo pedia
Ġserotoni na
Ġganatan trika
a dya
a ina
d una
l ura
n chanti
w in
} }
à ª
à ¶
ha yaka
ti phi
ba dya
Ġk ura
Ġsa bishesha
ri ara
Ġma chi
Ġo li
Ġka uda
Ġg huri
si re
dha ma
Ġu nder
Ġde shi
Ġcha tura
be ni
de kha
Ġkar bana
Ġsama pana
tu de
Ġji te
gi nal
19 24
Ġjana pade
Ġpu jara
Ġchi la
Ġchi ef
Ġsaha sa
pra bhu
Ġsahi ba
Ġut tar
Ġut kalara
Ġar ka
yara ma
Ġin tra
Ġte st
Ġbhu tala
Ġbo ma
Ġre shama
Ġre port
su p
Ġkala chara
Ġkam sya
Ġdekha gala
Ġko mala
mani ra
Ġpurba bartti
Ġche yaram
Ġkarana guda
bh yu
Ġmar ka
Ġmar yyada
shri ma
Ġbara la
Ġpani ra
gana sampadana
Ġdra i
gh ts
uda harana
Ġparicha laka
Ġmula dua
Ġmantri mandalare
Ġbahi nira
Ġbayu sena
raja dhani
qu i
Ġspe s
Ġmahana gara
dàŃ±i para
Ġsami karana
Ġbati kara
Ġsamiti ra
Ġshasaka mane
Ġkon are
Ġchandi ni
Ġprayo jita
Ġshrimandira ku
Ġsishta m
Ġhau sa
Ġbini yoga
Ġmud rana
Ġsaphta àŃ±e
jira o
Ġupani besha
Ġcolle ction
Ġgro up
Ġdebada si
Ġjya mi
Ġshtu dio
à¯ į
Ġtelisko p
Ġtransla tion
k sara
r anu
Ġp anti
Ġp hila
ba ira
Ġk anare
sha sita
Ġma uryya
cha bi
li p
di rgha
dha ka
dh ura
Ġan urupa
Ġu dana
Ġbha da
Ġna hoi
ur ana
Ġi ji
de li
he l
kha ndare
Ġja gu
Ġya trara
ki lo
se mia
Ġnir bi
Ġpari shkara
Ġmu ga
Ġbya teri
Ġaba sho
Ġmaha purusha
Ġabhi manyu
Ġstha labha
Ġyu nita
Ġdu ta
su barnna
Ġgra mya
kshi re
Ġmo st
Ġbhi ksha
Ġbhi kto
st anara
nja itisa
du ri
Ġkri ma
Ġrakhi thanti
lan di
lan aru
Ġmar gare
Ġchandra mana
maha bharatara
nj ha
Ġprasha m
Ġmano bhaba
ly sis
Ġsadasya mane
Ġbyabasa yare
Ġghati la
Ġbh ru
Ġgacha ku
Ġis lands
Ġnyaya dhisha
tt le
Ġbidya pati
versi on
kali ya
Ġlipi re
Ġsala kha
Ġbanya jiba
ĠbishàŃ±ka pare
Ġita li
rasa yanika
Ġmahaka bya
Ġchatu h
Ġparala khemundi
wor k
Ġsk le
Ġboi ta
Ġbispho rana
ntri kulara
inf lam
Ġphysi cs
Ġsusa jjita
prastu ti
Ġchatar ji
Ġchalapra chala
a bi
n c
ha jara
la l
Ġa jada
da te
Ġsa bara
Ġsa hana
Ġsa para
Ġsa karatmaka
Ġo ra
cha itanya
Ġpa che
Ġpa lla
Ġbi ti
Ġbi bahita
Ġbi rena
pa tare
Ġka ya
Ġka pare
Ġka un
te nsi
di ga
di gare
ja hana
Ġta ja
Ġta ki
Ġna bi
nd arara
lo kare
Ġda ha
Ġdi phi
de ra
ki rnna
Ġsama gama
Ġla w
me dha
Ġsh tar
Ġbhara tanatya
anti bio
Ġprati shodha
Ġhu man
Ġkatha ku
Ġpu jare
yo da
Ġchi ld
Ġsahi da
Ġne bara
krri tire
shtha tri
ko share
ĠsàŃ±a kshara
Ġko ka
bala ya
Ġtha la
Ġdur bhi
nji a
Ġri u
tan anta
Ġ8 00
Ġ9 9
vi ng
Ġgre at
Ġchandra bhaga
ver y
Ġai shàŃ±
Ġadhya yare
Ġmota pana
Ġdra bida
char ara
Ġutsa ha
Ġgrama ku
Ġnaba ba
Ġjan ani
mpi ka
dhar ani
Ġullekha yogya
Ġpakshi mana
Ġbali shtha
Ġnira ba
Ġaka demi
Ġparbata malara
Ġjyoti share
Ġkaha ku
pat ni
Ġbhaira bi
Ġimmyu na
Ġphakira mohana
pula tion
Ġtula ithile
Ġsamrri ddhi
Ġksh arana
Ġadala tare
Ġlimpho ma
Ġtrayo dashi
Ġcul ture
Ġpratipha lita
Ġking dom
serva tion
f ie
g ura
i ke
i dele
p df
u thi
Ù Ħ
Ġs mita
ba le
Ġa kta
Ġa bana
Ġa gri
Ġsa um
sh thire
Ġma ye
ni besha
pa ha
Ġba kra
Ġse ries
Ġni bida
bha ma
Ġta masa
Ġbha na
Ġbha yare
Ġna garara
Ġehi thare
shi kha
Ġnir ja
Ġpari chi
me ni
ne tri
Ġsu ni
Ġsu griba
Ġjana ithile
Ġabhi yukta
Ġchi pi
Ġnama ku
Ġne uthiba
usha dhi
ncha iba
sara la
Ġdu ri
Ġbhu ya
Ġme ghana
Ġre kar
Ġre bati
Ġbhi ta
Ġpha ti
Ġ5 000
bala ka
nja deo
Ġmana mohana
ge ment
bo ne
Ġphe shti
ngala bara
lli khita
Ġphi lo
Ġam kor
do ra
Ġsana tana
Ġtathya ku
nchi thila
Ġju niyara
Ġpri mi
Ġbasi ba
Ġpranali ra
Ġchatra mana
Ġgola pi
Ġdanda yamana
Ġpratiyogi tara
Ġbibar ttana
der n
madhya pradeshara
Ġcom mi
Ġandhra pradeshara
Ġalimpi ksa
Ġbidro hi
Ġsamskrri tare
Ġstu dies
Ġkame iba
antar jatika
Ġyubaka mana
Ġsoma bara
Ġsaka lu
Ġdebada sa
Ġjeje bapa
Ġkalo ni
dab lu
Ġchya le
Ġik ono
Ġenaechaesa ku
Ġuddh rrita
aller gic
a lu
d dhika
g on
i ja
s ur
s ani
t ter
la kshana
na tya
Ġe thara
Ġe paryyanta
Ġsa li
Ġsa uri
Ġo pen
Ġpa lai
Ġbi badara
Ġkari asi
Ġra barta
Ġba dri
di nare
di nia
Ġg ila
si c
Ġse sabu
Ġni puna
Ġu llikhita
he uchi
Ġya a
Ġsh rota
to ma
of ficial
Ġti ger
Ġprati bada
Ġmaha ma
khi ka
Ġchi ki
Ġchi nare
sta da
Ġstha pat
Ġne uthile
tira ja
pe yi
Ġte shtare
mu lya
dra ta
Ġheba pai
Ġaushadha mana
Ġasi baku
Ġpo shya
Ġban dana
Ġyoga deba
Ġbho ja
yau thile
rama krrishna
Ġam shi
Ġyan tri
Ġbrah manda
Ġbara hi
Ġai sisi
Ġph rriti
ju ri
pita l
Ġkahani ra
Ġjiba mana
Ġphala sàŃ±rupa
Ġbrahma putra
Ġgi ni
nya si
Ġgran thara
Ġbritisha mane
194 4
Ġbibhaga dàŃ±ara
Ġrana jita
193 5
Ġran tha
Ġmanu shyara
sai ko
Ġkashta sadhya
Ġnai tro
Ġspe cies
Ġabhayar anyare
Ġkon ar
Ġchandi gada
Ġmaru bhumi
Ġshirabhyan tarare
Ġmahu machi
Ġmrrit tika
Ġaura saru
Ġsadha ka
Ġsen trala
Ġanura ga
Ġkyari yara
Ġkrike tara
karnna takara
Ġsamaro hare
Ġusha si
mbe rs
Ġyaya ti
Ġdush manta
Ġyunibhara siti
ĠsàŃ±echcha sebi
Ġinda shtri
Ġdashand hire
Ġkhoju thiba
neph rina
Ġlokalochana ku
" (
a ka
g anti
y l
Ã ¦
Ġs ki
Ġs kin
ya tana
Ġa leicha
Ġo pana
cha eo
sa kriya
pa bana
Ġka ana
Ġka una
Ġbha gara
Ġna kha
Ġhoi yaanti
Ġi ko
Ġhe pa
Ġkar ka
ru pe
se da
gi o
Ġga dya
Ġmi sa
anti ka
Ġsi le
Ġch ula
Ġsu da
Ġbe tana
Ġbe shara
Ġabhi mukhya
Ġke shara
Ġstha gita
kar ttika
Ġupa de
Ġle di
Ġle ph
mba ka
Ġsara karare
Ġre li
Ġchala iba
Ġgu l
Ġf ield
tire kha
ĠâĢ Ļ
Ġlekha ithile
Ġbu ka
bu ddha
Ġkhe lanti
Ġphe bru
Ġnei chanti
Ġkend u
Ġbho gi
Ġsarba tra
sti cs
bali ra
Ġjilla sthita
Ġtri shula
Ġbasa ti
Ġesi an
Ġnish ka
Ġaina jibi
Ġapa sarana
Ġbritisha mana
Ġrahu thila
Ġlaksha nare
pla sia
Ġapare sana
Ġsata ti
Ġsambala purara
Ġparampara ku
Ġayo jaka
Ġkada mba
ase d
Ġlai pha
Ġpoli s
Ġmedici ne
Ġmaya dhara
Ġilektro la
pat tira
Ġtho mas
glo bina
nju ri
Ġshyama sundara
Ġuch chare
Ġprachchada patta
Ġjela danda
Ġskri ni
Ġdab lyu
publi c
Ġwild life
Ġsarbabhau ma
) "
f ul
n shi
o loji
o gle
p ane
s anti
Ġ ly
Ġ zo
Ġs pai
ta ta
Ġb le
la k
ba ga
ba tta
Ġa daya
ri da
Ġd vara
Ġma huri
Ġma tanu
Ġbi re
pa ma
pa kshare
Ġg anta
Ġu gra
Ġsam prati
Ġta mra
Ġbha bu
Ġde khe
lo pathi
Ġi lu
Ġi dima
ki mi
Ġki t
Ġla ti
Ġbar shiya
Ġprati j
Ġsi e
tri e
Ġmaha lare
Ġbe ngal
Ġgo r
lu re
Ġbo hiba
Ġc ri
nata ma
Ġkam bo
Ġshiksha kata
Ġmana si
Ġbisha da
Ġkuha yauchi
Ġdur yyodhana
Ġmanda lare
Ġso la
Ġpe ople
Ġdha li
Ġsan nyasi
Ġdiayae nahi
Ġjala sha
Ġkete jana
san tana
rama chandra
ngi re
Ġprakasha ni
Ġbarn nara
ai di
Ġparyya be
mp les
Ġkali phar
dhar mi
dhar yya
Ġapa byabahara
Ġwe st
ĠbhubaneshàŃ±ra sthita
Ġneta àŃ±ar
Ġ190 7
Ġagra hi
Ġata eba
Ġteli bhi
dàŃ±i pare
Ġgabhira ta
Ġparyyataka mana
Ġnau sena
Ġstu ti
Ġbhitti bhumi
Ġakha pakha
Ġkula pati
Ġari ndama
Ġanugola tharu
Ġnepa lare
Ġbujhi ba
Ġsemi phaina
Ġcoun cil
ngopasa gara
sauri dae
Ġrahiasi chi
Ġox ford
Ġchemi stry
Ġvolu me
Ġadhaka pali
Ġtentu li
Ġlaibre ri
a pare
b hari
c ti
e iba
e lectro
h ra
p t
p lanta
ya pana
ma t
ma lli
ti me
ba ck
thi e
Ġe eph
Ġsa tarka
ri ty
le san
le ft
ga ba
Ġm yana
Ġh or
sa le
sa mana
Ġpa hi
Ġpa tare
Ġpa usha
Ġpa mpa
Ġbi sthapita
Ġkari thibara
di ku
Ġg ura
si thile
Ġse ra
dh una
ch ya
bha jana
Ġna sha
ji landa
Ġkara danda
Ġmu kuta
tu da
to la
Ġmi la
Ġlo da
ne li
Ġbe lu
Ġadhi krrita
Ġadhi karara
yo jaka
Ġke ji
Ġkarayai achi
Ġpi thara
ncha sakha
mba la
Ġdu dha
par ara
Ġmo hini
nji ba
Ġpre mare
Ġsahitya ku
Ġnei thanti
san t
Ġdo cu
Ġsams thare
Ġgan dhar
ngi a
Ġgar bhare
Ġgita ti
Ġrakhi thiba
do sisa
Ġ16 69
Ġnara da
kshe pare
es anara
sama sta
Ġprasha saka
Ġprachi rara
sar jana
Ġbau ddhika
Ġbana basa
Ġpho taka
darsha nara
Ġaka unta
Ġsamgraha layare
Ġaji ra
Ġmane hue
Ġgraha ka
Ġadhina ku
Ġbaja peyi
Ġmahe shàŃ±ra
mb or
Ġmali kana
Ġanta tah
zo bium
Ġdip tirekha
Ġartic les
ano ttara
cen ter
Ġcla ssi
Ġprogra mim
Ġutsar ga
Ġupanya sara
Ġthaka pana
Ġanupra besha
Ġlokan rritya
- (
a phri
d p
d rrishti
| )
Ù ħ
Ġ rrit
ha jare
hi sta
Ġs ma
Ġs ba
Ġs ko
ka bya
ma ba
Ġk le
Ġk ane
Ġa gha
Ġe ffe
Ġma sta
Ġj har
chi kit
Ġpa cheri
Ġpa huda
Ġkari deithila
Ġra khu
di al
Ġni ara
ch ro
bha ta
bha bara
Ġna dia
bi r
bi shu
nd ula
Ġde bare
Ġde pu
Ġde uthiba
ro nment
he lita
nku chita
Ġsh tan
Ġmadhya pradesha
19 22
Ġbe danta
ho le
yan trara
Ġabhi dhana
Ġchi ttara
on to
Ġli on
pe s
sam kshipta
Ġdu hi
Ġbhu ja
Ġc are
Ġc ur
Ġme ksiko
Ġsar bhi
Ġpha shi
in tra
mo ti
ĠsàŃ±a gata
Ġmukhya ta
bala bhadra
Ġpr anta
à¤ ¼
bya sa
Ġkuha yauthiba
nji krrita
Ġpurba purusha
Ġdha mana
phi lma
Ġshe ra
che taka
Ġbho ka
Ġyai thanti
Ġrakhi thila
bh ranta
Ġghatana ku
mata eda
Ġ12 5
tro pi
Ġbishesha ta
Ġchar chchita
sàŃ± i
Ġkrrishna gar
maha la
Ġbayaska mana
Ġjo hn
mina la
Ġgrri hara
Ġchatur thi
Ġchatur ddha
Ġshasana dhina
Ġnira sha
ĠsàŃ±ami ji
ll s
Ġbayu mandala
Ġsamparka ku
cie nt
Ġkhara bela
Ġmane kasha
bhaga bana
bhar sa
Ġmahi sh
Ġprakriya ku
Ġyantra pati
ric an
shte sana
Ġrashi chakra
Ġbipa ksha
Ġisra elara
Ġdibya simha
Ġpota siama
Ġpota siyam
Ġmarga shira
Ġphai bro
Ġepi le
esi ya
Ġthie tarare
Ġima ge
Ġprak tana
Ġashu tosha
Ġtulana tmaka
Ġsid dhe
Ġayur beda
Ġsud rridha
Ġalako hola
Ġmyaneja menta
Ġkreta siasa
rhi zobium
, "
1 14
c b
c limate
n ba
p pani
s par
s rota
Ġs th
na bhe
Ġd ani
Ġpra sh
Ġpa chi
Ġbi g
pa lla
pa trika
dha ta
Ġni e
Ġ1 10
ch ch
Ġsam hi
Ġsam bhoga
mi de
âĢ ³
be na
he r
ji l
ji lla
Ġpai be
Ġpari mala
me tho
Ġmi thuna
Ġrahi be
Ġadhi shthatri
bana hi
Ġke li
usha thi
Ġar anyare
ke bala
Ġle mbu
Ġc an
pre mi
mu mba
Ġme thi
Ġdia yauchi
bhara ti
Ġw ww
Ġbyakti mane
Ġtha li
Ġpo lo
Ġdhar yya
Ġ7 00
Ġmili mitara
Ġpurba hna
bo la
Ġphe ra
che na
Ġrakhi bare
Ġbhau ja
sti val
Ġkho dei
Ġdura ku
Ġdh rri
abhi neta
Ġbri ge
brri ksha
Ġsada shiba
Ġhai dara
Ġpila ti
sama yare
Ġsapta hara
Ġpraja tantra
ĠàŃ± ara
Ġno tti
chu ala
Ġbana mali
Ġsahayya kari
Ġbh rama
Ġjiti thiba
Ġnirddesha bali
Ġad rrishya
Ġgrriha palita
Ġnali ni
dhàŃ± ni
Ġbrriha spati
Ġpadi ba
Ġkhai bara
Ġrashi re
Ġmini tare
Ġaphi sa
ali gn
Ġanupa ma
Ġantara shtriya
Ġutte jita
Ġshoi ba
Ġbola yae
Ġsimare kha
Ġkaura ba
lyan dara
Ġmul yare
Ġinfe ctions
Ġkah nu
nh s
chatur tha
Ġjatiyata badi
Ġswa mi
Ġkhadyana li
Ġapre l
( )
b anti
u padana
v ira
ĉ ĉ
Ġs ani
Ġs ty
ta le
Ġb anika
ma d
ma gna
ba shi
ba isha
ba stra
Ġk ru
Ġk rani
le tara
tha ku
Ġo di
Ġo bhara
sa phta
ku ha
Ġbi ma
pa ku
Ġka mu
Ġka lana
Ġka manda
Ġkari yaichanti
Ġra kesha
Ġba tya
Ġba kya
nka sana
Ġse t
Ġan te
Ġbha girathi
Ġna bika
Ġde ta
Ġdi men
Ġdi lipa
tu li
Ġki s
Ġla m
Ġro yal
Ġsi niyara
Ġaba kshaya
Ġsu phi
Ġbe kare
Ġrahi bara
Ġadhi beshana
yo ma
Ġku suma
gra hare
Ġsaha karmi
pra phulla
Ġin tro
Ġme r
Ġme tho
Ġme ndha
pura m
Ġgha tanare
Ġsar be
st y
àŃ±a li
ina si
no us
Ġri da
Ġpe nisi
che da
bhe la
mala i
po li
lan dare
Ġsimha deo
Ġmar anottara
Ġmata bada
Ġtri kona
Ġkahani re
Ġasu bi
es tern
nj o
Ġpau chi
Ġju ly
Ġju niara
Ġmula tah
chu ri
Ġbyabastha ku
bhau ni
Ġkataka thare
Ġdurga puja
Ġjar man
Ġatha le
Ġtai p
Ġkshetra ku
Ġlakshmi narayana
Ġ190 4
Ġmada la
Ġkaryyakari ta
Ġshrirama chandra
Ġbidro hara
Ġmur ti
Ġpubli c
Ġshraddha lu
Ġsenti mitar
Ġyi bara
Ġbili ru
Ġur bara
Ġkandha mala
Ġrupan tarita
Ġsmar ta
Ġanala ina
ameri kiya
kreta siasa
Ġkum bhara
Ġhuma yuna
ĠÂ £
Ġupala kshe
Ġripa bli
Ġamshi dara
Ġnotti ngham
3 00
a ce
c n
i gala
j hia
n rri
ha kari
Ġs lo
ka mi
ta s
Ġb are
la sha
na yana
Ġa the
da li
Ġe lina
Ġsa s
Ġsa tàŃ±
sa thi
sa jja
Ġpra shàŃ±asa
Ġpa dya
Ġbi bhi
pa thy
à¬¼ )
Ġba te
di pta
Ġg hrri
si pare
Ġta th
Ġna karu
bi mana
mi gra
Ġde fe
be shika
Ġdi ksha
bhi si
de ula
Ġya ka
Ġya ja
se ph
Ġmu khare
me d
me tha
Ġsi rosis
Ġkatha bastu
Ġha tara
Ġsu ara
Ġsu basa
bar ani
bar gikarana
Ġadhi karu
Ġku chi
Ġye tiki
Ġbyaba dhanare
pari thile
pe ta
yana ma
Ġc ana
Ġme ra
Ġme re
Ġsara bhai
Ġre cep
Ġmo re
Ġmo dern
Ġsar ddara
Ġasi chanti
bu li
Ġshu bhara
nji ra
Ġdha nia
Ġdebi datta
do sis
Ġyan trare
Ġmar dda
Ġai so
Ġ: -
Ġksha triya
sàŃ± ini
Ġmandi r
Ġmandi raru
kshe trara
Ġpadar pana
Ġmau nta
Ġsadasya mana
Ġdilli pa
Ġpadartha ku
Ġgrri hini
Ġmala ti
Ġpaka iba
Ġbali uda
Ġtala chera
Ġdebata mane
Ġrela bai
Ġhar pi
Ġpurnna mi
paru dra
Ġsamkra manare
tori es
Ġex p
sai klo
un ction
Ġshta da
Ġ189 6
Ġshuni baku
Ġbhaya bhita
Ġà ®
Ġpubli cations
Ġsur yyara
190 5
Ġpathya kramare
Ġlar da
Ġami sha
Ġwor k
Ġpradu shita
Ġhy per
Ġshirsha nanda
Ġnabara tra
bili ty
Ġphuli yae
Ġamita bha
Ġpunara brritti
Ġashtreli are
Ġgabhar nnara
Ġecono mic
Ġgah àŃ±ra
Ġedu cation
Ġenvi ronment
Ġinhibi tor
Ġyunes ko
Ġatoim myuna
Ġsebe tharu
Ġupabho kta
Ġengi nee
" >
d usha
e je
ba ja
na li
Ġa man
Ġa dhu
Ġa jan
Ġe itihasika
sha nti
tha pi
Ġma dri
ni o
cha lare
re la
Ġbi krriti
pa shchimare
Ġka tya
te k
Ġba t
Ġba laya
si li
Ġni o
Ġni nda
Ġni dharyya
Ġsam barddhana
Ġbha elara
Ġna itika
oi nt
Ġde ath
Ġcha tire
Ġda s
Ġi d
Ġi rana
Ġdi mba
Ġdi enae
Ġn yuro
Ġkara ma
Ġpari shrama
Ġmu lare
tu ri
Ġji la
nga bada
Ġmi grara
Ġanu manika
Ġch ro
bar mana
Ġadhi basa
Ġku ntala
Ġyo janara
Ġsaha kare
Ġin dhana
Ġjanma dina
Ġdu shta
mu a
ph rare
in ches
Ġmana chitra
ina thile
mani a
Ġri o
Ġsan dipa
Ġphe sabu
Ġpre mara
Ġati bada
Ġtu maku
Ġcho la
Ġ9 8
shri mandira
pata la
ria sisa
Ġprabha ta
sama sthanika
Ġutsa bara
Ġsapta haru
Ġbhe nti
gar aru
simha sana
Ġadhikara ku
Ġghati chi
Ġtika sa
Ġraksha ka
Ġdarsha ithile
Ġtre nim
Ġuni on
Ġpush kara
Ġprasta baku
Ġprachara ka
Ġadha ksha
Ġprrishtha poshaka
hoi chi
Ġsau di
Ġbhagna bashesha
sabha pati
Ġuthi thila
Ġpindhi ba
Ġutte jaka
wi ng
Ġbheda bhaba
Ġinashtichyu t
gujara ti
nchaya tara
Ġsrri jana
Ġalimpik sare
Ġaphagani stana
Ġsamikshaka mane
Ġganamadhya ma
Ġbhabanipatana tharu
Ġjalabha ndara
Ġsham bhu
rashtra pati
gnan cy
raghu natha
Ġachcha dita
Ġleph tananta
a te
a yae
e c
l f
o sa
r na
Ġ Â°
ka ti
Ġb ran
Ġb aruna
la ghu
Ġe lectro
ni da
ga lani
cha ta
cha lani
Ġh rrita
chi nta
Ġpa tua
Ġbi no
Ġbi manare
Ġbi paryyaya
Ġkari dela
Ġba shishtha
di nara
Ġan ila
Ġsam bara
Ġsam ira
Ġsam kirnna
Ġta dara
Ġbha garu
Ġbha banare
bi s
bara da
Ġi cha
Ġhe l
Ġhe ra
se phala
Ġnir yya
nku cha
Ġga hana
Ġsha u
Ġsha ile
Ġti ada
Ġprati ti
Ġsi bhila
man du
Ġsu m
Ġjana kara
Ġbe kara
sta bli
Ġyaha phalare
mu ne
Ġpara ja
su darshana
go v
Ġf re
Ġpha uja
tika l
Ġko chi
Ġshri a
dhu pa
Ġbisha ma
ĠdàŃ± iti
Ġpo st
Ġkan thara
Ġsan darbha
bani jya
che r
Ġam lana
Ġmai kela
vi ty
shri la
Ġbara da
lia ma
Ġekademi dàŃ±ara
phe yarare
Ġbadha prapta
ye ar
Ġkabi tare
Ġesi d
Ġpadar thare
dhar mika
yar ara
Ġsamar thya
Ġkhanda pada
ĠsàŃ±tantra ta
Ġmurtti re
Ġdai re
Ġbana ma
Ġbana ushadhi
Ġpala u
Ġbahari le
Ġaji j
193 3
Ġlan danare
Ġinter net
bishesha tàŃ±
Ġkhai thanti
Ġhoipari thila
Ġpakistana ku
Ġghana ta
Ġkashmi rara
Ġkausha lya
Ġphaund esan
Ġami no
boli jma
Ġima ges
Ġakra manare
Ġtrrina bhumi
Ġgodabari sha
Ġbaharu thiba
Ġbishakha patana
Ġkyale ndara
Ġtribhu bana
Ġdurgha tanare
ĠsàŃ±as thyara
Ġgarbhasha ya
a kasha
b ura
c tu
i ji
i sina
m rrita
p tika
s se
an sa
ma dana
Ġa mo
Ġsa chi
sha ni
Ġma th
ni mna
ga dara
sa ba
sa it
Ġpa san
Ġpa kshara
Ġbi yukta
pa khara
Ġka badi
Ġka hna
Ġkari deba
Ġra ghaba
Ġba du
Ġba dhe
Ġu jja
Ġsam keta
Ġna karatmaka
âĢ ľ
Ġeka ta
Ġhe re
Ġdi pti
Ġdi bhijana
bhi a
Ġja liya
Ġja balpur
Ġya bana
se ra
Ġmu hana
Ġmu ndara
gi n
Ġman ya
Ġshi k
Ġanu jiba
19 14
Ġpar bara
ia ku
Ġke miti
Ġpi n
Ġkha la
Ġyu re
sara kara
ĠbishàŃ± byapi
Ġof fi
Ġpara si
su chaka
par d
hari hara
Ġko ki
Ġshri gundicha
ve ment
Ġheba yae
Ġbada mi
Ġnirdde share
à¤ ¶
ĠdàŃ± arare
Ġri pha
Ġameri karu
Ġchikitsa laya
Ġpre mika
Ġuttara pradesha
bartti ta
Ġsimha li
Ġkho dana
Ġbasa bha
Ġlekhi thiba
Ġtra ka
Ġpattana tharu
Ġethi madhyaru
Ġchau hana
ĠàŃ± r
Ġdrrishti shakti
nar jika
ela bhi
Ġtai mas
khu na
Ġrana pura
Ġasa phala
Ġ190 3
Ġmahi shura
Ġkati thila
Ġsku lara
nk ani
Ġsala mana
Ġgai chanti
Ġstu dy
Ġsamskara ka
ĠpratidàŃ± nd
vo lution
Ġah la
baya ska
Ġkyari ara
Ġbishu ddha
Ġlangua ges
Ġsid dhartha
banu mana
Ġpiecha di
skri t
shim gha
brea st
Ġyasho banta
Ġmadhyayu giya
venti on
Ġshribigraha mana
Ġdurbhi ksha
Ġrrit ura
a a
b dha
i yiba
k yo
l ka
m bana
t d
u a
ka ksha
ba daru
Ġa cha
Ġa dar
thi na
Ġe ve
ni ca
ga uri
Ġpa chapa
Ġra th
si ji
Ġni bandha
bha sa
Ġta manna
bi tta
hu ti
Ġda yara
Ġda sia
Ġhe ktara
Ġdi nia
de ma
ura l
Ġja lan
ki ni
ki ne
Ġpari pre
Ġpari tyakta
Ġga m
Ġla dhi
Ġsh àŃ±
Ġman anti
Ġmi r
Ġprati pada
Ġpar ara
Ġaba bahi
Ġha si
Ġchi ntara
Ġgo barddhana
ng esa
iti es
pha kira
pari chaya
Ġpratha maru
ke s
Ġli khana
Ġle u
Ġle pa
Ġte lare
Ġgu gula
Ġgha ntaru
go chara
Ġat hara
Ġsar thaka
Ġpha si
Ġabhinaya ku
nu sare
Ġw he
àŃ±a ta
ngita ku
Ġhara mon
Ġshu a
nji ka
Ġmili nahi
Ġri sar
Ġdui goti
Ġkend raru
Ġje msa
Ġdeba gana
so la
so mala
Ġpro tin
Ġ9 6
Ġhindu mane
pani ya
Ġmatra dhika
Ġnadi ku
Ġpani ku
Ġ16 0
Ġhai kor
Ġnara yan
haru kha
Ġanti saiko
Ġhra dare
Ġju ne
Ġrakha ntu
Ġapa sara
eda sa
Ġpho na
Ġpri n
Ġbahi shkara
Ġmara hatta
Ġshte sanare
Ġstara ku
ber t
Ġtalika bhukta
Ġata ki
Ġ189 3
Ġchampi yansa
Ġkary yanushthana
Ġbyapi thae
ĠdàŃ±a ita
Ġshir share
Ġpubli shing
Ġchaa ti
'' '
Ġmarga darshana
Ġkaridia gala
Ġtraphi re
nirba chanare
Ġjyotir bij
Ġupakari ta
Ġpad manabha
Ġbajra ka
gro und
Ġbhie tanama
Ġyear s
crip tion
Ġsehidina tharu
Ġfra cture
Ġjashti sa
Ġdaebe tisa
pattana tharu
Ġrail way
Ġekadi basiya
Ġpraban dhika
ĠaishàŃ± ryya
Ġmatanu sare
Ġshubhara mbha
a tha
s tarare
ha sta
Ġs kata
ra eda
ma kara
la bya
Ġk hila
Ġa sara
Ġsa j
Ġsa shakti
ri ture
sh tan
Ġma staka
sa t
Ġpa kharu
Ġbi dita
Ġka kara
Ġka ju
Ġka inasi
Ġra ba
Ġba luka
di an
àŃ± ari
Ġni da
Ġan dara
kara yae
Ġta una
oi ds
bi e
Ġhoi yai
Ġmadh yara
Ġdi kshita
de my
Ġja taka
Ġkar la
ki karana
Ġpai thanti
ksha tra
Ġnir ma
tu i
end o
Ġga dhoi
Ġsha kuntala
Ġsh tra
Ġman thara
Ġshi takalina
Ġsi pi
Ġha bi
Ġmaha deshara
kti bh
Ġbe sara
bar t
Ġchi ti
rrit àŃ±
Ġsaha mati
Ġke daranatha
pha eda
pari chi
Ġne u
kar ani
Ġhi pa
ke yi
the mati
Ġme mb
Ġpara darshita
mo s
Ġko l
Ġshri shrima
à¤ Ł
Ġbu l
Ġpat aru
bu dha
Ġpe n
Ġas àŃ±
Ġsan ni
Ġshe r
Ġpre gnancy
Ġuttara khandara
Ġala ta
po khari
Ġam ma
Ġsarba prathame
Ġ9 1
Ġtri bhuja
Ġprana ma
maha tma
maha bharata
Ġgi r
bli o
Ġge r
Ġdarsha nare
Ġgarbha grri
Ġbani jyare
Ġthakura mane
cie ncy
Ġlan danara
Ġbal yaka
Ġchasha ma
Ġnaga pura
Ġabasara prapta
Ġlai ph
Ġnau ka
Ġjarmani re
Ġui ndo
Ġsammilani ra
Ġlar bha
Ġhrrida ghata
Ġgamana gamana
Ġhoina thae
Ġbhuta purba
Ġjeje ma
Ġlimi ted
Ġwhi te
Ġrea ctions
khrishta purba
Ġshaila bala
Ġghani shtha
Ġbyan arare
Ġkartiko stiraeda
Ġstrepto ko
Ġsahasi kata
Ġyunai teda
Ġresour ces
Ġbilam bita
shàŃ±a sare
artic les
Ġriu mataeda
Ġnirja lana
Ġdepu ti
nabhe mbara
Ġparipre kshire
i pa
n nika
s or
Ġ chcha
ha nu
ara ai
ma sta
na ka
Ġa tika
da l
da ga
Ġsa ita
ri ra
le n
ga lara
ga thita
Ġpra thara
Ġka hari
Ġka hila
dha n
dha nu
Ġbha g
Ġna k
hu ni
ur are
Ġcha dma
de shàŃ±ra
ura la
kha ni
Ġja mu
Ġpai lata
Ġkara chi
Ġkara garare
Ġsama ta
Ġsama baya
Ġmu dira
Ġki l
gi on
Ġman dra
Ġsi kki
man te
Ġsu dama
Ġadhi besha
shara ta
Ġku ch
pra dana
Ġut kaliya
ncha dasha
ke i
ke tare
Ġroga dàŃ±ara
Ġte ri
Ġre le
Ġpara li
Ġpara sya
Ġgra hara
Ġanya tha
Ġgu die
Ġdekha yauchi
mo chi
Ġko lare
Ġko shala
je ba
Ġaushadha dàŃ±ara
no ta
Ġshu bhra
Ġbra da
Ġdha mara
Ġkend ri
Ġbho gu
Ġto pa
lan sa
Ġsimha sanare
Ġnari ra
Ġyuktara shtrara
Ġho me
Ġkendra shasita
Ġamsha bishesha
Ġdharma grantha
Ġkrrishna brahma
Ġkrrishna paksha
maha mmada
Ġape kshika
Ġnish chetaka
fi cation
manda liya
Ġkampani dàŃ±ara
Ġà¤ ª
Ġnia yai
Ġguna batta
Ġjibanu dàŃ±ara
Ġkshamata ku
Ġratna giri
ber g
Ġkati ba
Ġshara da
Ġtar ge
Ġadibasi mana
Ġhis tori
Ġ189 1
Ġjagata ku
Ġbamsha ja
bishesha ta
Ġchanda bali
Ġchakiri ru
rita ge
Ġanta goni
graphi c
Ġchukti nama
Ġfe stival
Ġakha da
Ġsantu lana
Ġphaina l
shar ma
Ġsmara ka
Ġiuro piya
Ġlibr aries
Ġupakula bartti
balya jibana
prrithibi ra
Ġcor po
ncho ti
Ġcomple te
Ġbamshanu kramika
Ġsrrish tira
Ġpli ha
zu res
Ġprasham sita
Ġbhoja puri
Ġrantha mbor
Ġphebru ari
ĠsatàŃ± ki
c r
i uro
o shi
u pare
u ttama
v ar
ha tya
ba te
ba dha
Ġk shana
na thae
Ġa chara
Ġa mira
Ġe uro
Ġsa hari
Ġsa garare
sha stro
tha nare
Ġpa kshe
Ġpa ges
Ġbi lua
Ġka shtha
Ġra shtrara
Ġba tra
Ġba tara
Ġg anara
rri shi
Ġni be
Ġsam na
Ġsam nare
Ġbha gata
Ġna ya
Ġna yara
nd arare
ani ti
Ġkar nataka
Ġkar bet
Ġkara ithila
Ġpari yojana
Ġpari prakasha
Ġpari puraka
Ġmu ndia
Ġbya kta
Ġsha khara
Ġman matha
Ġanu karana
pi ne
Ġprati hari
ne ra
19 21
19 17
19 16
19 25
gu n
ia la
Ġaba sheshare
Ġaba yaba
Ġha uthiba
Ġmaha snana
bar gara
yan dara
jana tha
gra hara
ng ar
kar aru
ke tu
Ġte mples
Ġbhu pati
mu no
Ġkaru thanti
Ġme nana
su ddha
dar shi
Ġdia yau
in fe
Ġshri radha
Ġshri nibasa
nja ima
Ġlekha yaithila
je la
al l
dhya paka
du h
bya kteria
no sis
Ġdhar ani
Ġri jar
Ġsan drata
ty pe
Ġje ru
Ġdo ri
Ġtu m
Ġcho pa
Ġgita ku
Ġana tha
Ġau stra
Ġau tho
ĠparshàŃ± bartti
Ġtini goti
Ġshari raru
ye sha
nya ya
Ġdhu mpa
Ġapa bhra
Ġsai to
Ġupalab dhi
ĠsàŃ±i jara
Ġis land
Ġjami dari
Ġyuro para
193 1
ĠàŃ±a i
cu tta
Ġbrahmana mane
Ġsna tta
artha niti
Ġmyu jika
Ġmyu chuala
Ġmilu thila
Ġase ta
ĠbhubaneshàŃ± raru
Ġsaro jini
gari ya
Ġsamspar sha
Ġjhi ara
Ġdho la
Ġsona li
Ġakashabani ra
Ġkro dhita
Ġphaina la
bru ary
Ġeta da
Ġcen tral
bije ta
Ġgatha nare
Ġsmar aniya
Ġarchi ve
medi cal
Ġjiban ura
Ġdhuma pana
Ġhasti na
koi li
Ġtiki e
kshudra galpa
Ġpreksha layare
Ġgandhar ba
Ġsty le
Ġbiliru bina
a lpa
a kshaya
e nt
e prila
i ng
j àŃ±
k y
l low
s arare
s wa
s war
t z
t sam
z ed
{ {
Ġ lya
an d
Ġs tro
Ġs kor
ya sa
Ġa goni
thi ng
Ġe ro
Ġsa uda
Ġd hare
Ġma hari
ni n
Ġbi ba
Ġra banara
àŃ ĸ
àŃ± an
Ġu chcheda
bha s
Ġsam pa
bi barani
Ġde haru
Ġcha kara
Ġcha mara
Ġcha ushathi
lo pa
he art
kha sta
Ġja leshàŃ±ra
Ġpai bara
yu gare
Ġsama besha
Ġsama shti
nku sha
Ġki shana
Ġji o
Ġji lara
Ġga mbu
Ġsha sta
Ġanu bikshana
19 00
Ġpar t
Ġmaha bidya
Ġsu gandha
Ġbe t
ho ma
Ġloka kala
ĠsàŃ± rare
on g
Ġbyaba harika
gra mare
gra phara
Ġsaha deba
yi ni
Ġupa praja
Ġar chaeo
sam purnna
su chana
pu sh
Ġtiari re
Ġmana gement
iba hika
Ġtha pa
Ġtha kkana
Ġkuha yaipare
Ġtari kharu
Ġ18 0
ce ous
ban di
Ġpe sa
kri keta
Ġala ukika
Ġbho ji
Ġdo ha
Ġto ur
Ġto pi
Ġkarana ku
tari ni
Ġnari mane
Ġpuja panda
Ġdura darshanara
Ġco lo
lle r
Ġho li
Ġchar mara
nchi la
Ġim jini
brri ti
Ġbira jita
ye pari
Ġjani pari
maha patra
Ġpan thera
Ġnaba barsha
Ġjan mara
Ġsamudra pattanatharu
Ġsta ti
Ġv al
siddha nta
Ġgran d
Ġghati thiba
ngu e
Ġdirgha sthayi
Ġatha malli
Ġtala likhita
tt anara
Ġkata kana
Ġhar da
prati kriya
Ġsim hara
Ġnet work
Ġab anti
Ġkamp leksa
Ġ190 2
Ġdraghi ma
Ġst ru
Ġdeha ku
sai k
Ġspe cial
Ġ189 0
Ġbhra ta
Ġparis rare
Ġupastha paka
Ġandhra pradesha
Ġmyu ji
Ġdis co
Ġnyu k
Ġakha pakhare
Ġsaja i
Ġhoisari thila
Ġkor shara
Ġpratishedha ka
Ġamrrita sara
Ġsei thi
Ġscie nti
Ġphran sara
ÂłÂł ÂłÂł
kandha mala
Ġkapi le
Ġksh mer
Ġbid yar
param para
Ġchak rare
Ġmahasa garare
Ġparo ksha
Ġthail yanda
Ġyunibhara si
Ġutsar gikrrita
Ġprata parudra
Ġshrijiu mana
khandi ta
Ġalagori dama
Ġnirbi sheshare
Ġsuni shchita
bishu ba
shastro kta
1 18
g anda
h lada
i baru
i ndra
i sra
j anika
k yari
m yan
w el
ka usha
ma cha
ba j
ba du
Ġk yana
na si
Ġe mi
Ġe ne
Ġsa toti
le ka
cha l
re nt
Ġbi t
pa le
Ġra tra
Ġsam anare
Ġta takalina
Ġbha banara
Ġna ture
Ġna tural
mi dia
Ġde dha
bam shiya
Ġcha tana
lo la
Ġi uni
Ġdi f
Ġdi àŃ±ana
bhi l
Ġja gara
ki rana
ksha ti
Ġmu ku
Ġbya tim
Ġbya kteria
Ġga charu
Ġla te
Ġsh riya
to sisa
Ġshi shira
Ġshi bira
Ġro hini
Ġti m
ne l
Ġsi pa
Ġha li
Ġha nd
Ġsu n
Ġbe ri
Ġrahi yae
Ġku lara
Ġgo lar
Ġke mbri
pra mukha
Ġbarsha sara
Ġpi tara
nda s
Ġkha ira
oda eje
Ġte nisa
yana gara
Ġre ti
kto mi
Ġkala mbo
Ġanya ya
Ġgha si
Ġsar bhisa
Ġpha ta
in tar
Ġru shi
Ġmana sta
Ġpada ku
Ġsehi thare
Ġnu mber
à¤ £
à¤ ª
Ġ18 88
Ġdur labha
ce mber
Ġsabu dina
Ġpo wer
Ġmanda lara
Ġkan dhare
gre ss
Ġbho ra
Ġto rana
yau thibaru
lan gua
Ġrama debi
Ġau gu
do minal
Ġyan trara
Ġchari jana
Ġbibaha ku
Ġdura barti
pala ka
Ġekademi re
Ġlaksh nau
Ġpatha ile
Ġprastu tire
tran sa
Ġ14 0
Ġtra di
Ġchitra guda
Ġkabi mana
Ġbala da
Ġkhu nta
lai sisa
ly ani
Ġju a
Ġapara dhika
Ġmala bhumi
Ġtika karana
Ġà¤ ľ
Ġsatya bhama
Ġchand rika
Ġdarsha e
Ġanda mana
Ġpranali ku
ĠâĢĮ âĢĮ
dan di
Ġayo dina
bhaga bata
Ġalu mina
Ġrai phal
tai ning
Ġyuni t
Ġnakshatra ku
phy si
Ġabhayar anyara
Ġmishrana ku
Ġmali ni
Ġasthi ma
Ġsamud rara
Ġpubli she
Ġgiri patha
Ġmrri du
Ġhy dro
Ġima ging
lyan dare
seta mola
Ġkori o
praka shita
Ġshani bara
Ġshukra bara
Ġsambo dhita
Ġshobhaya tra
Ġkhelu thile
Ġmeka pa
Ġaca demy
Ġtadara kha
Ġbasabha banare
b n
h prapta
s co
u k
z y
ka ka
ba tsa
Ġa yata
sha ila
sh bara
Ġma ji
Ġj ura
Ġo cto
sa ti
Ġpra bina
ku na
Ġka beri
Ġra ktara
Ġba ck
Ġg hi
si yama
Ġse c
rri na
Ġni basa
Ġ1 200
Ġu stada
Ġta thyara
Ġna si
Ġna shaka
Ġhoi paru
Ġde ri
Ġde ksa
Ġcha ina
shi ghra
lo ng
Ġda una
Ġda ina
be n
Ġya t
Ġya shoda
ji n
Ġsama pti
Ġji m
Ġla k
Ġsha isha
Ġsh troka
nga bati
Ġti kara
ne ja
Ġsi sto
19 19
Ġpar thi
Ġha ma
Ġch ha
Ġsu bodha
Ġabhi yogare
Ġchi ri
on ly
Ġgo shthire
Ġgo ogle
Ġke la
Ġne kro
Ġar mi
ke li
pe na
Ġroga kranta
Ġle khara
sam stha
sam par
Ġyu baraja
sara sàŃ±ti
Ġdu bai
Ġbo ta
Ġc u
su dha
mo ta
mo gala
pu s
Ġpada deshare
ina la
mani sha
bya pta
Ġ18 80
no w
Ġso ni
Ġso panare
nji oi
Ġmili mila
Ġpe rs
Ġdha nara
Ġas anare
Ġsan desha
Ġuttara pradeshara
Ġuttara dhikara
bhe ta
mala ta
Ġmar keta
Ġdesha i
Ġph lora
phe re
Ġbira bara
ile k
Ġasu thila
Ġ13 0
stra tion
Ġpan di
Ġlu pta
lla da
Ġape ra
Ġkali charana
nj odaeje
Ġmau si
Ġjhia ku
Ġrasa ku
Ġl yu
Ġindi ja
Ġbali dana
Ġrahu chanti
Ġagra sara
ĠdàŃ±ipa ku
Ġap pli
Ġniyama bali
Ġshta diya
Ġ189 9
Ġalo kita
Ġmini stry
pashchima ba
ĠsàŃ±r giya
shari ra
Ġparibe shita
Ġmahakasha chari
prrish tharu
Ġanupa sthiti
ĠsàŃ±p nare
Ġgrishma kalina
Ġparaspara ku
Ġphai sala
Ġkir ttana
Ġsutra pata
Ġkyu ti
Ġsaba dhana
bhubane shàŃ±rara
à¤¦ à¤°
Ġbanara sa
sepha lopathi
bidyu ta
Ġkarpo resana
Ġpachari le
Ġpado shi
Ġyaya bara
Ġtrayo dasha
Ġsekend ari
Ġdaita pati
Ġade no
Ġsitara ma
Ġatta lika
ĠguruttàŃ± purnna
Ġmemori al
Ġabasho shana
Ġbhikto ria
Ġupade shta
Ġnishka sita
nrri simha
Ġshik harare
Ġkendri bhuta
% ,
1 10
1 15
3 60
a tya
b una
d d
d der
k kara
Ġ version
hi thile
ka go
ka mala
ka shmi
ma hi
ana tha
Ġa sta
Ġa shisha
Ġe ye
Ġe tiki
Ġe ast
Ġsa tara
Ġsa dya
Ġd y
Ġj hari
ni ksa
ga di
cha laka
sa ida
chi ve
Ġbi du
pa tri
pa shu
pa ge
Ġka bhi
Ġkari tha
Ġkari bi
Ġra tira
Ġra dda
Ġra khuthile
Ġg ur
Ġan tanalire
th roma
th artha
Ġna stika
Ġhoi tha
Ġeka dharare
Ġda vid
Ġeha tharu
se ro
Ġkara barana
nti ng
Ġga ba
Ġsh taka
to re
arana ike
nga jeba
19 12
19 26
Ġbe ni
Ġbe tasa
Ġadhi shthita
Ġabhi lekha
Ġabhi naba
Ġgo kar
Ġgo muha
Ġbharatiya mana
stha lare
lu thiba
Ġar bi
Ġar je
pe ktara
Ġin f
sam gita
kari mane
Ġbhu bana
pur bare
Ġpara sha
Ġpara shurama
Ġbhi shana
ph ro
Ġthe ir
Ġko ma
Ġbu il
bya bastha
Ġdur basa
Ġdur niti
Ġso cial
nji re
Ġmili tari
Ġpe cha
Ġpe tro
Ġas se
san tha
po lara
Ġche hera
Ġmandali ra
Ġphi bri
co de
Ġsarba prathama
Ġ9 3
Ġkami yai
pan o
pan y
mar ka
esa elabhi
Ġparibarttana shila
Ġrakha yai
yogi ka
Ġkhanda giri
Ġgarbhaba sthara
Ġabi bahita
Ġdai yure
Ġadh aru
Ġyau bana
Ġgada jata
Ġnia gala
Ġrana bira
Ġgarbha dhana
Ġbahari thae
jiba jagata
Ġbastu ku
Ġkla si
Ġ189 7
Ġchaka da
Ġtali kara
Ġà ´
reta ceous
Ġchalu kya
prrish thare
Ġbist arita
nirba chana
ame rika
ĠpratidàŃ±ndi ta
Ġinte li
Ġmaga zine
Ġabhyan tara
Ġpitrri purusha
à§ į
Ġsobhi et
Ġcham pu
Ġbea ch
Ġpran tare
Ġruk mani
ĠâĢĭâĢĭ |
Ġkyabi neta
ĠanàŃ±e shana
Ġinclu ding
Ġaspi rina
Ġabalo hita
Ġbasha tah
Ġatu laniya
Ġabana ti
Ġphilo so
% ),
a pha
a mara
a mino
d rri
e li
h nare
i be
n nia
s p
v ita
Ã ¡
ra khi
ra tna
ma hana
Ġk rrish
Ġ| )
Ġa or
Ġma in
Ġma lli
ni mana
ni jara
Ġo ta
ga m
ga om
Ġpra ga
Ġpra sam
Ġpra karare
Ġpra manika
ku a
Ġpa khuda
re tari
Ġbi she
Ġka tu
Ġka katapura
Ġkari dianti
si lina
Ġse kre
dh o
Ġni shtha
bha tta
Ġsam pattira
Ġsam bhranta
Ġhoi nathile
ani ta
Ġcha tani
shi baratri
be s
Ġdi phe
de nti
he a
he mo
Ġpari kshita
Ġmu bhi
una hi
Ġsh tre
nga kara
nga laru
Ġprati hata
ne ri
Ġsi k
19 23
gu li
Ġmaha desha
Ġsu tara
Ġbe sa
Ġku ta
Ġku tira
Ġut kar
Ġpi e
Ġne tra
Ġne al
stha lire
Ġupa sthitire
ke d
pe rs
sam panna
Ġyu rika
Ġbhu madhya
Ġheu thae
Ġheu thibara
Ġheu achi
Ġme lan
Ġme dika
Ġme mbers
nana ku
Ġre public
dra bya
ko tara
Ġf la
Ġ4 000
Ġpha shta
mo therapy
Ġkama deba
pu shti
Ġshri dhara
ve mber
Ġmrrityu pare
ge na
dhu li
Ġbisha yara
ksh o
Ġ18 89
ce d
Ġdha maka
Ġbai shna
Ġnei thae
Ġmasiha tharu
po si
Ġdeba yani
Ġdekhi la
Ġphi ji
Ġsamkhya laghu
Ġchari ada
Ġhindu stani
Ġjilla pala
Ġph le
Ġchota belu
Ġchar mar
kan oloji
Ġkami yiba
pan dita
Ġnrritya ku
tran anda
pita lare
Ġkabi suryya
Ġjan mare
mar y
rodha ka
Ġjo na
mina tion
gar bhaba
Ġmurtti ku
Ġbichara ku
Ġsind rom
Ġtai msa
Ġphula bani
prati barsha
pla ce
Ġneta àŃ±r
Ġbiru ddha
Ġlaga ile
Ġghare i
ĠàŃ±a t
nes co
dri ta
Ġnan dana
Ġrritu banda
Ġhoipari thile
we alth
Ġita liya
Ġjyotisha mane
Ġsamsho dhita
Ġmaho da
Ġeksapre s
hy dro
Ġkaila sha
Ġhais kulare
Ġsat yanarayana
Ġupamaha deshara
Ġchin maya
Ġhoina thiba
Ġmono klo
Ġahamada bada
Ġale ka
Ġbhie tana
fu sion
inter national
Ġsepte mber
Ġphilipa in
dàŃ±a ita
Ġsour ce
samar pana
Ġsubha shisha
Ġjyami tika
santi a
Ġkrani k
Ġchcha la
Ġbidyar thi
. ),
1 20
6 00
a gu
a dhuna
b lo
c in
e tara
h la
o rissa
u ble
w ri
an t
Ġs thita
ka h
ma tory
na thiba
Ġa chala
Ġa baman
Ġa chyutananda
da lara
Ġe sophe
Ġe lectri
sha stri
ri ca
Ġd yansa
Ġma mina
Ġma themati
ga sa
Ġpra dusha
ku ri
Ġpa àŃ±ara
Ġbi sarjana
à¬¼ âĢĮ
Ġra stara
Ġba chana
Ġg lai
Ġni tire
th ri
Ġde r
Ġcha kata
Ġi ha
Ġhe ritage
be hera
Ġdi di
Ġja yarama
âĢĮ .
se baka
Ġpari bra
Ġla mbara
Ġla ghaba
nga dàŃ±ara
Ġman thana
Ġmadhya bitta
Ġlo chana
ne palara
gu nda
ia chi
Ġha ja
Ġch urnna
Ġsu bi
bar sharu
Ġadhi kantu
Ġbyaba dhana
pra janana
nare ndra
stha n
or ge
Ġli pta
gha da
Ġjanma shtami
Ġ3 50
Ġc retaceous
Ġsara pa
Ġbhi kshu
Ġnu hanti
Ġkan trola
bo o
Ġas an
Ġ8 9
kri shna
Ġuttara ku
Ġbai thakare
po sha
Ġparibar aru
yata yata
Ġphi jio
Ġshata dhika
Ġana ba
nita l
Ġpro la
sia i
Ġgre da
Ġtri natha
Ġprabha bara
bra l
Ġdharma ku
Ġhari sha
Ġjani thile
maha msa
Ġlu chai
Ġ25 00
Ġbhinna ta
nj ula
Ġatya dhunika
Ġgi li
à¥ Ĥ
Ġmala dàŃ±ara
Ġv ari
Ġl ari
Ġparu thile
Ġhrri shikesha
Ġpri nsa
Ġdara bara
und are
Ġgada dhara
Ġdak yu
Ġaka s
Ġpla s
Ġsampra sarana
Ġlaga iba
Ġkshati karaka
Ġkaripari le
am rrita
Ġaya kara
Ġcom pany
Ġduh khare
Ġbaha ka
bishàŃ± natha
Ġsammi sh
Ġkesha hani
Ġfe ver
Ġfe bruary
Ġmusalamana mana
Ġprat yu
Ġita lira
Ġkashmi ri
Ġui tha
Ġlar nni
Ġmaho tsa
Ġjalabayu re
Ġwor ks
Ġphya ktara
mundi a
prasha nta
Ġindone siara
Ġarthani tira
Ġcoun try
sei zures
mus cle
Ġrili ja
Ġmahisha sura
Ġserotoni n
Ġgene ral
kera lara
Ġsijha i
Ġplate leta
Ġsthi ri
Ġparnna mochi
Ġband aranaike
stabli shed
Ġsashakti karana
Ġadhibesha nare
Ġhistori cal
Ġautho rity
njioi dima
à¤¦à¤° à¤ļ
' )
1 17
b on
n y
s kin
Ï ģ
Ø ±
Ġs pre
ra ta
ba tiya
da pha
Ġsa k
sha m
sh ort
Ġd bi
Ġma dara
Ġma ska
ni cal
à¬¼ -
Ġse o
Ġse p
Ġse ta
Ġu di
Ġsam purna
Ġta lara
Ġbha ndari
mana ma
lo d
lo ko
ane sa
Ġdi she
Ġdi ganta
bhi na
de v
Ġya thartha
âĢĮ )
Ġsama ye
Ġpari dhi
Ġpari chcha
Ġji bara
gi na
Ġla u
Ġsha sanare
me l
me dia
pi tta
ne uro
19 27
Ġha ve
Ġha jama
Ġbe shta
ĠsàŃ± deshi
Ġadhi pati
Ġt wo
Ġchi trara
pha te
or dina
Ġkha nna
Ġupa khyana
ke y
pe d
Ġle o
Ġte shti
sam skara
Ġdu ara
su ya
Ġpha lara
in tara
mo graphi
Ġko kena
Ġlekha nti
je san
ina hi
ce ll
dia tion
Ġhela pare
Ġyoga da
Ġto xi
ngi yae
Ġmar t
abhi netri
Ġbira ti
Ġbira kishora
Ġnrritya guru
nia ma
Ġchitra shilpi
Ġhari jana
Ġsapta dasha
Ġkali dasa
Ġmano hara
Ġparba taro
lapa menta
Ġrashtra mana
Ġapa manita
Ġsai klo
Ġsta tion
Ġnira peksha
Ġpri tama
Ġtapa sa
Ġtapa matrare
Ġniyan tranare
Ġsamstha paka
Ġcon servation
Ġcon taining
Ġasa miya
Ġshaha jahana
Ġsuna ma
Ġbipada mukta
Ġdan di
laksh ya
Ġkarai bare
we en
chchi ka
sto ma
Ġà °
Ġnidra hinata
gane sha
zo le
Ġkani kara
Ġbhabana ku
Ġdeu chanti
Ġhau thila
Ġjanu ary
kte shàŃ±ra
Ġproje kta
Ġato somala
Ġshoi bare
Ġscience s
thy l
Ġpabli shar
Ġakra manaru
Ġmantrana layara
ĠsàŃ±chcha ta
prrithibi re
Ġcric ke
Ġpyari s
Ġpragati shila
kir ttana
Ġshobhaya trare
Ġmuhur ttare
Ġprako shtha
chchu ka
Ġfai lure
Ġjite ndra
Ġnabi karana
Ġsthapat yara
trie ved
Ġsiddhe shàŃ±ra
Ġdimen sia
Ġenginee ring
Ġaman trana
Ġajan tara
Ġshaile ndra
Ġoffi ce
Ġkoki shi
Ġimjini yarim
Ġchchala ch
1 21
a k
a sana
c ur
d or
e aidi
i tara
i ru
s rrita
v in
Ġs ca
ma pa
ma sare
ma tire
la mba
ba tare
na ti
Ġa mana
Ġa be
Ġe ku
Ġsa tta
Ġsa ph
Ġsa china
ri yan
sh tana
Ġpra mila
Ġpra kriyara
Ġpra dhyapaka
ku m
Ġpa chara
re kha
Ġka gajare
Ġra mani
si ni
Ġse e
dha la
Ġni laya
Ġni mai
kara mane
Ġsam manara
Ġta ba
Ġbha n
Ġbha gini
bi chara
nd ura
Ġde cember
lo kanatha
Ġi nti
de u
kha nara
Ġja u
Ġja gan
Ġkar ya
Ġkar nne
Ġya ksha
Ġpai tha
Ġkara khanare
Ġsama grika
Ġla kada
me sana
Ġmadhya karshana
of t
Ġro hi
Ġti ma
Ġti kta
Ġprati kula
Ġpar bana
Ġmaha sam
Ġsu dura
Ġpu li
Ġpur odha
Ġabhi yanara
Ġchi tha
Ġchi tro
Ġgo bara
pra bana
pari besha
Ġpi k
Ġpi m
Ġpratha ku
kar kata
Ġar thara
sara ya
mba da
Ġjil laku
mu ta
Ġme sha
Ġsadharana tantra
tàŃ± purnna
pu shpa
Ġbada ma
Ġtha nti
Ġkuha yaithila
Ġ18 87
Ġshu la
Ġban dhya
ran k
lli am
Ġ9 4
shata b
Ġchandra yana
Ġnadi bandha
Ġbasa sthana
Ġara biya
Ġdra ga
mati c
Ġnya sta
Ġjan maru
nj anara
Ġdilli thare
Ġkya pa
Ġpakshi mane
Ġpuri thare
Ġapa mana
nni ma
Ġkheli baku
pr arambha
kla mpa
Ġjiti chanti
uri ty
Ġtat pare
Ġbla kare
wa ys
Ġbibe ka
Ġbrahmana mana
Ġmish ranare
Ġnai du
Ġbarana si
Ġatma samarpana
Ġ189 2
Ġyuba basthare
Ġinter city
upa sthiti
Ġatyaba shyaka
Ġhoipari la
Ġsaura bha
Ġparibe shara
ther n
Ġà ²
Ġsiri jare
Ġhttp s
fa mily
ĠĠĠĠĠĠĠĠ ĠĠĠĠĠĠĠĠ
juma ba
Ġhima mshu
Ġkunda la
Ġsakshata karare
Ġniru pita
adi basi
Ġpushti kara
Ġrakshana shila
ner gy
Ġiuro pare
Ġshti la
Ġpadu thiba
Ġsarbabrri hat
Ġori enta
zi ng
Ġkaksha pathare
ĠkàŃ±anta m
Ġmemo riala
basha tah
mano ja
Ġgabesha naru
Ġbird s
Ġsachchi dananda
Ġgluko ja
Ġanichcha krrita
Ġmarkan deya
Ġcour t
Ġkapile ndra
Ġmonoklo nala
Ġabaman ana
1 16
a dha
a loka
c d
e ri
e le
l k
m la
m re
p po
s the
t thana
u baba
Ï Ĥ
Ġ *
Ġ lare
ar aru
ar thanaitika
ka thita
ka lpa
Ġp hana
ma in
ba ttara
na kshatra
Ġa samkhya
Ġa pril
Ġe ni
Ġe gara
sh thare
Ġo riya
sa bhare
chi nna
Ġpra su
Ġbi kala
te san
Ġba y
Ġba àŃ±ela
di ara
nka tara
si ana
si no
Ġse miti
Ġu sa
Ġu cb
Ġta bala
Ġna gada
Ġna tuni
tra so
bi ai
bi rodhi
mi hira
Ġhoi yaithiba
mana sika
lo s
Ġhe lani
Ġdi garu
Ġja bsa
ksha nara
yu jya
Ġpari shra
Ġmu gdha
tu m
Ġga jara
Ġla ja
Ġbar jana
to mi
Ġbhara pura
Ġmi u
pi ela
Ġprati padana
19 18
ia kathachitra
Ġhu a
Ġha n
Ġsu nanda
Ġjana yaichi
ĠsàŃ± bhaba
bar ddha
Ġadhi patya
Ġpur anara
yi ng
Ġut pa
Ġpi na
Ġkha di
Ġkha lli
Ġupa deya
gha ti
Ġme lare
par bati
Ġmo bai
Ġmo ther
Ġpha laka
ĠsàŃ±a ksh
pu bs
Ġshri kshetrare
Ġbaya hprapta
Ġlekha achi
Ġsehi barsha
Ġ18 66
Ġ18 82
bu pro
Ġbrri kshara
Ġpo ke
Ġri le
Ġri hati
Ġrakta hinata
Ġpe da
Ġdha uli
nt ari
bhe n
Ġbho pala
Ġtu lai
ngi ni
Ġgita gobinda
Ġana da
Ġsamkhya ku
Ġam ari
Ġrama yanare
Ġkahi baku
Ġdasha ti
Ġph lai
Ġpani pariba
Ġchar j
ngara kam
Ġpatha yaithila
Ġthi kana
Ġchitra ku
Ġhari yanara
Ġchali la
Ġbala purbaka
en sa
nj ani
Ġpau thila
Ġfor t
Ġprada kshina
njana gara
Ġpadma bati
Ġpadma bhushana
Ġdrrishti gochara
Ġjar j
Ġsamgra mara
Ġà¤ ¬
Ġhar ta
com mon
Ġasa mare
Ġen tara
Ġadhikari mane
à¦ °
Ġkshati purana
Ġkla bara
Ġex peri
Ġsupari chita
Ġkampyu tarare
jala bayu
Ġfo ur
Ġkada mbini
Ġmahana dira
Ġhrada ti
jar ara
Ġpashu pakshi
Ġ189 8
war d
Ġshasaka mana
Ġbaja i
Ġbigraha mana
Ġparas parika
tena menta
Ġac ti
Ġsur ve
Ġsaja sajja
Ġsanta santia
Ġstambha kara
Ġghana shyama
Ġuiki mida
Ġmeda l
Ġparaspara tharu
Ġparama bira
Ġupatya kara
Ġprach ya
Ġkahu thiba
Ġper for
Ġdrrish tanta
siya s
gho da
ĠàŃ±ebasa it
Ġkuru kshetra
Ġair port
Ġthail anda
Ġjiban aru
Ġphor sa
njio tena
mbri dge
ĠbishàŃ±a mitra
Ġmadelim re
Ġbadhu thiba
Ġhoithai pare
Ġagneya giri
Ġdemo kra
Ġbrite nare
mbar aru
Ġmapi ba
Ġhote l
Ġapli kesana
Ġpipi li
atma jibani
Ġshilale khare
Ġshrina ara
Ġcheyaram yana
Ġpenisi lina
Ġrecep tor
Ġcorpo ration
Ġrijar bha
Ġocto ber
Ġsthiri krrita
8 00
a gni
l lar
o sha
s sa
s tya
x u
Î ½
Ù Ĩ
Û Į
ara ti
Ġs can
ra to
ra mesha
ka pa
ya ti
ma sti
la te
ba chana
Ġa ban
Ġe yar
Ġsa smita
sha strara
ri sa
Ġo jha
Ġpra basa
Ġpra shàŃ±asare
ku mbha
ku lananda
Ġpa thu
Ġbi harare
pa ya
Ġka dua
Ġra mananda
di paka
Ġan o
Ġu k
bha l
bha ni
Ġna heba
Ġna thai
mi shrita
nd hara
Ġde v
Ġde baru
Ġ2 20
ro ni
ro gara
Ġda kara
Ġi jana
Ġhe ro
Ġhe banahi
he na
Ġpai da
nti m
Ġmu sic
Ġbya tsam
Ġga una
Ġga llery
Ġla dhei
Ġsha n
Ġbar ddhana
Ġsh ma
pi ana
Ġro hita
Ġro miya
Ġlo k
Ġprati kara
ne n
Ġaba helita
Ġmaha nanda
Ġjana ile
Ġbe li
Ġbe bi
Ġbe dana
Ġabhi bhabaka
Ġchi kkana
Ġku ti
pra bhaba
Ġpi ndi
Ġpi bhisi
tar sa
Ġte tra
Ġte ksa
Ġyu garu
Ġdu shita
Ġme se
Ġsara karara
Ġre tina
Ġre trieved
Ġpara setamola
su ara
Ġmo hita
ko shara
Ġkam pa
Ġgu n
Ġgu jura
Ġdekha e
mo ne
Ġru ma
nu tana
ve ls
Ġpraya ga
Ġbahu bara
Ġpat anaru
Ġsabu kichi
Ġantar are
Ġbra u
nji karana
Ġkan yara
tan nica
Ġpurba ja
Ġphe ru
Ġud bhaba
ran àŃ±ita
Ġsamu ela
Ġbhasha kosha
Ġdala gata
Ġgan dhari
Ġdar mata
Ġchari ta
Ġ16 00
Ġkarma shala
Ġkami ba
Ġpanda bamane
Ġchali gala
Ġphuta bal
sama lochana
Ġjan anti
Ġprasha sta
14 0
Ġbhubane swar
Ġsamar thita
à¥ °
Ġama lare
Ġapara dhara
Ġbau ri
Ġpho tan
Ġwe ek
und er
Ġbishaya ku
Ġrupa ku
Ġkata karu
Ġchatra pura
Ġcon stitu
pro te
Ġpana sa
à¦ ¿
Ġgumpha guda
Ġsari thile
Ġmanaba dhikara
Ġashta bhuja
Ġsamskrriti ku
Ġnaksha trara
nir mita
Ġaya tta
Ġgujara tare
Ġtar ka
ĠsàŃ±adhina tara
Ġnar mada
Ġ189 4
Ġbaba ji
laksh mana
Ġparis thi
Ġsau tha
mb rama
Ġparibe shtita
Ġ[ [
Ġfe de
Ġbeda byasa
Ġjhi lik
Ġkor tare
Ġyi be
Ġgabeshaka mane
kon da
Ġchaturd dasha
Ġpath arara
Ġpitta la
Ġbhabishya tara
Ġupamaha deshare
yuktara shtrare
Ġeli jabe
Ġabir bhuta
Ġkori ara
Ġsaji thile
ĠtàŃ± ranàŃ±ita
Ġdau di
Ġupu je
Ġsodi yama
ĠhàŃ±a tsa
Ġghurnni batya
Ġramanu ja
Ġtaita la
Ġgov pubs
Ġfore ca
Ġbhita min
Ġmardda la
phrare d
Ġapabhra msha
Ġbet ween
Ġsec urity
Ġaleka jan
Ġpablishar sa
c ta
d du
o ters
s arita
s we
u daya
Ë Ī
à ¹
Ġb yoma
ba bi
ba mana
Ġa hira
Ġa bega
Ġe a
Ġsa iti
le dge
Ġd ys
Ġka kharu
te li
ch ula
Ġbha lyu
hu ra
âĢ ł
Ġde sharu
Ġda bala
bhi ti
de shya
Ġkar o
se ri
Ġmu n
Ġmu khara
Ġmu guni
Ġki samara
Ġji nna
Ġman dana
Ġti keta
Ġprati padita
Ġsi ra
Ġha jararu
Ġmaha deshare
Ġch oda
Ġsu ba
Ġsu shama
Ġsu charu
Ġsab ura
pra karara
pra deshare
Ġbarsha ka
pari barika
Ġkha ndi
Ġar k
Ġle g
Ġte sti
Ġte kanoloji
Ġdu ring
mu l
Ġkarayae nahi
ko tira
Ġkam aru
Ġdekha die
in te
Ġkama ku
st anare
Ġru para
Ġru shia
nu m
ve nous
Ġshiksha bit
Ġjibana yapana
nja b
Ġ18 60
Ġdur aru
bu ta
bu ddhi
Ġbra dar
Ġri ta
Ġkan du
shra ddha
Ġkaunasi la
Ġpe share
Ġkare iba
Ġsan to
che motherapy
lli n
Ġhei thibaru
so mia
Ġpro du
Ġhindu sthani
Ġnadi guda
phe t
tro phi
Ġara kshita
Ġdra byara
Ġkalakara mana
Ġlu n
Ġparicha lanare
Ġbhe ntrikulara
Ġnish thara
Ġsuryya sta
Ġrakha yaithiba
Ġkya tho
Ġl yanda
Ġpaka yae
Ġindi are
Ġkheli bara
Ġca ves
Ġjiti bare
Ġrela shtesana
Ġhar sha
Ġvi r
wa ter
cu te
Ġgrriha ku
tori al
Ġbidhi re
Ġjhu lana
Ġprakriya karana
Ġdan ce
Ġpadi la
Ġbari ha
Ġgupta chara
we b
Ġsaro bara
Ġadhyaksha tare
Ġdam baru
mukhya tah
Ġmina ti
klo ro
Ġpacha sha
Ġdisease s
kani shtha
Ġlila bati
Ġmuni ci
Ġmantra laya
à® ¿
Ġdeu lara
Ġsona pari
Ġchara ma
Ġakashabani re
Ġage ncy
jia ma
Ġdiba sara
Ġkera lare
mahara shtra
ĠàŃ±ar lada
Ġbamla deshara
byu lina
Ġdaya da
Ġhepata itis
Ġkariparu thile
dab lyu
Ġbandhuka chalana
Ġpake i
Ġrichar da
Ġjag arana
Ġdhan ur
phlame tari
Ġasti tàŃ±
Ġmekani kala
kran tiya
Ġsthalabha ga
chikit sare
Ġbajraka pta
throma isina
Ġasan tosha
a f
a lo
a ph
a dhya
c tory
e u
h àŃ±a
i ani
k tanali
m rri
t yare
u dara
Ġ <
ha llada
an tanali
ara esa
Ġs kara
Ġb hya
Ġp yara
ma sika
ba dana
ba tira
Ġa share
Ġa ita
Ġa gua
da ktara
Ġe gudika
Ġe nergy
Ġd ro
Ġma paka
ni yuta
ga beshana
re t
Ġbi naya
Ġka lyani
Ġkari de
Ġra te
Ġra dio
Ġba tha
Ġba ddha
si noma
Ġni khuna
Ġan cient
Ġu thiba
Ġu ru
Ġsam yojita
th or
Ġna maru
Ġna ati
bi re
bi ne
Ġeka tri
thila gi
Ġda liya
Ġi ni
Ġi bhenta
Ġhe mbrama
Ġn h
Ġn rrita
ji ya
Ġmu ja
Ġki sama
Ġji a
Ġji nara
Ġla in
Ġla banya
Ġsha sha
me try
una bimsha
nga sa
Ġshi bani
Ġro she
Âł ĠĊ
Ġsi manta
man tra
man tara
Ġha mida
Ġmaha jana
Ġsu smita
Ġpu ara
yan trita
Ġt aru
dàŃ± arare
Ġgo laka
gra mara
Ġsahi re
Ġut padanare
Ġhi nda
Ġupa dhyaksha
ke shana
ke shàŃ±ri
Ġte sting
sana yaka
Ġdu ti
Ġbhu l
Ġraja kishora
mu ka
Ġme n
nana kosha
Ġchala ithile
Ġpara ta
Ġpara mahamsa
bhu la
Ġgu gu
Ġgu nu
Ġgha ntare
ph lu
pu di
Ġw estern
kala kara
je nsa
Ġ18 70
Ġ18 69
Ġbra janatha
Ġban gla
shra bana
Ġsan dhanare
phi lda
Ġkend rita
Ġbibha giya
Ġdo pa
rama yana
Ġsamkhya gari
Ġkri dare
Ġdar ji
Ġmai thili
Ġbrah mandara
Ġlagi pare
deba ti
Ġco de
Ġaga in
Ġchu li
Ġparyya yara
Ġtra vel
Ġratha ku
Ġani deithila
Ġesi ana
nj hara
Ġpau dara
Ġpadma pura
Ġbijaya lakshmi
Ġbana bhoji
Ġkataka sthita
Ġbata barana
Ġwi s
Ġmya k
Ġgati patha
Ġshikara ku
ĠsàŃ±ami nathana
Ġsatya ta
nan t
Ġmara tmaka
Ġcon gress
Ġneta mana
Ġpramana patra
dan dara
mon ary
ssi ve
Ġphusaphu sare
Ġghar shana
Ġaja ma
Ġaja gara
Ġbrrit tanta
Ġakha tara
190 1
Ġilektro nik
Ġbili ana
Ġdeu lare
Ġtho masa
Ġjama seda
Ġkhabaraka gajara
Ġsad rrishya
indi ana
Ġchampiyana sipare
hy dra
Ġchenna ira
Ġjhara ka
Ġsainika mana
Ġupamaha desha
à¨ ¾
Ġnabajata kara
Ġprache shtare
Ġgadhi a
ngopasa garare
ĠÎ ¼
ab dominal
Ġkajala pati
ĠsàŃ±echcha krrita
Ġsamba lita
Ġoshtio po
puru shottama
thairaedi jma
Ġsale pura
Ġepile psi
Ġahla bada
kine ni
tui tari
Ġnibe dita
Ġasthima jja
Ġparibra jaka
Ġforeca sts
" :
2 50
7 00
: #
a de
a shtre
d dasha
e ar
i si
i nare
o ni
p tare
r ane
s v
| "
Ġ Ð
Ġs are
Ġs li
Ġs aram
Ġs pani
Ġs kan
ka thare
Ġp y
la mi
na m
na mare
Ġa gara
Ġsa hya
Ġsa dharanare
sha lara
Ġo s
cha tisha
Ġpa kantu
li sha
Ġbi e
Ġbi krrita
pa m
Ġka pala
Ġkari achi
te sha
àŃ± na
Ġ1 18
Ġ( ,
Ġta d
Ġbha tuda
Ġna balaka
tra i
Ġde ya
Ġde shiya
ro dhana
tara ma
lo sis
Ġda yaka
be shi
Ġdi sha
kha li
ki re
se li
ksha mata
Ġmu ka
Ġmu drita
tu lasi
me i
Ġbar she
Ġmi ko
Ġshi thila
Ġanu sa
tri bu
Ġch ur
Ġsu bra
Ġpur banumana
shara la
Ġku sh
Ġku bera
sta l
ng hara
kar ta
lu chi
Ġar chchana
ke shari
Ġli bhi
Ġ- -
Ġ3 60
Ġc re
Ġc rea
tti ng
Ġraja tantra
Ġgra mati
dra tha
Ġmo vie
Ġmo unta
ko sisa
Ġf al
Ġsar ta
Ġpha nd
Ġthe ory
Ġko ela
Ġheba dàŃ±ara
ge ry
Ġlekha yae
Ġasi na
Ġbahu matrare
Ġbu dhi
Ġbu nda
ĠdàŃ± nda
ndu ri
bidyala yare
phi lia
phi loko
po la
Ġtu ri
Ġgar la
Ġdura bartti
Ġshab dare
shri jagannatha
Ġchandra ma
Ġdh yanare
Ġadhya pika
Ġsampar nna
Ġph rana
nchi baku
Ġbri tannica
Ġthi o
Ġbala tkara
bahi nira
loka priya
Ġpau l
Ġmano bij
Ġak kineni
Ġno vember
Ġsho tha
Ġbhai mana
Ġmaj ja
Ġghati ba
Ġpala ce
Ġpri tiraja
Ġdara barare
Ġebe kara
Ġca t
Ġbije pira
Ġkanya kumari
Ġparbata ku
Ġthai thana
Ġth ri
Ġap ane
miti ng
ssi um
Ġlai sensa
Ġsainya mane
Ġsthiti ku
Ġmahakasha yana
Ġaruna chala
kend riya
Ġpresakripa sanare
Ġmandapa ku
hai dra
Ġglo ria
Ġbadhi ba
Ġkhya tanama
ngha tika
Ġphato graphi
Ġhau chi
Ġchampiyana sipa
Ġmusa lim
Ġraji ya
Ġupani shada
sure ndra
Ġnandi ghosha
Ġkamana àŃ±el
Ġkshi na
Ġchera paha
njiniyarim re
Ġchyane lare
Ġpadu thila
Ġawar ds
Ġsamas yare
Ġmul ti
bhaira la
his tory
Ġnuadilli re
thaira eda
Ġaf ter
Ġrahasya maya
Ġarchi te
uma tika
trritiya msha
stru ction
Ġnirodha ka
epi nephrina
Ġashtreli ara
Ġflu id
Ġmuhur tta
psy cho
Ġsmi th
àµ į
Ġmasta kare
vira l
Ġphauja dari
Ġdaire ktara
Ġuindo ja
Ġeuro pe
Ġshtadiya mare
traso und
1 22
d uru
e kara
i gale
m w
n mara
p tion
u tsa
v y
v ol
z er
Ã ¼
Ä ±
Ġ ze
ra s
ra ha
ra shi
ka laru
ya ga
Ġp anara
ti thi
Ġk lar
na e
Ġa mina
Ġe bhe
Ġe bhare
sh chandra
le o
le shana
Ġd yu
Ġma ps
Ġo sara
Ġo hari
Ġpra tah
Ġpra barttana
Ġpra kshepana
li tis
Ġbi yoga
Ġbi manara
pa k
Ġkari gari
Ġba h
Ġni ta
Ġan yanama
bha menta
Ġsam yojaka
Ġta te
Ġta pi
bi shàŃ±ra
mi t
Ġy ani
Ġcha iti
Ġda sanayaka
Ġi ri
Ġi siji
Ġdi ke
Ġja j
Ġja l
Ġja leni
Ġya krritare
se nt
se tebele
Ġnir yatana
Ġsama kaksha
Ġpari sha
Ġpari byapta
tiya e
tiya ka
Ġji ta
Ġbya pti
Ġsha k
me ga
Ġsh ort
nga gata
yai shtha
Ġmi mi
pi bhi
pi riyan
ne sa
ne sia
19 13
Ġch eka
Ġsu matra
Ġsu per
Ġjana ika
ĠsàŃ± artha
Ġt ane
har yya
Ġku l
Ġku ni
Ġku ku
Ġgo kula
pra sanna
Ġbharatiya mane
Ġne bare
Ġhi na
Ġhi ghe
Ġar ki
Ġte bula
sam ania
Ġbhu tana
mu kunda
Ġme l
gita l
Ġthila bele
pur n
pur be
go l
Ġat ro
Ġdekha dei
Ġ4 50
Ġsar ka
ph leksa
Ġprathama ti
Ġko ro
Ġmrrityu danda
Ġmana biya
Ġbada lei
Ġbahu mukhi
no l
ban aru
Ġshu ka
Ġshu dra
Ġban do
Ġban dhaba
Ġban darara
Ġrakta cha
Ġpe ntha
bo hu
Ġkhe laku
Ġphe mina
Ġpre m
Ġuttara khanda
Ġbai ra
Ġbai dya
Ġdeba gada
Ġphi na
co hol
nika tare
so ni
so mal
Ġghatana bali
ter y
sti na
Ġpradana kari
Ġho l
Ġchar las
Ġara ma
Ġthi ori
gh rana
Ġchali sha
Ġraya pura
Ġmani puri
lla i
Ġkilo gram
yar sa
