{
  "version": "1.0",
  "truncation": null,
  "padding": null,
  "added_tokens": [
    {
      "id": 0,
      "content": "<s>",
      "single_word": false,
      "lstrip": false,
      "rstrip": false,
      "normalized": false,
      "special": true
    },
    {
      "id": 1,
      "content": "<pad>",
      "single_word": false,
      "lstrip": false,
      "rstrip": false,
      "normalized": false,
      "special": true
    },
    {
      "id": 2,
      "content": "</s>",
      "single_word": false,
      "lstrip": false,
      "rstrip": false,
      "normalized": false,
      "special": true
    },
    {
      "id": 3,
      "content": "<unk>",
      "single_word": false,
      "lstrip": false,
      "rstrip": false,
      "normalized": false,
      "special": true
    },
    {
      "id": 4,
      "content": "<mask>",
      "single_word": false,
      "lstrip": false,
      "rstrip": false,
      "normalized": false,
      "special": true
    },
    {
      "id": 5,
      "content": "<|im_start|>",
      "single_word": false,
      "lstrip": false,
      "rstrip": false,
      "normalized": false,
      "special": true
    },
    {
      "id": 6,
      "content": "<|im_end|>",
      "single_word": false,
      "lstrip": false,
      "rstrip": false,
      "normalized": false,
      "special": true
    }
  ],
  "normalizer": null,
  "pre_tokenizer": {
    "type": "ByteLevel",
    "add_prefix_space": false,
    "trim_offsets": true,
    "use_regex": true
  },
  "post_processor": {
    "type": "ByteLevel",
    "add_prefix_space": true,
    "trim_offsets": false,
    "use_regex": true
  },
  "decoder": {
    "type": "ByteLevel",
    "add_prefix_space": true,
    "trim_offsets": true,
    "use_regex": true
  },
  "model": {
    "type": "BPE",
    "dropout": null,
    "unk_token": null,
    "continuing_subword_prefix": null,
    "end_of_word_suffix": null,
    "fuse_unk": false,
    "byte_fallback": false,
    "ignore_merges": false,
    "vocab": {
      "<s>": 0,
      "<pad>": 1,
      "</s>": 2,
      "<unk>": 3,
      "<mask>": 4,
      "<|im_start|>": 5,
      "<|im_end|>": 6,
      "!": 7,
      "\"": 8,
      "#": 9,
      "$": 10,
      "%": 11,
      "&": 12,
      "'": 13,
      "(": 14,
      ")": 15,
      "*": 16,
      "+": 17,
      ",": 18,
      "-": 19,
      ".": 20,
      "/": 21,
      "0": 22,
      "1": 23,
      "2": 24,
      "3": 25,
      "4": 26,
      "5": 27,
      "6": 28,
      "7": 29,
      "8": 30,
      "9": 31,
      ":": 32,
      ";": 33,
      "<": 34,
      "=": 35,
      ">": 36,
      "?": 37,
      "@": 38,
      "A": 39,
      "B": 40,
      "C": 41,
      "D": 42,
      "E": 43,
      "F": 44,
      "G": 45,
      "H": 46,
      "I": 47,
      "J": 48,
      "K": 49,
      "L": 50,
      "M": 51,
      "N": 52,
      "O": 53,
      "P": 54,
      "Q": 55,
      "R": 56,
      "S": 57,
      "T": 58,
      "U": 59,
      "V": 60,
      "W": 61,
      "X": 62,
      "Y": 63,
      "Z": 64,
      "[": 65,
      "\\": 66,
      "]": 67,
      "^": 68,
      "_": 69,
      "`": 70,
      "a": 71,
      "b": 72,
      "c": 73,
      "d": 74,
      "e": 75,
      "f": 76,
      "g": 77,
      "h": 78,
      "i": 79,
      "j": 80,
      "k": 81,
      "l": 82,
      "m": 83,
      "n": 84,
      "o": 85,
      "p": 86,
      "q": 87,
      "r": 88,
      "s": 89,
      "t": 90,
      "u": 91,
      "v": 92,
      "w": 93,
      "x": 94,
      "y": 95,
      "z": 96,
      "{": 97,
      "|": 98,
      "}": 99,
      "~": 100,
      "¡": 101,
      "¢": 102,
      "£": 103,
      "¤": 104,
      "¥": 105,
      "¦": 106,
      "§": 107,
      "¨": 108,
      "©": 109,
      "ª": 110,
      "«": 111,
      "¬": 112,
      "®": 113,
      "¯": 114,
      "°": 115,
      "±": 116,
      "²": 117,
      "³": 118,
      "´": 119,
      "µ": 120,
      "¶": 121,
      "·": 122,
      "¸": 123,
      "¹": 124,
      "º": 125,
      "»": 126,
      "¼": 127,
      "½": 128,
      "¾": 129,
      "¿": 130,
      "À": 131,
      "Á": 132,
      "Â": 133,
      "Ã": 134,
      "Ä": 135,
      "Å": 136,
      "Æ": 137,
      "Ç": 138,
      "È": 139,
      "É": 140,
      "Ê": 141,
      "Ë": 142,
      "Ì": 143,
      "Í": 144,
      "Î": 145,
      "Ï": 146,
      "Ð": 147,
      "Ñ": 148,
      "Ò": 149,
      "Ó": 150,
      "Ô": 151,
      "Õ": 152,
      "Ö": 153,
      "×": 154,
      "Ø": 155,
      "Ù": 156,
      "Ú": 157,
      "Û": 158,
      "Ü": 159,
      "Ý": 160,
      "Þ": 161,
      "ß": 162,
      "à": 163,
      "á": 164,
      "â": 165,
      "ã": 166,
      "ä": 167,
      "å": 168,
      "æ": 169,
      "ç": 170,
      "è": 171,
      "é": 172,
      "ê": 173,
      "ë": 174,
      "ì": 175,
      "í": 176,
      "î": 177,
      "ï": 178,
      "ð": 179,
      "ñ": 180,
      "ò": 181,
      "ó": 182,
      "ô": 183,
      "õ": 184,
      "ö": 185,
      "÷": 186,
      "ø": 187,
      "ù": 188,
      "ú": 189,
      "û": 190,
      "ü": 191,
      "ý": 192,
      "þ": 193,
      "ÿ": 194,
      "Ā": 195,
      "ā": 196,
      "Ă": 197,
      "ă": 198,
      "Ą": 199,
      "ą": 200,
      "Ć": 201,
      "ć": 202,
      "Ĉ": 203,
      "ĉ": 204,
      "Ċ": 205,
      "ċ": 206,
      "Č": 207,
      "č": 208,
      "Ď": 209,
      "ď": 210,
      "Đ": 211,
      "đ": 212,
      "Ē": 213,
      "ē": 214,
      "Ĕ": 215,
      "ĕ": 216,
      "Ė": 217,
      "ė": 218,
      "Ę": 219,
      "ę": 220,
      "Ě": 221,
      "ě": 222,
      "Ĝ": 223,
      "ĝ": 224,
      "Ğ": 225,
      "ğ": 226,
      "Ġ": 227,
      "ġ": 228,
      "Ģ": 229,
      "ģ": 230,
      "Ĥ": 231,
      "ĥ": 232,
      "Ħ": 233,
      "ħ": 234,
      "Ĩ": 235,
      "ĩ": 236,
      "Ī": 237,
      "ī": 238,
      "Ĭ": 239,
      "ĭ": 240,
      "Į": 241,
      "į": 242,
      "İ": 243,
      "ı": 244,
      "Ĳ": 245,
      "ĳ": 246,
      "Ĵ": 247,
      "ĵ": 248,
      "Ķ": 249,
      "ķ": 250,
      "ĸ": 251,
      "Ĺ": 252,
      "ĺ": 253,
      "Ļ": 254,
      "ļ": 255,
      "Ľ": 256,
      "ľ": 257,
      "Ŀ": 258,
      "ŀ": 259,
      "Ł": 260,
      "ł": 261,
      "Ń": 262,
      "ar": 263,
      "an": 264,
      "im": 265,
      "<|": 266,
      "|>": 267,
      "st": 268,
      "ha": 269,
      "hi": 270,
      "en": 271,
      "Ġk": 272,
      "art": 273,
      "end": 274,
      "start": 275,
      "ant": 276,
      "Ġs": 277,
      "as": 278,
      "ba": 279,
      "ra": 280,
      "ta": 281,
      "ya": 282,
      "Ġp": 283,
      "ka": 284,
      "ara": 285,
      "Ġn": 286,
      "si": 287,
      "er": 288,
      "ti": 289,
      "ana": 290,
      "are": 291,
      "sist": 292,
      "assist": 293,
      "assistant": 294,
      "Ġb": 295,
      "us": 296,
      "sh": 297,
      "li": 298,
      "user": 299,
      "ma": 300,
      "la": 301,
      "on": 302,
      "Ġa": 303,
      "ari": 304,
      "di": 305,
      "Ġe": 306,
      "ri": 307,
      "da": 308,
      "Ġsa": 309,
      "le": 310,
      "ku": 311,
      "ep": 312,
      ".<|": 313,
      "ng": 314,
      "thi": 315,
      "na": 316,
      "Ġc": 317,
      "Ġu": 318,
      "Ġh": 319,
      "Ġi": 320,
      "?<|": 321,
      "Ġd": 322,
      "antu": 323,
      "dia": 324,
      "Ġkar": 325,
      "Ġba": 326,
      "Ġpa": 327,
      "Ġna": 328,
      "Ġr": 329,
      "sa": 330,
      "Ġm": 331,
      "chi": 332,
      "ga": 333,
      "tion": 334,
      "ly": 335,
      "lish": 336,
      "Eng": 337,
      "Odia": 338,
      "ĠOdia": 339,
      "English": 340,
      "sha": 341,
      "Ġan": 342,
      "pa": 343,
      "Ġka": 344,
      "Ġkari": 345,
      "dh": 346,
      "Ġpra": 347,
      "Ġma": 348,
      "Ġra": 349,
      "te": 350,
      "Ġj": 351,
      "tu": 352,
      "Ġbi": 353,
      "Ġkarantu": 354,
      "tha": 355,
      "Ġg": 356,
      "rri": 357,
      "Ġle": 358,
      "man": 359,
      "Ġo": 360,
      "Ġeka": 361,
      "hara": 362,
      "ru": 363,
      "em": 364,
      "Ġsam": 365,
      "es": 366,
      "hu": 367,
      "tt": 368,
      "hab": 369,
      "Ġke": 370,
      "ch": 371,
      "kara": 372,
      "Ġta": 373,
      "ani": 374,
      "al": 375,
      "Ġin": 376,
      "Ġnka": 377,
      "pt": 378,
      "re": 379,
      "Ġpai": 380,
      "Ġare": 381,
      "Ġhe": 382,
      "Ġassistant": 383,
      "ou": 384,
      "ja": 385,
      "Ġcon": 386,
      "Ġni": 387,
      "ers": 388,
      "tura": 389,
      "sy": 390,
      "ction": 391,
      "ript": 392,
      "ver": 393,
      "Ġon": 394,
      "oman": 395,
      "stem": 396,
      "Ġsc": 397,
      "Ġrep": 398,
      "tional": 399,
      "Ġlett": 400,
      "sing": 401,
      "eep": 402,
      "stru": 403,
      "Ġrepli": 404,
      ").": 405,
      "AI": 406,
      "In": 407,
      "Keep": 408,
      "Rep": 409,
      "Roman": 410,
      "You": 411,
      "Ġ(": 412,
      "ĠEnglish": 413,
      "ĠAI": 414,
      "ĠKeep": 415,
      "ĠRep": 416,
      "ĠYou": 417,
      "Ġusing": 418,
      "Ġnatura": 419,
      "sational": 420,
      "Ġconver": 421,
      "system": 422,
      "Ġonly": 423,
      "Ġscript": 424,
      "Ġletters": 425,
      "struction": 426,
      "Ġreplies": 427,
      "Instruction": 428,
      "ĠReply": 429,
      "Ġnatural": 430,
      "Ġconversational": 431,
      "anti": 432,
      "hita": 433,
      "th": 434,
      "aru": 435,
      "thile": 436,
      "Ġde": 437,
      "bam": 438,
      "cha": 439,
      "Ġy": 440,
      "bi": 441,
      "Ġebam": 442,
      "yare": 443,
      "thiba": 444,
      "teka": 445,
      "tra": 446,
      "kh": 447,
      "Ġbak": 448,
      "oi": 449,
      "be": 450,
      "Ġya": 451,
      "ita": 452,
      "bha": 453,
      "Ġmadh": 454,
      "dha": 455,
      "ehi": 456,
      "Ġbya": 457,
      "Ġhoi": 458,
      "ni": 459,
      "asa": 460,
      "kta": 461,
      "ur": 462,
      "Ġki": 463,
      "arana": 464,
      "Ġpari": 465,
      "lo": 466,
      "Ġbha": 467,
      "ash": 468,
      "dhi": 469,
      "kha": 470,
      "Ġcha": 471,
      "uchi": 472,
      "Ġse": 473,
      "Ġsh": 474,
      "gu": 475,
      "yu": 476,
      "mana": 477,
      "Ġehi": 478,
      "shi": 479,
      "asi": 480,
      "Ġkant": 481,
      "Ġkariba": 482,
      "ki": 483,
      "Ġmu": 484,
      "tara": 485,
      "ke": 486,
      "Ġkara": 487,
      "Ġketeka": 488,
      "yae": 489,
      "Ġsama": 490,
      "Ġbakya": 491,
      "nim": 492,
      "ho": 493,
      "Ġ1": 494,
      "pare": 495,
      "thila": 496,
      "Ġbar": 497,
      "Ġdi": 498,
      "rrish": 499,
      "Ġla": 500,
      "pari": 501,
      "mi": 502,
      "Ġga": 503,
      "thae": 504,
      "yai": 505,
      "Ġheuchi": 506,
      "ji": 507,
      "Ġbhab": 508,
      "Ġti": 509,
      "Ġchi": 510,
      "Ġro": 511,
      "dana": 512,
      "nna": 513,
      "Ġshab": 514,
      "oti": 515,
      "lik": 516,
      "ane": 517,
      "Ġt": 518,
      "Ġmadhya": 519,
      "Ġda": 520,
      "Ġbyaba": 521,
      "he": 522,
      "Ġja": 523,
      "eka": 524,
      "Ġhu": 525,
      "Ġpu": 526,
      "Ġst": 527,
      "Ġkantha": 528,
      "Ġshabda": 529,
      "Ġku": 530,
      "Ġupa": 531,
      "Ġnku": 532,
      "Ġ2": 533,
      "se": 534,
      "ksh": 535,
      "Ġeha": 536,
      "Ġpr": 537,
      "gi": 538,
      "mu": 539,
      "iti": 540,
      "Ġnama": 541,
      "Ġnir": 542,
      "Ġmi": 543,
      "Ġkarithile": 544,
      "likhita": 545,
      "Ġsu": 546,
      "nalikhita": 547,
      "yya": 548,
      "bhi": 549,
      "Ġnkara": 550,
      "rrishti": 551,
      "khi": 552,
      "kar": 553,
      "kti": 554,
      "ksha": 555,
      "anta": 556,
      "de": 557,
      "Ġara": 558,
      "Ġhue": 559,
      "Ġnga": 560,
      "khya": 561,
      "nimnalikhita": 562,
      "tr": 563,
      "Ġji": 564,
      "guda": 565,
      "sta": 566,
      "pi": 567,
      "asha": 568,
      "bara": 569,
      "Ġlo": 570,
      "Ġha": 571,
      "har": 572,
      "Ġpar": 573,
      "Ġrahi": 574,
      "Ġsrrishti": 575,
      "dhika": 576,
      "hana": 577,
      "bu": 578,
      "pana": 579,
      "Ġshi": 580,
      "Ġbyabahara": 581,
      "chanti": 582,
      "Ġbisha": 583,
      "krri": 584,
      "Ġthiba": 585,
      "Ġdu": 586,
      "stu": 587,
      "Ġbakyaku": 588,
      "anda": 589,
      "Ġsha": 590,
      "shta": 591,
      "tana": 592,
      "keteka": 593,
      "she": 594,
      "Ġyaha": 595,
      "otie": 596,
      "hare": 597,
      "Ġkatha": 598,
      "tare": 599,
      "hala": 600,
      "yara": 601,
      "Ġye": 602,
      "khantu": 603,
      "Ġprati": 604,
      "anare": 605,
      "Ġncha": 606,
      "Ġsaha": 607,
      "ro": 608,
      "Ġre": 609,
      "bart": 610,
      "yo": 611,
      "Ġ-": 612,
      "riya": 613,
      "anika": 614,
      "dara": 615,
      "Ġam": 616,
      "in": 617,
      "Ġyo": 618,
      "hari": 619,
      "chitra": 620,
      "Ġtaha": 621,
      "jana": 622,
      "pra": 623,
      "Ġng": 624,
      "eri": 625,
      "shana": 626,
      "Ġpur": 627,
      "bhu": 628,
      "nata": 629,
      "Ġlekhantu": 630,
      "Ġnahi": 631,
      "Ġsahita": 632,
      "Ġbhabare": 633,
      "tharu": 634,
      "mane": 635,
      "eha": 636,
      "anara": 637,
      "tya": 638,
      "Ġkha": 639,
      "Ġ3": 640,
      "iba": 641,
      "Ġ5": 642,
      "tire": 643,
      "karana": 644,
      "Ġadhika": 645,
      "nn": 646,
      "Ġnim": 647,
      "anya": 648,
      "Ġroga": 649,
      "lare": 650,
      "imba": 651,
      "Ġanu": 652,
      "no": 653,
      "Ġbo": 654,
      "lu": 655,
      "Ġne": 656,
      "nah": 657,
      "yaka": 658,
      "Ġadi": 659,
      "Ġloka": 660,
      "Ġkho": 661,
      "Ġkanthadana": 662,
      "Ġgu": 663,
      "Ġkimba": 664,
      "pu": 665,
      "lika": 666,
      "ima": 667,
      "me": 668,
      "Ġsabu": 669,
      "bana": 670,
      "Ġdia": 671,
      "Ġpunah": 672,
      "nnana": 673,
      "Ġbu": 674,
      "Ġab": 675,
      "Ġkaru": 676,
      "kari": 677,
      "andi": 678,
      "Ġkarayai": 679,
      "un": 680,
      "dharana": 681,
      "kare": 682,
      "dra": 683,
      "Ġut": 684,
      "thare": 685,
      "kra": 686,
      "Ġmadhyare": 687,
      "Ġkete": 688,
      "share": 689,
      "Ġpi": 690,
      "Ġ,": 691,
      "para": 692,
      "Ġkeu": 693,
      "gra": 694,
      "pur": 695,
      "Ġupare": 696,
      "shil": 697,
      "00": 698,
      "Ġchih": 699,
      "Ġnu": 700,
      "Ġru": 701,
      "Ġmo": 702,
      "Ġdei": 703,
      "Ġgotie": 704,
      "Ġheba": 705,
      "lara": 706,
      "ph": 707,
      "trare": 708,
      "Ġ4": 709,
      "stha": 710,
      "mara": 711,
      "Ġbish": 712,
      "Ġkanthashil": 713,
      "Ġbarnnana": 714,
      "Ġkare": 715,
      "Ġbada": 716,
      "Ġdekha": 717,
      "bhaba": 718,
      "Ġkathachitra": 719,
      "Ġas": 720,
      "eni": 721,
      "artha": 722,
      "harana": 723,
      "Ġbe": 724,
      "Ġgra": 725,
      "kana": 726,
      "ntu": 727,
      "Ġthila": 728,
      "Ġkaryya": 729,
      "Ġtiari": 730,
      "yana": 731,
      "Ġbhi": 732,
      "Ġachi": 733,
      "gita": 734,
      "Ġpara": 735,
      "du": 736,
      "dya": 737,
      "dhana": 738,
      "mare": 739,
      "chana": 740,
      "krrita": 741,
      "ban": 742,
      "baku": 743,
      "gara": 744,
      "Ġkahi": 745,
      "imane": 746,
      "Ġsar": 747,
      "bala": 748,
      "Ġprastu": 749,
      "Ġraja": 750,
      "Ġbakyare": 751,
      "Ġbishayare": 752,
      "Ġsi": 753,
      "Ġbhu": 754,
      "Ġanya": 755,
      "ddha": 756,
      "lana": 757,
      "bar": 758,
      "Ġkarayae": 759,
      "Ġehara": 760,
      "par": 761,
      "Ġika": 762,
      "chcha": 763,
      "Ġkichi": 764,
      "nokta": 765,
      "ena": 766,
      "tika": 767,
      "Ġrahichi": 768,
      "Ġboli": 769,
      "Ġprastuta": 770,
      "tiya": 771,
      "Ġar": 772,
      "Ġjane": 773,
      "Ġdiantu": 774,
      "yi": 775,
      "Ġph": 776,
      "Ġjana": 777,
      "Ġkana": 778,
      "Ġsamkhya": 779,
      "ko": 780,
      "Ġkanika": 781,
      "Ġko": 782,
      "usha": 783,
      "bele": 784,
      "Ġchihnata": 785,
      "Ġrakta": 786,
      "kshi": 787,
      "to": 788,
      "Ġhi": 789,
      "Ġdekhi": 790,
      "Ġchala": 791,
      "Ġkebe": 792,
      "Ġkam": 793,
      "tta": 794,
      "Ġsamayare": 795,
      "Ġanus": 796,
      "bhab": 797,
      "Ġpare": 798,
      "Ġtu": 799,
      "Ġiku": 800,
      "reni": 801,
      "thya": 802,
      "pha": 803,
      "Ġkaranti": 804,
      "mo": 805,
      "Ġaba": 806,
      "maka": 807,
      "thire": 808,
      "dhara": 809,
      "Ġparibart": 810,
      "Ġabhi": 811,
      "Ġtalika": 812,
      "jantu": 813,
      "gha": 814,
      "baru": 815,
      "Ġoda": 816,
      "ashta": 817,
      "tira": 818,
      "Ġuda": 819,
      "jara": 820,
      "imana": 821,
      "Ġkshe": 822,
      "kshana": 823,
      "gata": 824,
      "Ġjan": 825,
      "lpa": 826,
      "Ġnird": 827,
      "shara": 828,
      "Ġduiti": 829,
      "Ġthile": 830,
      "Ġala": 831,
      "Ġlekha": 832,
      "Ġshreni": 833,
      "pe": 834,
      "rrit": 835,
      "Ġmaha": 836,
      "Ġme": 837,
      "Ġbhala": 838,
      "Ġkanthashilp": 839,
      "Ġpratha": 840,
      "phala": 841,
      "Ġkipari": 842,
      "Ġmukhya": 843,
      "kata": 844,
      "Ġapana": 845,
      "pta": 846,
      "Ġkanthashilpimane": 847,
      "uu": 848,
      "hantu": 849,
      "nimnokta": 850,
      "unasi": 851,
      "tmaka": 852,
      "yaru": 853,
      "Ġmasi": 854,
      "Ġprak": 855,
      "Ġchalach": 856,
      "Ġsadharana": 857,
      "Ġkama": 858,
      "Ġbargi": 859,
      "Ġparibarttana": 860,
      "Ġant": 861,
      "bhukta": 862,
      "Ġbhara": 863,
      "Ġkhojantu": 864,
      "Ġte": 865,
      "shaka": 866,
      "Ġgo": 867,
      "Ġheu": 868,
      "purnna": 869,
      "hila": 870,
      "Ġkala": 871,
      "Ġbahu": 872,
      "Ġshakti": 873,
      "Ġkathachitratire": 874,
      "tri": 875,
      "Ġhara": 876,
      "Ġbhabe": 877,
      "bya": 878,
      "Ġyu": 879,
      "yukta": 880,
      "mbha": 881,
      "Ġpada": 882,
      "Ġbishaya": 883,
      "Ġkintu": 884,
      "tar": 885,
      "Ġhoipare": 886,
      "pada": 887,
      "Ġsem": 888,
      "Ġasi": 889,
      "Ġhoithae": 890,
      "pariba": 891,
      "tah": 892,
      "ashyaka": 893,
      "chara": 894,
      "andh": 895,
      "Ġkarana": 896,
      "yoga": 897,
      "gotie": 898,
      "Ġau": 899,
      "Ġai": 900,
      "Ġsth": 901,
      "Ġbhali": 902,
      "Ġate": 903,
      "Ġkale": 904,
      "Ġpha": 905,
      "tsa": 906,
      "bad": 907,
      "bada": 908,
      "gare": 909,
      "and": 910,
      "Ġso": 911,
      "Ġaneka": 912,
      "yaithiba": 913,
      "yanta": 914,
      "Ġtara": 915,
      "Ġ10": 916,
      "thanti": 917,
      "Ġnei": 918,
      "dishta": 919,
      "tama": 920,
      "Ġyeu": 921,
      "Ġsabutharu": 922,
      "ush": 923,
      "Ġsathi": 924,
      "Ġia": 925,
      "basa": 926,
      "Ġudaharana": 927,
      "Ġsamaya": 928,
      "pan": 929,
      "Ġyogu": 930,
      "Ġbargikrrita": 931,
      "Ġbarsha": 932,
      "go": 933,
      "Ġshu": 934,
      "Ġprakara": 935,
      "Ġgan": 936,
      "Ġ19": 937,
      "Ġkuhantu": 938,
      "Ġarambha": 939,
      "bo": 940,
      "Ġartha": 941,
      "Ġgita": 942,
      "Ġabashyaka": 943,
      "Ġanusare": 944,
      "Ġbrri": 945,
      "Ġak": 946,
      "Ġkuha": 947,
      "Ġdekhayae": 948,
      "lya": 949,
      "yas": 950,
      "Ġpo": 951,
      "dhani": 952,
      "karara": 953,
      "Ġ6": 954,
      "Ġrajadhani": 955,
      "kala": 956,
      "ttara": 957,
      "Ġhela": 958,
      "bh": 959,
      "Ġdha": 960,
      "je": 961,
      "Ġgha": 962,
      "Ġkaribaku": 963,
      "dar": 964,
      "hanti": 965,
      "ante": 966,
      "rana": 967,
      "Ġkabi": 968,
      "rrita": 969,
      "Ġim": 970,
      "Ġthae": 971,
      "bak": 972,
      "Ġkaunasi": 973,
      "karatmaka": 974,
      "Ġmandi": 975,
      "Ġsamana": 976,
      "aniya": 977,
      "bare": 978,
      "ona": 979,
      "Ġnija": 980,
      "tiku": 981,
      "Ġehaku": 982,
      "ura": 983,
      "taku": 984,
      "Ġsamasta": 985,
      "Ġprash": 986,
      "kant": 987,
      "Ġcho": 988,
      "sam": 989,
      "chita": 990,
      "phi": 991,
      "yyanta": 992,
      "Ġri": 993,
      "Ġmar": 994,
      "lai": 995,
      "Ġati": 996,
      "Ġman": 997,
      "Ġbyakti": 998,
      "Ġli": 999,
      "Ġhele": 1000,
      "Ġ'": 1001,
      "Ġl": 1002,
      "mita": 1003,
      "arare": 1004,
      "bartti": 1005,
      "Ġmasihare": 1006,
      "Ġthi": 1007,
      "Ġbahara": 1008,
      "Ġjala": 1009,
      "Ġnimante": 1010,
      "ne": 1011,
      "og": 1012,
      "Ġbishe": 1013,
      "Ġasa": 1014,
      "Ġmulya": 1015,
      "rd": 1016,
      "Ġsamu": 1017,
      "Ġparyyanta": 1018,
      "Ġameri": 1019,
      "Ġantar": 1020,
      "Ġausha": 1021,
      "Ġbai": 1022,
      "gala": 1023,
      "Ġ8": 1024,
      "lita": 1025,
      "Ġkarichanti": 1026,
      "Ġyai": 1027,
      "hani": 1028,
      "yasa": 1029,
      "shu": 1030,
      "epari": 1031,
      "Ġdina": 1032,
      "Ġsemana": 1033,
      "Ġganana": 1034,
      "mba": 1035,
      "rara": 1036,
      "Ġhoithila": 1037,
      "sthi": 1038,
      "Ġ20": 1039,
      "ddhi": 1040,
      "Ġalo": 1041,
      "Ġkanta": 1042,
      "Ġparsh": 1043,
      "kriya": 1044,
      "Ġsara": 1045,
      "Ġphu": 1046,
      "Ġdo": 1047,
      "Ġadh": 1048,
      "Ġjibana": 1049,
      "Ġngita": 1050,
      "Ġmana": 1051,
      "laka": 1052,
      "Ġchari": 1053,
      "!<|": 1054,
      "kri": 1055,
      "Ġadhi": 1056,
      "Ġch": 1057,
      "Ġmadhyaru": 1058,
      "Ġkaruthiba": 1059,
      "Ġ7": 1060,
      "yama": 1061,
      "Ġprathama": 1062,
      "uda": 1063,
      "Ġpradana": 1064,
      "Ġprakarara": 1065,
      "Ġchiki": 1066,
      "Ġngi": 1067,
      "Ġuttara": 1068,
      "Ġrakhi": 1069,
      "Ġkie": 1070,
      "Ġaksh": 1071,
      "Ġdar": 1072,
      "Ġpraya": 1073,
      "Ġbuj": 1074,
      "Ġsthanare": 1075,
      "dita": 1076,
      "Ġtathya": 1077,
      "Ġdeba": 1078,
      "besha": 1079,
      "Ġsthana": 1080,
      "bhinna": 1081,
      "gri": 1082,
      "Ġphala": 1083,
      "bastu": 1084,
      "taka": 1085,
      "Ġnchati": 1086,
      "Ġtha": 1087,
      "imi": 1088,
      "Ġud": 1089,
      "Ġaushadha": 1090,
      "yiba": 1091,
      "Ġana": 1092,
      "Ġbastu": 1093,
      "chari": 1094,
      "Ġkhadya": 1095,
      "19": 1096,
      "jan": 1097,
      "nda": 1098,
      "pani": 1099,
      "asya": 1100,
      "emiti": 1101,
      "Ġshir": 1102,
      "ei": 1103,
      "kas": 1104,
      "ksa": 1105,
      "rama": 1106,
      "mika": 1107,
      "jita": 1108,
      "matra": 1109,
      "lekha": 1110,
      "Ġsams": 1111,
      "sana": 1112,
      "gudi": 1113,
      "Ġstha": 1114,
      "Ġmandira": 1115,
      "bhara": 1116,
      "ddh": 1117,
      "Ġksha": 1118,
      "Ġkhe": 1119,
      "ashu": 1120,
      "Ġuchcha": 1121,
      "Ġdhar": 1122,
      "ala": 1123,
      "ila": 1124,
      "Ġkarantuh": 1125,
      "khare": 1126,
      "Ġbele": 1127,
      "sho": 1128,
      "Ġmish": 1129,
      "tti": 1130,
      "Ġth": 1131,
      "Ġche": 1132,
      "Ġupayukta": 1133,
      "Ġamsha": 1134,
      "Ġchikitsa": 1135,
      "Ġchar": 1136,
      "Ġpad": 1137,
      "Ġtini": 1138,
      "Ġbho": 1139,
      "mata": 1140,
      "Ġat": 1141,
      "Ġama": 1142,
      "Ġshe": 1143,
      "Ġkshetrare": 1144,
      "nara": 1145,
      "nki": 1146,
      "sara": 1147,
      "yata": 1148,
      "Ġnja": 1149,
      "Ġast": 1150,
      "Ġdh": 1151,
      "gana": 1152,
      "Ġchota": 1153,
      "ina": 1154,
      "nare": 1155,
      "raji": 1156,
      "Ġlakshana": 1157,
      "anaru": 1158,
      "enta": 1159,
      "tebele": 1160,
      "Ġbhinna": 1161,
      "Ġchalachchi": 1162,
      "po": 1163,
      "ty": 1164,
      "una": 1165,
      "rata": 1166,
      "Ġpatha": 1167,
      "uryya": 1168,
      "ish": 1169,
      "Ġdur": 1170,
      "Ġnish": 1171,
      "Ġnamakarana": 1172,
      "Ġshrenibhukta": 1173,
      "uthiba": 1174,
      "enu": 1175,
      "badbad": 1176,
      "Ġkuhayae": 1177,
      "Ġakar": 1178,
      "Ġdesha": 1179,
      "Ġguru": 1180,
      "tita": 1181,
      "laku": 1182,
      "Ġikara": 1183,
      "Ġmili": 1184,
      "Ġprakasha": 1185,
      "chu": 1186,
      "uuuu": 1187,
      "Ġsehi": 1188,
      "Ġpani": 1189,
      "Ġchali": 1190,
      "Ġnirnna": 1191,
      "trara": 1192,
      "Ġdiayae": 1193,
      "pr": 1194,
      "Ġbhabana": 1195,
      "kramana": 1196,
      "Ġprashna": 1197,
      "kantha": 1198,
      "rare": 1199,
      "artta": 1200,
      "Ġphi": 1201,
      "Ġbh": 1202,
      "dina": 1203,
      "Ġpadha": 1204,
      "Ġyepari": 1205,
      "Ġnuhe": 1206,
      "Ġkshetra": 1207,
      "Ġnirddishta": 1208,
      "Ġbishayabastu": 1209,
      "Ġshirshaka": 1210,
      "Ġchu": 1211,
      "Ġprabhaba": 1212,
      "Ġraj": 1213,
      "Ġjani": 1214,
      "Ġsambhab": 1215,
      "Ġhoichi": 1216,
      "Ġdui": 1217,
      "Ġnua": 1218,
      "Ġnirnnaya": 1219,
      "gh": 1220,
      "ran": 1221,
      "Ġachanti": 1222,
      "yaichi": 1223,
      "Ġshiksha": 1224,
      "Ġabast": 1225,
      "Ġchalachchitra": 1226,
      "adhara": 1227,
      "vog": 1228,
      "antra": 1229,
      "pati": 1230,
      "Ġchitra": 1231,
      "Ġsovog": 1232,
      "Ġsovogpt": 1233,
      "kan": 1234,
      "baha": 1235,
      "oni": 1236,
      "Ġbij": 1237,
      "Ġnila": 1238,
      "shishta": 1239,
      "mar": 1240,
      "thibi": 1241,
      "Ġsampurnna": 1242,
      "kintu": 1243,
      "staba": 1244,
      "msha": 1245,
      "Ġpro": 1246,
      "Ġnirmana": 1247,
      "Ġbrriddhi": 1248,
      "Ġ9": 1249,
      "Ġapa": 1250,
      "rrithibi": 1251,
      "Ġsampar": 1252,
      "Ġakshara": 1253,
      "ehara": 1254,
      "priya": 1255,
      "ye": 1256,
      "Ġbibhinna": 1257,
      "Ġgh": 1258,
      "Ġshabdaguda": 1259,
      "Ġbhasha": 1260,
      "Ġbhashare": 1261,
      "Ġshabdaku": 1262,
      "Ġngara": 1263,
      "Ġash": 1264,
      "Ġnana": 1265,
      "Ġnji": 1266,
      "Ġkebala": 1267,
      "thara": 1268,
      "char": 1269,
      "mas": 1270,
      "Ġmata": 1271,
      "Ġparinata": 1272,
      "Ġshri": 1273,
      "tan": 1274,
      "Ġkriya": 1275,
      "antrana": 1276,
      "arita": 1277,
      "thita": 1278,
      "put": 1279,
      "Ġuchi": 1280,
      "sama": 1281,
      "desha": 1282,
      "Ġkanthashilpi": 1283,
      "Ġbahuta": 1284,
      "jare": 1285,
      "noti": 1286,
      "pashta": 1287,
      "Ġsim": 1288,
      "yaku": 1289,
      "rika": 1290,
      "Ġul": 1291,
      "Ġmahila": 1292,
      "Ġbakyara": 1293,
      "Ġlabha": 1294,
      "kshep": 1295,
      "20": 1296,
      "Ġkh": 1297,
      "pai": 1298,
      "patra": 1299,
      "Ġlekhi": 1300,
      "Ġpariksha": 1301,
      "rrityu": 1302,
      "andhei": 1303,
      "tyeka": 1304,
      "ge": 1305,
      "yar": 1306,
      "Ġkra": 1307,
      "Ġsami": 1308,
      "Ġtatha": 1309,
      "thana": 1310,
      "Ġrogi": 1311,
      "Ġyoga": 1312,
      "gan": 1313,
      "it": 1314,
      "yanya": 1315,
      "ashila": 1316,
      "shtha": 1317,
      "Ġdasha": 1318,
      "Ġkal": 1319,
      "Ġtinoti": 1320,
      "Ġtri": 1321,
      "Ġpuja": 1322,
      "Ġdiayaithiba": 1323,
      "Ġutsa": 1324,
      "am": 1325,
      "Ġnara": 1326,
      "uro": 1327,
      "keta": 1328,
      "Ġlamba": 1329,
      "Ġngala": 1330,
      "naya": 1331,
      "Ġkaribara": 1332,
      "Ġhoithiba": 1333,
      "ashtra": 1334,
      "Ġshari": 1335,
      "kiya": 1336,
      "mukha": 1337,
      "Ġsathik": 1338,
      "rasa": 1339,
      "Ġbishishta": 1340,
      "Ġsamasya": 1341,
      "Ġkabita": 1342,
      "Ġbishesha": 1343,
      "Ġasth": 1344,
      "gya": 1345,
      "las": 1346,
      "pyu": 1347,
      "bata": 1348,
      "Ġdhari": 1349,
      "Ġprakrri": 1350,
      "eshi": 1351,
      "habi": 1352,
      "bhaya": 1353,
      "Ġrahiba": 1354,
      "Ġpurnna": 1355,
      "Ġrupa": 1356,
      "panan": 1357,
      "do": 1358,
      "hrrita": 1359,
      "Ġlagi": 1360,
      "peksha": 1361,
      "arta": 1362,
      "Ġbra": 1363,
      "Ġpaha": 1364,
      "gada": 1365,
      "Ġmahanti": 1366,
      "Ġsamsho": 1367,
      "Ġmula": 1368,
      "Ġto": 1369,
      "Ġhai": 1370,
      "kshina": 1371,
      "Ġjanma": 1372,
      "shita": 1373,
      "Ġkandhei": 1374,
      "ashi": 1375,
      "Ġbartta": 1376,
      "daya": 1377,
      "Ġsemane": 1378,
      "lata": 1379,
      "thibaru": 1380,
      "Ġdasa": 1381,
      "Ġdrrishti": 1382,
      "Ġmrrityu": 1383,
      "mani": 1384,
      "Ġbyabahrrita": 1385,
      "Ġhuanti": 1386,
      "Ġpurbaru": 1387,
      "Ġkarayaichi": 1388,
      "Ġchalachchitrare": 1389,
      "nthire": 1390,
      "oda": 1391,
      "kalpa": 1392,
      "labha": 1393,
      "Ġina": 1394,
      "pata": 1395,
      "Ġbibha": 1396,
      "nird": 1397,
      "Ġbhaga": 1398,
      "tyadi": 1399,
      "Ġheuthiba": 1400,
      "Ġuchit": 1401,
      "ai": 1402,
      "ithile": 1403,
      "msa": 1404,
      "taru": 1405,
      "Ġbara": 1406,
      "Ġada": 1407,
      "Ġityadi": 1408,
      "Ġprastaba": 1409,
      "Ġmatare": 1410,
      "bidha": 1411,
      "keu": 1412,
      "Ġpila": 1413,
      "Ġmora": 1414,
      "Ġgrahana": 1415,
      "Ġbharatiya": 1416,
      "apana": 1417,
      "su": 1418,
      "ent": 1419,
      "Ġkhu": 1420,
      "Ġkemiti": 1421,
      "antara": 1422,
      "Ġsuryya": 1423,
      "tab": 1424,
      "kura": 1425,
      "bish": 1426,
      "Ġyatha": 1427,
      "Ġupadana": 1428,
      "Ġjil": 1429,
      "Ġlokapriya": 1430,
      "Ġkaruthile": 1431,
      "graha": 1432,
      "Ġbishle": 1433,
      "banu": 1434,
      "dare": 1435,
      "usa": 1436,
      "desh": 1437,
      "Ġnchalare": 1438,
      "Ġyoda": 1439,
      "Ġguda": 1440,
      "pura": 1441,
      "yika": 1442,
      "Ġshesha": 1443,
      "khara": 1444,
      "nta": 1445,
      "Ġart": 1446,
      "Ġanti": 1447,
      "Ġphe": 1448,
      "Ġad": 1449,
      "Ġgi": 1450,
      "Ġnijara": 1451,
      "Ġseba": 1452,
      "Ġjini": 1453,
      "Ġmishra": 1454,
      "jj": 1455,
      "oma": 1456,
      "hira": 1457,
      "kali": 1458,
      "Ġdharana": 1459,
      "Ġkarithae": 1460,
      "dhu": 1461,
      "Ġprabhab": 1462,
      "Ġpramukha": 1463,
      "Ġsun": 1464,
      "Ġjib": 1465,
      "Ġimraji": 1466,
      "bho": 1467,
      "nu": 1468,
      "bayu": 1469,
      "Ġnira": 1470,
      "Ġsura": 1471,
      "Ġtulana": 1472,
      "Ġsathika": 1473,
      "10": 1474,
      "eta": 1475,
      "nika": 1476,
      "Ġullekha": 1477,
      "hasa": 1478,
      "liba": 1479,
      "Ġsatya": 1480,
      "padana": 1481,
      "asam": 1482,
      "Ġmile": 1483,
      "Ġsarba": 1484,
      "Ġkshetraphala": 1485,
      "Ġf": 1486,
      "Ġag": 1487,
      "Ġaji": 1488,
      "Ġpratyeka": 1489,
      "Ġyatra": 1490,
      "Ġhoiyae": 1491,
      "Ġsamagri": 1492,
      "Ġprana": 1493,
      "stabi": 1494,
      "mora": 1495,
      "nirddishta": 1496,
      "Ġbishleshana": 1497,
      "jane": 1498,
      "lasi": 1499,
      "Ġnadi": 1500,
      "pamatra": 1501,
      "Ġkaripari": 1502,
      "Ġbyatita": 1503,
      "Ġharahari": 1504,
      "dro": 1505,
      "Ġpashu": 1506,
      "Ġap": 1507,
      "Ġkami": 1508,
      "Ġnutana": 1509,
      "Ġsadharanatah": 1510,
      "Ġsamshodhana": 1511,
      "Ġsin": 1512,
      "disha": 1513,
      "Ġdhara": 1514,
      "Ġbayu": 1515,
      "tebe": 1516,
      "duiti": 1517,
      "Ġpadartha": 1518,
      "mma": 1519,
      "namas": 1520,
      "Ġnam": 1521,
      "Ġbichara": 1522,
      "Ġyadi": 1523,
      "Ġhoithile": 1524,
      "rrishna": 1525,
      "Ġupama": 1526,
      "krama": 1527,
      "Ġhin": 1528,
      "namaskar": 1529,
      "uthile": 1530,
      "andra": 1531,
      "rida": 1532,
      "Ġsakaratmaka": 1533,
      "Ġujj": 1534,
      "Ġdra": 1535,
      "Ġkarithanti": 1536,
      "Ġdija": 1537,
      "Ġdura": 1538,
      "brrit": 1539,
      "kt": 1540,
      "Ġntu": 1541,
      "Ġal": 1542,
      "Ġete": 1543,
      "Ġdara": 1544,
      "Ġyi": 1545,
      "Ġ15": 1546,
      "Ġtru": 1547,
      "odisha": 1548,
      "Ġ0": 1549,
      "hasi": 1550,
      "maku": 1551,
      "rriti": 1552,
      "Ġnikata": 1553,
      "Ġupaya": 1554,
      "Ġnamaka": 1555,
      "Ġlohita": 1556,
      "Ġdekhibaku": 1557,
      "shudra": 1558,
      "ela": 1559,
      "ktara": 1560,
      "pla": 1561,
      "pita": 1562,
      "andara": 1563,
      "Ġalpa": 1564,
      "Ġsaphala": 1565,
      "Ġbadha": 1566,
      "Ġrachana": 1567,
      "Ġgho": 1568,
      "huri": 1569,
      "chantu": 1570,
      "Ġtapamatra": 1571,
      "Ġjiba": 1572,
      "Ġsahayya": 1573,
      "000": 1574,
      "byakti": 1575,
      "Ġshuni": 1576,
      "Ġaloka": 1577,
      "Ġsambhabana": 1578,
      "Ġnk": 1579,
      "onara": 1580,
      "Ġepari": 1581,
      "Ġbahi": 1582,
      "Ġrri": 1583,
      "Ġkata": 1584,
      "Ġyahara": 1585,
      "Ġnimnalikhita": 1586,
      "parabartti": 1587,
      "barani": 1588,
      "gudika": 1589,
      "el": 1590,
      "lantu": 1591,
      "tim": 1592,
      "upa": 1593,
      "yyare": 1594,
      "ene": 1595,
      "Ġkshudra": 1596,
      "lek": 1597,
      "Ġani": 1598,
      "Ġmaja": 1599,
      "asiddha": 1600,
      "Ġ12": 1601,
      "Ġguna": 1602,
      "Ġbuddh": 1603,
      "Ġabhinaya": 1604,
      "Ġtiniti": 1605,
      "laya": 1606,
      "Ġsad": 1607,
      "Ġubhaya": 1608,
      "sabu": 1609,
      "Ġbibarani": 1610,
      "Ġdebi": 1611,
      "Ġdauda": 1612,
      "Ġkhai": 1613,
      "Ġanubada": 1614,
      "Ġgraha": 1615,
      "Ġghatana": 1616,
      "dyu": 1617,
      "kasha": 1618,
      "has": 1619,
      "Ġphar": 1620,
      "maha": 1621,
      "kula": 1622,
      "Ġpaka": 1623,
      "Ġkali": 1624,
      "Ġkahani": 1625,
      "Ġkarithila": 1626,
      "Ġsamkshi": 1627,
      "Ġgacha": 1628,
      "Ġrogara": 1629,
      "Ġpusta": 1630,
      "india": 1631,
      "ju": 1632,
      "or": 1633,
      "Ġkani": 1634,
      "Ġbas": 1635,
      "lei": 1636,
      "Ġdhu": 1637,
      "Ġsamkramana": 1638,
      "kie": 1639,
      "Ġlaksh": 1640,
      "Ġgati": 1641,
      "Ġsuchana": 1642,
      "darshana": 1643,
      "Ġantarbhukta": 1644,
      "Ġdokana": 1645,
      "Ġsundara": 1646,
      "Ġsamkshipta": 1647,
      "adhika": 1648,
      "Ġw": 1649,
      "bai": 1650,
      "Ġprrish": 1651,
      "Ġethire": 1652,
      "natha": 1653,
      "Ġira": 1654,
      "sadharana": 1655,
      "Ġgar": 1656,
      "the": 1657,
      "Ġyiba": 1658,
      "Ġgabe": 1659,
      "Ġdakshina": 1660,
      "bhira": 1661,
      "Ġnimnokta": 1662,
      "Ġneta": 1663,
      "Ġbrah": 1664,
      "Ġlu": 1665,
      "Ġsahi": 1666,
      "Ġsahara": 1667,
      "Ġhrasa": 1668,
      "Ġbachantu": 1669,
      "Ġrahithae": 1670,
      "Ġpurana": 1671,
      "Ġ201": 1672,
      "pyutara": 1673,
      "Ġsuraksha": 1674,
      "Ġtruti": 1675,
      "om": 1676,
      "ora": 1677,
      "tenu": 1678,
      "yoti": 1679,
      "kam": 1680,
      "Ġeta": 1681,
      "Ġsagara": 1682,
      "Ġunna": 1683,
      "Ġbala": 1684,
      "sala": 1685,
      "Ġmani": 1686,
      "Ġpraja": 1687,
      "Ġnkad": 1688,
      "jaku": 1689,
      "chalita": 1690,
      "Ġkini": 1691,
      "Ġsamadhana": 1692,
      "Ġdalara": 1693,
      "Ġjati": 1694,
      "Ġjatiya": 1695,
      "Ġparyya": 1696,
      "krriti": 1697,
      "Ġkhoji": 1698,
      "Ġbadalai": 1699,
      "Ġgurut": 1700,
      "ranta": 1701,
      "Ġspashta": 1702,
      "Ġnchi": 1703,
      "nama": 1704,
      "Ġkaruchi": 1705,
      "gale": 1706,
      "esan": 1707,
      "Ġpariba": 1708,
      "Ġasu": 1709,
      "Ġdhada": 1710,
      "Ġbujha": 1711,
      "ghra": 1712,
      "Ġabasthita": 1713,
      "kshepare": 1714,
      "nthi": 1715,
      "Ġbhari": 1716,
      "Ġapanan": 1717,
      "Ġapeksha": 1718,
      "Ġiba": 1719,
      "Ġdrrish": 1720,
      "Ġmasa": 1721,
      "Ġsamkshepare": 1722,
      "Ġtahara": 1723,
      "Ġchada": 1724,
      "Ġkaraya": 1725,
      "Ġprani": 1726,
      "Ġprasiddha": 1727,
      "Ġjibanu": 1728,
      "Ġame": 1729,
      "prati": 1730,
      "Ġutpada": 1731,
      "Ġdeithile": 1732,
      "sthiti": 1733,
      "Ġapananka": 1734,
      "bra": 1735,
      "Ġ.<|": 1736,
      "anu": 1737,
      "bali": 1738,
      "Ġprrithibi": 1739,
      "Ġnketa": 1740,
      "Ġaph": 1741,
      "Ġita": 1742,
      "Ġkarayaithae": 1743,
      "Ġkahile": 1744,
      "sehi": 1745,
      "hada": 1746,
      "askara": 1747,
      "tai": 1748,
      "Ġbasa": 1749,
      "Ġbandh": 1750,
      "diayaithiba": 1751,
      "Ġsamyoga": 1752,
      "yumana": 1753,
      "Ġhala": 1754,
      "Ġmote": 1755,
      "Ġkhela": 1756,
      "Ġyepariki": 1757,
      "aja": 1758,
      "gar": 1759,
      "nt": 1760,
      "Ġnkare": 1761,
      "asika": 1762,
      "jika": 1763,
      "deba": 1764,
      "Ġngare": 1765,
      "Ġnimna": 1766,
      "Ġanubhaba": 1767,
      "andita": 1768,
      "Ġsemi": 1769,
      "Ġrajya": 1770,
      "Ġasthya": 1771,
      "uthila": 1772,
      "Ġkya": 1773,
      "endra": 1774,
      "asara": 1775,
      "Ġpri": 1776,
      "Ġnkana": 1777,
      "Ġesi": 1778,
      "Ġkarithiba": 1779,
      "Ġbidya": 1780,
      "Ġghara": 1781,
      "urtti": 1782,
      "Ġmunda": 1783,
      "Ġ200": 1784,
      "Ġprasa": 1785,
      "Ġpurba": 1786,
      "Ġbhitare": 1787,
      "Ġprathame": 1788,
      "Ġmukhyatah": 1789,
      "Ġdijain": 1790,
      "au": 1791,
      "esa": 1792,
      "ksi": 1793,
      "tre": 1794,
      "Ġx": 1795,
      "Ġpin": 1796,
      "Ġananda": 1797,
      "Ġmai": 1798,
      "nia": 1799,
      "Ġchama": 1800,
      "Ġnirmita": 1801,
      "Ġkarayaipariba": 1802,
      "grama": 1803,
      "Ġbhula": 1804,
      "bakyare": 1805,
      "Ġcheshta": 1806,
      "uuuuuuuu": 1807,
      "ameri": 1808,
      "Ġprakrritika": 1809,
      "nthare": 1810,
      "Ġkan": 1811,
      "Ġsan": 1812,
      "lia": 1813,
      "lire": 1814,
      "Ġapare": 1815,
      "nahi": 1816,
      "Ġishara": 1817,
      "Ġpakshi": 1818,
      "Ġnakaratmaka": 1819,
      "Ġrogare": 1820,
      "itika": 1821,
      "Ġsamudra": 1822,
      "badbadbadbad": 1823,
      "Ġkramare": 1824,
      "Ġjinisha": 1825,
      "bani": 1826,
      "ithae": 1827,
      "tala": 1828,
      "Ġgr": 1829,
      "manu": 1830,
      "manda": 1831,
      "habara": 1832,
      "Ġ11": 1833,
      "Ġ18": 1834,
      "bhumi": 1835,
      "Ġketebele": 1836,
      "Ġsamuha": 1837,
      "asamkhya": 1838,
      "Ġbandhu": 1839,
      "Ġv": 1840,
      "Ġsna": 1841,
      "Ġslo": 1842,
      "Ġpre": 1843,
      "Ġnanika": 1844,
      "Ġrasa": 1845,
      "patti": 1846,
      "Ġrakha": 1847,
      "anita": 1848,
      "Ġnkata": 1849,
      "Ġdele": 1850,
      "Ġbyabasa": 1851,
      "yaithae": 1852,
      "Ġshighra": 1853,
      "Ġduh": 1854,
      "rodha": 1855,
      "Ġkarayaithila": 1856,
      "Ġbadalantu": 1857,
      "ttama": 1858,
      "Ġshrenire": 1859,
      "Ġdharma": 1860,
      "gannatha": 1861,
      "haru": 1862,
      "kanta": 1863,
      "konara": 1864,
      "yan": 1865,
      "hire": 1866,
      "ensa": 1867,
      "Ġkrri": 1868,
      "shaniya": 1869,
      "Ġkarkata": 1870,
      "Ġpakha": 1871,
      "gaku": 1872,
      "Ġbhaya": 1873,
      "Ġkarayiba": 1874,
      "Ġbarga": 1875,
      "Ġgathana": 1876,
      "Ġchinta": 1877,
      "Ġshatab": 1878,
      "Ġgrama": 1879,
      "Ġsamparka": 1880,
      "Ġdokanaku": 1881,
      "Ġshatabdi": 1882,
      "ktar": 1883,
      "so": 1884,
      "tkara": 1885,
      "Ġhita": 1886,
      "hia": 1887,
      "yadi": 1888,
      "Ġban": 1889,
      "Ġbimana": 1890,
      "rita": 1891,
      "Ġpakhare": 1892,
      "Ġmanda": 1893,
      "esana": 1894,
      "Ġparibe": 1895,
      "Ġchapa": 1896,
      "Ġkathachitratira": 1897,
      "enahi": 1898,
      "Ġkampani": 1899,
      "Ġabastha": 1900,
      "Ġdarsha": 1901,
      "ama": 1902,
      "khu": 1903,
      "sare": 1904,
      "Ġkhabara": 1905,
      "Ġsana": 1906,
      "bal": 1907,
      "Ġpho": 1908,
      "Ġpush": 1909,
      "kaunasi": 1910,
      "Ġbhe": 1911,
      "Ġdhala": 1912,
      "Ġbayas": 1913,
      "Ġnamare": 1914,
      "Ġrashtra": 1915,
      "Ġanyanya": 1916,
      "Ġkarichi": 1917,
      "Ġprad": 1918,
      "Ġmamsa": 1919,
      "rrijan": 1920,
      "chare": 1921,
      "Ġniyu": 1922,
      "kichi": 1923,
      "Ġgai": 1924,
      "trima": 1925,
      "shei": 1926,
      "Ġpratikriya": 1927,
      "yogya": 1928,
      "Ġmota": 1929,
      "phta": 1930,
      "Ġparam": 1931,
      "Ġbharata": 1932,
      "Ġheuchanti": 1933,
      "andare": 1934,
      "Ġadhya": 1935,
      "rrijanashila": 1936,
      "Ġtra": 1937,
      "Ġkhara": 1938,
      "Ġkashta": 1939,
      "Ġsrrijanashila": 1940,
      "Ġpita": 1941,
      "kal": 1942,
      "Ġbla": 1943,
      "Ġsaman": 1944,
      "thili": 1945,
      "Ġkaribe": 1946,
      "manara": 1947,
      "Ġsamra": 1948,
      "Ġyae": 1949,
      "Ġmadhyamare": 1950,
      "Ġparabartti": 1951,
      "Ġprakriya": 1952,
      "Ġamerikara": 1953,
      "Ġuddesh": 1954,
      "kasana": 1955,
      "hasika": 1956,
      "brri": 1957,
      "kya": 1958,
      "sar": 1959,
      "Ġen": 1960,
      "Ġasha": 1961,
      "Ġabhaba": 1962,
      "datta": 1963,
      "china": 1964,
      "Ġprabesha": 1965,
      "Ġrahe": 1966,
      "emana": 1967,
      "Ġsampadana": 1968,
      "che": 1969,
      "Ġnkatharu": 1970,
      "Ġyantrana": 1971,
      "loji": 1972,
      "Ġnirba": 1973,
      "tro": 1974,
      "harara": 1975,
      "Ġpuraskara": 1976,
      "bhuta": 1977,
      "Ġkhad": 1978,
      "Ġalaga": 1979,
      "Ġtebe": 1980,
      "Ġbisheshana": 1981,
      "Ġsarala": 1982,
      "Ġsimha": 1983,
      "Ġslogana": 1984,
      "nnim": 1985,
      "uchanti": 1986,
      "Ġkhar": 1987,
      "Ġakara": 1988,
      "Ġakhi": 1989,
      "Ġiti": 1990,
      "Ġbau": 1991,
      "rridha": 1992,
      "Ġmukti": 1993,
      "Ġgada": 1994,
      "Ġtrri": 1995,
      "Ġthara": 1996,
      "Ġstara": 1997,
      "Ġsahayaka": 1998,
      "bartta": 1999,
      "Ġbhumi": 2000,
      "Ġabhibyakti": 2001,
      "Ġlekhaka": 2002,
      "Ġmahapatra": 2003,
      "gorida": 2004,
      "bakyaku": 2005,
      "Ġamerika": 2006,
      "Ġprabhabita": 2007,
      "brritti": 2008,
      "Ġyie": 2009,
      "kita": 2010,
      "Ġkri": 2011,
      "anthi": 2012,
      "Ġnje": 2013,
      "Ġbanda": 2014,
      "Ġacha": 2015,
      "Ġami": 2016,
      "Ġdbara": 2017,
      "Ġpatra": 2018,
      "Ġpathya": 2019,
      "dhanya": 2020,
      "Ġrahu": 2021,
      "Ġbikalpa": 2022,
      "Ġtari": 2023,
      "Ġtantra": 2024,
      "Ġupakarana": 2025,
      "Ġyetebele": 2026,
      "pratha": 2027,
      "Ġpurusha": 2028,
      "Ġpiaja": 2029,
      "ghata": 2030,
      "Ġthe": 2031,
      "Ġpathaku": 2032,
      "Ġphil": 2033,
      "Ġapal": 2034,
      "nti": 2035,
      "phe": 2036,
      "phar": 2037,
      "Ġlpa": 2038,
      "Ġsant": 2039,
      "Ġpanda": 2040,
      "Ġnashta": 2041,
      "Ġhrri": 2042,
      "Ġmane": 2043,
      "Ġanda": 2044,
      "Ġkathi": 2045,
      "tumara": 2046,
      "Ġbist": 2047,
      "Ġsambhaba": 2048,
      "jaya": 2049,
      "bika": 2050,
      "ashare": 2051,
      "Ġtika": 2052,
      "Ġshabdati": 2053,
      "Ġ25": 2054,
      "Ġgramma": 2055,
      "Ġtume": 2056,
      "Ġcharitra": 2057,
      "danda": 2058,
      "prrithibi": 2059,
      "Ġ/": 2060,
      "sti": 2061,
      "Ġkr": 2062,
      "arti": 2063,
      "shanara": 2064,
      "lina": 2065,
      "lab": 2066,
      "Ġebasa": 2067,
      "Ġitiya": 2068,
      "Ġilek": 2069,
      "Ġbahari": 2070,
      "dhya": 2071,
      "Ġnia": 2072,
      "Ġniy": 2073,
      "Ġyuro": 2074,
      "likare": 2075,
      "Ġkukura": 2076,
      "Ġshishu": 2077,
      "Ġnchala": 2078,
      "yogi": 2079,
      "purba": 2080,
      "barsha": 2081,
      "Ġkampyutara": 2082,
      "Ġthik": 2083,
      "esi": 2084,
      "anyanya": 2085,
      "sthare": 2086,
      "hina": 2087,
      "Ġsari": 2088,
      "eru": 2089,
      "Ġbasi": 2090,
      "arika": 2091,
      "thipai": 2092,
      "Ġpadi": 2093,
      "Ġkaribare": 2094,
      "Ġmatra": 2095,
      "Ġrama": 2096,
      "Ġsamban": 2097,
      "Ġparibesha": 2098,
      "Ġchakra": 2099,
      "Ġsthira": 2100,
      "mulaka": 2101,
      "dei": 2102,
      "Ġpratikri": 2103,
      "Ġabh": 2104,
      "Ġjanayae": 2105,
      "Ġakas": 2106,
      "Ġphula": 2107,
      "Ġbujhi": 2108,
      "Ġkshati": 2109,
      "Ġakarare": 2110,
      "Ġbarttamana": 2111,
      "hika": 2112,
      "Ġkshi": 2113,
      "rala": 2114,
      "katare": 2115,
      "Ġnyu": 2116,
      "Ġblaka": 2117,
      "shri": 2118,
      "Ġsau": 2119,
      "Ġho": 2120,
      "Ġmari": 2121,
      "Ġbipada": 2122,
      "Ġbilei": 2123,
      "Ġkilo": 2124,
      "kete": 2125,
      "Ġdala": 2126,
      "Ġbyabastha": 2127,
      "Ġsustha": 2128,
      "karma": 2129,
      "Ġshiba": 2130,
      "Ġnge": 2131,
      "Ġkosha": 2132,
      "Ġalagorida": 2133,
      "Ġbharatara": 2134,
      "Ġghati": 2135,
      "Ġantargata": 2136,
      "Ġkshamata": 2137,
      "Ġnarayana": 2138,
      "Ġsarbadhika": 2139,
      "Ġhindi": 2140,
      "Ġkhojiba": 2141,
      "krrishna": 2142,
      "lli": 2143,
      "yari": 2144,
      "maya": 2145,
      "Ġethare": 2146,
      "Ġsata": 2147,
      "Ġsapta": 2148,
      "Ġuch": 2149,
      "Ġupara": 2150,
      "Ġit": 2151,
      "Ġmas": 2152,
      "dhare": 2153,
      "Ġprayoga": 2154,
      "Ġju": 2155,
      "bhali": 2156,
      "Ġparisthi": 2157,
      "Ġchahu": 2158,
      "Ġsethire": 2159,
      "Ġ14": 2160,
      "mina": 2161,
      "Ġbhabish": 2162,
      "itisa": 2163,
      "Ġmisha": 2164,
      "Ġrupe": 2165,
      "Ġhisa": 2166,
      "Ġakarshaniya": 2167,
      "Ġkhanda": 2168,
      "Ġinaput": 2169,
      "Ġbuddhima": 2170,
      "abhi": 2171,
      "bhare": 2172,
      "ghara": 2173,
      "yyara": 2174,
      "stra": 2175,
      "Ġsarta": 2176,
      "baka": 2177,
      "Ġngu": 2178,
      "sin": 2179,
      "tisha": 2180,
      "Ġaj": 2181,
      "Ġakramana": 2182,
      "ria": 2183,
      "dastabi": 2184,
      "Ġup": 2185,
      "Ġres": 2186,
      "Ġananya": 2187,
      "paka": 2188,
      "Ġkati": 2189,
      "Ġpradhana": 2190,
      "Ġmau": 2191,
      "Ġbhau": 2192,
      "nimnare": 2193,
      "mitara": 2194,
      "Ġroshei": 2195,
      "Ġtya": 2196,
      "Ġjadita": 2197,
      "Ġmil": 2198,
      "karanara": 2199,
      "Ġuttama": 2200,
      "Ġnirddharana": 2201,
      "Ġposhaka": 2202,
      "Ġmarkan": 2203,
      "Ġlar": 2204,
      "Ġphera": 2205,
      "Ġapareshana": 2206,
      "ethire": 2207,
      "kanika": 2208,
      "lash": 2209,
      "rtha": 2210,
      "Ġsent": 2211,
      "anayaka": 2212,
      "mala": 2213,
      "Ġhari": 2214,
      "Ġdhire": 2215,
      "Ġkaranaru": 2216,
      "Ġbam": 2217,
      "Ġpae": 2218,
      "Ġpatt": 2219,
      "Ġprabaha": 2220,
      "Ġgana": 2221,
      "Ġghare": 2222,
      "Ġtale": 2223,
      "jala": 2224,
      "khana": 2225,
      "Ġparibara": 2226,
      "Ġchatu": 2227,
      "yaithila": 2228,
      "Ġjami": 2229,
      "ibaku": 2230,
      "Ġdiagala": 2231,
      "ttala": 2232,
      "Ġtalikabhukta": 2233,
      "Ġjanasamkhya": 2234,
      "Ġphuta": 2235,
      "charika": 2236,
      "Ġsambhabya": 2237,
      "Ġjibanare": 2238,
      "Ġrashtrapati": 2239,
      "Ġkharchcha": 2240,
      "Ġpratikriyare": 2241,
      "ame": 2242,
      "bas": 2243,
      "jar": 2244,
      "mati": 2245,
      "Ġpalana": 2246,
      "sai": 2247,
      "Ġmurtti": 2248,
      "Ġkaripariba": 2249,
      "Ġjal": 2250,
      "ruta": 2251,
      "thyara": 2252,
      "Ġdeshara": 2253,
      "Ġshre": 2254,
      "Ġ100": 2255,
      "Ġshabdara": 2256,
      "Ġtenu": 2257,
      "Ġjagannatha": 2258,
      "itihasa": 2259,
      "Ġkathachi": 2260,
      "roga": 2261,
      "ehaku": 2262,
      "Ġkaruchanti": 2263,
      "Ġparamanu": 2264,
      "mote": 2265,
      "Ġtarala": 2266,
      "Ġadhinata": 2267,
      "Ġrakhiba": 2268,
      "Ġkharapa": 2269,
      "ota": 2270,
      "san": 2271,
      "Ġanta": 2272,
      "Ġkand": 2273,
      "Ġsandh": 2274,
      "Ġpas": 2275,
      "siala": 2276,
      "Ġbri": 2277,
      "shthi": 2278,
      "lam": 2279,
      "Ġadhara": 2280,
      "Ġbahare": 2281,
      "Ġmya": 2282,
      "Ġprada": 2283,
      "Ġbin": 2284,
      "habani": 2285,
      "charana": 2286,
      "Ġnikatare": 2287,
      "Ġdeshare": 2288,
      "bita": 2289,
      "Ġyakrrita": 2290,
      "Ġchayana": 2291,
      "Ġbakyati": 2292,
      "Ġlala": 2293,
      "Ġchik": 2294,
      "Ġtahaku": 2295,
      "Ġsabuja": 2296,
      "Ġkarucha": 2297,
      "Ġkarayaipare": 2298,
      "Ġchihna": 2299,
      "Ġsishta": 2300,
      "Ġsamkhyaku": 2301,
      "Ġtek": 2302,
      "Ġ199": 2303,
      "Ġthai": 2304,
      "Ġbhabanaku": 2305,
      "Ġghanta": 2306,
      "Ġhaiku": 2307,
      "Ġhaladia": 2308,
      "Ġbuddhimata": 2309,
      "Ġpattanayaka": 2310,
      "ati": 2311,
      "ema": 2312,
      "eda": 2313,
      "karu": 2314,
      "mari": 2315,
      "pim": 2316,
      "rgha": 2317,
      "trri": 2318,
      "ut": 2319,
      "Ġeri": 2320,
      "yamita": 2321,
      "Ġebe": 2322,
      "Ġsakriya": 2323,
      "patha": 2324,
      "Ġtaku": 2325,
      "Ġkantro": 2326,
      "Ġsamajika": 2327,
      "Ġdata": 2328,
      "Ġpuni": 2329,
      "Ġnirbhara": 2330,
      "Ġparba": 2331,
      "Ġparimana": 2332,
      "banim": 2333,
      "Ġarka": 2334,
      "por": 2335,
      "Ġnilakantha": 2336,
      "Ġtrikonara": 2337,
      "Ġmuktilabha": 2338,
      "bhe": 2339,
      "ethare": 2340,
      "kemiti": 2341,
      "lasa": 2342,
      "mra": 2343,
      "wa": 2344,
      "war": 2345,
      "Ġkhana": 2346,
      "raba": 2347,
      "yak": 2348,
      "Ġpriya": 2349,
      "Ġnar": 2350,
      "ero": 2351,
      "lis": 2352,
      "Ġapara": 2353,
      "dine": 2354,
      "Ġsai": 2355,
      "Ġisha": 2356,
      "Ġran": 2357,
      "Ġrare": 2358,
      "Ġrem": 2359,
      "pat": 2360,
      "Ġrahas": 2361,
      "Ġjar": 2362,
      "Ġbibaha": 2363,
      "runa": 2364,
      "Ġtalikare": 2365,
      "Ġnije": 2366,
      "Ġbhagare": 2367,
      "kshara": 2368,
      "kshare": 2369,
      "Ġsupari": 2370,
      "def": 2371,
      "deya": 2372,
      "Ġsahayyare": 2373,
      "janaka": 2374,
      "Ġkhae": 2375,
      "puri": 2376,
      "Ġasima": 2377,
      "Ġsarbo": 2378,
      "panna": 2379,
      "Ġbaij": 2380,
      "Ġdhyana": 2381,
      "Ġsamikarana": 2382,
      "Ġjillara": 2383,
      "Ġpustaka": 2384,
      "Ġprrishtha": 2385,
      "Ġgabeshana": 2386,
      "Ġdrrishya": 2387,
      "dhanyabad": 2388,
      "dhita": 2389,
      "kanda": 2390,
      "kshita": 2391,
      "paru": 2392,
      "um": 2393,
      "Ġtharu": 2394,
      "Ġthare": 2395,
      "stish": 2396,
      "Ġsm": 2397,
      "yam": 2398,
      "kalana": 2399,
      "Ġnkha": 2400,
      "sis": 2401,
      "Ġbanti": 2402,
      "shari": 2403,
      "Ġkarma": 2404,
      "Ġbapi": 2405,
      "Ġratha": 2406,
      "Ġjhu": 2407,
      "Ġkehi": 2408,
      "chandra": 2409,
      "Ġdel": 2410,
      "bhai": 2411,
      "Ġshanta": 2412,
      "yaipare": 2413,
      "aneka": 2414,
      "Ġdai": 2415,
      "itihasika": 2416,
      "bhida": 2417,
      "karda": 2418,
      "Ġhada": 2419,
      "Ġadhikamsha": 2420,
      "noloji": 2421,
      "Ġbhutan": 2422,
      "Ġanyatama": 2423,
      "Ġnirdde": 2424,
      "Ġmasiha": 2425,
      "Ġphalare": 2426,
      "Ġgitaguda": 2427,
      "Ġadharare": 2428,
      "charyya": 2429,
      "Ġbibhakta": 2430,
      "Ġkhusi": 2431,
      "Ġkathina": 2432,
      "bhar": 2433,
      "hna": 2434,
      "mim": 2435,
      "mbhi": 2436,
      "ras": 2437,
      "ashita": 2438,
      "Ġnjana": 2439,
      "tik": 2440,
      "Ġagra": 2441,
      "Ġato": 2442,
      "Ġsaun": 2443,
      "thiru": 2444,
      "thibara": 2445,
      "Ġikare": 2446,
      "shali": 2447,
      "pala": 2448,
      "payi": 2449,
      "Ġprachina": 2450,
      "Ġjene": 2451,
      "Ġghu": 2452,
      "Ġghana": 2453,
      "Ġniti": 2454,
      "Ġniyama": 2455,
      "chala": 2456,
      "Ġyam": 2457,
      "Ġbhai": 2458,
      "Ġgaithile": 2459,
      "Ġrobo": 2460,
      "Ġkumara": 2461,
      "Ġparas": 2462,
      "Ġ30": 2463,
      "Ġanumana": 2464,
      "Ġbhitara": 2465,
      "bandha": 2466,
      "Ġsarbanim": 2467,
      "paranti": 2468,
      "Ġkod": 2469,
      "Ġprakashita": 2470,
      "Ġbargikarana": 2471,
      "Ġkalakara": 2472,
      "Ġmanasika": 2473,
      "Ġmanaba": 2474,
      "Ġsamskrri": 2475,
      "gudikara": 2476,
      "Ġsthapana": 2477,
      "Ġdurga": 2478,
      "Ġabasthare": 2479,
      "Ġkalpana": 2480,
      "Ġnambara": 2481,
      "Ġmajadara": 2482,
      "Ġgrahaka": 2483,
      "Ġunnata": 2484,
      "Ġasubidha": 2485,
      "Ġshreshtha": 2486,
      "18": 2487,
      "jen": 2488,
      "kona": 2489,
      "laru": 2490,
      "pho": 2491,
      "rim": 2492,
      "sari": 2493,
      "suryya": 2494,
      "arara": 2495,
      "andana": 2496,
      "Ġpe": 2497,
      "tini": 2498,
      "Ġbana": 2499,
      "dira": 2500,
      "Ġsaphta": 2501,
      "epa": 2502,
      "Ġie": 2503,
      "Ġnata": 2504,
      "Ġraksha": 2505,
      "tum": 2506,
      "Ġbidyu": 2507,
      "Ġgri": 2508,
      "eswar": 2509,
      "hue": 2510,
      "Ġpaiba": 2511,
      "Ġchau": 2512,
      "Ġchasha": 2513,
      "yukti": 2514,
      "jibana": 2515,
      "hera": 2516,
      "Ġpura": 2517,
      "Ġsthi": 2518,
      "Ġsutra": 2519,
      "pila": 2520,
      "Ġhata": 2521,
      "yojana": 2522,
      "Ġnahin": 2523,
      "Ġnew": 2524,
      "baneswar": 2525,
      "Ġbhumika": 2526,
      "Ġyukti": 2527,
      "Ġakasha": 2528,
      "Ġthikana": 2529,
      "Ġjalabayu": 2530,
      "Ġsarakara": 2531,
      "Ġphalaphala": 2532,
      "Ġkamiyae": 2533,
      "Ġsindro": 2534,
      "Ġniyantrana": 2535,
      "Ġteknoloji": 2536,
      "Ġrobot": 2537,
      "11": 2538,
      "ce": 2539,
      "myu": 2540,
      "nya": 2541,
      "ase": 2542,
      "bahita": 2543,
      "Ġno": 2544,
      "Ġbani": 2545,
      "Ġsapha": 2546,
      "Ġbata": 2547,
      "Ġbadh": 2548,
      "Ġkaripare": 2549,
      "Ġmahana": 2550,
      "bibhinna": 2551,
      "loka": 2552,
      "ashe": 2553,
      "Ġdigri": 2554,
      "anesh": 2555,
      "Ġdayi": 2556,
      "Ġpuri": 2557,
      "Ġmitara": 2558,
      "Ġsuyoga": 2559,
      "kshama": 2560,
      "dela": 2561,
      "Ġhasala": 2562,
      "Ġparim": 2563,
      "Ġshikara": 2564,
      "Ġkahithile": 2565,
      "Ġmegha": 2566,
      "imitara": 2567,
      "kshepa": 2568,
      "Ġlekhithile": 2569,
      "Ġkariparibe": 2570,
      "Ġdarakara": 2571,
      "Ġlakshya": 2572,
      "Ġgarbha": 2573,
      "Ġmanisha": 2574,
      "Ġmishai": 2575,
      "Ġmaulika": 2576,
      "Ġdelhi": 2577,
      "15": 2578,
      "40": 2579,
      "beri": 2580,
      "bye": 2581,
      "id": 2582,
      "nita": 2583,
      "Ġkrrishna": 2584,
      "sina": 2585,
      "ere": 2586,
      "Ġatya": 2587,
      "Ġaghata": 2588,
      "Ġsaja": 2589,
      "lesh": 2590,
      "Ġishi": 2591,
      "Ġdrridha": 2592,
      "Ġpata": 2593,
      "Ġpacha": 2594,
      "sathi": 2595,
      "Ġprakalpa": 2596,
      "Ġpradarshana": 2597,
      "Ġmala": 2598,
      "Ġmapa": 2599,
      "Ġjari": 2600,
      "Ġjyoti": 2601,
      "Ġjhia": 2602,
      "Ġodia": 2603,
      "Ġsamj": 2604,
      "Ġsamga": 2605,
      "Ġdehare": 2606,
      "bidaya": 2607,
      "Ġsethare": 2608,
      "Ġsho": 2609,
      "Ġshanti": 2610,
      "Ġbakyatiku": 2611,
      "paribe": 2612,
      "Ġgathita": 2613,
      "Ġtikie": 2614,
      "Ġpuruna": 2615,
      "Ġshast": 2616,
      "shesha": 2617,
      "Ġpratirodha": 2618,
      "Ġ50": 2619,
      "Ġkaryyakala": 2620,
      "Ġbhubaneswar": 2621,
      "barnnana": 2622,
      "Ġmahasa": 2623,
      "Ġasile": 2624,
      "bakyara": 2625,
      "Ġmano": 2626,
      "Ġbujhantu": 2627,
      "Ġuchchata": 2628,
      "Ġmilithae": 2629,
      "Ġbishayabastuku": 2630,
      "Ġghoshana": 2631,
      "Ġsaundar": 2632,
      "banesh": 2633,
      "hyumana": 2634,
      "ili": 2635,
      "kka": 2636,
      "kani": 2637,
      "nni": 2638,
      "Ġkend": 2639,
      "Ġsen": 2640,
      "sisa": 2641,
      "erana": 2642,
      "Ġbhar": 2643,
      "Ġahuri": 2644,
      "Ġchita": 2645,
      "Ġupan": 2646,
      "Ġuchita": 2647,
      "Ġis": 2648,
      "Ġdruta": 2649,
      "Ġbagha": 2650,
      "Ġbayasa": 2651,
      "Ġje": 2652,
      "tume": 2653,
      "Ġbibe": 2654,
      "Ġbikasha": 2655,
      "Ġtai": 2656,
      "bikarana": 2657,
      "Ġyauna": 2658,
      "nila": 2659,
      "Ġparikshana": 2660,
      "Ġsetebele": 2661,
      "Ġdirgha": 2662,
      "Ġjaga": 2663,
      "Ġstanya": 2664,
      "semane": 2665,
      "Ġprart": 2666,
      "Ġhati": 2667,
      "Ġyahaku": 2668,
      "Ġpratika": 2669,
      "Ġpitha": 2670,
      "Ġshaktishali": 2671,
      "Ġthibaru": 2672,
      "Ġchandra": 2673,
      "Ġchalachchitrara": 2674,
      "Ġnkani": 2675,
      "Ġrritu": 2676,
      "Ġprint": 2677,
      "Ġprema": 2678,
      "ktarashtra": 2679,
      "Ġlarnnim": 2680,
      "Ġbhutanu": 2681,
      "200": 2682,
      "ak": 2683,
      "apanan": 2684,
      "basi": 2685,
      "com": 2686,
      "leri": 2687,
      "mbara": 2688,
      "phu": 2689,
      "tna": 2690,
      "yant": 2691,
      "yanika": 2692,
      "arji": 2693,
      "sthana": 2694,
      "Ġsuchi": 2695,
      "Ġswa": 2696,
      "bahara": 2697,
      "yayi": 2698,
      "Ġpana": 2699,
      "Ġpash": 2700,
      "mai": 2701,
      "dika": 2702,
      "Ġei": 2703,
      "Ġbali": 2704,
      "Ġpaddha": 2705,
      "Ġbikri": 2706,
      "emo": 2707,
      "Ġsamgraha": 2708,
      "Ġhebara": 2709,
      "chaya": 2710,
      "bin": 2711,
      "kebe": 2712,
      "Ġlaga": 2713,
      "Ġtr": 2714,
      "Ġtar": 2715,
      "heba": 2716,
      "kshe": 2717,
      "Ġmithya": 2718,
      "Ġanuyayi": 2719,
      "luthiba": 2720,
      "Ġneba": 2721,
      "Ġnum": 2722,
      "Ġaspashta": 2723,
      "Ġphran": 2724,
      "Ġnirddesha": 2725,
      "Ġtebu": 2726,
      "Ġgola": 2727,
      "Ġaupa": 2728,
      "Ġcharipa": 2729,
      "imia": 2730,
      "ddhare": 2731,
      "shora": 2732,
      "Ġsharira": 2733,
      "Ġantiba": 2734,
      "Ġgitare": 2735,
      "Ġhindu": 2736,
      "plattala": 2737,
      "Ġsahitya": 2738,
      "Ġprajati": 2739,
      "Ġjatila": 2740,
      "Ġsnayu": 2741,
      "prathama": 2742,
      "Ġkandoma": 2743,
      "mbhika": 2744,
      "apananku": 2745,
      "Ġswagata": 2746,
      "kr": 2747,
      "maru": 2748,
      "od": 2749,
      "odha": 2750,
      "pas": 2751,
      "pti": 2752,
      "Ġsn": 2753,
      "katha": 2754,
      "tie": 2755,
      "ushana": 2756,
      "sharu": 2757,
      "Ġaja": 2758,
      "Ġabish": 2759,
      "Ġaitihasika": 2760,
      "Ġsaura": 2761,
      "Ġchabi": 2762,
      "Ġhim": 2763,
      "Ġnai": 2764,
      "Ġkada": 2765,
      "Ġkahu": 2766,
      "dhar": 2767,
      "Ġbira": 2768,
      "emi": 2769,
      "Ġsamkh": 2770,
      "Ġsamila": 2771,
      "Ġtala": 2772,
      "Ġbakta": 2773,
      "asada": 2774,
      "Ġchatra": 2775,
      "Ġshra": 2776,
      "Ġshto": 2777,
      "Ġkanthare": 2778,
      "parika": 2779,
      "Ġ24": 2780,
      "Ġngaku": 2781,
      "Ġlogo": 2782,
      "harare": 2783,
      "Ġrahithiba": 2784,
      "Ġrekarda": 2785,
      "Ġamla": 2786,
      "janaitika": 2787,
      "prakrri": 2788,
      "prabhu": 2789,
      "prapta": 2790,
      "Ġkarayaithiba": 2791,
      "Ġketejana": 2792,
      "Ġrupare": 2793,
      "Ġtalikaku": 2794,
      "Ġmedi": 2795,
      "Ġantara": 2796,
      "Ġdharanara": 2797,
      "Ġatyanta": 2798,
      "samasta": 2799,
      "sadharanatah": 2800,
      "Ġkrritrima": 2801,
      "Ġbauddha": 2802,
      "Ġakashabani": 2803,
      "Ġsandhya": 2804,
      "aba": 2805,
      "daru": 2806,
      "eba": 2807,
      "jo": 2808,
      "jya": 2809,
      "yash": 2810,
      "sth": 2811,
      "bati": 2812,
      "baddha": 2813,
      "liya": 2814,
      "Ġata": 2815,
      "Ġdanda": 2816,
      "Ġpaen": 2817,
      "Ġnacha": 2818,
      "Ġnakari": 2819,
      "Ġmada": 2820,
      "Ġmacha": 2821,
      "Ġmastish": 2822,
      "Ġrati": 2823,
      "Ġjen": 2824,
      "Ġjhada": 2825,
      "Ġbidhi": 2826,
      "Ġgara": 2827,
      "Ġtatt": 2828,
      "Ġhei": 2829,
      "jatiya": 2830,
      "Ġdekhantu": 2831,
      "dhaba": 2832,
      "Ġbyakarana": 2833,
      "Ġselasi": 2834,
      "Ġdip": 2835,
      "Ġlag": 2836,
      "Ġgale": 2837,
      "Ġdaksha": 2838,
      "Ġproti": 2839,
      "prada": 2840,
      "Ġutkantha": 2841,
      "Ġkaryyakari": 2842,
      "Ġparamar": 2843,
      "tikala": 2844,
      "Ġphre": 2845,
      "Ġkanikamana": 2846,
      "Ġamerikare": 2847,
      "Ġprogra": 2848,
      "Ġpahada": 2849,
      "Ġjilla": 2850,
      "ktari": 2851,
      "adhikamsha": 2852,
      "Ġkhadyara": 2853,
      "Ġkshira": 2854,
      "Ġsentimitara": 2855,
      "Ġsuparisha": 2856,
      "Ġstanyapayi": 2857,
      "plattalaba": 2858,
      "12": 2859,
      "dasha": 2860,
      "kro": 2861,
      "mbhira": 2862,
      "rda": 2863,
      "unika": 2864,
      "Ġ?<|": 2865,
      "yatra": 2866,
      "Ġpla": 2867,
      "Ġpartha": 2868,
      "ushala": 2869,
      "lisa": 2870,
      "dio": 2871,
      "leta": 2872,
      "nathile": 2873,
      "Ġhyumana": 2874,
      "Ġila": 2875,
      "Ġishare": 2876,
      "Ġpathara": 2877,
      "Ġnayaka": 2878,
      "gaja": 2879,
      "Ġandha": 2880,
      "Ġkap": 2881,
      "Ġkahanti": 2882,
      "Ġpramana": 2883,
      "Ġge": 2884,
      "Ġgrri": 2885,
      "bina": 2886,
      "Ġbyakhya": 2887,
      "Ġhoithanti": 2888,
      "nidhi": 2889,
      "shika": 2890,
      "Ġ13": 2891,
      "Ġgabhira": 2892,
      "Ġdaya": 2893,
      "hele": 2894,
      "Ġpun": 2895,
      "Ġupad": 2896,
      "Ġupabho": 2897,
      "Ġprasha": 2898,
      "Ġyahad": 2899,
      "Ġkhaiba": 2900,
      "sthapana": 2901,
      "bhabasthare": 2902,
      "Ġase": 2903,
      "Ġbesha": 2904,
      "barare": 2905,
      "Ġabhine": 2906,
      "trika": 2907,
      "Ġpadakshepa": 2908,
      "Ġbrriha": 2909,
      "Ġakashare": 2910,
      "Ġprashnara": 2911,
      "laina": 2912,
      "Ġalochana": 2913,
      "Ġadharita": 2914,
      "Ġadhikara": 2915,
      "Ġtathyaku": 2916,
      "yatamulaka": 2917,
      "inaput": 2918,
      "Ġsamiksha": 2919,
      "Ġsharirara": 2920,
      "Ġimrajire": 2921,
      "Ġchamatkara": 2922,
      "Ġbyabasaya": 2923,
      "Ġnirbachana": 2924,
      "Ġpasanda": 2925,
      "Ġsarbottama": 2926,
      "Ġsindroma": 2927,
      "Ġsaundaryya": 2928,
      "Ġupanyasa": 2929,
      "ab": 2930,
      "glo": 2931,
      "ile": 2932,
      "lda": 2933,
      "mpa": 2934,
      "peshi": 2935,
      "imraji": 2936,
      "tia": 2937,
      "Ġblo": 2938,
      "ariya": 2939,
      "Ġemana": 2940,
      "nakaratmaka": 2941,
      "Ġbal": 2942,
      "Ġpachari": 2943,
      "Ġmaru": 2944,
      "Ġmyu": 2945,
      "Ġmahu": 2946,
      "tesana": 2947,
      "rritya": 2948,
      "Ġekathi": 2949,
      "Ġpaile": 2950,
      "bisha": 2951,
      "binda": 2952,
      "khyana": 2953,
      "oiba": 2954,
      "Ġshta": 2955,
      "Ġmuha": 2956,
      "Ġsamayara": 2957,
      "Ġ17": 2958,
      "Ġdianti": 2959,
      "parita": 2960,
      "min": 2961,
      "Ġtran": 2962,
      "Ġupalab": 2963,
      "shedha": 2964,
      "Ġpratinidhi": 2965,
      "Ġdekhaya": 2966,
      "parshare": 2967,
      "kosha": 2968,
      "ushya": 2969,
      "Ġkantakta": 2970,
      "Ġadhunika": 2971,
      "Ġadhina": 2972,
      "Ġbhoga": 2973,
      "Ġbhojana": 2974,
      "Ġatanti": 2975,
      "Ġsamparkare": 2976,
      "Ġyogayoga": 2977,
      "Ġghoda": 2978,
      "Ġbuddhimana": 2979,
      "Ġkarayauchi": 2980,
      "uuuuuuuuuuuuuuuu": 2981,
      "Ġgrant": 2982,
      "Ġniyuta": 2983,
      "Ġadhyayana": 2984,
      "Ġsamanya": 2985,
      "Ġtrritiya": 2986,
      "Ġbhumikare": 2987,
      "Ġrahuthiba": 2988,
      "Ġparisthitire": 2989,
      "Ġmarkandeya": 2990,
      "Ġpherai": 2991,
      "Ġkathachitrare": 2992,
      "Ġparamarsha": 2993,
      "13": 2994,
      "50": 2995,
      "bri": 2996,
      "ira": 2997,
      "lani": 2998,
      "pre": 2999,
      "semana": 3000,
      "uttara": 3001,
      "ve": 3002,
      "Ġ.": 3003,
      "anashila": 3004,
      "Ġkhani": 3005,
      "Ġspani": 3006,
      "raku": 3007,
      "Ġnki": 3008,
      "Ġbr": 3009,
      "usare": 3010,
      "Ġatha": 3011,
      "Ġabi": 3012,
      "kumara": 3013,
      "Ġutt": 3014,
      "Ġipa": 3015,
      "Ġire": 3016,
      "Ġbapa": 3017,
      "Ġbaja": 3018,
      "Ġpati": 3019,
      "Ġmara": 3020,
      "Ġanimia": 3021,
      "Ġkalare": 3022,
      "Ġkame": 3023,
      "Ġratire": 3024,
      "Ġratri": 3025,
      "Ġjo": 3026,
      "Ġekadhika": 3027,
      "chima": 3028,
      "Ġtapu": 3029,
      "bishesha": 3030,
      "Ġhoipariba": 3031,
      "Ġparichita": 3032,
      "Ġbhashara": 3033,
      "kebala": 3034,
      "Ġstri": 3035,
      "mula": 3036,
      "itis": 3037,
      "yogita": 3038,
      "Ġlekhantuh": 3039,
      "ehapare": 3040,
      "Ġdiayaichi": 3041,
      "Ġpheri": 3042,
      "Ġanush": 3043,
      "ghatana": 3044,
      "Ġyuddha": 3045,
      "Ġsthaniya": 3046,
      "gola": 3047,
      "Ġdarshana": 3048,
      "Ġdurbala": 3049,
      "Ġnishpatti": 3050,
      "Ġnjini": 3051,
      "habika": 3052,
      "Ġpilamana": 3053,
      "Ġpranali": 3054,
      "Ġuddeshya": 3055,
      "Ġchakrabartti": 3056,
      "Ġpradaha": 3057,
      "Ġkantrola": 3058,
      "Ġbadhyatamulaka": 3059,
      "Ġmahasagara": 3060,
      "Ġaupacharika": 3061,
      "aji": 3062,
      "hoi": 3063,
      "jena": 3064,
      "ks": 3065,
      "nra": 3066,
      "prara": 3067,
      "ula": 3068,
      "yasha": 3069,
      "Ġkash": 3070,
      "antare": 3071,
      "baba": 3072,
      "bahu": 3073,
      "rapi": 3074,
      "Ġaga": 3075,
      "Ġalu": 3076,
      "die": 3077,
      "rina": 3078,
      "Ġsabha": 3079,
      "Ġhar": 3080,
      "Ġhrrit": 3081,
      "Ġkaryyara": 3082,
      "Ġpaenta": 3083,
      "shakti": 3084,
      "pakhi": 3085,
      "Ġkamare": 3086,
      "Ġkaphi": 3087,
      "Ġprapta": 3088,
      "Ġrakhantu": 3089,
      "Ġrajanaitika": 3090,
      "Ġbiparita": 3091,
      "thaku": 3092,
      "Ġgoti": 3093,
      "embara": 3094,
      "Ġsamkra": 3095,
      "Ġsamyukta": 3096,
      "Ġniru": 3097,
      "chaka": 3098,
      "chalana": 3099,
      "Ġyathe": 3100,
      "Ġbyapaka": 3101,
      "Ġhoina": 3102,
      "nir": 3103,
      "Ġkishora": 3104,
      "dhiya": 3105,
      "Ġsebana": 3106,
      "Ġ16": 3107,
      "Ġdie": 3108,
      "Ġprara": 3109,
      "karanare": 3110,
      "kshaya": 3111,
      "debi": 3112,
      "Ġshikhi": 3113,
      "Ġbishala": 3114,
      "Ġyahaki": 3115,
      "Ġpratidina": 3116,
      "praya": 3117,
      "Ġkhali": 3118,
      "tirekha": 3119,
      "Ġlokamane": 3120,
      "Ġbishnu": 3121,
      "Ġashu": 3122,
      "dui": 3123,
      "Ġsarbada": 3124,
      "barara": 3125,
      "Ġkabitara": 3126,
      "Ġamerikiya": 3127,
      "jitala": 3128,
      "Ġsamskarana": 3129,
      "yarim": 3130,
      "grahaka": 3131,
      "Ġjinishara": 3132,
      "kalina": 3133,
      "Ġbibaraniku": 3134,
      "Ġpustakara": 3135,
      "Ġkanikara": 3136,
      "Ġbasana": 3137,
      "badbadbadbadbadbadbadbad": 3138,
      "Ġkashtakara": 3139,
      "Ġitihasa": 3140,
      "Ġbhabishyata": 3141,
      "Ġyatheshta": 3142,
      "16": 3143,
      "67": 3144,
      "apa": 3145,
      "dari": 3146,
      "ida": 3147,
      "men": 3148,
      "menta": 3149,
      "nre": 3150,
      "uha": 3151,
      "Ġkanti": 3152,
      "Ġkrama": 3153,
      "Ġkendra": 3154,
      "Ġsima": 3155,
      "tibha": 3156,
      "Ġbhita": 3157,
      "shtu": 3158,
      "shtara": 3159,
      "Ġaya": 3160,
      "Ġali": 3161,
      "Ġakalana": 3162,
      "Ġes": 3163,
      "Ġeda": 3164,
      "Ġbaj": 3165,
      "Ġpat": 3166,
      "Ġnathila": 3167,
      "shab": 3168,
      "Ġpratya": 3169,
      "Ġprayukti": 3170,
      "Ġrasta": 3171,
      "Ġbiro": 3172,
      "Ġganita": 3173,
      "chanare": 3174,
      "khe": 3175,
      "bega": 3176,
      "Ġmukta": 3177,
      "Ġgadha": 3178,
      "Ġchin": 3179,
      "Ġdal": 3180,
      "Ġdastabi": 3181,
      "muna": 3182,
      "Ġsahasi": 3183,
      "rom": 3184,
      "Ġrekha": 3185,
      "Ġkholi": 3186,
      "karini": 3187,
      "Ġsidha": 3188,
      "Ġarda": 3189,
      "Ġudaya": 3190,
      "Ġyukta": 3191,
      "tarane": 3192,
      "Ġaina": 3193,
      "Ġposhta": 3194,
      "bakya": 3195,
      "Ġbastuku": 3196,
      "kashita": 3197,
      "Ġsamsparshare": 3198,
      "Ġsthayi": 3199,
      "Ġcharma": 3200,
      "Ġnishchita": 3201,
      "Ġpanipariba": 3202,
      "Ġnarama": 3203,
      "Ġasthyas": 3204,
      "Ġarthika": 3205,
      "Ġadbhuta": 3206,
      "Ġyibaku": 3207,
      "Ġbrahmana": 3208,
      "Ġsahit": 3209,
      "Ġprrithibira": 3210,
      "amerikara": 3211,
      "Ġpushkarini": 3212,
      "Ġmamsapeshi": 3213,
      "barttamana": 3214,
      "Ġkilomitara": 3215,
      "Ġalagoridama": 3216,
      "porta": 3217,
      "Ġyamchalita": 3218,
      "Ġsarbanimna": 3219,
      "Ġpuratana": 3220,
      "Ġshastriya": 3221,
      "Ġantibayoti": 3222,
      "Ġdiptirekha": 3223,
      "Ġblood": 3224,
      "Ġspanish": 3225,
      "'s": 3226,
      "90": 3227,
      "bashyaka": 3228,
      "ghu": 3229,
      "kend": 3230,
      "ld": 3231,
      "lla": 3232,
      "lanti": 3233,
      "ple": 3234,
      "ton": 3235,
      "thu": 3236,
      "tanara": 3237,
      "Ġer": 3238,
      "stara": 3239,
      "radha": 3240,
      "Ġpna": 3241,
      "Ġnkasana": 3242,
      "ushuri": 3243,
      "lij": 3244,
      "Ġasthi": 3245,
      "dipa": 3246,
      "Ġemane": 3247,
      "dayaka": 3248,
      "Ġsatt": 3249,
      "nada": 3250,
      "Ġichcha": 3251,
      "Ġdana": 3252,
      "Ġkaryyare": 3253,
      "Ġpala": 3254,
      "Ġando": 3255,
      "Ġkai": 3256,
      "Ġprachalita": 3257,
      "Ġprabahita": 3258,
      "Ġmaj": 3259,
      "Ġrak": 3260,
      "thaanti": 3261,
      "Ġojana": 3262,
      "Ġekad": 3263,
      "Ġsamstha": 3264,
      "esara": 3265,
      "Ġkesh": 3266,
      "Ġkesha": 3267,
      "Ġpaithile": 3268,
      "jati": 3269,
      "Ġyant": 3270,
      "Ġyantra": 3271,
      "Ġmadhura": 3272,
      "Ġbyapi": 3273,
      "nija": 3274,
      "Ġbhashana": 3275,
      "ashya": 3276,
      "ashtrare": 3277,
      "dhiba": 3278,
      "Ġchata": 3279,
      "Ġshrri": 3280,
      "shiksha": 3281,
      "ketim": 3282,
      "Ġlage": 3283,
      "yaipariba": 3284,
      "Ġprerana": 3285,
      "mukhya": 3286,
      "Ġnirantara": 3287,
      "Ġmini": 3288,
      "Ġsuddha": 3289,
      "karyya": 3290,
      "dele": 3291,
      "Ġpratipha": 3292,
      "Ġsahajare": 3293,
      "Ġreshtu": 3294,
      "Ġ-<|": 3295,
      "Ġyojana": 3296,
      "Ġanumo": 3297,
      "Ġanumati": 3298,
      "Ġpunahbarnnana": 3299,
      "Ġbuliba": 3300,
      "Ġrup": 3301,
      "Ġdeithae": 3302,
      "Ġsiddh": 3303,
      "Ġardara": 3304,
      "Ġtela": 3305,
      "Ġgoshthi": 3306,
      "Ġauta": 3307,
      "Ġ198": 3308,
      "kanthare": 3309,
      "Ġlipi": 3310,
      "rddi": 3311,
      "ashuna": 3312,
      "Ġthanda": 3313,
      "Ġdurare": 3314,
      "prash": 3315,
      "Ġjaniba": 3316,
      "Ġsebaka": 3317,
      "nua": 3318,
      "Ġajij": 3319,
      "Ġnikatatama": 3320,
      "Ġsadasya": 3321,
      "Ġpakai": 3322,
      "Ġgabeshaka": 3323,
      "Ġprajatira": 3324,
      "Ġbujhai": 3325,
      "garbhabasthare": 3326,
      "Ġrasayanika": 3327,
      "Ġpakhapakhi": 3328,
      "Ġpradushana": 3329,
      "Ġphilma": 3330,
      "Ġgrammatikala": 3331,
      "Ġchikkana": 3332,
      "Ġnirddeshana": 3333,
      "Ġjenetika": 3334,
      "rimandi": 3335,
      "Ġamlajana": 3336,
      "Ġparthakya": 3337,
      "Ġpratinidhit": 3338,
      "gani": 3339,
      "garu": 3340,
      "kanti": 3341,
      "masa": 3342,
      "phara": 3343,
      "prrish": 3344,
      "pashu": 3345,
      "Ġena": 3346,
      "ste": 3347,
      "artti": 3348,
      "antarita": 3349,
      "Ġsur": 3350,
      "raja": 3351,
      "lain": 3352,
      "Ġape": 3353,
      "Ġakarara": 3354,
      "Ġsabh": 3355,
      "let": 3356,
      "Ġkarda": 3357,
      "Ġpaanti": 3358,
      "Ġpabana": 3359,
      "Ġnataka": 3360,
      "Ġras": 3361,
      "sakaratmaka": 3362,
      "gamana": 3363,
      "pad": 3364,
      "Ġmatha": 3365,
      "Ġrahanti": 3366,
      "Ġbibrrit": 3367,
      "Ġbipla": 3368,
      "Ġbibrritti": 3369,
      "Ġbijaya": 3370,
      "thai": 3371,
      "rripa": 3372,
      "Ġsammana": 3373,
      "alpa": 3374,
      "Ġniyamita": 3375,
      "chapa": 3376,
      "Ġbakyaru": 3377,
      "bhaga": 3378,
      "Ġbhakta": 3379,
      "Ġbhatta": 3380,
      "Ġsht": 3381,
      "Ġbarnn": 3382,
      "Ġdigare": 3383,
      "Ġlagu": 3384,
      "Ġgala": 3385,
      "Ġgatire": 3386,
      "Ġdain": 3387,
      "Ġsta": 3388,
      "Ġkula": 3389,
      "Ġ21": 3390,
      "karare": 3391,
      "tran": 3392,
      "Ġloke": 3393,
      "Ġbyabaharakari": 3394,
      "krritrima": 3395,
      "Ġshasana": 3396,
      "Ġngo": 3397,
      "Ġkhola": 3398,
      "Ġgudi": 3399,
      "krame": 3400,
      "kramare": 3401,
      "Ġpicha": 3402,
      "phre": 3403,
      "kora": 3404,
      "Ġdekhiba": 3405,
      "Ġjanashuna": 3406,
      "Ġalabam": 3407,
      "Ġprathamika": 3408,
      "Ġbharatare": 3409,
      "byabahara": 3410,
      "Ġasiba": 3411,
      "Ġsosiala": 3412,
      "Ġsamayaku": 3413,
      "Ġabashyakata": 3414,
      "Ġakranta": 3415,
      "Ġbaidha": 3416,
      "Ġ202": 3417,
      "udaharana": 3418,
      "Ġbastura": 3419,
      "bharata": 3420,
      "Ġpadart": 3421,
      "onia": 3422,
      "yeu": 3423,
      "yetebele": 3424,
      "Ġkhri": 3425,
      "Ġgitara": 3426,
      "Ġnirapeksha": 3427,
      "Ġagni": 3428,
      "Ġaplik": 3429,
      "Ġkatakana": 3430,
      "Ġkhailu": 3431,
      "Ġmandali": 3432,
      "Ġbayasare": 3433,
      "Ġuddeshyare": 3434,
      "Ġrahasya": 3435,
      "Ġparaspara": 3436,
      "Ġbidyut": 3437,
      "Ġdayit": 3438,
      "Ġbibechana": 3439,
      "Ġhimsa": 3440,
      "Ġnjiniyarim": 3441,
      "shabda": 3442,
      ",<|": 3443,
      "achi": 3444,
      "bim": 3445,
      "mya": 3446,
      "mshare": 3447,
      "pen": 3448,
      "psa": 3449,
      "sra": 3450,
      "sya": 3451,
      "tari": 3452,
      "sthita": 3453,
      "hata": 3454,
      "haku": 3455,
      "hin": 3456,
      "antana": 3457,
      "Ġsq": 3458,
      "Ġsy": 3459,
      "Ġshita": 3460,
      "bahi": 3461,
      "badara": 3462,
      "yala": 3463,
      "yatare": 3464,
      "Ġplash": 3465,
      "kabi": 3466,
      "Ġnya": 3467,
      "usara": 3468,
      "shti": 3469,
      "Ġeb": 3470,
      "Ġeksa": 3471,
      "dakshina": 3472,
      "Ġsaharara": 3473,
      "Ġio": 3474,
      "Ġile": 3475,
      "Ġdanta": 3476,
      "Ġpath": 3477,
      "Ġnag": 3478,
      "Ġnathiba": 3479,
      "Ġanuro": 3480,
      "pali": 3481,
      "Ġprakrrita": 3482,
      "Ġmati": 3483,
      "Ġmaila": 3484,
      "Ġgre": 3485,
      "manita": 3486,
      "Ġof": 3487,
      "Ġsamgra": 3488,
      "Ġsamgita": 3489,
      "Ġsambala": 3490,
      "habhara": 3491,
      "Ġnkada": 3492,
      "thari": 3493,
      "bhas": 3494,
      "Ġbyayama": 3495,
      "Ġbhalu": 3496,
      "Ġchaki": 3497,
      "Ġmudra": 3498,
      "Ġtibra": 3499,
      "Ġdabi": 3500,
      "Ġdaktara": 3501,
      "Ġstarare": 3502,
      "Ġupayare": 3503,
      "mukhi": 3504,
      "Ġmidia": 3505,
      "Ġdunia": 3506,
      "Ġpratish": 3507,
      "Ġpratishtha": 3508,
      "Ġamara": 3509,
      "Ġanukula": 3510,
      "mela": 3511,
      "Ġhebaku": 3512,
      "Ġbarnnanakari": 3513,
      "bandhu": 3514,
      "Ġkahila": 3515,
      "Ġsarchcha": 3516,
      "Ġjanapada": 3517,
      "Ġmeksi": 3518,
      "Ġshaktira": 3519,
      "Ġlensa": 3520,
      "Ġthika": 3521,
      "Ġbaharaku": 3522,
      "Ġsamud": 3523,
      "Ġantarjatiya": 3524,
      "Ġghushuri": 3525,
      "Ġashcharyya": 3526,
      "Ġkriyakarma": 3527,
      "Ġbhagabana": 3528,
      "mmada": 3529,
      "Ġdhua": 3530,
      "Ġdhumra": 3531,
      "Ġaphri": 3532,
      "Ġbidyala": 3533,
      "Ġpinda": 3534,
      "Ġshatabdire": 3535,
      "Ġparampara": 3536,
      "dandaku": 3537,
      "Ġmasare": 3538,
      "Ġhisaba": 3539,
      "Ġbhitaraku": 3540,
      "Ġsamgathita": 3541,
      "Ġkaryyakalapa": 3542,
      "Ġpashchima": 3543,
      "Ġbaktabya": 3544,
      "Ġgarama": 3545,
      "Ġupalabdha": 3546,
      "Ġautaput": 3547,
      "17": 3548,
      "25": 3549,
      "at": 3550,
      "banara": 3551,
      "brata": 3552,
      "ct": 3553,
      "goti": 3554,
      "hya": 3555,
      "lanare": 3556,
      "panika": 3557,
      "sim": 3558,
      "tas": 3559,
      "tanta": 3560,
      "vi": 3561,
      "Ġkita": 3562,
      "yagada": 3563,
      "Ġpya": 3564,
      "kaku": 3565,
      "Ġnj": 3566,
      "Ġnanda": 3567,
      "Ġbem": 3568,
      "lira": 3569,
      "madh": 3570,
      "Ġsakala": 3571,
      "kukura": 3572,
      "eph": 3573,
      "Ġcel": 3574,
      "Ġuthi": 3575,
      "Ġukti": 3576,
      "Ġpali": 3577,
      "Ġnathile": 3578,
      "samu": 3579,
      "Ġkadha": 3580,
      "Ġkataka": 3581,
      "Ġmaa": 3582,
      "teja": 3583,
      "Ġjiti": 3584,
      "Ġbina": 3585,
      "Ġbiru": 3586,
      "Ġgem": 3587,
      "rrina": 3588,
      "Ġdebaku": 3589,
      "bidhana": 3590,
      "bhasha": 3591,
      "Ġmadhum": 3592,
      "nish": 3593,
      "Ġbhas": 3594,
      "Ġbhajana": 3595,
      "khadya": 3596,
      "yura": 3597,
      "kiba": 3598,
      "Ġsamapta": 3599,
      "Ġlai": 3600,
      "Ġchina": 3601,
      "Ġupayoga": 3602,
      "Ġupakanthare": 3603,
      "Ġmishi": 3604,
      "deshara": 3605,
      "piya": 3606,
      "Ġshish": 3607,
      "Ġyog": 3608,
      "Ġyogya": 3609,
      "nahanti": 3610,
      "Ġgum": 3611,
      "Ġdiaya": 3612,
      "phran": 3613,
      "dura": 3614,
      "Ġbhubanesh": 3615,
      "Ġjanapa": 3616,
      "Ġanusarana": 3617,
      "phalare": 3618,
      "mohana": 3619,
      "Ġmahaprabhu": 3620,
      "Ġmandirara": 3621,
      "Ġmanora": 3622,
      "Ġbyaktira": 3623,
      "oglo": 3624,
      "mbakiya": 3625,
      "Ġchariti": 3626,
      "Ġmishrita": 3627,
      "Ġsheshare": 3628,
      "Ġdeshamana": 3629,
      "Ġchuti": 3630,
      "Ġbiju": 3631,
      "Ġprotsa": 3632,
      "Ġlekhiba": 3633,
      "Ġprakrriti": 3634,
      "usaph": 3635,
      "Ġsatyajita": 3636,
      "Ġyadio": 3637,
      "Ġsaphalata": 3638,
      "Ġbrahma": 3639,
      "Ġbidyalaya": 3640,
      "Ġparamparika": 3641,
      "Ġtarikha": 3642,
      "Ġhrrid": 3643,
      "Ġbistara": 3644,
      "Ġbistrrita": 3645,
      "dastabijaku": 3646,
      "Ġbhauni": 3647,
      "Ġtyaga": 3648,
      "Ġchaturddi": 3649,
      "Ġsmrriti": 3650,
      "Ġparimanara": 3651,
      "sathika": 3652,
      "Ġprarthi": 3653,
      "Ġpaddhati": 3654,
      "Ġselasiyas": 3655,
      "Ġpatni": 3656,
      "Ġanurodha": 3657,
      "Ġcell": 3658,
      "Ġmadhumeha": 3659,
      "'<|": 3660,
      "14": 3661,
      "34": 3662,
      "ad": 3663,
      "banare": 3664,
      "deshi": 3665,
      "kyu": 3666,
      "kand": 3667,
      "lima": 3668,
      "srripa": 3669,
      "ten": 3670,
      "ttika": 3671,
      "yane": 3672,
      "araru": 3673,
      "stare": 3674,
      "asana": 3675,
      "bama": 3676,
      "badi": 3677,
      "rakta": 3678,
      "kada": 3679,
      "kalu": 3680,
      "Ġnju": 3681,
      "Ġnrritya": 3682,
      "Ġbandara": 3683,
      "ushita": 3684,
      "shna": 3685,
      "shreni": 3686,
      "libaku": 3687,
      "Ġeyara": 3688,
      "Ġur": 3689,
      "Ġithile": 3690,
      "Ġbayo": 3691,
      "Ġpaksha": 3692,
      "Ġpauda": 3693,
      "Ġnapana": 3694,
      "Ġmeru": 3695,
      "lyu": 3696,
      "Ġkaushala": 3697,
      "dharita": 3698,
      "Ġprabh": 3699,
      "Ġbili": 3700,
      "Ġbicha": 3701,
      "Ġbidhana": 3702,
      "Ġbije": 3703,
      "Ġekamatra": 3704,
      "Ġsameta": 3705,
      "biya": 3706,
      "khanti": 3707,
      "Ġhoipari": 3708,
      "Ġhoithibaru": 3709,
      "nihita": 3710,
      "Ġparish": 3711,
      "Ġshtai": 3712,
      "guna": 3713,
      "kila": 3714,
      "Ġkaraka": 3715,
      "rrishta": 3716,
      "Ġlauha": 3717,
      "paribesha": 3718,
      "Ġgaliba": 3719,
      "jibani": 3720,
      "Ġshabdare": 3721,
      "Ġdaktari": 3722,
      "Ġputra": 3723,
      "Ġ27": 3724,
      "kshu": 3725,
      "Ġmitha": 3726,
      "Ġngalare": 3727,
      "ashaya": 3728,
      "ashali": 3729,
      "Ġhatha": 3730,
      "Ġparbata": 3731,
      "Ġshapim": 3732,
      "Ġamshare": 3733,
      "pratyeka": 3734,
      "nnti": 3735,
      "andina": 3736,
      "Ġutpadana": 3737,
      "Ġketeguda": 3738,
      "Ġchihni": 3739,
      "Ġdeithila": 3740,
      "Ġarog": 3741,
      "Ġphusaph": 3742,
      "Ġkanikaguda": 3743,
      "bhabana": 3744,
      "bhabish": 3745,
      "Ġgoda": 3746,
      "Ġprashnare": 3747,
      "Ġmarketim": 3748,
      "Ġmanushya": 3749,
      "Ġyaichi": 3750,
      "Ġphuti": 3751,
      "Ġsthalare": 3752,
      "Ġnishkriya": 3753,
      "Ġbarapha": 3754,
      "banumana": 3755,
      "Ġdrabya": 3756,
      "sabutharu": 3757,
      "Ġlakshmi": 3758,
      "kampyutara": 3759,
      "Ġunnati": 3760,
      "Ġnchiba": 3761,
      "Ġsamudraku": 3762,
      "ktarashtrare": 3763,
      "Ġsamrakshana": 3764,
      "brriddhi": 3765,
      "Ġpadiba": 3766,
      "Ġsambandhiya": 3767,
      "Ġbritisha": 3768,
      "Ġkarmachari": 3769,
      "Ġsthiti": 3770,
      "Ġatyadhika": 3771,
      "Ġshantipurnna": 3772,
      "Ġmastishka": 3773,
      "Ġabhineta": 3774,
      "Ġantibayotika": 3775,
      "Ġbemari": 3776,
      "atya": 3777,
      "co": 3778,
      "danti": 3779,
      "dur": 3780,
      "gna": 3781,
      "jas": 3782,
      "kli": 3783,
      "kla": 3784,
      "lanta": 3785,
      "nchi": 3786,
      "soma": 3787,
      "yanara": 3788,
      "Ġkona": 3789,
      "Ġkrida": 3790,
      "antri": 3791,
      "Ġspa": 3792,
      "asu": 3793,
      "bagha": 3794,
      "yamara": 3795,
      "Ġnkas": 3796,
      "sia": 3797,
      "sion": 3798,
      "Ġblu": 3799,
      "Ġbrrit": 3800,
      "Ġach": 3801,
      "Ġajana": 3802,
      "Ġagaku": 3803,
      "Ġecha": 3804,
      "Ġsala": 3805,
      "Ġco": 3806,
      "Ġudita": 3807,
      "Ġbachi": 3808,
      "Ġbadya": 3809,
      "Ġbajaya": 3810,
      "Ġrash": 3811,
      "samana": 3812,
      "satya": 3813,
      "Ġmusha": 3814,
      "gama": 3815,
      "dhanara": 3816,
      "Ġprabandha": 3817,
      "Ġjena": 3818,
      "Ġghera": 3819,
      "Ġlekhara": 3820,
      "emara": 3821,
      "Ġpaibe": 3822,
      "bij": 3823,
      "Ġyama": 3824,
      "ehipari": 3825,
      "Ġparitya": 3826,
      "Ġparisam": 3827,
      "dhire": 3828,
      "Ġshar": 3829,
      "Ġsamaste": 3830,
      "Ġgali": 3831,
      "jibi": 3832,
      "Ġchitkara": 3833,
      "Ġtrriti": 3834,
      "Ġjada": 3835,
      "Ġsthala": 3836,
      "sethipai": 3837,
      "kshma": 3838,
      "Ġnirasha": 3839,
      "Ġsubidha": 3840,
      "deshare": 3841,
      "bula": 3842,
      "Ġduni": 3843,
      "Ġshaili": 3844,
      "rota": 3845,
      "yogara": 3846,
      "Ġpurbanumana": 3847,
      "Ġnimnare": 3848,
      "Ġanupa": 3849,
      "Ġsabubele": 3850,
      "Ġdiayiba": 3851,
      "Ġbuda": 3852,
      "Ġabar": 3853,
      "Ġutpa": 3854,
      "phon": 3855,
      "phona": 3856,
      "Ġ40": 3857,
      "Ġsarani": 3858,
      "barga": 3859,
      "paryya": 3860,
      "Ġkanada": 3861,
      "kor": 3862,
      "Ġkampyu": 3863,
      "ghatika": 3864,
      "Ġshrenira": 3865,
      "Ġmesin": 3866,
      "Ġheuthile": 3867,
      "Ġbrrik": 3868,
      "Ġmandirare": 3869,
      "Ġnijaku": 3870,
      "Ġmarka": 3871,
      "Ġatikrama": 3872,
      "Ġ80": 3873,
      "Ġdarsh": 3874,
      "Ġudyana": 3875,
      "Ġbastuguda": 3876,
      "lekhati": 3877,
      "bharatara": 3878,
      "Ġatma": 3879,
      "Ġamaku": 3880,
      "yarka": 3881,
      "Ġsharirika": 3882,
      "Ġbarttamanara": 3883,
      "Ġdrrishtiru": 3884,
      "Ġkhub": 3885,
      "Ġprabhabashali": 3886,
      "Ġpranalire": 3887,
      "Ġkariparibi": 3888,
      "ktas": 3889,
      "baij": 3890,
      "brah": 3891,
      "Ġsamrachana": 3892,
      "prrithibira": 3893,
      "Ġsarisrripa": 3894,
      "Ġsauri": 3895,
      "abhinaya": 3896,
      "epata": 3897,
      "Ġjariare": 3898,
      "Ġajaba": 3899,
      "Ġpaentu": 3900,
      "Ġgrriha": 3901,
      "Ġutthana": 3902,
      "Ġasthyaseba": 3903,
      "Ġpratiphalita": 3904,
      "Ġchakiri": 3905,
      "Ġbiruddhare": 3906,
      "Ġprabhrriti": 3907,
      "57": 3908,
      "ap": 3909,
      "ci": 3910,
      "gr": 3911,
      "ghar": 3912,
      "jal": 3913,
      "kasa": 3914,
      "lar": 3915,
      "py": 3916,
      "pri": 3917,
      "pash": 3918,
      "raru": 3919,
      "ses": 3920,
      "uari": 3921,
      "Ġari": 3922,
      "animana": 3923,
      "imu": 3924,
      "hai": 3925,
      "Ġkart": 3926,
      "Ġkyu": 3927,
      "Ġsku": 3928,
      "Ġsiti": 3929,
      "ramana": 3930,
      "yaanti": 3931,
      "Ġpyare": 3932,
      "Ġpandita": 3933,
      "Ġparti": 3934,
      "Ġnari": 3935,
      "Ġnch": 3936,
      "ono": 3937,
      "Ġepi": 3938,
      "Ġsapa": 3939,
      "Ġsaharare": 3940,
      "epha": 3941,
      "Ġhra": 3942,
      "Ġiare": 3943,
      "Ġibaku": 3944,
      "Ġbajara": 3945,
      "Ġnathae": 3946,
      "Ġmanya": 3947,
      "Ġanandita": 3948,
      "Ġanandare": 3949,
      "Ġkalika": 3950,
      "Ġkaridia": 3951,
      "Ġkarisari": 3952,
      "Ġprat": 3953,
      "Ġprabhu": 3954,
      "Ġrachita": 3955,
      "Ġbita": 3956,
      "Ġganthi": 3957,
      "haraja": 3958,
      "Ġhetu": 3959,
      "tho": 3960,
      "bitra": 3961,
      "bela": 3962,
      "Ġyauthiba": 3963,
      "itaku": 3964,
      "Ġset": 3965,
      "Ġbarnna": 3966,
      "Ġdijitala": 3967,
      "Ġgayaka": 3968,
      "Ġgambhira": 3969,
      "Ġtibhi": 3970,
      "otika": 3971,
      "Ġjata": 3972,
      "Ġpras": 3973,
      "Ġsucha": 3974,
      "Ġsunish": 3975,
      "Ġhajara": 3976,
      "Ġrahibaku": 3977,
      "Ġsahaja": 3978,
      "Ġsabukichi": 3979,
      "Ġabasada": 3980,
      "grahana": 3981,
      "sthali": 3982,
      "Ġbishrama": 3983,
      "Ġdekhayaichi": 3984,
      "Ġsaras": 3985,
      "Ġphya": 3986,
      "Ġsamkhyaguda": 3987,
      "Ġkanikaku": 3988,
      "Ġkothari": 3989,
      "tor": 3990,
      "Ġdekhile": 3991,
      "Ġanushi": 3992,
      "Ġtumaku": 3993,
      "Ġmela": 3994,
      "Ġheuthila": 3995,
      "Ġbishayaku": 3996,
      "tarara": 3997,
      "Ġphato": 3998,
      "Ġneithile": 3999,
      "Ġshukhi": 4000,
      "Ġdhakka": 4001,
      "Ġriporta": 4002,
      "Ġasam": 4003,
      "Ġyaithae": 4004,
      "Ġalokita": 4005,
      "Ġdarshaka": 4006,
      "Ġdebata": 4007,
      "197": 4008,
      "198": 4009,
      "ramakrrishna": 4010,
      "Ġchaliba": 4011,
      "Ġashra": 4012,
      "Ġashrama": 4013,
      "Ġtathapi": 4014,
      "Ġdashamika": 4015,
      "Ġutsaba": 4016,
      "Ġutsahita": 4017,
      "Ġdrrishtire": 4018,
      "Ġbarambara": 4019,
      "Ġdharanaku": 4020,
      "Ġbayumanda": 4021,
      "Ġbicharaku": 4022,
      "Ġnikatastha": 4023,
      "Ġrrishi": 4024,
      "Ġprrishthara": 4025,
      "Ġparyyatana": 4026,
      "Ġaphrika": 4027,
      "Ġparibeshana": 4028,
      "Ġsantush": 4029,
      "Ġebasait": 4030,
      "Ġghur": 4031,
      "bikaranayogya": 4032,
      "Ġprogramim": 4033,
      "Ġupadanara": 4034,
      "Ġkhanija": 4035,
      "prarambhika": 4036,
      "Ġanumodita": 4037,
      "Ġdainandina": 4038,
      "Ġsunishchita": 4039,
      "100": 4040,
      "28": 4041,
      "30": 4042,
      "48": 4043,
      "60": 4044,
      "65": 4045,
      "amara": 4046,
      "br": 4047,
      "barana": 4048,
      "ddhara": 4049,
      "ed": 4050,
      "itta": 4051,
      "jim": 4052,
      "mbu": 4053,
      "oga": 4054,
      "pasa": 4055,
      "phare": 4056,
      "sm": 4057,
      "Ġ!": 4058,
      "Ġend": 4059,
      "Ġlikhita": 4060,
      "Ġ!<|": 4061,
      "andhana": 4062,
      "stana": 4063,
      "antar": 4064,
      "Ġsona": 4065,
      "Ġskri": 4066,
      "bachi": 4067,
      "tapa": 4068,
      "yataku": 4069,
      "Ġpan": 4070,
      "Ġpasi": 4071,
      "Ġplata": 4072,
      "Ġeai": 4073,
      "data": 4074,
      "les": 4075,
      "Ġcharana": 4076,
      "Ġhem": 4077,
      "Ġpau": 4078,
      "Ġpapa": 4079,
      "Ġpathare": 4080,
      "Ġpathyara": 4081,
      "Ġpabitra": 4082,
      "chiki": 4083,
      "gacha": 4084,
      "Ġandh": 4085,
      "Ġprabala": 4086,
      "Ġmal": 4087,
      "ted": 4088,
      "Ġjha": 4089,
      "Ġjyak": 4090,
      "Ġbipa": 4091,
      "Ġbiki": 4092,
      "Ġbilam": 4093,
      "Ġekaka": 4094,
      "Ġsamart": 4095,
      "hur": 4096,
      "Ġnkathare": 4097,
      "Ġnibe": 4098,
      "Ġnijas": 4099,
      "bile": 4100,
      "Ġyauthile": 4101,
      "bhala": 4102,
      "nikata": 4103,
      "uranika": 4104,
      "Ġshtra": 4105,
      "Ġshrimandi": 4106,
      "yuktarashtra": 4107,
      "shila": 4108,
      "Ġmun": 4109,
      "kela": 4110,
      "Ġketekamshare": 4111,
      "Ġsamagra": 4112,
      "Ġbarshare": 4113,
      "Ġbargare": 4114,
      "Ġdis": 4115,
      "Ġdigaku": 4116,
      "Ġdibhai": 4117,
      "Ġgalpa": 4118,
      "Ġgayika": 4119,
      "Ġchitrare": 4120,
      "anesha": 4121,
      "Ġkuhanti": 4122,
      "Ġupahara": 4123,
      "Ġupakara": 4124,
      "Ġupasthapana": 4125,
      "Ġmiluthiba": 4126,
      "Ġngabayu": 4127,
      "trana": 4128,
      "Ġhatya": 4129,
      "sheshare": 4130,
      "Ġsahasa": 4131,
      "barta": 4132,
      "prat": 4133,
      "prakara": 4134,
      "bhula": 4135,
      "Ġkhasi": 4136,
      "Ġnimitta": 4137,
      "Ġanudh": 4138,
      "Ġanubhu": 4139,
      "Ġboj": 4140,
      "puni": 4141,
      "Ġpunahbi": 4142,
      "Ġutpanna": 4143,
      "purusha": 4144,
      "Ġbadalare": 4145,
      "Ġkaryyaku": 4146,
      "Ġkaryyakrama": 4147,
      "Ġkaryyakshama": 4148,
      "phai": 4149,
      "phalata": 4150,
      "Ġ197": 4151,
      "Ġkuhayaichi": 4152,
      "Ġimmyu": 4153,
      "Ġbyaktigata": 4154,
      "Ġbaishi": 4155,
      "Ġsarakari": 4156,
      "Ġsthanaku": 4157,
      "janma": 4158,
      "bharatiya": 4159,
      "Ġcharmar": 4160,
      "Ġdhru": 4161,
      "Ġchup": 4162,
      "Ġsimita": 4163,
      "Ġupadanaku": 4164,
      "Ġupadanaguda": 4165,
      "Ġjillare": 4166,
      "bhojana": 4167,
      "Ġshunibaku": 4168,
      "Ġkanikare": 4169,
      "Ġsuchanaku": 4170,
      "amerikare": 4171,
      "Ġgranthi": 4172,
      "Ġniyukti": 4173,
      "Ġtherapi": 4174,
      "Ġhisabare": 4175,
      "Ġjarmani": 4176,
      "tiniti": 4177,
      "kania": 4178,
      "Ġcharipakhare": 4179,
      "Ġsnana": 4180,
      "Ġmedikala": 4181,
      "globala": 4182,
      "Ġanushthita": 4183,
      "Ġsamkramita": 4184,
      "Ġkantilo": 4185,
      "Ġrupantarita": 4186,
      "Ġsiddhanta": 4187,
      "Ġsql": 4188,
      "Ġarogya": 4189,
      "ktasraba": 4190,
      "Ġmanyata": 4191,
      "Ġplataphar": 4192,
      "32": 4193,
      "aph": 4194,
      "byu": 4195,
      "drridha": 4196,
      "gari": 4197,
      "ij": 4198,
      "krara": 4199,
      "mbana": 4200,
      "per": 4201,
      "panare": 4202,
      "phabika": 4203,
      "ss": 4204,
      "sun": 4205,
      "udita": 4206,
      "yasi": 4207,
      "yantra": 4208,
      "Ġkro": 4209,
      "Ġkanya": 4210,
      "Ġspar": 4211,
      "rachana": 4212,
      "Ġpasa": 4213,
      "kahi": 4214,
      "Ġnchare": 4215,
      "tiki": 4216,
      "Ġbeshi": 4217,
      "shma": 4218,
      "shanare": 4219,
      "mada": 4220,
      "madara": 4221,
      "onu": 4222,
      "Ġaita": 4223,
      "Ġadha": 4224,
      "Ġabala": 4225,
      "Ġachcha": 4226,
      "Ġish": 4227,
      "Ġichi": 4228,
      "Ġipare": 4229,
      "Ġithae": 4230,
      "Ġishta": 4231,
      "Ġdhana": 4232,
      "Ġbacha": 4233,
      "Ġbamsha": 4234,
      "Ġpaksh": 4235,
      "Ġpatrare": 4236,
      "Ġnali": 4237,
      "Ġnada": 4238,
      "Ġnahanti": 4239,
      "Ġrani": 4240,
      "gati": 4241,
      "Ġkahara": 4242,
      "Ġkaribi": 4243,
      "Ġpradar": 4244,
      "Ġmax": 4245,
      "Ġmahabhara": 4246,
      "manare": 4247,
      "Ġekatra": 4248,
      "alo": 4249,
      "Ġindi": 4250,
      "our": 4251,
      "bikshana": 4252,
      "beti": 4253,
      "Ġyau": 4254,
      "Ġyatna": 4255,
      "bhadra": 4256,
      "Ġbyag": 4257,
      "Ġhoichanti": 4258,
      "Ġparib": 4259,
      "Ġparisthiti": 4260,
      "lohita": 4261,
      "asht": 4262,
      "ashana": 4263,
      "Ġsela": 4264,
      "Ġshoiba": 4265,
      "Ġmud": 4266,
      "mini": 4267,
      "mithya": 4268,
      "Ġtan": 4269,
      "Ġdaga": 4270,
      "hesh": 4271,
      "Ġjatira": 4272,
      "Ġhuenahi": 4273,
      "Ġpua": 4274,
      "Ġkulare": 4275,
      "Ġupasthiti": 4276,
      "sel": 4277,
      "giri": 4278,
      "Ġnirgata": 4279,
      "Ġnirbaha": 4280,
      "antakali": 4281,
      "Ġjiban": 4282,
      "Ġhatare": 4283,
      "Ġhatai": 4284,
      "Ġshira": 4285,
      "Ġbyabaharaku": 4286,
      "Ġpratiro": 4287,
      "Ġnchama": 4288,
      "rogi": 4289,
      "Ġanuradha": 4290,
      "Ġnebaku": 4291,
      "Ġbulu": 4292,
      "unda": 4293,
      "kraya": 4294,
      "Ġ45": 4295,
      "Ġanyamana": 4296,
      "Ġarmim": 4297,
      "Ġarlda": 4298,
      "Ġkor": 4299,
      "Ġraktachapa": 4300,
      "Ġanusandhana": 4301,
      "Ġabasthiti": 4302,
      "Ġabhibrriddhi": 4303,
      "Ġlekhaku": 4304,
      "Ġmasiharu": 4305,
      "Ġharam": 4306,
      "Ġyuktarashtra": 4307,
      "Ġasichi": 4308,
      "andar": 4309,
      "Ġtaraka": 4310,
      "tamata": 4311,
      "Ġshunya": 4312,
      "Ġarthaku": 4313,
      "Ġ60": 4314,
      "Ġatita": 4315,
      "Ġchcha": 4316,
      "yamaya": 4317,
      "Ġprayatah": 4318,
      "gudie": 4319,
      "Ġkshaya": 4320,
      "Ġbhartti": 4321,
      "Ġjanita": 4322,
      "Ġjanibaku": 4323,
      "Ġdashakare": 4324,
      "Ġbisheshat": 4325,
      "Ġnirapada": 4326,
      "Ġsamagrira": 4327,
      "Ġsinema": 4328,
      "Ġalarji": 4329,
      "Ġpharma": 4330,
      "Ġduhsa": 4331,
      "Ġpakhaku": 4332,
      "Ġbandhi": 4333,
      "Ġpushti": 4334,
      "nnima": 4335,
      "Ġyieki": 4336,
      "Ġnjekasana": 4337,
      "prrithibire": 4338,
      "Ġyuropiya": 4339,
      "Ġbujhiba": 4340,
      "Ġsaptaha": 4341,
      "Ġmarkandesh": 4342,
      "Ġnkhala": 4343,
      "chalach": 4344,
      "ashesha": 4345,
      "Ġkendriya": 4346,
      "leria": 4347,
      "Ġdakshata": 4348,
      "Ġupabhokta": 4349,
      "Ġnirupana": 4350,
      "apal": 4351,
      "Ġbhitamina": 4352,
      "Ġandolana": 4353,
      "Ġparishrama": 4354,
      "Ġphusaphusa": 4355,
      "',": 4356,
      "ada": 4357,
      "ation": 4358,
      "ain": 4359,
      "akasha": 4360,
      "ble": 4361,
      "bashi": 4362,
      "con": 4363,
      "dim": 4364,
      "ete": 4365,
      "fe": 4366,
      "ilire": 4367,
      "janare": 4368,
      "janara": 4369,
      "klo": 4370,
      "mbhare": 4371,
      "nas": 4372,
      "naru": 4373,
      "pro": 4374,
      "tarana": 4375,
      "ww": 4376,
      "yanti": 4377,
      "yuro": 4378,
      "Ġush": 4379,
      "sthara": 4380,
      "hae": 4381,
      "hir": 4382,
      "badhi": 4383,
      "taha": 4384,
      "tathya": 4385,
      "Ġpashi": 4386,
      "kai": 4387,
      "Ġnke": 4388,
      "Ġnanara": 4389,
      "Ġnjara": 4390,
      "tina": 4391,
      "Ġbari": 4392,
      "lin": 4393,
      "lila": 4394,
      "machi": 4395,
      "Ġachara": 4396,
      "Ġekara": 4397,
      "daku": 4398,
      "Ġudya": 4399,
      "Ġhy": 4400,
      "Ġhani": 4401,
      "Ġhrrita": 4402,
      "Ġkarbana": 4403,
      "Ġbahana": 4404,
      "Ġpade": 4405,
      "Ġpatala": 4406,
      "Ġnamita": 4407,
      "sahi": 4408,
      "saita": 4409,
      "Ġmeri": 4410,
      "Ġmantri": 4411,
      "shata": 4412,
      "pathi": 4413,
      "pakshi": 4414,
      "Ġkalara": 4415,
      "dhari": 4416,
      "Ġprachara": 4417,
      "Ġmah": 4418,
      "Ġmatrare": 4419,
      "Ġraktasraba": 4420,
      "Ġjon": 4421,
      "Ġbila": 4422,
      "Ġbibidha": 4423,
      "Ġbikraya": 4424,
      "Ġgya": 4425,
      "Ġgani": 4426,
      "Ġgiti": 4427,
      "Ġganesha": 4428,
      "Ġota": 4429,
      "Ġsamas": 4430,
      "ttp": 4431,
      "Ġtap": 4432,
      "Ġtama": 4433,
      "Ġindra": 4434,
      "jagannatha": 4435,
      "Ġnishedha": 4436,
      "Ġdekhu": 4437,
      "chatra": 4438,
      "bed": 4439,
      "Ġhoigala": 4440,
      "Ġhoinahi": 4441,
      "niti": 4442,
      "Ġbhadra": 4443,
      "Ġchahi": 4444,
      "Ġchaka": 4445,
      "Ġchadi": 4446,
      "Ġshte": 4447,
      "shiya": 4448,
      "Ġmuhur": 4449,
      "Ġbarshika": 4450,
      "rrishya": 4451,
      "Ġtirtha": 4452,
      "Ġrob": 4453,
      "Ġshabdaru": 4454,
      "Ġtyu": 4455,
      "Ġdau": 4456,
      "Ġdaku": 4457,
      "Ġkanthas": 4458,
      "Ġupayogi": 4459,
      "Ġmidi": 4460,
      "Ġmilita": 4461,
      "Ġsudrridha": 4462,
      "Ġarabinda": 4463,
      "Ġjin": 4464,
      "ashama": 4465,
      "Ġrahithila": 4466,
      "Ġrahichanti": 4467,
      "ehad": 4468,
      "Ġnimonia": 4469,
      "Ġbudha": 4470,
      "Ġkaruthila": 4471,
      "Ġnuha": 4472,
      "Ġdeichi": 4473,
      "Ġbadala": 4474,
      "Ġbega": 4475,
      "Ġbelaku": 4476,
      "Ġkaryyakramare": 4477,
      "Ġkahiba": 4478,
      "barnna": 4479,
      "chchada": 4480,
      "enala": 4481,
      "Ġtulanare": 4482,
      "Ġjanana": 4483,
      "Ġjanuari": 4484,
      "Ġmahadeba": 4485,
      "Ġmahamari": 4486,
      "trikonara": 4487,
      "Ġsthan": 4488,
      "ushka": 4489,
      "Ġshun": 4490,
      "Ġpolisa": 4491,
      "Ġdhadi": 4492,
      "Ġimela": 4493,
      "phik": 4494,
      "Ġatitare": 4495,
      "haniti": 4496,
      "Ġchikit": 4497,
      "Ġrakhithile": 4498,
      "Ġphalaprada": 4499,
      "janana": 4500,
      "Ġsamskrriti": 4501,
      "Ġamshaku": 4502,
      "Ġakarshita": 4503,
      "Ġmilithila": 4504,
      "Ġprograma": 4505,
      "Ġashtre": 4506,
      "Ġlekhichanti": 4507,
      "Ġsamikaranara": 4508,
      "Ġlagiba": 4509,
      "Ġbibhaga": 4510,
      "Ġphebrri": 4511,
      "Ġkamiti": 4512,
      "Ġjibajantu": 4513,
      "orld": 4514,
      "Ġworld": 4515,
      "Ġluha": 4516,
      "Ġkinithile": 4517,
      "Ġjatilata": 4518,
      "Ġmasala": 4519,
      "Ġkhelali": 4520,
      "Ġnjelas": 4521,
      "Ġpathyaku": 4522,
      "Ġtarikhare": 4523,
      "stika": 4524,
      "Ġabhyasa": 4525,
      "Ġupashama": 4526,
      "jalabayu": 4527,
      "Ġsamikaranaku": 4528,
      "Ġdrrishyamana": 4529,
      "Ġsamkhyara": 4530,
      "yashti": 4531,
      "Ġpunar": 4532,
      "Ġpacharile": 4533,
      "Ġmarubhumi": 4534,
      "Ġreshturanta": 4535,
      "Ġpadarthara": 4536,
      "Ġbaktabyaku": 4537,
      "chikitsa": 4538,
      "Ġpunahbikrama": 4539,
      "Ġcharmarasa": 4540,
      "aphri": 4541,
      "'re": 4542,
      "26": 4543,
      "35": 4544,
      "don": 4545,
      "dda": 4546,
      "echa": 4547,
      "ethiru": 4548,
      "handi": 4549,
      "jani": 4550,
      "nchanti": 4551,
      "psi": 4552,
      "saru": 4553,
      "tasa": 4554,
      "yani": 4555,
      "yita": 4556,
      "Ġashta": 4557,
      "andha": 4558,
      "hiba": 4559,
      "hini": 4560,
      "Ġsk": 4561,
      "bat": 4562,
      "baila": 4563,
      "Ġphara": 4564,
      "Ġparu": 4565,
      "Ġpyari": 4566,
      "kalara": 4567,
      "Ġnchara": 4568,
      "Ġbanya": 4569,
      "Ġbrata": 4570,
      "lipi": 4571,
      "maja": 4572,
      "madhya": 4573,
      "one": 4574,
      "Ġah": 4575,
      "Ġapha": 4576,
      "arina": 4577,
      "Ġemi": 4578,
      "dai": 4579,
      "Ġsaba": 4580,
      "Ġui": 4581,
      "Ġurd": 4582,
      "Ġhanu": 4583,
      "Ġiyae": 4584,
      "Ġikrriti": 4585,
      "Ġdash": 4586,
      "Ġbab": 4587,
      "Ġbati": 4588,
      "Ġbaje": 4589,
      "Ġbalesh": 4590,
      "Ġpama": 4591,
      "Ġpach": 4592,
      "Ġpalita": 4593,
      "Ġpachare": 4594,
      "Ġnabh": 4595,
      "Ġnayagada": 4596,
      "Ġrana": 4597,
      "sada": 4598,
      "saura": 4599,
      "Ġmasha": 4600,
      "Ġand": 4601,
      "Ġananta": 4602,
      "Ġaniba": 4603,
      "paku": 4604,
      "patya": 4605,
      "Ġkagaja": 4606,
      "Ġkariparanti": 4607,
      "dhanare": 4608,
      "Ġpraim": 4609,
      "Ġpramanita": 4610,
      "Ġmadya": 4611,
      "Ġmaju": 4612,
      "Ġmadela": 4613,
      "Ġmaharaja": 4614,
      "Ġraya": 4615,
      "Ġraku": 4616,
      "Ġjhi": 4617,
      "Ġbibhu": 4618,
      "Ġtami": 4619,
      "resa": 4620,
      "reja": 4621,
      "Ġpaichi": 4622,
      "Ġniantu": 4623,
      "antika": 4624,
      "Ġdeha": 4625,
      "Ġdebe": 4626,
      "bishishta": 4627,
      "beda": 4628,
      "Ġyaanti": 4629,
      "Ġyadu": 4630,
      "Ġyauthila": 4631,
      "bhau": 4632,
      "asama": 4633,
      "Ġparinama": 4634,
      "Ġparichalana": 4635,
      "Ġbhaba": 4636,
      "dhira": 4637,
      "Ġchaa": 4638,
      "Ġchati": 4639,
      "Ġsethipai": 4640,
      "kin": 4641,
      "kio": 4642,
      "Ġmuly": 4643,
      "Ġmuni": 4644,
      "Ġkarai": 4645,
      "Ġkaragala": 4646,
      "Ġsamaja": 4647,
      "nimna": 4648,
      "Ġbarsharu": 4649,
      "Ġdine": 4650,
      "Ġlata": 4651,
      "jiba": 4652,
      "jira": 4653,
      "Ġrokiba": 4654,
      "Ġtim": 4655,
      "Ġtani": 4656,
      "Ġdae": 4657,
      "Ġjaya": 4658,
      "ekada": 4659,
      "Ġupadesha": 4660,
      "Ġ28": 4661,
      "Ġmicha": 4662,
      "Ġmilu": 4663,
      "Ġsuna": 4664,
      "khia": 4665,
      "deha": 4666,
      "pida": 4667,
      "yarama": 4668,
      "Ġpratishata": 4669,
      "Ġrela": 4670,
      "yojita": 4671,
      "imala": 4672,
      "grata": 4673,
      "Ġdeithiba": 4674,
      "Ġdeichanti": 4675,
      "sthapita": 4676,
      "Ġchalaiba": 4677,
      "Ġjanantu": 4678,
      "Ġmahat": 4679,
      "Ġmeta": 4680,
      "Ġmesina": 4681,
      "Ġprakashana": 4682,
      "Ġteli": 4683,
      "Ġyuni": 4684,
      "Ġasila": 4685,
      "Ġchori": 4686,
      "phil": 4687,
      "Ġlist": 4688,
      "Ġlila": 4689,
      "Ġlipsa": 4690,
      "Ġlen": 4691,
      "Ġsamudaya": 4692,
      "Ġchanda": 4693,
      "Ġchandi": 4694,
      "Ġ70": 4695,
      "Ġngitara": 4696,
      "Ġthakura": 4697,
      "Ġudbhida": 4698,
      "Ġkshata": 4699,
      "Ġdeshaku": 4700,
      "Ġdeshaguda": 4701,
      "chuala": 4702,
      "Ġprashnabachi": 4703,
      "Ġbheri": 4704,
      "Ġ90": 4705,
      "Ġshritama": 4706,
      "Ġrogira": 4707,
      "Ġsharirare": 4708,
      "Ġlagila": 4709,
      "Ġlagile": 4710,
      "Ġjibanta": 4711,
      "Ġjibanara": 4712,
      "Ġdrai": 4713,
      "byaktigata": 4714,
      "Ġnkita": 4715,
      "Ġkhaile": 4716,
      "Ġ2014": 4717,
      "Ġparibahana": 4718,
      "Ġbujhaiba": 4719,
      "Ġvi": 4720,
      "Ġkhabaraka": 4721,
      "Ġbayaska": 4722,
      "Ġblag": 4723,
      "chetana": 4724,
      "Ġ//": 4725,
      "Ġsambandhare": 4726,
      "Ġuchcharana": 4727,
      "Ġpherasta": 4728,
      "Ġsajada": 4729,
      "Ġpachaku": 4730,
      "Ġtaipa": 4731,
      "akashare": 4732,
      "Ġtebul": 4733,
      "Ġprotin": 4734,
      "Ġbranda": 4735,
      "Ġmarathi": 4736,
      "Ġkamedi": 4737,
      "Ġprarambhika": 4738,
      "Ġprayuktira": 4739,
      "Ġaplikesan": 4740,
      "Ġpratishthita": 4741,
      "Ġdhumrapana": 4742,
      "Ġgumpha": 4743,
      "phransara": 4744,
      "Ġnkasan": 4745,
      "Ġparisamkhyana": 4746,
      "Ġhrada": 4747,
      "Ġprasarita": 4748,
      "Ġhemoglo": 4749,
      "Ġsamarthana": 4750,
      "Ġphebrriari": 4751,
      "45": 4752,
      "64": 4753,
      "akas": 4754,
      "bla": 4755,
      "cal": 4756,
      "ethi": 4757,
      "fi": 4758,
      "ghare": 4759,
      "ilek": 4760,
      "lan": 4761,
      "lim": 4762,
      "llo": 4763,
      "landa": 4764,
      "mna": 4765,
      "nana": 4766,
      "nes": 4767,
      "nyu": 4768,
      "nmane": 4769,
      "osha": 4770,
      "suchi": 4771,
      "yantara": 4772,
      "ano": 4773,
      "Ġkla": 4774,
      "Ġkimi": 4775,
      "arth": 4776,
      "Ġspan": 4777,
      "Ġskora": 4778,
      "Ġsrota": 4779,
      "badana": 4780,
      "yaha": 4781,
      "yami": 4782,
      "yauthila": 4783,
      "Ġpaniya": 4784,
      "kamane": 4785,
      "kahani": 4786,
      "tikara": 4787,
      "Ġbro": 4788,
      "usu": 4789,
      "shanu": 4790,
      "lio": 4791,
      "liti": 4792,
      "lakshana": 4793,
      "onim": 4794,
      "Ġakha": 4795,
      "Ġadya": 4796,
      "Ġakam": 4797,
      "Ġakrriti": 4798,
      "Ġayojana": 4799,
      "Ġem": 4800,
      "Ġsahu": 4801,
      "Ġsadhana": 4802,
      "Ġsathire": 4803,
      "Ġsakshama": 4804,
      "Ġsateja": 4805,
      "Ġsakalu": 4806,
      "kuda": 4807,
      "thilu": 4808,
      "Ġca": 4809,
      "Ġuthiba": 4810,
      "Ġukta": 4811,
      "Ġitara": 4812,
      "Ġdhira": 4813,
      "Ġbastra": 4814,
      "Ġpaki": 4815,
      "Ġnaba": 4816,
      "Ġnagada": 4817,
      "Ġnamuna": 4818,
      "Ġmur": 4819,
      "Ġmanare": 4820,
      "chila": 4821,
      "paksha": 4822,
      "patta": 4823,
      "Ġkau": 4824,
      "Ġkaha": 4825,
      "Ġprayojana": 4826,
      "Ġprajanana": 4827,
      "Ġmahala": 4828,
      "Ġmatrri": 4829,
      "Ġrai": 4830,
      "Ġbija": 4831,
      "Ġbirata": 4832,
      "Ġbirala": 4833,
      "Ġbikashita": 4834,
      "Ġbiparyya": 4835,
      "Ġkek": 4836,
      "chen": 4837,
      "chchana": 4838,
      "Ġtathyara": 4839,
      "Ġintara": 4840,
      "Ġheithae": 4841,
      "Ġnidra": 4842,
      "thon": 4843,
      "thoda": 4844,
      "Ġdehara": 4845,
      "chada": 4846,
      "chatu": 4847,
      "bilei": 4848,
      "bera": 4849,
      "Ġhoigale": 4850,
      "nijara": 4851,
      "Ġparibarara": 4852,
      "lochana": 4853,
      "khaku": 4854,
      "Ġchadha": 4855,
      "Ġsethiru": 4856,
      "manaba": 4857,
      "asis": 4858,
      "kesha": 4859,
      "Ġsamajare": 4860,
      "hola": 4861,
      "Ġbarshara": 4862,
      "Ġgata": 4863,
      "Ġbhabi": 4864,
      "nnata": 4865,
      "Ġdaka": 4866,
      "Ġjapana": 4867,
      "Ġjayarama": 4868,
      "Ġjagrata": 4869,
      "Ġshabdatira": 4870,
      "setebele": 4871,
      "gikarana": 4872,
      "mukhare": 4873,
      "Ġmida": 4874,
      "Ġsum": 4875,
      "Ġsukha": 4876,
      "Ġsukshma": 4877,
      "kshalata": 4878,
      "Ġngali": 4879,
      "troni": 4880,
      "Ġjibita": 4881,
      "Ġhasa": 4882,
      "Ġshilpa": 4883,
      "Ġbishakta": 4884,
      "shtain": 4885,
      "Ġpratij": 4886,
      "Ġpratiyogita": 4887,
      "Ġnchalara": 4888,
      "ropa": 4889,
      "barttana": 4890,
      "Ġ--": 4891,
      "Ġngana": 4892,
      "Ġngaru": 4893,
      "noda": 4894,
      "Ġadishta": 4895,
      "pua": 4896,
      "puja": 4897,
      "Ġpija": 4898,
      "purare": 4899,
      "Ġruti": 4900,
      "pharu": 4901,
      "sthayi": 4902,
      "Ġbhitaru": 4903,
      "paro": 4904,
      "Ġdiantuh": 4905,
      "Ġphri": 4906,
      "Ġjanaka": 4907,
      "Ġsamkhyaka": 4908,
      "belebele": 4909,
      "Ġtumara": 4910,
      "Ġabadana": 4911,
      "Ġparibartte": 4912,
      "Ġalaphabika": 4913,
      "Ġlekhati": 4914,
      "Ġmejara": 4915,
      "trita": 4916,
      "Ġyuktarashtrare": 4917,
      "Ġasithae": 4918,
      "Ġsthanara": 4919,
      "golika": 4920,
      "Ġgandhi": 4921,
      "Ġ195": 4922,
      "Ġpor": 4923,
      "Ġime": 4924,
      "Ġritar": 4925,
      "Ġlim": 4926,
      "Ġbisheshanara": 4927,
      "Ġasadharana": 4928,
      "Ġasakriya": 4929,
      "Ġ2010": 4930,
      "Ġalokara": 4931,
      "Ġngika": 4932,
      "Ġdarmata": 4933,
      "Ġthaanti": 4934,
      "charita": 4935,
      "Ġkhelana": 4936,
      "Ġcharmare": 4937,
      "rajila": 4938,
      "Ġakarshana": 4939,
      "chura": 4940,
      "Ġpanira": 4941,
      "Ġpanipa": 4942,
      "Ġchalichi": 4943,
      "proti": 4944,
      "Ġbhen": 4945,
      "Ġshikshaka": 4946,
      "Ġnjikarana": 4947,
      "Ġkriyaku": 4948,
      "Ġkalpanika": 4949,
      "Ġbisheshaj": 4950,
      "habidya": 4951,
      "Ġsamshodhita": 4952,
      "Ġhaidro": 4953,
      "Ġdrrishtikona": 4954,
      "Ġniraba": 4955,
      "Ġnirabata": 4956,
      "Ġsurakshita": 4957,
      "Ġagashta": 4958,
      "Ġwo": 4959,
      "salakha": 4960,
      "Ġkarayauthila": 4961,
      "Ġprrithibire": 4962,
      "Ġprinta": 4963,
      "Ġsandhana": 4964,
      "Ġsnak": 4965,
      "Ġduhkha": 4966,
      "Ġchintadhara": 4967,
      "yadio": 4968,
      "Ġprakriyakarana": 4969,
      "Ġakhire": 4970,
      "barttamanara": 4971,
      "Ġhrrida": 4972,
      "Ġyuropare": 4973,
      "Ġabhyant": 4974,
      "Ġuparaku": 4975,
      "Ġnguthi": 4976,
      "Ġkathachitrara": 4977,
      "Ġsishtama": 4978,
      "Ġthaipare": 4979,
      "trritiya": 4980,
      "Ġprrishthabhumi": 4981,
      "bharashila": 4982,
      "Ġnambaraku": 4983,
      "Ġlagai": 4984,
      "kshetra": 4985,
      "Ġabishkara": 4986,
      "Ġsamkhyare": 4987,
      "Ġjenara": 4988,
      "Ġprotina": 4989,
      "Ġgetsa": 4990,
      "Ġprashamsa": 4991,
      "Ġbrrihattama": 4992,
      "bishaya": 4993,
      "Ġraktare": 4994,
      "Ġkuladipa": 4995,
      "Ġkhrishta": 4996,
      "Ġnyaya": 4997,
      "samudra": 4998,
      "Ġhathat": 4999,
      "Ġbluberi": 5000,
      "Ġanudhyana": 5001,
      "Ġanubhuti": 5002,
      "bashisha": 5003,
      "Ġdashan": 5004,
      "Ġnabhembara": 5005,
      "Ġmajumadara": 5006,
      "-<|": 5007,
      "46": 5008,
      "blu": 5009,
      "dri": 5010,
      "ee": 5011,
      "eai": 5012,
      "ika": 5013,
      "jhara": 5014,
      "jjita": 5015,
      "kon": 5016,
      "ml": 5017,
      "murtti": 5018,
      "ncha": 5019,
      "op": 5020,
      "panara": 5021,
      "qu": 5022,
      "sku": 5023,
      "tantu": 5024,
      "ul": 5025,
      "uchcha": 5026,
      "hati": 5027,
      "ence": 5028,
      "Ġkli": 5029,
      "Ġklo": 5030,
      "Ġklik": 5031,
      "enda": 5032,
      "Ġsas": 5033,
      "Ġsantu": 5034,
      "Ġske": 5035,
      "Ġprri": 5036,
      "Ġpesa": 5037,
      "Ġnm": 5038,
      "Ġnani": 5039,
      "Ġnanare": 5040,
      "sita": 5041,
      "tic": 5042,
      "Ġbes": 5043,
      "Ġbre": 5044,
      "Ġbarana": 5045,
      "lama": 5046,
      "Ġaka": 5047,
      "Ġabha": 5048,
      "Ġagata": 5049,
      "Ġadar": 5050,
      "Ġakshaya": 5051,
      "diya": 5052,
      "Ġsachetana": 5053,
      "nabikaranayogya": 5054,
      "Ġchara": 5055,
      "Ġcal": 5056,
      "Ġudi": 5057,
      "Ġudara": 5058,
      "Ġhyari": 5059,
      "Ġithila": 5060,
      "Ġbalaka": 5061,
      "Ġpatu": 5062,
      "Ġpatire": 5063,
      "Ġpadu": 5064,
      "Ġpatar": 5065,
      "Ġrnna": 5066,
      "chihna": 5067,
      "gali": 5068,
      "pathyara": 5069,
      "Ġkaana": 5070,
      "Ġkarina": 5071,
      "Ġkaridei": 5072,
      "Ġkariheba": 5073,
      "Ġmahar": 5074,
      "Ġmatamata": 5075,
      "Ġratna": 5076,
      "Ġrastare": 5077,
      "tela": 5078,
      "Ġjaru": 5079,
      "ture": 5080,
      "Ġbile": 5081,
      "thaka": 5082,
      "Ġgru": 5083,
      "mandira": 5084,
      "Ġekaki": 5085,
      "Ġsamgrama": 5086,
      "Ġsamghar": 5087,
      "eshita": 5088,
      "chota": 5089,
      "Ġtalaku": 5090,
      "Ġintarane": 5091,
      "reta": 5092,
      "jama": 5093,
      "thima": 5094,
      "Ġdebara": 5095,
      "chasha": 5096,
      "bihina": 5097,
      "khari": 5098,
      "bekshana": 5099,
      "bhashi": 5100,
      "bhagare": 5101,
      "Ġchatura": 5102,
      "Ġchapi": 5103,
      "Ġchako": 5104,
      "Ġseguda": 5105,
      "Ġshoi": 5106,
      "Ġshtara": 5107,
      "Ġshtesana": 5108,
      "yujana": 5109,
      "Ġehipari": 5110,
      "asisa": 5111,
      "Ġ1000": 5112,
      "Ġbargara": 5113,
      "Ġdiji": 5114,
      "Ġdise": 5115,
      "Ġdinare": 5116,
      "Ġgaa": 5117,
      "yaithile": 5118,
      "yaichanti": 5119,
      "Ġheuchih": 5120,
      "Ġroma": 5121,
      "Ġroja": 5122,
      "likaru": 5123,
      "Ġmadhyama": 5124,
      "Ġmadhyahna": 5125,
      "Ġjau": 5126,
      "Ġjaina": 5127,
      "Ġupatya": 5128,
      "Ġupakari": 5129,
      "Ġ23": 5130,
      "seguda": 5131,
      "sethare": 5132,
      "Ġprashi": 5133,
      "Ġpranimana": 5134,
      "giya": 5135,
      "muda": 5136,
      "Ġnirodha": 5137,
      "Ġminita": 5138,
      "Ġsure": 5139,
      "ktibha": 5140,
      "debata": 5141,
      "Ġhal": 5142,
      "Ġshila": 5143,
      "Ġshakta": 5144,
      "Ġpratishedha": 5145,
      "intarane": 5146,
      "Ġpurnnima": 5147,
      "bhubanesh": 5148,
      "Ġ37": 5149,
      "Ġborda": 5150,
      "Ġlokamana": 5151,
      "Ġkhoja": 5152,
      "Ġgujara": 5153,
      "megha": 5154,
      "Ġpunahbikarana": 5155,
      "purbaru": 5156,
      "Ġ47": 5157,
      "Ġashir": 5158,
      "Ġbhittika": 5159,
      "chanaka": 5160,
      "bandara": 5161,
      "Ġkahithanti": 5162,
      "Ġsina": 5163,
      "parsh": 5164,
      "enaha": 5165,
      "Ġphona": 5166,
      "Ġjanata": 5167,
      "Ġjanaki": 5168,
      "Ġraktakanika": 5169,
      "tosha": 5170,
      "tobara": 5171,
      "Ġkebehele": 5172,
      "Ġtur": 5173,
      "Ġturanta": 5174,
      "Ġabhijita": 5175,
      "Ġabhinita": 5176,
      "Ġabhibadana": 5177,
      "gatakali": 5178,
      "Ġnirddesh": 5179,
      "Ġnirddharita": 5180,
      "Ġalama": 5181,
      "Ġmahammada": 5182,
      "Ġkamala": 5183,
      "Ġkhojantuh": 5184,
      "Ġshaktiku": 5185,
      "Ġyubaka": 5186,
      "Ġpadabi": 5187,
      "Ġasithila": 5188,
      "badare": 5189,
      "Ġarthapurnna": 5190,
      "Ġgitati": 5191,
      "Ġabashyakataku": 5192,
      "Ġghata": 5193,
      "Ġsamanata": 5194,
      "samkhya": 5195,
      "phisiala": 5196,
      "Ġmulyaku": 5197,
      "Ġantarnihita": 5198,
      "Ġaushadhara": 5199,
      "Ġyaithili": 5200,
      "kripas": 5201,
      "Ġngina": 5202,
      "Ġanalain": 5203,
      "Ġkhelibaku": 5204,
      "Ġamshaguda": 5205,
      "Ġchikitsaka": 5206,
      "Ġbhota": 5207,
      "Ġgurutara": 5208,
      "Ġmiliba": 5209,
      "prasada": 5210,
      "markan": 5211,
      "Ġsamparkiya": 5212,
      "Ġdashakara": 5213,
      "Ġkalaru": 5214,
      "Ġtrikona": 5215,
      "Ġrupaku": 5216,
      "Ġtokio": 5217,
      "Ġjanmagrahana": 5218,
      "Ġpilamane": 5219,
      "Ġarthaniti": 5220,
      "Ġgiri": 5221,
      "dhunika": 5222,
      "nikatare": 5223,
      "Ġsatyata": 5224,
      "Ġfi": 5225,
      "Ġagaru": 5226,
      "Ġduradarshana": 5227,
      "Ġjibakosha": 5228,
      "Ġshuniba": 5229,
      "upayukta": 5230,
      "Ġanithae": 5231,
      "Ġaniyamita": 5232,
      "dyumna": 5233,
      "Ġkiniba": 5234,
      "Ġparyyataka": 5235,
      "Ġbujhae": 5236,
      "Ġesia": 5237,
      "Ġesiara": 5238,
      "Ġmaikro": 5239,
      "amerikiya": 5240,
      "Ġshatabdira": 5241,
      "Ġbandha": 5242,
      "Ġdarshae": 5243,
      "Ġpradush": 5244,
      "Ġblakara": 5245,
      "Ġamino": 5246,
      "Ġrahuthile": 5247,
      "Ġebasai": 5248,
      "Ġnyurala": 5249,
      "dastabijare": 5250,
      "Ġmiluchi": 5251,
      "Ġbamshanu": 5252,
      "saik": 5253,
      "Ġ1990": 5254,
      "Ġdaia": 5255,
      "Ġnirddeshaka": 5256,
      "Ġbidyuta": 5257,
      "Ġakashaku": 5258,
      "sathik": 5259,
      "Ġkahuthile": 5260,
      "Ġlagantu": 5261,
      "Ġplate": 5262,
      "Ġandhakara": 5263,
      "Ġupabhoga": 5264,
      "abashya": 5265,
      "uuuuuuuuuuuuuuuuuuuuuuuuuuuuuuuu": 5266,
      "Ġgranthare": 5267,
      "Ġratribhojana": 5268,
      "Ġashutosha": 5269,
      "Ġbirodhare": 5270,
      "Ġdastabijaku": 5271,
      "Ġsahityika": 5272,
      "Ġekademi": 5273,
      "Ġsabhya": 5274,
      "Ġbiplaba": 5275,
      "Ġbarnnita": 5276,
      "Ġgudikara": 5277,
      "Ġ2021": 5278,
      "Ġplashtika": 5279,
      "Ġnagarika": 5280,
      "Ġbidyalayare": 5281,
      "Ġshishya": 5282,
      "Ġbijuli": 5283,
      "Ġsharkara": 5284,
      "Ġsantushta": 5285,
      "Ġbikirana": 5286,
      "Ġbilambare": 5287,
      "Ġdhrubiya": 5288,
      "rachanabali": 5289,
      "Ġshirabh": 5290,
      "Ġpratiropana": 5291,
      "Ġduhsahasika": 5292,
      "Ġgitikara": 5293,
      "bedanashila": 5294,
      "Ġword": 5295,
      "Ġpesadara": 5296,
      "Ġashirbada": 5297,
      "Ġnirddeshanare": 5298,
      "23": 5299,
      "36": 5300,
      "38": 5301,
      "75": 5302,
      "adhunika": 5303,
      "basha": 5304,
      "byara": 5305,
      "ck": 5306,
      "cle": 5307,
      "cula": 5308,
      "danta": 5309,
      "eguda": 5310,
      "grri": 5311,
      "jja": 5312,
      "jenta": 5313,
      "lpi": 5314,
      "mesan": 5315,
      "nshi": 5316,
      "oka": 5317,
      "prri": 5318,
      "rem": 5319,
      "res": 5320,
      "rnna": 5321,
      "ranare": 5322,
      "ter": 5323,
      "tru": 5324,
      "ud": 5325,
      "ubhaya": 5326,
      "xi": 5327,
      "xt": 5328,
      "yanare": 5329,
      "Ġthya": 5330,
      "haji": 5331,
      "eno": 5332,
      "Ġksh": 5333,
      "Ġkoi": 5334,
      "Ġkanare": 5335,
      "Ġkhia": 5336,
      "Ġsep": 5337,
      "Ġsaniya": 5338,
      "bastha": 5339,
      "ray": 5340,
      "yau": 5341,
      "Ġpli": 5342,
      "kama": 5343,
      "kale": 5344,
      "kamana": 5345,
      "tiyae": 5346,
      "analaina": 5347,
      "Ġby": 5348,
      "Ġbim": 5349,
      "sht": 5350,
      "mahu": 5351,
      "madhaba": 5352,
      "lala": 5353,
      "Ġay": 5354,
      "Ġagraha": 5355,
      "diba": 5356,
      "Ġema": 5357,
      "Ġebhali": 5358,
      "dayi": 5359,
      "Ġsatar": 5360,
      "thik": 5361,
      "Ġun": 5362,
      "Ġuthile": 5363,
      "Ġhttp": 5364,
      "Ġid": 5365,
      "Ġir": 5366,
      "Ġdbi": 5367,
      "Ġbatab": 5368,
      "Ġpatana": 5369,
      "Ġpagala": 5370,
      "Ġpauthiba": 5371,
      "Ġpauranika": 5372,
      "Ġrara": 5373,
      "Ġmeni": 5374,
      "Ġmantra": 5375,
      "chinara": 5376,
      "gathana": 5377,
      "Ġanani": 5378,
      "pabana": 5379,
      "pahada": 5380,
      "Ġkarinathile": 5381,
      "dhyaru": 5382,
      "Ġprachchada": 5383,
      "Ġmade": 5384,
      "Ġmayura": 5385,
      "Ġmahabidya": 5386,
      "Ġrathoda": 5387,
      "tejana": 5388,
      "Ġjota": 5389,
      "Ġbibada": 5390,
      "Ġbidro": 5391,
      "Ġbirodha": 5392,
      "Ġbinoda": 5393,
      "Ġglu": 5394,
      "Ġgyasa": 5395,
      "Ġora": 5396,
      "Ġoshi": 5397,
      "Ġsamar": 5398,
      "Ġsamantara": 5399,
      "Ġsamkalana": 5400,
      "Ġsamkr": 5401,
      "Ġsammukhi": 5402,
      "Ġsamghatika": 5403,
      "huda": 5404,
      "Ġtath": 5405,
      "Ġinte": 5406,
      "Ġnkaku": 5407,
      "rei": 5408,
      "Ġpaila": 5409,
      "Ġhelo": 5410,
      "Ġdela": 5411,
      "bit": 5412,
      "bibidha": 5413,
      "Ġbaksa": 5414,
      "Ġyatrare": 5415,
      "Ġbyakt": 5416,
      "Ġhoiyaanti": 5417,
      "niara": 5418,
      "Ġkit": 5419,
      "Ġparis": 5420,
      "Ġparidhi": 5421,
      "Ġparibarare": 5422,
      "Ġbhaes": 5423,
      "Ġbhashanara": 5424,
      "khala": 5425,
      "Ġshushka": 5426,
      "Ġkantra": 5427,
      "ket": 5428,
      "Ġsamayas": 5429,
      "Ġdiga": 5430,
      "Ġdipa": 5431,
      "Ġlaksha": 5432,
      "paribara": 5433,
      "Ġgau": 5434,
      "Ġchithi": 5435,
      "Ġdaba": 5436,
      "Ġdakshi": 5437,
      "Ġdakhala": 5438,
      "Ġjaha": 5439,
      "Ġjapani": 5440,
      "Ġupakaranara": 5441,
      "Ġ26": 5442,
      "Ġ29": 5443,
      "Ġehad": 5444,
      "Ġnirbharashila": 5445,
      "Ġmitra": 5446,
      "Ġsuta": 5447,
      "kshata": 5448,
      "Ġngama": 5449,
      "traru": 5450,
      "Ġjina": 5451,
      "ashastra": 5452,
      "Ġlow": 5453,
      "Ġlokare": 5454,
      "Ġrahila": 5455,
      "Ġrahithile": 5456,
      "krritira": 5457,
      "Ġdurata": 5458,
      "Ġshakha": 5459,
      "Ġshaila": 5460,
      "Ġshailire": 5461,
      "Ġyete": 5462,
      "Ġpratibarsha": 5463,
      "Ġsahayata": 5464,
      "ine": 5465,
      "pradana": 5466,
      "Ġpuranare": 5467,
      "Ġ500": 5468,
      "Ġrogaku": 5469,
      "Ġkholiba": 5470,
      "mesin": 5471,
      "Ġdiayaithae": 5472,
      "Ġdiayaipare": 5473,
      "Ġabhabika": 5474,
      "Ġketegudie": 5475,
      "Ġpiiba": 5476,
      "Ġpittala": 5477,
      "purara": 5478,
      "shilpi": 5479,
      "Ġasara": 5480,
      "Ġasuchi": 5481,
      "Ġgramare": 5482,
      "Ġkaryyalaya": 5483,
      "Ġparasta": 5484,
      "Ġprastuti": 5485,
      "Ġsista": 5486,
      "Ġbhuta": 5487,
      "Ġbhuli": 5488,
      "Ġphus": 5489,
      "Ġsamkhyagudikara": 5490,
      "tori": 5491,
      "Ġhira": 5492,
      "bhabe": 5493,
      "bhabya": 5494,
      "Ġalabama": 5495,
      "Ġlekhayaichi": 5496,
      "Ġmahatt": 5497,
      "Ġkamaku": 5498,
      "byabasa": 5499,
      "Ġphai": 5500,
      "ushan": 5501,
      "Ġshuna": 5502,
      "Ġgandha": 5503,
      "Ġbrriddha": 5504,
      "yasare": 5505,
      "jekta": 5506,
      "Ġimreja": 5507,
      "uraba": 5508,
      "kanthesh": 5509,
      "Ġlimi": 5510,
      "Ġlandana": 5511,
      "Ġbaisha": 5512,
      "Ġyaithile": 5513,
      "Ġdosha": 5514,
      "Ġmanaka": 5515,
      "Ġcharitrara": 5516,
      "Ġchandana": 5517,
      "Ġuttarah": 5518,
      "Ġaksharare": 5519,
      "Ġakshararu": 5520,
      "Ġthaki": 5521,
      "Ġanalaina": 5522,
      "Ġanabashyaka": 5523,
      "199": 5524,
      "janasamkhya": 5525,
      "Ġsthale": 5526,
      "Ġkshama": 5527,
      "Ġdharmara": 5528,
      "Ġbelebele": 5529,
      "Ġmishrana": 5530,
      "Ġcheyara": 5531,
      "Ġcharbi": 5532,
      "Ġdurghatana": 5533,
      "Ġphin": 5534,
      "Ġchua": 5535,
      "Ġchumbakiya": 5536,
      "Ġrajani": 5537,
      "Ġrajyara": 5538,
      "Ġduijana": 5539,
      "Ġghrrina": 5540,
      "Ġshriramakrrishna": 5541,
      "Ġmahilamana": 5542,
      "Ġkhan": 5543,
      "Ġlekhile": 5544,
      "Ġparikshad": 5545,
      "get": 5546,
      "eshika": 5547,
      "Ġmrrityura": 5548,
      "Ġbaram": 5549,
      "Ġkhuba": 5550,
      "Ġpranaba": 5551,
      "Ġpashumana": 5552,
      "Ġdrakshalata": 5553,
      "Ġnikataku": 5554,
      "Ġrrina": 5555,
      "Ġkatakara": 5556,
      "Ġparyyaya": 5557,
      "Ġkarayauthiba": 5558,
      "Ġutpadaku": 5559,
      "garbha": 5560,
      "Ġgharaku": 5561,
      "mandalara": 5562,
      "Ġrakhayae": 5563,
      "Ġduhkhara": 5564,
      "Ġkrrishi": 5565,
      "Ġbimanabandara": 5566,
      "Ġbayasara": 5567,
      "kalpana": 5568,
      "Ġnirbachita": 5569,
      "Ġkhadyare": 5570,
      "Ġitihas": 5571,
      "Ġtrripti": 5572,
      "Ġabhibyaktira": 5573,
      "Ġsantana": 5574,
      "Ġhrridaya": 5575,
      "Ġebasaita": 5576,
      "Ġilektri": 5577,
      "Ġniyant": 5578,
      "Ġtyag": 5579,
      "Ġchaturtha": 5580,
      "Ġchikkania": 5581,
      "Ġsishtamara": 5582,
      "Ġrandha": 5583,
      "Ġrahasyamaya": 5584,
      "Ġjarja": 5585,
      "Ġjhumara": 5586,
      "Ġatomesan": 5587,
      "Ġkalakaramane": 5588,
      "Ġteknolojira": 5589,
      "Ġghoshanakari": 5590,
      "Ġprarthana": 5591,
      "Ġphransa": 5592,
      "Ġcharipate": 5593,
      "Ġsaurabha": 5594,
      "prakrritika": 5595,
      "Ġdandaku": 5596,
      "Ġgrantha": 5597,
      "Ġgotiere": 5598,
      "mentara": 5599,
      "Ġsidhasalakha": 5600,
      "Ġekadashi": 5601,
      "Ġminit": 5602,
      "Ġalabamare": 5603,
      "bimsha": 5604,
      "Ġmeksiko": 5605,
      "Ġashcharyyajanaka": 5606,
      "simha": 5607,
      "Ġprotsahita": 5608,
      "atyadhika": 5609,
      "Ġbrritti": 5610,
      "Ġrashmi": 5611,
      "Ġparityakta": 5612,
      "Ġabarodha": 5613,
      "Ġutpadita": 5614,
      "Ġanushilana": 5615,
      "pratyas": 5616,
      "Ġbojon": 5617,
      "Ġsparsha": 5618,
      "Ġushma": 5619,
      "Ġmuhurtta": 5620,
      "Ġchikitsare": 5621,
      "Ġpunarbara": 5622,
      "majadara": 5623,
      "Ġurddh": 5624,
      "Ġmadyapana": 5625,
      "Ġritarnna": 5626,
      "Ġabhyantarina": 5627,
      "Ġjaruri": 5628,
      "thimadhyaru": 5629,
      "Ġsuresha": 5630,
      "Ġdaiaksa": 5631,
      "Ġsammukhina": 5632,
      "21": 5633,
      "47": 5634,
      "ac": 5635,
      "adh": 5636,
      "adhi": 5637,
      "ber": 5638,
      "bro": 5639,
      "basya": 5640,
      "chabi": 5641,
      "ds": 5642,
      "dy": 5643,
      "dani": 5644,
      "ebasa": 5645,
      "is": 5646,
      "juna": 5647,
      "khita": 5648,
      "ktare": 5649,
      "kimba": 5650,
      "ksana": 5651,
      "kartta": 5652,
      "ms": 5653,
      "mrrityu": 5654,
      "nar": 5655,
      "os": 5656,
      "prana": 5657,
      "rt": 5658,
      "rddha": 5659,
      "rgh": 5660,
      "sp": 5661,
      "teri": 5662,
      "trrit": 5663,
      "tml": 5664,
      "upara": 5665,
      "val": 5666,
      "vel": 5667,
      "armo": 5668,
      "ananda": 5669,
      "Ġkanda": 5670,
      "antha": 5671,
      "Ġsus": 5672,
      "Ġshara": 5673,
      "Ġsonu": 5674,
      "asima": 5675,
      "basthare": 5676,
      "ratire": 5677,
      "yatha": 5678,
      "Ġpeta": 5679,
      "kaksha": 5680,
      "kalare": 5681,
      "Ġnan": 5682,
      "Ġnchu": 5683,
      "Ġnyashti": 5684,
      "Ġncharita": 5685,
      "tibh": 5686,
      "anali": 5687,
      "Ġbyasa": 5688,
      "Ġbesara": 5689,
      "usala": 5690,
      "liyama": 5691,
      "mayi": 5692,
      "Ġac": 5693,
      "Ġaksha": 5694,
      "Ġex": 5695,
      "Ġsain": 5696,
      "Ġsadhu": 5697,
      "lekh": 5698,
      "kulara": 5699,
      "thibe": 5700,
      "Ġhoma": 5701,
      "Ġhemo": 5702,
      "Ġhyasha": 5703,
      "Ġhepata": 5704,
      "Ġdes": 5705,
      "Ġbaha": 5706,
      "Ġbastaba": 5707,
      "Ġbastabi": 5708,
      "Ġbaharu": 5709,
      "Ġpami": 5710,
      "Ġpachar": 5711,
      "Ġnaga": 5712,
      "Ġnaitika": 5713,
      "Ġnabika": 5714,
      "saka": 5715,
      "sami": 5716,
      "Ġmon": 5717,
      "gabe": 5718,
      "lyana": 5719,
      "Ġandhara": 5720,
      "pathya": 5721,
      "Ġkarihue": 5722,
      "Ġprachi": 5723,
      "Ġprasta": 5724,
      "Ġmama": 5725,
      "Ġradha": 5726,
      "Ġraji": 5727,
      "Ġrakhanti": 5728,
      "teda": 5729,
      "Ġbidaya": 5730,
      "Ġbihina": 5731,
      "Ġbitarana": 5732,
      "Ġlekhare": 5733,
      "Ġlembu": 5734,
      "mano": 5735,
      "manasika": 5736,
      "Ġsamba": 5737,
      "Ġsamla": 5738,
      "Ġsambi": 5739,
      "Ġsammi": 5740,
      "Ġsampatti": 5741,
      "Ġsamghara": 5742,
      "Ġsambedanashila": 5743,
      "ese": 5744,
      "chandana": 5745,
      "Ġtaim": 5746,
      "Ġtalima": 5747,
      "Ġindia": 5748,
      "Ġpaisa": 5749,
      "Ġpaithila": 5750,
      "Ġhebe": 5751,
      "jata": 5752,
      "ripto": 5753,
      "Ġdekhe": 5754,
      "Ġdekhanti": 5755,
      "bik": 5756,
      "bibaha": 5757,
      "bidyu": 5758,
      "kho": 5759,
      "Ġyaj": 5760,
      "itala": 5761,
      "bhama": 5762,
      "Ġbyakar": 5763,
      "Ġparila": 5764,
      "Ġparichaya": 5765,
      "ashti": 5766,
      "khali": 5767,
      "Ġcham": 5768,
      "Ġchakrara": 5769,
      "gua": 5770,
      "yuta": 5771,
      "shishu": 5772,
      "ketar": 5773,
      "ketebele": 5774,
      "Ġkaraithile": 5775,
      "Ġbakyaguda": 5776,
      "hoda": 5777,
      "mia": 5778,
      "Ġgalu": 5779,
      "Ġgayana": 5780,
      "Ġgachara": 5781,
      "Ġgauthile": 5782,
      "Ġgayala": 5783,
      "jio": 5784,
      "Ġbhabuchi": 5785,
      "Ġchini": 5786,
      "Ġroj": 5787,
      "Ġten": 5788,
      "Ġtant": 5789,
      "Ġmadhyabhaga": 5790,
      "Ġdam": 5791,
      "Ġdali": 5792,
      "Ġjali": 5793,
      "Ġpujar": 5794,
      "Ġstro": 5795,
      "Ġstariya": 5796,
      "Ġkubera": 5797,
      "Ġ22": 5798,
      "segudika": 5799,
      "kshmi": 5800,
      "Ġpremara": 5801,
      "Ġnamaku": 5802,
      "Ġsudha": 5803,
      "Ġsudhara": 5804,
      "bhirata": 5805,
      "det": 5806,
      "pika": 5807,
      "pitha": 5808,
      "Ġhasi": 5809,
      "Ġhaji": 5810,
      "Ġhataku": 5811,
      "Ġparka": 5812,
      "Ġparanti": 5813,
      "buda": 5814,
      "Ġpratiyogi": 5815,
      "Ġnchaya": 5816,
      "Ġyogana": 5817,
      "Ġpurbe": 5818,
      "natatt": 5819,
      "Ġ35": 5820,
      "Ġrogamana": 5821,
      "Ġanubikshana": 5822,
      "luka": 5823,
      "Ġadire": 5824,
      "Ġkimbadanti": 5825,
      "Ġbuli": 5826,
      "Ġbuketar": 5827,
      "Ġuttapa": 5828,
      "kramika": 5829,
      "Ġpida": 5830,
      "paramanu": 5831,
      "grasta": 5832,
      "Ġmobaila": 5833,
      "Ġbishbasa": 5834,
      "Ġbadaka": 5835,
      "Ġdekhai": 5836,
      "Ġdekhayanti": 5837,
      "kanada": 5838,
      "Ġbhidio": 5839,
      "Ġparaph": 5840,
      "Ġsaro": 5841,
      "Ġsilab": 5842,
      "parara": 5843,
      "enae": 5844,
      "Ġark": 5845,
      "Ġaro": 5846,
      "Ġarr": 5847,
      "Ġarpita": 5848,
      "yibara": 5849,
      "Ġphon": 5850,
      "kobhida": 5851,
      "Ġkola": 5852,
      "Ġkotha": 5853,
      "kshira": 5854,
      "Ġtuma": 5855,
      "mophona": 5856,
      "Ġabhihita": 5857,
      "Ġabhiyoga": 5858,
      "Ġjanmita": 5859,
      "Ġmahadesha": 5860,
      "Ġmasihara": 5861,
      "Ġkalabele": 5862,
      "Ġbahula": 5863,
      "Ġasithile": 5864,
      "Ġsthanaru": 5865,
      "Ġtarapharu": 5866,
      "Ġbarshaku": 5867,
      "Ġbrriksha": 5868,
      "Ġaksi": 5869,
      "Ġpoda": 5870,
      "Ġposhana": 5871,
      "Ġdhatu": 5872,
      "Ġmarga": 5873,
      "Ġbyaktit": 5874,
      "Ġlas": 5875,
      "Ġluchi": 5876,
      "Ġthili": 5877,
      "nesh": 5878,
      "rder": 5879,
      "epariki": 5880,
      "Ġdinati": 5881,
      "Ġdinaku": 5882,
      "Ġalokare": 5883,
      "Ġdok": 5884,
      "Ġadhinare": 5885,
      "Ġchand": 5886,
      "Ġngitare": 5887,
      "Ġrakhithanti": 5888,
      "Ġthakka": 5889,
      "196": 5890,
      "Ġshirare": 5891,
      "lekhaka": 5892,
      "lekhatiku": 5893,
      "Ġsamskara": 5894,
      "Ġsthapatya": 5895,
      "Ġkheliba": 5896,
      "Ġuchchatare": 5897,
      "Ġdharmika": 5898,
      "Ġchera": 5899,
      "Ġcharoti": 5900,
      "Ġpadma": 5901,
      "Ġamala": 5902,
      "Ġamabasya": 5903,
      "Ġastropa": 5904,
      "chumbakiya": 5905,
      "Ġchaligale": 5906,
      "kanthashilpi": 5907,
      "Ġbhramana": 5908,
      "Ġchui": 5909,
      "Ġrajyare": 5910,
      "onika": 5911,
      "maraniya": 5912,
      "Ġapalara": 5913,
      "Ġgheri": 5914,
      "Ġnjina": 5915,
      "Ġkhandi": 5916,
      "Ġkrame": 5917,
      "shitadine": 5918,
      "manisha": 5919,
      "Ġfor": 5920,
      "Ġagei": 5921,
      "Ġsamagriku": 5922,
      "Ġapas": 5923,
      "upacharika": 5924,
      "Ġsadbad": 5925,
      "Ġpharmi": 5926,
      "Ġpharenaha": 5927,
      "Ġprrishthare": 5928,
      "Ġluna": 5929,
      "Ġ2013": 5930,
      "Ġ2015": 5931,
      "Ġtrutiguda": 5932,
      "Ġkinili": 5933,
      "Ġasustha": 5934,
      "Ġdrrishtanta": 5935,
      "Ġkarayau": 5936,
      "sehipari": 5937,
      "Ġkyam": 5938,
      "Ġkandu": 5939,
      "Ġkannada": 5940,
      "Ġbandhuta": 5941,
      "Ġbyabasayika": 5942,
      "Ġbadalantuh": 5943,
      "Ġdarshai": 5944,
      "khusi": 5945,
      "Ġpitamata": 5946,
      "Ġnirbachanare": 5947,
      "bhutapurba": 5948,
      "prathame": 5949,
      "Ġcharitraku": 5950,
      "esia": 5951,
      "Ġakashara": 5952,
      "Ġmariba": 5953,
      "Ġkilograma": 5954,
      "Ġghatithila": 5955,
      "Ġharina": 5956,
      "Ġphutabala": 5957,
      "Ġsishtam": 5958,
      "pattira": 5959,
      "Ġsarbochcha": 5960,
      "sharira": 5961,
      "Ġsarbanimnaru": 5962,
      "Ġgrishma": 5963,
      "Ġchautisha": 5964,
      "Ġchashama": 5965,
      "Ġparimanare": 5966,
      "Ġgarbhapata": 5967,
      "Ġrriture": 5968,
      "bindha": 5969,
      "Ġtarka": 5970,
      "Ġgolapi": 5971,
      "Ġhindust": 5972,
      "Ġsneha": 5973,
      "Ġshraddha": 5974,
      "prakrritira": 5975,
      "abasthiti": 5976,
      "Ġataki": 5977,
      "Ġheithila": 5978,
      "Ġlaguchi": 5979,
      "Ġdayalu": 5980,
      "Ġdayakari": 5981,
      "Ġpunaru": 5982,
      "Ġbrrihat": 5983,
      "imrajire": 5984,
      "Ġshtain": 5985,
      "Ġdekhayauthiba": 5986,
      "Ġadhinatara": 5987,
      "Ġabirata": 5988,
      "nirmana": 5989,
      "Ġbishnumohana": 5990,
      "Ġbajra": 5991,
      "Ġbajarare": 5992,
      "Ġbirodhi": 5993,
      "Ġlipibaddha": 5994,
      "Ġrasuna": 5995,
      "Ġbibrrittiku": 5996,
      "Ġgudiku": 5997,
      "Ġjanapadi": 5998,
      "Ġprotsahana": 5999,
      "Ġchaturddiga": 6000,
      "Ġchaturddigara": 6001,
      "Ġurl": 6002,
      "Ġbadyayantra": 6003,
      "Ġdarshanika": 6004,
      "Ġatmabish": 6005,
      "Ġpaentuesan": 6006,
      "Ġshukhila": 6007,
      "Ġashraya": 6008,
      "Ġbaishish": 6009,
      "Ġabalambana": 6010,
      "Ġpradarshita": 6011,
      "Ġparibarika": 6012,
      "Ġarmimra": 6013,
      "chalachchitra": 6014,
      "Ġashtrelia": 6015,
      "Ġemiti": 6016,
      "dainika": 6017,
      "Ġikrritiprapta": 6018,
      "Ġkhabarakagaja": 6019,
      "Ġakhapa": 6020,
      "Ġbiparyyaya": 6021,
      "Ġimeji": 6022,
      "Ġdarmataitisa": 6023,
      "Ġgetsabi": 6024,
      "Ġcalcula": 6025,
      "Ġsamgharsha": 6026,
      "Ġdijija": 6027,
      "markandeya": 6028,
      "Ġandhakaramaya": 6029,
      "Ġshirabhyantara": 6030,
      "Ġbatabarana": 6031,
      "Ġsamkranti": 6032,
      "Ġgautama": 6033,
      "pratyashita": 6034,
      "adhuna": 6035,
      "rghya": 6036,
      "usalamana": 6037,
      "lekhaniya": 6038,
      "Ġbastabika": 6039,
      "Ġastropachara": 6040,
      "24": 6041,
      "33": 6042,
      "88": 6043,
      "ast": 6044,
      "ade": 6045,
      "asthi": 6046,
      "ahuri": 6047,
      "banya": 6048,
      "bashesha": 6049,
      "das": 6050,
      "dandara": 6051,
      "ex": 6052,
      "eya": 6053,
      "ebal": 6054,
      "gdha": 6055,
      "ganita": 6056,
      "io": 6057,
      "jma": 6058,
      "jaru": 6059,
      "kashta": 6060,
      "kandhei": 6061,
      "kashe": 6062,
      "ler": 6063,
      "lon": 6064,
      "lanara": 6065,
      "lanaru": 6066,
      "mbi": 6067,
      "mash": 6068,
      "masi": 6069,
      "nba": 6070,
      "ntharu": 6071,
      "ol": 6072,
      "rani": 6073,
      "rimi": 6074,
      "sep": 6075,
      "sarana": 6076,
      "spati": 6077,
      "tantra": 6078,
      "uma": 6079,
      "ucha": 6080,
      "vers": 6081,
      "arasa": 6082,
      "anura": 6083,
      "ime": 6084,
      "stora": 6085,
      "enara": 6086,
      "Ġkon": 6087,
      "Ġkandi": 6088,
      "Ġkrrita": 6089,
      "Ġkripto": 6090,
      "Ġsni": 6091,
      "Ġsusa": 6092,
      "Ġskula": 6093,
      "Ġsero": 6094,
      "asena": 6095,
      "batta": 6096,
      "bayasa": 6097,
      "bakshara": 6098,
      "bastika": 6099,
      "tapare": 6100,
      "yati": 6101,
      "kabita": 6102,
      "Ġnd": 6103,
      "Ġnti": 6104,
      "Ġnjare": 6105,
      "usan": 6106,
      "ushi": 6107,
      "usana": 6108,
      "shani": 6109,
      "shmaka": 6110,
      "mamsa": 6111,
      "Ġaha": 6112,
      "Ġabega": 6113,
      "Ġahata": 6114,
      "Ġel": 6115,
      "Ġela": 6116,
      "Ġethi": 6117,
      "Ġesa": 6118,
      "Ġeguda": 6119,
      "Ġesabu": 6120,
      "risha": 6121,
      "Ġsah": 6122,
      "Ġcss": 6123,
      "Ġutha": 6124,
      "Ġubha": 6125,
      "Ġich": 6126,
      "Ġbad": 6127,
      "Ġbadhi": 6128,
      "Ġbalabha": 6129,
      "Ġbadhya": 6130,
      "Ġpal": 6131,
      "Ġpaga": 6132,
      "Ġpapi": 6133,
      "Ġpataka": 6134,
      "Ġpakshare": 6135,
      "Ġpadhiba": 6136,
      "Ġpamela": 6137,
      "Ġnajara": 6138,
      "saphta": 6139,
      "saphalata": 6140,
      "Ġmen": 6141,
      "Ġmrri": 6142,
      "gami": 6143,
      "patara": 6144,
      "Ġkamana": 6145,
      "Ġkaksha": 6146,
      "Ġkabara": 6147,
      "Ġkathara": 6148,
      "Ġkahaku": 6149,
      "Ġkalyana": 6150,
      "Ġkaridie": 6151,
      "Ġpraphu": 6152,
      "Ġmali": 6153,
      "Ġmalika": 6154,
      "Ġmalaya": 6155,
      "tesan": 6156,
      "Ġjara": 6157,
      "Ġjhara": 6158,
      "Ġjandi": 6159,
      "tuma": 6160,
      "Ġbis": 6161,
      "Ġbiphala": 6162,
      "Ġbiyukta": 6163,
      "Ġbigraha": 6164,
      "manya": 6165,
      "Ġsambada": 6166,
      "Ġsampanna": 6167,
      "Ġsammukhare": 6168,
      "Ġsamprri": 6169,
      "karaka": 6170,
      "ret": 6171,
      "Ġhema": 6172,
      "Ġhebare": 6173,
      "Ġhello": 6174,
      "Ġnih": 6175,
      "Ġniyamara": 6176,
      "Ġnigama": 6177,
      "thanara": 6178,
      "thora": 6179,
      "Ġdeu": 6180,
      "bamana": 6181,
      "bidhi": 6182,
      "bikashita": 6183,
      "kharu": 6184,
      "Ġbaki": 6185,
      "Ġyata": 6186,
      "Ġyauchi": 6187,
      "nijaku": 6188,
      "Ġkina": 6189,
      "Ġpariksh": 6190,
      "Ġparisara": 6191,
      "Ġparipre": 6192,
      "Ġparisra": 6193,
      "loma": 6194,
      "Ġbhagi": 6195,
      "Ġbhakshana": 6196,
      "Ġchai": 6197,
      "Ġchakshu": 6198,
      "Ġsekanda": 6199,
      "Ġshtri": 6200,
      "guru": 6201,
      "gugala": 6202,
      "yuri": 6203,
      "kia": 6204,
      "kipari": 6205,
      "Ġkarabara": 6206,
      "Ġsamakaksha": 6207,
      "hoka": 6208,
      "Ġdinara": 6209,
      "Ġdilli": 6210,
      "Ġlam": 6211,
      "Ġlaina": 6212,
      "pariksha": 6213,
      "Ġgaiba": 6214,
      "Ġgataka": 6215,
      "jik": 6216,
      "Ġtike": 6217,
      "Ġtikasa": 6218,
      "Ġchitta": 6219,
      "otic": 6220,
      "Ġtre": 6221,
      "Ġjagata": 6222,
      "Ġhua": 6223,
      "Ġhuta": 6224,
      "Ġstana": 6225,
      "Ġkunda": 6226,
      "Ġkumbhira": 6227,
      "Ġupakula": 6228,
      "sesa": 6229,
      "Ġpres": 6230,
      "gitara": 6231,
      "mukta": 6232,
      "munda": 6233,
      "itikata": 6234,
      "Ġnirmata": 6235,
      "Ġsubasa": 6236,
      "Ġsubhadra": 6237,
      "khiba": 6238,
      "Ġarambhare": 6239,
      "Ġngaguda": 6240,
      "khyata": 6241,
      "pid": 6242,
      "ashaka": 6243,
      "Ġhae": 6244,
      "Ġhasy": 6245,
      "Ġhatara": 6246,
      "Ġrahipare": 6247,
      "Ġshikhara": 6248,
      "Ġdurei": 6249,
      "Ġshaha": 6250,
      "Ġkathabartta": 6251,
      "Ġpratichabi": 6252,
      "Ġnchalika": 6253,
      "Ġnchalaku": 6254,
      "Ġredio": 6255,
      "Ġrestora": 6256,
      "Ġkhaibaku": 6257,
      "Ġ36": 6258,
      "Ġnimantrana": 6259,
      "Ġbodha": 6260,
      "Ġnele": 6261,
      "Ġnetrrit": 6262,
      "Ġadibasi": 6263,
      "Ġgupta": 6264,
      "putra": 6265,
      "imaku": 6266,
      "Ġdiayai": 6267,
      "Ġdiayaithila": 6268,
      "Ġabasara": 6269,
      "Ġkaruna": 6270,
      "unta": 6271,
      "Ġutkala": 6272,
      "Ġpidha": 6273,
      "param": 6274,
      "Ġmoda": 6275,
      "Ġmobai": 6276,
      "Ġ48": 6277,
      "Ġkarei": 6278,
      "Ġdekhayaipare": 6279,
      "Ġasantu": 6280,
      "Ġasuthiba": 6281,
      "Ġbesa": 6282,
      "Ġgramara": 6283,
      "duh": 6284,
      "Ġkahichanti": 6285,
      "bargikarana": 6286,
      "Ġarddha": 6287,
      "Ġpher": 6288,
      "koli": 6289,
      "Ġkebebi": 6290,
      "Ġabakshaya": 6291,
      "Ġparibarttita": 6292,
      "Ġalako": 6293,
      "Ġlekhayaithiba": 6294,
      "Ġantonim": 6295,
      "Ġgote": 6296,
      "byapi": 6297,
      "Ġbishayaguda": 6298,
      "tarare": 6299,
      "Ġkaranamana": 6300,
      "Ġaisa": 6301,
      "Ġphasa": 6302,
      "andom": 6303,
      "Ġshuddha": 6304,
      "Ġshukla": 6305,
      "Ġ196": 6306,
      "bol": 6307,
      "boli": 6308,
      "bodha": 6309,
      "Ġgitaku": 6310,
      "Ġposha": 6311,
      "Ġkabitare": 6312,
      "bakyaru": 6313,
      "sampurnna": 6314,
      "sambhabya": 6315,
      "Ġmarchcha": 6316,
      "Ġmulyabana": 6317,
      "Ġbaigana": 6318,
      "Ġphuli": 6319,
      "Ġdomin": 6320,
      "takada": 6321,
      "Ġkhadyaku": 6322,
      "1990": 6323,
      "Ġsamskaranare": 6324,
      "Ġsthali": 6325,
      "Ġthrom": 6326,
      "Ġcharj": 6327,
      "Ġcharja": 6328,
      "Ġpadare": 6329,
      "Ġshekhara": 6330,
      "Ġnjaya": 6331,
      "Ġmilichi": 6332,
      "Ġmilithiba": 6333,
      "Ġphika": 6334,
      "ghanta": 6335,
      "Ġshikshalabha": 6336,
      "Ġchitraku": 6337,
      "Ġapadet": 6338,
      "Ġsamparkita": 6339,
      "Ġaksharaguda": 6340,
      "Ġgharu": 6341,
      "charanare": 6342,
      "Ġullekhaniya": 6343,
      "Ġmahilamane": 6344,
      "Ġyogadana": 6345,
      "gandha": 6346,
      "itanya": 6347,
      "Ġkaloni": 6348,
      "Ġtrigara": 6349,
      "Ġutsaguda": 6350,
      "ample": 6351,
      "Ġngalabara": 6352,
      "Ġprakrritira": 6353,
      "Ġmrrityubarana": 6354,
      "manika": 6355,
      "Ġinahi": 6356,
      "sustha": 6357,
      "Ġarti": 6358,
      "Ġadr": 6359,
      "Ġpranayana": 6360,
      "lasia": 6361,
      "Ġdharaku": 6362,
      "Ġbayuku": 6363,
      "Ġdijaina": 6364,
      "Ġnikatatara": 6365,
      "Ġsaphalatara": 6366,
      "Ġgunabatta": 6367,
      "Ġgrahaku": 6368,
      "haspati": 6369,
      "mahammada": 6370,
      "Ġpakaiba": 6371,
      "Ġdhulik": 6372,
      "Ġwhi": 6373,
      "therapi": 6374,
      "Ġjatisam": 6375,
      "Ġbadalaibe": 6376,
      "Ġapekshakrrita": 6377,
      "Ġmundabindha": 6378,
      "Ġ2008": 6379,
      "Ġ2009": 6380,
      "Ġpindhi": 6381,
      "Ġnanikamane": 6382,
      "kantaka": 6383,
      "Ġdarshaiba": 6384,
      "Ġkhabaraku": 6385,
      "Ġsanatana": 6386,
      "Ġphotan": 6387,
      "Ġbheda": 6388,
      "Ġniyutaru": 6389,
      "Ġgaid": 6390,
      "cheda": 6391,
      "Ġkriketa": 6392,
      "Ġkrishna": 6393,
      "Ġphilmara": 6394,
      "Ġgrammatik": 6395,
      "Ġilektroni": 6396,
      "Ġyuropa": 6397,
      "esida": 6398,
      "Ġramachandra": 6399,
      "Ġnyuyarka": 6400,
      "Ġalagoridam": 6401,
      "Ġsatati": 6402,
      "Ġparisthitira": 6403,
      "Ġbhabishyatare": 6404,
      "Ġbamshi": 6405,
      "basita": 6406,
      "Ġmyaleria": 6407,
      "Ġbindu": 6408,
      "sisko": 6409,
      "Ġdairghya": 6410,
      "Ġsamskrritika": 6411,
      "Ġsamskrritira": 6412,
      "tumr": 6413,
      "Ġshoshi": 6414,
      "Ġpratirodhaka": 6415,
      "Ġkendrare": 6416,
      "Ġsentara": 6417,
      "Ġjeje": 6418,
      "Ġjagatare": 6419,
      "Ġphransisko": 6420,
      "Ġabishkrrita": 6421,
      "Ġshramika": 6422,
      "Ġshtora": 6423,
      "Ġpaentaku": 6424,
      "Ġselasiyasa": 6425,
      "Ġprashas": 6426,
      "Ġabhinetri": 6427,
      "Ġdekhayauchi": 6428,
      "prema": 6429,
      "Ġdurbalata": 6430,
      "Ġhoinathila": 6431,
      "badbadbadbadbadbadbadbadbadbadbadbadbadbadbadbad": 6432,
      "Ġpratyakhyana": 6433,
      "Ġsahityara": 6434,
      "Ġyantrare": 6435,
      "Ġpreranadayi": 6436,
      "Ġreshtur": 6437,
      "padartha": 6438,
      "Ġstambha": 6439,
      "Ġaplikesana": 6440,
      "shabdaguda": 6441,
      "hindu": 6442,
      "Ġshitala": 6443,
      "Ġsamgrahala": 6444,
      "Ġduniaku": 6445,
      "Ġsamudrare": 6446,
      "madhyama": 6447,
      "bhabishyataku": 6448,
      "Ġduniare": 6449,
      "Ġkampyutim": 6450,
      "Ġpaentuesana": 6451,
      "Ġpratima": 6452,
      "Ġghurnni": 6453,
      "Ġandharare": 6454,
      "Ġnibedita": 6455,
      "Ġdisembara": 6456,
      "Ġachchadita": 6457,
      "betisa": 6458,
      "Ġbuluthila": 6459,
      "Ġharamona": 6460,
      "sahitya": 6461,
      "Ġbibidhata": 6462,
      "Ġsamasyara": 6463,
      "Ġindradyumna": 6464,
      "Ġbadalaiba": 6465,
      "Ġpyaris": 6466,
      "Ġbabushan": 6467,
      "Ġjhilli": 6468,
      "Ġspandana": 6469,
      "Ġadyabadhi": 6470,
      "Ġdisease": 6471,
      "Ġprashikshana": 6472,
      "Ġpradushanara": 6473,
      "Ġwords": 6474,
      "Ġananish": 6475,
      "Ġshailabhama": 6476,
      "byabasaya": 6477,
      "Ġbaishayika": 6478,
      "Ġbyakaraniya": 6479,
      "Ġpujarchchana": 6480,
      "Ġpunaruddhara": 6481,
      "Ġbaishishtya": 6482,
      "baksharajana": 6483,
      "Ġbalabhadra": 6484,
      "Ġsamprrikta": 6485,
      "Ġpariprekshi": 6486,
      "..": 6487,
      "43": 6488,
      "89": 6489,
      "92": 6490,
      "ata": 6491,
      "akhi": 6492,
      "ausha": 6493,
      "bers": 6494,
      "bhita": 6495,
      "banta": 6496,
      "banda": 6497,
      "cy": 6498,
      "dan": 6499,
      "den": 6500,
      "dantu": 6501,
      "dasa": 6502,
      "dandare": 6503,
      "emane": 6504,
      "eksa": 6505,
      "gy": 6506,
      "gne": 6507,
      "han": 6508,
      "hrri": 6509,
      "jha": 6510,
      "jyak": 6511,
      "ksare": 6512,
      "lus": 6513,
      "myana": 6514,
      "nku": 6515,
      "nsha": 6516,
      "ntha": 6517,
      "ndro": 6518,
      "njhara": 6519,
      "olo": 6520,
      "pya": 6521,
      "pasi": 6522,
      "panda": 6523,
      "sko": 6524,
      "uddha": 6525,
      "yyan": 6526,
      "imha": 6527,
      "immyu": 6528,
      "stri": 6529,
      "stanya": 6530,
      "starare": 6531,
      "hama": 6532,
      "hinata": 6533,
      "enti": 6534,
      "Ġkoti": 6535,
      "Ġkasha": 6536,
      "Ġkonara": 6537,
      "Ġkene": 6538,
      "Ġkemo": 6539,
      "artara": 6540,
      "Ġsba": 6541,
      "Ġsmi": 6542,
      "Ġsanta": 6543,
      "Ġsnata": 6544,
      "Ġspe": 6545,
      "Ġsraba": 6546,
      "Ġsmaraniya": 6547,
      "asuchi": 6548,
      "asantakali": 6549,
      "bacha": 6550,
      "bahare": 6551,
      "bastaba": 6552,
      "rati": 6553,
      "tal": 6554,
      "tact": 6555,
      "yada": 6556,
      "Ġpy": 6557,
      "Ġpend": 6558,
      "Ġpeshi": 6559,
      "Ġnep": 6560,
      "sira": 6561,
      "ery": 6562,
      "Ġbeka": 6563,
      "Ġband": 6564,
      "Ġbrajila": 6565,
      "shanta": 6566,
      "shto": 6567,
      "likara": 6568,
      "mahila": 6569,
      "mastish": 6570,
      "onita": 6571,
      "Ġapari": 6572,
      "Ġain": 6573,
      "Ġakra": 6574,
      "Ġatta": 6575,
      "Ġadesha": 6576,
      "Ġabhutapurba": 6577,
      "Ġapratyashita": 6578,
      "aria": 6579,
      "dire": 6580,
      "dijitala": 6581,
      "Ġera": 6582,
      "Ġepar": 6583,
      "Ġethiru": 6584,
      "dala": 6585,
      "kunta": 6586,
      "naku": 6587,
      "Ġcou": 6588,
      "Ġuthila": 6589,
      "Ġupu": 6590,
      "Ġupani": 6591,
      "Ġhima": 6592,
      "Ġiara": 6593,
      "Ġdani": 6594,
      "Ġdhe": 6595,
      "Ġbama": 6596,
      "Ġbatya": 6597,
      "Ġbalara": 6598,
      "Ġbahira": 6599,
      "Ġbabadare": 6600,
      "Ġpale": 6601,
      "Ġpadh": 6602,
      "Ġpake": 6603,
      "Ġpadara": 6604,
      "Ġpapu": 6605,
      "Ġpataku": 6606,
      "Ġnaka": 6607,
      "Ġnamara": 6608,
      "Ġnagara": 6609,
      "Ġnakala": 6610,
      "Ġnathibaru": 6611,
      "Ġnayika": 6612,
      "Ġrim": 6613,
      "Ġrga": 6614,
      "Ġryadi": 6615,
      "sap": 6616,
      "sata": 6617,
      "sapta": 6618,
      "Ġmash": 6619,
      "Ġmrrita": 6620,
      "Ġmyane": 6621,
      "gal": 6622,
      "lishta": 6623,
      "Ġanna": 6624,
      "Ġanantu": 6625,
      "Ġanila": 6626,
      "pae": 6627,
      "path": 6628,
      "pathara": 6629,
      "Ġkabata": 6630,
      "Ġkamuda": 6631,
      "Ġpramatra": 6632,
      "Ġprachura": 6633,
      "Ġrau": 6634,
      "Ġrakhe": 6635,
      "tei": 6636,
      "Ġjhala": 6637,
      "Ġjyami": 6638,
      "thakara": 6639,
      "Ġglo": 6640,
      "Ġgro": 6641,
      "Ġgene": 6642,
      "rrisha": 6643,
      "Ġlekhu": 6644,
      "manura": 6645,
      "manushya": 6646,
      "manusare": 6647,
      "Ġor": 6648,
      "Ġosha": 6649,
      "rupa": 6650,
      "Ġsamna": 6651,
      "Ġsamrata": 6652,
      "hula": 6653,
      "Ġkeshare": 6654,
      "chan": 6655,
      "Ġtapare": 6656,
      "Ġtalikaru": 6657,
      "Ġtaitala": 6658,
      "Ġint": 6659,
      "Ġpaili": 6660,
      "jatika": 6661,
      "japati": 6662,
      "Ġcontact": 6663,
      "Ġnisha": 6664,
      "Ġnibesha": 6665,
      "Ġdeuthile": 6666,
      "Ġdebashisha": 6667,
      "chata": 6668,
      "chalaka": 6669,
      "Ġyana": 6670,
      "Ġyun": 6671,
      "bida": 6672,
      "bitara": 6673,
      "bidya": 6674,
      "kharji": 6675,
      "Ġyatri": 6676,
      "Ġyamuna": 6677,
      "bhakta": 6678,
      "bhagya": 6679,
      "Ġbyaga": 6680,
      "Ġhoiyiba": 6681,
      "Ġhoithibara": 6682,
      "nira": 6683,
      "nibe": 6684,
      "Ġkin": 6685,
      "Ġkirana": 6686,
      "Ġparile": 6687,
      "Ġparikshare": 6688,
      "Ġpariganita": 6689,
      "Ġbhakti": 6690,
      "Ġbhagna": 6691,
      "asho": 6692,
      "khata": 6693,
      "Ġchalana": 6694,
      "Ġsetare": 6695,
      "Ġsekend": 6696,
      "Ġkantharu": 6697,
      "kipida": 6698,
      "Ġmumba": 6699,
      "Ġmukharji": 6700,
      "Ġbarshiya": 6701,
      "Ġlak": 6702,
      "Ġlal": 6703,
      "Ġlain": 6704,
      "Ġlapata": 6705,
      "Ġlakada": 6706,
      "parile": 6707,
      "mil": 6708,
      "mio": 6709,
      "Ġgamana": 6710,
      "Ġgauraba": 6711,
      "Ġgabhirata": 6712,
      "Ġbhabu": 6713,
      "Ġbhabanti": 6714,
      "Ġtibrata": 6715,
      "Ġchila": 6716,
      "Ġrom": 6717,
      "Ġtantu": 6718,
      "Ġdama": 6719,
      "Ġdami": 6720,
      "Ġbyabaharara": 6721,
      "Ġbyabasthara": 6722,
      "hei": 6723,
      "Ġjai": 6724,
      "Ġjam": 6725,
      "Ġjama": 6726,
      "Ġjagare": 6727,
      "Ġjabhas": 6728,
      "ekaunasi": 6729,
      "mulya": 6730,
      "Ġnamati": 6731,
      "Ġnirgamana": 6732,
      "Ġmilana": 6733,
      "Ġsuda": 6734,
      "karshana": 6735,
      "Ġarama": 6736,
      "Ġngalara": 6737,
      "nimnalikhitaku": 6738,
      "Ġjira": 6739,
      "ashaili": 6740,
      "barapha": 6741,
      "Ġlopa": 6742,
      "Ġhaja": 6743,
      "Ġhasta": 6744,
      "Ġhaluka": 6745,
      "Ġshitara": 6746,
      "krrishi": 6747,
      "Ġthibabele": 6748,
      "Ġduhe": 6749,
      "Ġshasya": 6750,
      "Ġkathaku": 6751,
      "Ġpratibandha": 6752,
      "Ġnchakara": 6753,
      "Ġrec": 6754,
      "yog": 6755,
      "Ġamba": 6756,
      "Ġyogi": 6757,
      "Ġyodantu": 6758,
      "harika": 6759,
      "prachina": 6760,
      "eria": 6761,
      "bhuja": 6762,
      "Ġkhauthiba": 6763,
      "Ġ31": 6764,
      "anyabada": 6765,
      "luthile": 6766,
      "Ġkhoj": 6767,
      "Ġkhorddha": 6768,
      "Ġgudika": 6769,
      "metrika": 6770,
      "Ġabas": 6771,
      "Ġabhoka": 6772,
      "Ġutkant": 6773,
      "Ġutsaru": 6774,
      "puraskara": 6775,
      "Ġruma": 6776,
      "Ġruhantu": 6777,
      "Ġ49": 6778,
      "Ġdekhadei": 6779,
      "Ġaspi": 6780,
      "Ġasantakali": 6781,
      "Ġbela": 6782,
      "Ġbedha": 6783,
      "kanadara": 6784,
      "Ġparagra": 6785,
      "dua": 6786,
      "duniara": 6787,
      "Ġsiri": 6788,
      "Ġbhul": 6789,
      "parba": 6790,
      "Ġphlas": 6791,
      "Ġphandara": 6792,
      "Ġjanai": 6793,
      "Ġjanaku": 6794,
      "Ġjanayai": 6795,
      "kod": 6796,
      "Ġkoli": 6797,
      "phalara": 6798,
      "phaila": 6799,
      "Ġparibarttanara": 6800,
      "Ġudahar": 6801,
      "Ġmahaprasada": 6802,
      "Ġbharapura": 6803,
      "Ġheuna": 6804,
      "Ġheuthae": 6805,
      "tric": 6806,
      "byasta": 6807,
      "Ġyugare": 6808,
      "Ġyuddhare": 6809,
      "Ġpadaku": 6810,
      "Ġauto": 6811,
      "Ġsthanita": 6812,
      "tsaba": 6813,
      "andaru": 6814,
      "Ġarthat": 6815,
      "Ġaktobara": 6816,
      "yashila": 6817,
      "Ġposhtara": 6818,
      "Ġ65": 6819,
      "bhimu": 6820,
      "Ġghatu": 6821,
      "sams": 6822,
      "samghatika": 6823,
      "Ġmanush": 6824,
      "Ġlan": 6825,
      "Ġsamuhara": 6826,
      "Ġ83": 6827,
      "Ġyaipariba": 6828,
      "Ġ2020": 6829,
      "Ġkantaka": 6830,
      "Ġdomen": 6831,
      "Ġngitakara": 6832,
      "kripta": 6833,
      "Ġadhikari": 6834,
      "Ġcharta": 6835,
      "Ġrakhichi": 6836,
      "Ġrakhichanti": 6837,
      "Ġbastut": 6838,
      "bharatare": 6839,
      "Ġkheli": 6840,
      "Ġuchchatama": 6841,
      "Ġnjaitisa": 6842,
      "Ġdhoiba": 6843,
      "Ġdhanyabada": 6844,
      "Ġnishkasana": 6845,
      "Ġgurubara": 6846,
      "chual": 6847,
      "prasiddha": 6848,
      "Ġbhoi": 6849,
      "Ġshikshadana": 6850,
      "kandu": 6851,
      "samaya": 6852,
      "samagra": 6853,
      "Ġkanthashilpigana": 6854,
      "yarkara": 6855,
      "Ġsamikaranare": 6856,
      "Ġdashama": 6857,
      "Ġkalasa": 6858,
      "dayakari": 6859,
      "Ġdrrishtikon": 6860,
      "Ġbibhajana": 6861,
      "Ġbibhagara": 6862,
      "Ġadau": 6863,
      "Ġadaku": 6864,
      "usaku": 6865,
      "Ġphesabu": 6866,
      "Ġadrrishya": 6867,
      "dhuri": 6868,
      "asamkh": 6869,
      "Ġkshetraphalaku": 6870,
      "Ġsamagriguda": 6871,
      "Ġnadira": 6872,
      "Ġpashura": 6873,
      "Ġdharabahi": 6874,
      "Ġkshudrakanika": 6875,
      "mahatya": 6876,
      "Ġkaliphar": 6877,
      "Ġkaniha": 6878,
      "Ġluga": 6879,
      "kampyu": 6880,
      "Ġkinibaku": 6881,
      "namakarana": 6882,
      "pratidina": 6883,
      "Ġbasabasa": 6884,
      "Ġkyalasi": 6885,
      "Ġ2004": 6886,
      "Ġ2006": 6887,
      "Ġprasada": 6888,
      "Ġpurbaja": 6889,
      "ksina": 6890,
      "Ġchamacha": 6891,
      "Ġsann": 6892,
      "Ġjinishaku": 6893,
      "mandalare": 6894,
      "Ġsamuhaku": 6895,
      "Ġve": 6896,
      "Ġgramabasi": 6897,
      "Ġsamparkaku": 6898,
      "Ġmandalare": 6899,
      "Ġparibeshare": 6900,
      "Ġdarshayaichi": 6901,
      "Ġbheti": 6902,
      "Ġbhektara": 6903,
      "kalpara": 6904,
      "kalpanika": 6905,
      "Ġtarik": 6906,
      "Ġsambhabapara": 6907,
      "Ġkrrimi": 6908,
      "Ġilektran": 6909,
      "Ġshishumana": 6910,
      "Ġbasithiba": 6911,
      "Ġsambandha": 6912,
      "Ġbipadaku": 6913,
      "Ġsaptahare": 6914,
      "Ġjulai": 6915,
      "Ġparisthitiku": 6916,
      "abhina": 6917,
      "abhijita": 6918,
      "Ġmilimi": 6919,
      "Ġsentence": 6920,
      "Ġjamiku": 6921,
      "eroja": 6922,
      "Ġsmarana": 6923,
      "sharirika": 6924,
      "Ġjenetik": 6925,
      "Ġsamskrritire": 6926,
      "pilamana": 6927,
      "Ġsajai": 6928,
      "Ġmanobala": 6929,
      "Ġmanorama": 6930,
      "Ġbharchual": 6931,
      "nilakantha": 6932,
      "Ġtren": 6933,
      "kathachitra": 6934,
      "dharantu": 6935,
      "sthaniya": 6936,
      "Ġupadanare": 6937,
      "Ġmyuchuala": 6938,
      "yashakti": 6939,
      "Ġharnia": 6940,
      "Ġnirupita": 6941,
      "Ġshikhiba": 6942,
      "Ġkramagata": 6943,
      "prrishtha": 6944,
      "Ġsabhyata": 6945,
      "thaipare": 6946,
      "Ġsamudrara": 6947,
      "kukurati": 6948,
      "Ġbhasuthiba": 6949,
      "Ġshishura": 6950,
      "Ġbijeta": 6951,
      "Ġshtail": 6952,
      "somala": 6953,
      "satyajita": 6954,
      "Ġkarisarichanti": 6955,
      "Ġbayumandala": 6956,
      "Ġparyyatanasthali": 6957,
      "antarnihita": 6958,
      "Ġskrini": 6959,
      "Ġeaira": 6960,
      "bileimana": 6961,
      "Ġshtraberi": 6962,
      "Ġmundare": 6963,
      "Ġimmyuna": 6964,
      "Ġkrodhita": 6965,
      "Ġmaxval": 6966,
      "Ġmahabharata": 6967,
      "Ġudyama": 6968,
      "Ġmahima": 6969,
      "Ġganitika": 6970,
      "Ġtamato": 6971,
      "Ġdhadiku": 6972,
      "aphrikara": 6973,
      "Ġpacheri": 6974,
      "bhaugolika": 6975,
      "Ġmulyara": 6976,
      "Ġbheriebal": 6977,
      "ness": 6978,
      "usumi": 6979,
      "Ġakamkshi": 6980,
      "Ġpakistana": 6981,
      "Ġlimpho": 6982,
      "Ġpanipagara": 6983,
      "skulare": 6984,
      "Ġadarsha": 6985,
      "kripasan": 6986,
      "Ġaminoesida": 6987,
      "mahumachi": 6988,
      "Ġsatarka": 6989,
      "Ġbidroha": 6990,
      "Ġsamantarala": 6991,
      "Ġsamayasima": 6992,
      "Ġdakshinesh": 6993,
      "Ġlimirika": 6994,
      "Ġrajaniti": 6995,
      "Ġitihasare": 6996,
      "Ġilektrik": 6997,
      "Ġniyantrita": 6998,
      "kimbadanti": 6999,
      "pathyaku": 7000,
      "Ġprastabaku": 7001,
      "Ġhindustani": 7002,
      "Ġpraphulla": 7003,
      "Ġyatayata": 7004,
      "Ġgatakali": 7005,
      "Ġreshturantara": 7006,
      "Ġpariprekshire": 7007,
      "Ġeparyyanta": 7008,
      "Ġryadiyas": 7009,
      "Ġanilakantha": 7010,
      "Ġyunita": 7011,
      "Ġjabhaskripta": 7012,
      "Ġabhokado": 7013,
      "'m": 7014,
      "22": 7015,
      "27": 7016,
      "29": 7017,
      "77": 7018,
      "adi": 7019,
      "apare": 7020,
      "bhari": 7021,
      "cm": 7022,
      "cture": 7023,
      "dashi": 7024,
      "eli": 7025,
      "etara": 7026,
      "ety": 7027,
      "ethipai": 7028,
      "ff": 7029,
      "hy": 7030,
      "hra": 7031,
      "jhu": 7032,
      "janya": 7033,
      "jesan": 7034,
      "jhiba": 7035,
      "kantu": 7036,
      "kki": 7037,
      "kandare": 7038,
      "lant": 7039,
      "lari": 7040,
      "lasha": 7041,
      "lpara": 7042,
      "landara": 7043,
      "mimana": 7044,
      "masam": 7045,
      "meru": 7046,
      "mbhe": 7047,
      "nle": 7048,
      "nru": 7049,
      "nasara": 7050,
      "nnia": 7051,
      "osi": 7052,
      "ola": 7053,
      "ore": 7054,
      "odhi": 7055,
      "paniya": 7056,
      "rn": 7057,
      "rashastra": 7058,
      "spe": 7059,
      "soda": 7060,
      "triya": 7061,
      "trrita": 7062,
      "tona": 7063,
      "ua": 7064,
      "uja": 7065,
      "yur": 7066,
      "yanaru": 7067,
      "Ġly": 7068,
      "ark": 7069,
      "sthala": 7070,
      "stom": 7071,
      "haid": 7072,
      "Ġklas": 7073,
      "Ġkarti": 7074,
      "Ġspi": 7075,
      "Ġsartha": 7076,
      "Ġsko": 7077,
      "Ġsenta": 7078,
      "Ġsartta": 7079,
      "asuchanti": 7080,
      "baya": 7081,
      "balya": 7082,
      "raga": 7083,
      "rasta": 7084,
      "tatha": 7085,
      "tame": 7086,
      "tait": 7087,
      "tapamatra": 7088,
      "talikare": 7089,
      "yath": 7090,
      "yamare": 7091,
      "yauthiba": 7092,
      "Ġple": 7093,
      "Ġperi": 7094,
      "Ġnrri": 7095,
      "Ġnrrit": 7096,
      "Ġnchita": 7097,
      "Ġnkie": 7098,
      "siti": 7099,
      "sino": 7100,
      "tin": 7101,
      "analain": 7102,
      "Ġben": 7103,
      "Ġbran": 7104,
      "use": 7105,
      "usho": 7106,
      "shtare": 7107,
      "shanaru": 7108,
      "shrimandi": 7109,
      "lit": 7110,
      "maa": 7111,
      "mali": 7112,
      "main": 7113,
      "Ġayo": 7114,
      "Ġapra": 7115,
      "Ġaphi": 7116,
      "Ġataka": 7117,
      "Ġalas": 7118,
      "Ġachanaka": 7119,
      "disa": 7120,
      "dinara": 7121,
      "dirgha": 7122,
      "Ġetharu": 7123,
      "Ġethipai": 7124,
      "Ġejenta": 7125,
      "rila": 7126,
      "rikshana": 7127,
      "daba": 7128,
      "dauda": 7129,
      "daktara": 7130,
      "Ġsabi": 7131,
      "Ġsabhare": 7132,
      "lesana": 7133,
      "lekhare": 7134,
      "kutia": 7135,
      "epara": 7136,
      "namita": 7137,
      "Ġcor": 7138,
      "Ġuthai": 7139,
      "Ġibara": 7140,
      "Ġigala": 7141,
      "Ġisala": 7142,
      "Ġdrrita": 7143,
      "Ġdeshi": 7144,
      "Ġkarnna": 7145,
      "Ġpabanare": 7146,
      "Ġnaa": 7147,
      "Ġnala": 7148,
      "Ġnaksha": 7149,
      "Ġnait": 7150,
      "Ġnaitikata": 7151,
      "Ġrasi": 7152,
      "Ġrena": 7153,
      "Ġrekada": 7154,
      "saha": 7155,
      "sahara": 7156,
      "saiti": 7157,
      "Ġmart": 7158,
      "Ġmanta": 7159,
      "Ġmona": 7160,
      "Ġmenta": 7161,
      "Ġmese": 7162,
      "Ġmusalamana": 7163,
      "chitrara": 7164,
      "gatire": 7165,
      "galpa": 7166,
      "gajare": 7167,
      "gamentara": 7168,
      "Ġanxi": 7169,
      "patana": 7170,
      "pathare": 7171,
      "pakata": 7172,
      "palita": 7173,
      "padita": 7174,
      "Ġkapi": 7175,
      "Ġkalu": 7176,
      "Ġkathita": 7177,
      "Ġkaricha": 7178,
      "Ġkaride": 7179,
      "Ġkarithaanti": 7180,
      "Ġkaridele": 7181,
      "Ġkarinahanti": 7182,
      "Ġpraj": 7183,
      "Ġprastha": 7184,
      "Ġprayasa": 7185,
      "Ġpradesha": 7186,
      "Ġpralasi": 7187,
      "Ġprayogara": 7188,
      "Ġmad": 7189,
      "Ġmale": 7190,
      "Ġmamu": 7191,
      "Ġmagha": 7192,
      "Ġmachara": 7193,
      "Ġmathara": 7194,
      "Ġmatan": 7195,
      "Ġmadhaba": 7196,
      "Ġmahoda": 7197,
      "Ġraka": 7198,
      "Ġrakhu": 7199,
      "Ġraghu": 7200,
      "tera": 7201,
      "teta": 7202,
      "Ġjantu": 7203,
      "Ġjita": 7204,
      "Ġjharana": 7205,
      "Ġjuna": 7206,
      "tuli": 7207,
      "turi": 7208,
      "turn": 7209,
      "Ġbid": 7210,
      "Ġbik": 7211,
      "Ġbidha": 7212,
      "Ġbihana": 7213,
      "Ġbichitra": 7214,
      "Ġbibhaba": 7215,
      "Ġbitar": 7216,
      "Ġbitaka": 7217,
      "Ġbiphalata": 7218,
      "Ġgari": 7219,
      "Ġghar": 7220,
      "Ġodha": 7221,
      "Ġout": 7222,
      "Ġsamyogi": 7223,
      "Ġsamprada": 7224,
      "Ġsambega": 7225,
      "Ġsambadara": 7226,
      "habya": 7227,
      "Ġtat": 7228,
      "Ġtapa": 7229,
      "Ġtaja": 7230,
      "Ġindhana": 7231,
      "Ġinje": 7232,
      "Ġpaibaku": 7233,
      "Ġpaibare": 7234,
      "out": 7235,
      "jaka": 7236,
      "Ġnirikshana": 7237,
      "turaja": 7238,
      "aruna": 7239,
      "Ġdeuchi": 7240,
      "Ġdeuchanti": 7241,
      "bamsha": 7242,
      "bamshi": 7243,
      "bamota": 7244,
      "chama": 7245,
      "Ġyekaunasi": 7246,
      "bia": 7247,
      "bian": 7248,
      "bira": 7249,
      "biana": 7250,
      "trala": 7251,
      "khela": 7252,
      "Ġbaktrrita": 7253,
      "oid": 7254,
      "bedana": 7255,
      "bhasa": 7256,
      "Ġbyaya": 7257,
      "Ġbyateri": 7258,
      "Ġhoiparanti": 7259,
      "nik": 7260,
      "Ġkibhali": 7261,
      "Ġparipurnna": 7262,
      "lora": 7263,
      "Ġbhata": 7264,
      "asharu": 7265,
      "khad": 7266,
      "Ġchamaka": 7267,
      "Ġsegamentara": 7268,
      "Ġshani": 7269,
      "yuktarashtrare": 7270,
      "Ġehisabu": 7271,
      "Ġehibhali": 7272,
      "Ġkanthara": 7273,
      "Ġkantena": 7274,
      "king": 7275,
      "kina": 7276,
      "Ġmutra": 7277,
      "Ġmukha": 7278,
      "Ġmudu": 7279,
      "Ġmukabi": 7280,
      "Ġsamalochana": 7281,
      "Ġbarlina": 7282,
      "Ġdisa": 7283,
      "Ġdishe": 7284,
      "Ġdibya": 7285,
      "Ġdiso": 7286,
      "Ġladha": 7287,
      "Ġlabana": 7288,
      "mikata": 7289,
      "Ġgachare": 7290,
      "Ġgajapati": 7291,
      "jia": 7292,
      "jibanare": 7293,
      "Ġtiksh": 7294,
      "Ġchira": 7295,
      "Ġchitrara": 7296,
      "Ġchitrana": 7297,
      "Ġchitrita": 7298,
      "Ġrog": 7299,
      "Ġrogaru": 7300,
      "Ġrobat": 7301,
      "Ġmadhyaku": 7302,
      "Ġdahi": 7303,
      "Ġdaki": 7304,
      "Ġdakyu": 7305,
      "Ġjabha": 7306,
      "Ġput": 7307,
      "Ġshabdah": 7308,
      "Ġkun": 7309,
      "Ġkuda": 7310,
      "Ġkulaku": 7311,
      "Ġkukuda": 7312,
      "Ġkuhuda": 7313,
      "Ġupadhi": 7314,
      "Ġupachara": 7315,
      "Ġupakantha": 7316,
      "Ġupasthita": 7317,
      "Ġupastarare": 7318,
      "sethimadhyaru": 7319,
      "Ġprer": 7320,
      "Ġprasara": 7321,
      "mudra": 7322,
      "Ġmishei": 7323,
      "Ġsuchaka": 7324,
      "karsa": 7325,
      "karnna": 7326,
      "karkata": 7327,
      "dehare": 7328,
      "Ġngata": 7329,
      "stakhata": 7330,
      "pik": 7331,
      "ashakti": 7332,
      "Ġlokara": 7333,
      "haryya": 7334,
      "Ġparkare": 7335,
      "Ġshikha": 7336,
      "Ġshiksh": 7337,
      "Ġyahaphalare": 7338,
      "Ġpratibaddha": 7339,
      "Ġpratisarana": 7340,
      "romio": 7341,
      "Ġred": 7342,
      "Ġretim": 7343,
      "Ġrevers": 7344,
      "Ġreturn": 7345,
      "yogare": 7346,
      "prad": 7347,
      "Ġngha": 7348,
      "Ġkhata": 7349,
      "Ġkhapuri": 7350,
      "Ġ54": 7351,
      "nnara": 7352,
      "Ġanugola": 7353,
      "Ġbosha": 7354,
      "lugu": 7355,
      "lupta": 7356,
      "Ġneh": 7357,
      "Ġneuchanti": 7358,
      "Ġkhodita": 7359,
      "Ġgugu": 7360,
      "punah": 7361,
      "Ġbuddha": 7362,
      "Ġbuluthiba": 7363,
      "Ġbulibaku": 7364,
      "Ġabhab": 7365,
      "Ġabarana": 7366,
      "Ġabrrit": 7367,
      "Ġabashya": 7368,
      "Ġkaruthibara": 7369,
      "Ġutpatti": 7370,
      "Ġutsar": 7371,
      "Ġuttejana": 7372,
      "Ġketethara": 7373,
      "Ġketegoti": 7374,
      "Ġpiyar": 7375,
      "Ġpiano": 7376,
      "Ġmohana": 7377,
      "Ġhebah": 7378,
      "phra": 7379,
      "pher": 7380,
      "Ġ41": 7381,
      "sthalare": 7382,
      "Ġbadali": 7383,
      "Ġdekhayiba": 7384,
      "Ġasant": 7385,
      "Ġasanti": 7386,
      "Ġasura": 7387,
      "enika": 7388,
      "arthat": 7389,
      "Ġbeda": 7390,
      "Ġbedana": 7391,
      "Ġgramaku": 7392,
      "kanaku": 7393,
      "Ġparada": 7394,
      "Ġparajibi": 7395,
      "Ġparamanura": 7396,
      "bandhana": 7397,
      "garama": 7398,
      "Ġsia": 7399,
      "Ġsiddha": 7400,
      "Ġsiio": 7401,
      "Ġarkara": 7402,
      "Ġarjuna": 7403,
      "Ġphanta": 7404,
      "Ġphlu": 7405,
      "kshika": 7406,
      "torika": 7407,
      "tokand": 7408,
      "Ġdekhila": 7409,
      "Ġtuit": 7410,
      "mota": 7411,
      "mophon": 7412,
      "Ġabatara": 7413,
      "Ġtalikah": 7414,
      "Ġkshetrara": 7415,
      "Ġjanasamkh": 7416,
      "Ġnirddhi": 7417,
      "Ġshreniku": 7418,
      "Ġprathamikata": 7419,
      "Ġantima": 7420,
      "Ġteshta": 7421,
      "Ġgota": 7422,
      "Ġgopa": 7423,
      "Ġgobinda": 7424,
      "Ġgopaniya": 7425,
      "Ġkalama": 7426,
      "Ġyuba": 7427,
      "Ġyubati": 7428,
      "Ġasithiba": 7429,
      "Ġphashta": 7430,
      "Ġtarakari": 7431,
      "ushthana": 7432,
      "goda": 7433,
      "Ġshubha": 7434,
      "Ġganantu": 7435,
      "borda": 7436,
      "Ġbrrihaspati": 7437,
      "Ġaksana": 7438,
      "Ġkuhagala": 7439,
      "yasara": 7440,
      "Ġ600": 7441,
      "bhen": 7442,
      "bhya": 7443,
      "bharu": 7444,
      "Ġghada": 7445,
      "Ġghasa": 7446,
      "Ġghatanara": 7447,
      "urama": 7448,
      "Ġchopa": 7449,
      "samra": 7450,
      "sammana": 7451,
      "samkramana": 7452,
      "phin": 7453,
      "philia": 7454,
      "Ġritorika": 7455,
      "Ġmarkanda": 7456,
      "lait": 7457,
      "Ġmanu": 7458,
      "Ġmanasa": 7459,
      "Ġmanasi": 7460,
      "Ġmanonita": 7461,
      "Ġlisa": 7462,
      "Ġjalapra": 7463,
      "Ġasama": 7464,
      "Ġbaidika": 7465,
      "Ġbaishna": 7466,
      "Ġyaithiba": 7467,
      "Ġyaithila": 7468,
      "mbaka": 7469,
      "Ġphulara": 7470,
      "Ġjibanaku": 7471,
      "Ġngitaku": 7472,
      "Ġadhini": 7473,
      "Ġchen": 7474,
      "Ġchyane": 7475,
      "Ġakshariya": 7476,
      "Ġuddhara": 7477,
      "Ġudbhabana": 7478,
      "190": 7479,
      "Ġshirsha": 7480,
      "Ġsthapita": 7481,
      "Ġmandirati": 7482,
      "Ġkhelara": 7483,
      "Ġkhelanti": 7484,
      "Ġdharyya": 7485,
      "Ġbhogi": 7486,
      "Ġatmahatya": 7487,
      "Ġamajana": 7488,
      "sarakara": 7489,
      "Ġnjabi": 7490,
      "Ġdhoi": 7491,
      "inami": 7492,
      "Ġlakshanamana": 7493,
      "Ġpanire": 7494,
      "Ġchaligala": 7495,
      "pres": 7496,
      "prasa": 7497,
      "Ġjanipari": 7498,
      "kandara": 7499,
      "onipatha": 7500,
      "Ġnilaya": 7501,
      "marka": 7502,
      "Ġbhashabhashi": 7503,
      "Ġashoka": 7504,
      "samajika": 7505,
      "2019": 7506,
      "2013": 7507,
      "2016": 7508,
      "2021": 7509,
      "Ġyogai": 7510,
      "Ġdashati": 7511,
      "Ġutsabare": 7512,
      "dosha": 7513,
      "Ġhaipo": 7514,
      "Ġjanmadina": 7515,
      "Ġkandheiku": 7516,
      "Ġbhagaku": 7517,
      "ents": 7518,
      "tabes": 7519,
      "Ġlokapriyata": 7520,
      "puratana": 7521,
      "Ġarthare": 7522,
      "Ġprabhabare": 7523,
      "bhoga": 7524,
      "Ġtulanatmaka": 7525,
      "Ġpashuku": 7526,
      "tebelaku": 7527,
      "Ġyibi": 7528,
      "Ġyibe": 7529,
      "Ġ150": 7530,
      "Ġsambhabanaku": 7531,
      "Ġbahish": 7532,
      "Ġbahini": 7533,
      "Ġmajaka": 7534,
      "Ġsadrrisha": 7535,
      "dyutika": 7536,
      "Ġbasanta": 7537,
      "Ġgatishila": 7538,
      "Ġsaharaku": 7539,
      "Ġ2012": 7540,
      "Ġ2016": 7541,
      "Ġ2017": 7542,
      "Ġ2018": 7543,
      "kampani": 7544,
      "Ġbalada": 7545,
      "Ġparyyabekshana": 7546,
      "Ġkyame": 7547,
      "Ġpritama": 7548,
      "Ġesid": 7549,
      "Ġesida": 7550,
      "Ġprasaba": 7551,
      "Ġpindha": 7552,
      "Ġanandadayaka": 7553,
      "Ġmaitokand": 7554,
      "Ġsandeha": 7555,
      "Ġpakshira": 7556,
      "Ġpremaku": 7557,
      "Ġrakhayiba": 7558,
      "Ġrakhayaichi": 7559,
      "Ġbyabasayaku": 7560,
      "Ġduhkhita": 7561,
      "Ġparibeshara": 7562,
      "Ġabasthaku": 7563,
      "Ġphotaka": 7564,
      "Ġphoton": 7565,
      "Ġpradeshika": 7566,
      "Ġgaichanti": 7567,
      "Ġblaga": 7568,
      "Ġsamrakshita": 7569,
      "chera": 7570,
      "Ġakhiku": 7571,
      "brrittigata": 7572,
      "Ġebasaitaku": 7573,
      "Ġilektro": 7574,
      "Ġpadila": 7575,
      "Ġramayana": 7576,
      "Ġblakachen": 7577,
      "shriramakrrishna": 7578,
      "Ġsaujanya": 7579,
      "Ġmaricha": 7580,
      "Ġbipadapurnna": 7581,
      "Ġghatiba": 7582,
      "Ġghatichi": 7583,
      "Ġuchchare": 7584,
      "Ġjuli": 7585,
      "Ġkhandapada": 7586,
      "Ġbhautika": 7587,
      "Ġjalare": 7588,
      "Ġantah": 7589,
      "Ġpasandara": 7590,
      "shthira": 7591,
      "Ġpradakta": 7592,
      "Ġbindha": 7593,
      "Ġparbati": 7594,
      "Ġparbatama": 7595,
      "Ġsaito": 7596,
      "Ġranani": 7597,
      "jensi": 7598,
      "suryyasta": 7599,
      "Ġchaula": 7600,
      "Ġchaudhuri": 7601,
      "Ġyuktiyukta": 7602,
      "Ġprakalpaku": 7603,
      "Ġjyotir": 7604,
      "Ġjhiamana": 7605,
      "Ġsamgathana": 7606,
      "Ġbharasa": 7607,
      "Ġchitabagha": 7608,
      "Ġdirghakalina": 7609,
      "Ġsuchita": 7610,
      "Ġnirddeshabali": 7611,
      "Ġtebula": 7612,
      "krima": 7613,
      "Ġshrabana": 7614,
      "prakrritare": 7615,
      "Ġakashabanire": 7616,
      "jos": 7617,
      "Ġprogramara": 7618,
      "Ġsaundaryyaku": 7619,
      "anashilata": 7620,
      "Ġhoinathae": 7621,
      "Ġprarambha": 7622,
      "Ġashubha": 7623,
      "Ġchintara": 7624,
      "Ġchintita": 7625,
      "Ġdastabija": 7626,
      "Ġpalati": 7627,
      "Ġraktana": 7628,
      "Ġbhashanaku": 7629,
      "prashnah": 7630,
      "Ġsebakamane": 7631,
      "Ġsuryyara": 7632,
      "Ġbibrrittira": 7633,
      "byabaharakari": 7634,
      "Ġpadarthare": 7635,
      "hindi": 7636,
      "Ġsystem": 7637,
      "Ġsyanda": 7638,
      "Ġsamgrami": 7639,
      "Ġaphrikara": 7640,
      "Ġaphrikare": 7641,
      "Ġdiayauchi": 7642,
      "Ġjanapade": 7643,
      "kyuri": 7644,
      "Ġbayopsi": 7645,
      "Ġbiliyana": 7646,
      "durga": 7647,
      "Ġspama": 7648,
      "Ġduniara": 7649,
      "Ġutpadara": 7650,
      "Ġdarshantu": 7651,
      "brahma": 7652,
      "jalara": 7653,
      "Ġkalikata": 7654,
      "Ġghurnnana": 7655,
      "breri": 7656,
      "Ġpandu": 7657,
      "Ġdibhais": 7658,
      "Ġplatapharmara": 7659,
      "Ġjibanashaili": 7660,
      "rogira": 7661,
      "Ġudyamare": 7662,
      "Ġgyaleri": 7663,
      "Ġdakuchi": 7664,
      "Ġmidiara": 7665,
      "Ġjananahi": 7666,
      "Ġtamila": 7667,
      "asamayika": 7668,
      "Ġyunit": 7669,
      "Ġdraibhara": 7670,
      "akashabani": 7671,
      "Ġmurt": 7672,
      "Ġkhrishtapurba": 7673,
      "Ġpatua": 7674,
      "Ġgrup": 7675,
      "chashama": 7676,
      "Ġchapiba": 7677,
      "Ġturki": 7678,
      "Ġebasaitra": 7679,
      "Ġprachchadapatta": 7680,
      "Ġmadel": 7681,
      "Ġmahabidyalaya": 7682,
      "Ġdaiaksaida": 7683,
      "Ġbesarakari": 7684,
      "Ġkhandie": 7685,
      "Ġsnipe": 7686,
      "Ġseroton": 7687,
      "Ġjandisa": 7688,
      "Ġbiyuktatmaka": 7689,
      "Ġbhakshanakari": 7690,
      "Ġmobail": 7691,
      "duhkha": 7692,
      "Ġalakohola": 7693,
      "bolre": 7694,
      "Ġthrombo": 7695,
      "Ġinahibitara": 7696,
      "Ġadrenala": 7697,
      "Ġwhite": 7698,
      "Ġjatisamghara": 7699,
      "Ġjejema": 7700,
      "Ġprashasanika": 7701,
      "Ġpython": 7702,
      "Ġlapatap": 7703,
      "Ġjaibika": 7704,
      "Ġdharabahikare": 7705,
      "apareshana": 7706,
      "tathapi": 7707,
      "taitanika": 7708,
      "ushottama": 7709,
      "Ġanxiety": 7710,
      "Ġmatanusare": 7711,
      "Ġmahodadhi": 7712,
      "Ġinjection": 7713,
      "Ġmukabila": 7714,
      "Ġdisorder": 7715,
      "Ġsaujanyapurnna": 7716,
      "44": 7717,
      "52": 7718,
      "62": 7719,
      "83": 7720,
      "95": 7721,
      "99": 7722,
      "ay": 7723,
      "ali": 7724,
      "apara": 7725,
      "aitihasika": 7726,
      "bari": 7727,
      "bimba": 7728,
      "bimana": 7729,
      "blyu": 7730,
      "cation": 7731,
      "dd": 7732,
      "ddya": 7733,
      "dandaru": 7734,
      "eh": 7735,
      "ek": 7736,
      "ear": 7737,
      "ebare": 7738,
      "ebhali": 7739,
      "ft": 7740,
      "gen": 7741,
      "gem": 7742,
      "ghana": 7743,
      "gand": 7744,
      "gery": 7745,
      "hanare": 7746,
      "hantare": 7747,
      "ibare": 7748,
      "jku": 7749,
      "jyare": 7750,
      "jun": 7751,
      "jene": 7752,
      "jhada": 7753,
      "ksara": 7754,
      "krare": 7755,
      "lsa": 7756,
      "ldara": 7757,
      "land": 7758,
      "mp": 7759,
      "my": 7760,
      "mbharu": 7761,
      "nla": 7762,
      "nthae": 7763,
      "pandita": 7764,
      "pensa": 7765,
      "ry": 7766,
      "ranara": 7767,
      "son": 7768,
      "suna": 7769,
      "sor": 7770,
      "spen": 7771,
      "ts": 7772,
      "tus": 7773,
      "tani": 7774,
      "tyu": 7775,
      "tanare": 7776,
      "tmika": 7777,
      "ure": 7778,
      "upadana": 7779,
      "ustom": 7780,
      "va": 7781,
      "vo": 7782,
      "yyo": 7783,
      "Ġantu": 7784,
      "Ġhab": 7785,
      "Ġtura": 7786,
      "Ġero": 7787,
      "arda": 7788,
      "ansa": 7789,
      "anyare": 7790,
      "andhara": 7791,
      "ance": 7792,
      "imela": 7793,
      "hatha": 7794,
      "hausa": 7795,
      "hichi": 7796,
      "Ġkas": 7797,
      "Ġkur": 7798,
      "Ġkartta": 7799,
      "Ġkenala": 7800,
      "arthi": 7801,
      "Ġska": 7802,
      "Ġsla": 7803,
      "Ġsita": 7804,
      "Ġsno": 7805,
      "Ġspai": 7806,
      "Ġsbarare": 7807,
      "Ġsepha": 7808,
      "Ġsandar": 7809,
      "bapa": 7810,
      "baji": 7811,
      "bayas": 7812,
      "bauddha": 7813,
      "rabi": 7814,
      "rabara": 7815,
      "ratri": 7816,
      "raeda": 7817,
      "raktare": 7818,
      "yauchi": 7819,
      "yamana": 7820,
      "yatri": 7821,
      "Ġpart": 7822,
      "Ġpoti": 7823,
      "Ġplu": 7824,
      "Ġphila": 7825,
      "Ġpnara": 7826,
      "Ġpnare": 7827,
      "Ġplas": 7828,
      "Ġpleta": 7829,
      "Ġpyarka": 7830,
      "kati": 7831,
      "kathi": 7832,
      "kalika": 7833,
      "kamar": 7834,
      "kataru": 7835,
      "kaushala": 7836,
      "Ġnda": 7837,
      "Ġnchanti": 7838,
      "Ġnko": 7839,
      "Ġnchantu": 7840,
      "sibha": 7841,
      "sive": 7842,
      "Ġbart": 7843,
      "Ġbhana": 7844,
      "Ġbandi": 7845,
      "Ġbantana": 7846,
      "ushu": 7847,
      "usena": 7848,
      "shtanta": 7849,
      "lisha": 7850,
      "lipa": 7851,
      "liyana": 7852,
      "mahabhara": 7853,
      "lak": 7854,
      "layara": 7855,
      "Ġath": 7856,
      "Ġayu": 7857,
      "Ġasta": 7858,
      "Ġapi": 7859,
      "Ġadara": 7860,
      "Ġaiba": 7861,
      "Ġagha": 7862,
      "Ġalis": 7863,
      "dirara": 7864,
      "Ġek": 7865,
      "Ġeba": 7866,
      "Ġeso": 7867,
      "Ġethaku": 7868,
      "rikta": 7869,
      "daktari": 7870,
      "dainami": 7871,
      "Ġsab": 7872,
      "Ġsaj": 7873,
      "Ġsap": 7874,
      "Ġsada": 7875,
      "Ġsakara": 7876,
      "Ġsaita": 7877,
      "Ġsakhi": 7878,
      "Ġsapara": 7879,
      "Ġsakshata": 7880,
      "letara": 7881,
      "letaku": 7882,
      "kunda": 7883,
      "eptibha": 7884,
      "Ġcur": 7885,
      "Ġupana": 7886,
      "Ġuparo": 7887,
      "Ġharare": 7888,
      "Ġii": 7889,
      "Ġil": 7890,
      "Ġigale": 7891,
      "Ġdim": 7892,
      "Ġdari": 7893,
      "Ġdandita": 7894,
      "Ġdandare": 7895,
      "Ġkarara": 7896,
      "Ġbagi": 7897,
      "Ġbabu": 7898,
      "Ġbahya": 7899,
      "Ġpaba": 7900,
      "Ġpadhi": 7901,
      "Ġpatara": 7902,
      "Ġpatri": 7903,
      "Ġpatrara": 7904,
      "Ġpauthile": 7905,
      "Ġpauchanti": 7906,
      "Ġpatrika": 7907,
      "Ġpakharu": 7908,
      "Ġpayath": 7909,
      "Ġnatha": 7910,
      "Ġnach": 7911,
      "Ġnamani": 7912,
      "Ġnahoi": 7913,
      "Ġnabikaranayogya": 7914,
      "Ġroman": 7915,
      "Ġraru": 7916,
      "Ġrandom": 7917,
      "sakriya": 7918,
      "sahasi": 7919,
      "Ġmanika": 7920,
      "Ġmanara": 7921,
      "Ġmasara": 7922,
      "Ġmemo": 7923,
      "Ġmeroja": 7924,
      "chitrare": 7925,
      "gaba": 7926,
      "gabhira": 7927,
      "galani": 7928,
      "lyanda": 7929,
      "lyandare": 7930,
      "shala": 7931,
      "Ġanara": 7932,
      "Ġandara": 7933,
      "Ġanish": 7934,
      "pab": 7935,
      "paga": 7936,
      "padara": 7937,
      "patita": 7938,
      "patrara": 7939,
      "padare": 7940,
      "pauranika": 7941,
      "Ġkah": 7942,
      "Ġkacha": 7943,
      "Ġkahe": 7944,
      "Ġkathare": 7945,
      "Ġkalpa": 7946,
      "Ġkapada": 7947,
      "Ġkaphe": 7948,
      "Ġkahna": 7949,
      "Ġkaribu": 7950,
      "Ġpraba": 7951,
      "Ġprayu": 7952,
      "Ġpradatta": 7953,
      "Ġprachalana": 7954,
      "Ġmag": 7955,
      "Ġmaya": 7956,
      "Ġmate": 7957,
      "Ġmamala": 7958,
      "Ġrabi": 7959,
      "Ġragi": 7960,
      "Ġrachanare": 7961,
      "teksa": 7962,
      "tembara": 7963,
      "tuda": 7964,
      "Ġbil": 7965,
      "Ġbir": 7966,
      "Ġbich": 7967,
      "Ġbikrrita": 7968,
      "Ġbichalita": 7969,
      "Ġgant": 7970,
      "rritira": 7971,
      "Ġlepa": 7972,
      "Ġlevel": 7973,
      "manaru": 7974,
      "manora": 7975,
      "Ġola": 7976,
      "Ġori": 7977,
      "Ġopi": 7978,
      "Ġokila": 7979,
      "Ġekada": 7980,
      "ruti": 7981,
      "rupi": 7982,
      "emare": 7983,
      "Ġsamhita": 7984,
      "Ġsamiti": 7985,
      "Ġsampra": 7986,
      "Ġsamgha": 7987,
      "Ġsampada": 7988,
      "Ġsamyojana": 7989,
      "Ġsambidhana": 7990,
      "Ġsamsada": 7991,
      "Ġsamasamayika": 7992,
      "Ġkee": 7993,
      "Ġket": 7994,
      "Ġkeee": 7995,
      "cho": 7996,
      "chchita": 7997,
      "chchota": 7998,
      "Ġtah": 7999,
      "Ġtada": 8000,
      "Ġintra": 8001,
      "Ġinto": 8002,
      "rela": 8003,
      "Ġpaithae": 8004,
      "Ġpaibara": 8005,
      "jaga": 8006,
      "japuri": 8007,
      "Ġnianti": 8008,
      "Ġniharika": 8009,
      "sych": 8010,
      "thro": 8011,
      "Ġdekhana": 8012,
      "Ġdeula": 8013,
      "chai": 8014,
      "chau": 8015,
      "chakra": 8016,
      "chakrara": 8017,
      "bibhu": 8018,
      "binara": 8019,
      "Ġbakra": 8020,
      "Ġbaktab": 8021,
      "oin": 8022,
      "belaku": 8023,
      "Ġyabaksharajana": 8024,
      "bhada": 8025,
      "dhaka": 8026,
      "Ġhoiyaichi": 8027,
      "Ġhoiparu": 8028,
      "Ġhoisari": 8029,
      "urasika": 8030,
      "Ġkir": 8031,
      "Ġparina": 8032,
      "Ġparidarshana": 8033,
      "Ġparichalita": 8034,
      "Ġbhayare": 8035,
      "ashtre": 8036,
      "Ġchaha": 8037,
      "Ġchaya": 8038,
      "Ġchalani": 8039,
      "Ġsei": 8040,
      "Ġseta": 8041,
      "Ġsetiki": 8042,
      "Ġsharana": 8043,
      "gum": 8044,
      "shira": 8045,
      "shighra": 8046,
      "asia": 8047,
      "asichi": 8048,
      "asiddhi": 8049,
      "Ġkantara": 8050,
      "Ġkantenta": 8051,
      "Ġkantras": 8052,
      "kira": 8053,
      "kishora": 8054,
      "Ġmutr": 8055,
      "Ġsamajara": 8056,
      "Ġsamayika": 8057,
      "Ġsamapti": 8058,
      "Ġbard": 8059,
      "Ġdibasa": 8060,
      "Ġlait": 8061,
      "parichaya": 8062,
      "miya": 8063,
      "mida": 8064,
      "mitar": 8065,
      "Ġgad": 8066,
      "jil": 8067,
      "jina": 8068,
      "jini": 8069,
      "jiyama": 8070,
      "Ġbhabuchanti": 8071,
      "Ġtis": 8072,
      "Ġtira": 8073,
      "Ġtithire": 8074,
      "Ġchiri": 8075,
      "Ġchilika": 8076,
      "Ġrod": 8077,
      "Ġropana": 8078,
      "Ġrochaka": 8079,
      "Ġty": 8080,
      "Ġtana": 8081,
      "Ġdalaku": 8082,
      "Ġbyabaharare": 8083,
      "hetu": 8084,
      "Ġjaiba": 8085,
      "Ġjamata": 8086,
      "Ġhuantu": 8087,
      "Ġpunara": 8088,
      "Ġpujare": 8089,
      "Ġstr": 8090,
      "Ġshabdabali": 8091,
      "Ġkua": 8092,
      "Ġkudare": 8093,
      "Ġkumari": 8094,
      "Ġupasthapita": 8095,
      "Ġehatharu": 8096,
      "Ġprasiddhi": 8097,
      "muha": 8098,
      "Ġnamala": 8099,
      "Ġnamaguda": 8100,
      "Ġnirbhaya": 8101,
      "Ġnirmala": 8102,
      "Ġmis": 8103,
      "Ġsumana": 8104,
      "Ġsubarnna": 8105,
      "Ġsutraru": 8106,
      "Ġsugandha": 8107,
      "Ġsugand": 8108,
      "bhijana": 8109,
      "bhittika": 8110,
      "karanti": 8111,
      "karimane": 8112,
      "tren": 8113,
      "Ġjibika": 8114,
      "baraka": 8115,
      "Ġlopita": 8116,
      "Ġhast": 8117,
      "Ġhaus": 8118,
      "Ġhasya": 8119,
      "harddya": 8120,
      "Ġrahiyae": 8121,
      "Ġrahithanti": 8122,
      "Ġsrrishtikari": 8123,
      "bujhiba": 8124,
      "Ġbyabaharayogya": 8125,
      "Ġshata": 8126,
      "Ġshatakada": 8127,
      "Ġpratid": 8128,
      "Ġpratiti": 8129,
      "Ġnchaku": 8130,
      "Ġnchalana": 8131,
      "Ġsahakare": 8132,
      "Ġsahayoga": 8133,
      "Ġresi": 8134,
      "Ġreda": 8135,
      "Ġretiku": 8136,
      "yometrika": 8137,
      "Ġamphi": 8138,
      "ind": 8139,
      "prakrriti": 8140,
      "prajati": 8141,
      "Ġngesa": 8142,
      "erika": 8143,
      "Ġpurushottama": 8144,
      "ehachada": 8145,
      "tyaga": 8146,
      "Ġkhaanti": 8147,
      "Ġ33": 8148,
      "Ġnimai": 8149,
      "noglo": 8150,
      "Ġadina": 8151,
      "Ġlokagita": 8152,
      "Ġgul": 8153,
      "imajja": 8154,
      "mesh": 8155,
      "meksi": 8156,
      "Ġsabudina": 8157,
      "banahi": 8158,
      "Ġbul": 8159,
      "Ġbuddhi": 8160,
      "Ġabantana": 8161,
      "Ġpik": 8162,
      "graphi": 8163,
      "purana": 8164,
      "Ġdeithanti": 8165,
      "Ġhebapare": 8166,
      "Ġ43": 8167,
      "Ġbishara": 8168,
      "Ġdekhae": 8169,
      "Ġdekhayai": 8170,
      "Ġdekhagale": 8171,
      "Ġasbastika": 8172,
      "enia": 8173,
      "Ġbeta": 8174,
      "Ġbegare": 8175,
      "Ġgrahara": 8176,
      "Ġgraphik": 8177,
      "yanatha": 8178,
      "Ġbhida": 8179,
      "Ġbhija": 8180,
      "Ġparatharu": 8181,
      "Ġkahibara": 8182,
      "Ġrajapatha": 8183,
      "Ġsil": 8184,
      "Ġanyamane": 8185,
      "Ġarpana": 8186,
      "Ġarjana": 8187,
      "Ġardra": 8188,
      "Ġarray": 8189,
      "Ġarbuda": 8190,
      "yibe": 8191,
      "Ġkanikamane": 8192,
      "Ġkodara": 8193,
      "Ġkomala": 8194,
      "Ġkolesh": 8195,
      "Ġhile": 8196,
      "Ġdekhili": 8197,
      "Ġchalaka": 8198,
      "Ġchalauthile": 8199,
      "Ġkebela": 8200,
      "Ġkamre": 8201,
      "Ġtula": 8202,
      "Ġtulasi": 8203,
      "mola": 8204,
      "Ġabagata": 8205,
      "Ġabhisha": 8206,
      "Ġabhiyana": 8207,
      "Ġjananti": 8208,
      "Ġlekhaachi": 8209,
      "peya": 8210,
      "Ġmahadeshare": 8211,
      "Ġmesi": 8212,
      "Ġmega": 8213,
      "Ġkanthashilpimana": 8214,
      "Ġmasika": 8215,
      "Ġantanali": 8216,
      "Ġgoru": 8217,
      "Ġheuthibara": 8218,
      "Ġkalakrritira": 8219,
      "Ġbahumukhi": 8220,
      "triksa": 8221,
      "Ġharaithile": 8222,
      "byakarana": 8223,
      "Ġyugara": 8224,
      "Ġasishtanta": 8225,
      "Ġkaranaku": 8226,
      "Ġkalejare": 8227,
      "Ġphal": 8228,
      "Ġphalara": 8229,
      "Ġphakira": 8230,
      "badaku": 8231,
      "Ġsohini": 8232,
      "Ġtaramane": 8233,
      "Ġneithanti": 8234,
      "Ġudaharanaku": 8235,
      "gori": 8236,
      "gopala": 8237,
      "Ġshukha": 8238,
      "bohaid": 8239,
      "Ġpoka": 8240,
      "Ġchora": 8241,
      "sambhaba": 8242,
      "samgita": 8243,
      "Ġrili": 8244,
      "Ġrilij": 8245,
      "Ġmarkara": 8246,
      "Ġmarks": 8247,
      "Ġatirikta": 8248,
      "Ġliver": 8249,
      "Ġlibhai": 8250,
      "Ġ',": 8251,
      "Ġthia": 8252,
      "Ġjalakhia": 8253,
      "nee": 8254,
      "Ġbaithaka": 8255,
      "Ġ85": 8256,
      "Ġkantayukta": 8257,
      "Ġchena": 8258,
      "Ġ75": 8259,
      "Ġ77": 8260,
      "Ġngiba": 8261,
      "Ġngiyae": 8262,
      "Ġrakhile": 8263,
      "Ġdarshaniya": 8264,
      "Ġnchatirtha": 8265,
      "Ġthaka": 8266,
      "Ġudyogi": 8267,
      "Ġanaphaila": 8268,
      "panire": 8269,
      "panipaga": 8270,
      "Ġsamskrrita": 8271,
      "Ġkheluthile": 8272,
      "ashunya": 8273,
      "Ġdharare": 8274,
      "Ġdharmare": 8275,
      "Ġtharmo": 8276,
      "Ġchehera": 8277,
      "Ġcheeh": 8278,
      "Ġcharchcha": 8279,
      "Ġcharjita": 8280,
      "Ġbhojapuri": 8281,
      "Ġastrashastra": 8282,
      "pora": 8283,
      "pota": 8284,
      "polara": 8285,
      "tyendra": 8286,
      "ratatt": 8287,
      "Ġnishkarsa": 8288,
      "Ġmilile": 8289,
      "chua": 8290,
      "Ġsehipari": 8291,
      "Ġpaniyara": 8292,
      "prr": 8293,
      "prima": 8294,
      "Ġbhabanatmaka": 8295,
      "Ġchuda": 8296,
      "Ġchumbaka": 8297,
      "Ġprabhabaku": 8298,
      "Ġjaniheba": 8299,
      "Ġchitrakara": 8300,
      "Ġnilamadhaba": 8301,
      "Ġnilakanthesh": 8302,
      "Ġ95": 8303,
      "Ġaksharaku": 8304,
      "Ġnanadi": 8305,
      "charda": 8306,
      "Ġshricharana": 8307,
      "2018": 8308,
      "Ġkraya": 8309,
      "Ġyogayogara": 8310,
      "itaru": 8311,
      "Ġbisheshatah": 8312,
      "Ġprakrritare": 8313,
      "dora": 8314,
      "Ġlagichi": 8315,
      "Ġlagithae": 8316,
      "Ġinaph": 8317,
      "suchana": 8318,
      "Ġkhunti": 8319,
      "Ġarthabya": 8320,
      "Ġantijena": 8321,
      "Ġadrrita": 8322,
      "dhuthile": 8323,
      "Ġsundari": 8324,
      "Ġimrajiku": 8325,
      "bhokta": 8326,
      "Ġpadarthaku": 8327,
      "Ġdrabyara": 8328,
      "Ġduradar": 8329,
      "ktimana": 8330,
      "Ġalar": 8331,
      "Ġalim": 8332,
      "Ġalli": 8333,
      "Ġtrutiku": 8334,
      "hasiba": 8335,
      "Ġtapamatraku": 8336,
      "Ġepariki": 8337,
      "Ġkatakare": 8338,
      "upadi": 8339,
      "upasthapita": 8340,
      "upabhokta": 8341,
      "Ġkshudratama": 8342,
      "Ġanichi": 8343,
      "Ġsadba": 8344,
      "Ġghatanaku": 8345,
      "Ġpharmula": 8346,
      "mahaprabhu": 8347,
      "Ġkahaniku": 8348,
      "Ġgachaku": 8349,
      "Ġlakshanara": 8350,
      "Ġbrahmi": 8351,
      "Ġ2011": 8352,
      "Ġetaga": 8353,
      "Ġkinichi": 8354,
      "Ġparyyayare": 8355,
      "Ġmasaku": 8356,
      "pratishtha": 8357,
      "anubikshana": 8358,
      "Ġprrithibiku": 8359,
      "Ġitaliya": 8360,
      "nthu": 8361,
      "Ġkyat": 8362,
      "Ġkyapita": 8363,
      "Ġkyapas": 8364,
      "Ġpindh": 8365,
      "Ġsanni": 8366,
      "Ġaparesana": 8367,
      "bhumire": 8368,
      "Ġbandhuka": 8369,
      "Ġbandhumana": 8370,
      "kantakta": 8371,
      "yanusare": 8372,
      "Ġkampanira": 8373,
      "balta": 8374,
      "Ġpholdara": 8375,
      "Ġbayasaru": 8376,
      "Ġadhyaya": 8377,
      "Ġtrai": 8378,
      "Ġtrak": 8379,
      "Ġtrampa": 8380,
      "saras": 8381,
      "sarba": 8382,
      "Ġkharch": 8383,
      "Ġtrrina": 8384,
      "Ġkriyare": 8385,
      "Ġamiji": 8386,
      "Ġpatraku": 8387,
      "Ġpathyakrama": 8388,
      "Ġphilmare": 8389,
      "pheji": 8390,
      "Ġsantha": 8391,
      "Ġmanehue": 8392,
      "Ġkranika": 8393,
      "artiphisiala": 8394,
      "Ġniayae": 8395,
      "esiara": 8396,
      "Ġchakrabyu": 8397,
      "Ġabhimu": 8398,
      "Ġkshatigrasta": 8399,
      "Ġkshatikaraka": 8400,
      "shrijagannatha": 8401,
      "Ġsaurina": 8402,
      "ketejana": 8403,
      "karmachari": 8404,
      "Ġjua": 8405,
      "Ġbhabishyataku": 8406,
      "Ġupendra": 8407,
      "Ġresul": 8408,
      "Ġmilanti": 8409,
      "Ġnirddharanaku": 8410,
      "Ġganamadhya": 8411,
      "Ġganamadhyama": 8412,
      "Ġjamidara": 8413,
      "jararu": 8414,
      "Ġjalashaya": 8415,
      "Ġantama": 8416,
      "Ġbriten": 8417,
      "Ġ1998": 8418,
      "Ġ1999": 8419,
      "utpada": 8420,
      "pathaku": 8421,
      "Ġkantrol": 8422,
      "Ġnarendra": 8423,
      "Ġaparadha": 8424,
      "pataria": 8425,
      "Ġsuparisa": 8426,
      "Ġnkhalare": 8427,
      "Ġdainika": 8428,
      "Ġagrahi": 8429,
      "Ġatosomala": 8430,
      "Ġbhairas": 8431,
      "Ġparasparara": 8432,
      "Ġpetara": 8433,
      "Ġnatakara": 8434,
      "Ġgrik": 8435,
      "Ġgrina": 8436,
      "Ġsthitire": 8437,
      "Ġsthirata": 8438,
      "pilamane": 8439,
      "Ġjalabayure": 8440,
      "Ġsindrom": 8441,
      "Ġpurire": 8442,
      "Ġatyabashyaka": 8443,
      "Ġpachapa": 8444,
      "Ġjyotira": 8445,
      "nniare": 8446,
      "Ġbharantu": 8447,
      "Ġispata": 8448,
      "Ġjebra": 8449,
      "Ġdirghasthayi": 8450,
      "2009": 8451,
      "phuta": 8452,
      "maisina": 8453,
      "Ġbalidana": 8454,
      "Ġpaddhatire": 8455,
      "kshetrare": 8456,
      "Ġnums": 8457,
      "Ġnumbers": 8458,
      "Ġsauramandalara": 8459,
      "Ġnaitro": 8460,
      "Ġkadali": 8461,
      "dharanare": 8462,
      "Ġtalachera": 8463,
      "Ġakashabanira": 8464,
      "yashtiya": 8465,
      "sthanare": 8466,
      "sthanara": 8467,
      "Ġheithiba": 8468,
      "Ġlagei": 8469,
      "Ġandhakarare": 8470,
      "Ġalochanaku": 8471,
      "iraeda": 8472,
      "uttarah": 8473,
      "Ġathaba": 8474,
      "Ġbajaiba": 8475,
      "Ġkameiba": 8476,
      "Ġpheriba": 8477,
      "hoichi": 8478,
      "Ġkashtasa": 8479,
      "Ġaluare": 8480,
      "shaktira": 8481,
      "Ġhoinathiba": 8482,
      "Ġkramaku": 8483,
      "Ġbhitamin": 8484,
      "romantika": 8485,
      "Ġasthyasebare": 8486,
      "pleksa": 8487,
      "Ġpnaku": 8488,
      "Ġmajhi": 8489,
      "Ġmajhire": 8490,
      "Ġyantrika": 8491,
      "Ġminitre": 8492,
      "Ġanumodana": 8493,
      "Ġ1984": 8494,
      "prashna": 8495,
      "pashumana": 8496,
      "Ġsurgery": 8497,
      "Ġbibrrittire": 8498,
      "Ġbibrrittiti": 8499,
      "Ġbhattacharyya": 8500,
      "Ġshtandar": 8501,
      "Ġ2023": 8502,
      "myaleria": 8503,
      "Ġsyndro": 8504,
      "Ġplashtikara": 8505,
      "shtina": 8506,
      "Ġsambalapuri": 8507,
      "Ġmeksikan": 8508,
      "Ġaphrikiya": 8509,
      "Ġlaibreri": 8510,
      "kandari": 8511,
      "Ġpakshapatita": 8512,
      "Ġmerudanda": 8513,
      "kshudra": 8514,
      "Ġhathata": 8515,
      "bhabishyata": 8516,
      "atyabashyaka": 8517,
      "somal": 8518,
      "Ġbrrittira": 8519,
      "Ġechaai": 8520,
      "Ġrashtrara": 8521,
      "Ġparityaga": 8522,
      "Ġgrrihapalita": 8523,
      "python": 8524,
      "Ġkarttrri": 8525,
      "Ġepisoda": 8526,
      "Ġtibhire": 8527,
      "Ġphyaktara": 8528,
      "Ġashramare": 8529,
      "Ġbayumandalare": 8530,
      "Ġskripta": 8531,
      "sundara": 8532,
      "Ġbachaspati": 8533,
      "Ġpaksharu": 8534,
      "alokara": 8535,
      "alochana": 8536,
      "Ġindian": 8537,
      "Ġparibeshita": 8538,
      "Ġtanasena": 8539,
      "Ġpushtisara": 8540,
      "badhinata": 8541,
      "Ġnketaku": 8542,
      "Ġhrritapi": 8543,
      "sahit": 8544,
      "Ġkalarapataria": 8545,
      "Ġbilamba": 8546,
      "Ġtapasya": 8547,
      "Ġdekhuthila": 8548,
      "Ġrobt": 8549,
      "Ġtyumara": 8550,
      "Ġmidiare": 8551,
      "Ġmahamarira": 8552,
      "Ġnjelasare": 8553,
      "Ġmarubhumire": 8554,
      "Ġbajeta": 8555,
      "Ġkagajapatra": 8556,
      "bhautika": 8557,
      "Ġmetabo": 8558,
      "Ġhemoglobina": 8559,
      "Ġbijayi": 8560,
      "Ġgandhiji": 8561,
      "Ġporta": 8562,
      "Ġdashandhi": 8563,
      "Ġsantulana": 8564,
      "Ġsantulita": 8565,
      "Ġskelare": 8566,
      "Ġprrithaka": 8567,
      "Ġabhayar": 8568,
      "Ġkarideithila": 8569,
      "Ġintaranet": 8570,
      "Ġrojagara": 8571,
      "Ġupatyakare": 8572,
      "intaranet": 8573,
      "Ġgujarati": 8574,
      "Ġbamshanukramika": 8575,
      "saikotika": 8576,
      "Ġplateleta": 8577,
      "hajiyaithiba": 8578,
      "Ġkoila": 8579,
      "Ġkhiayae": 8580,
      "Ġayusha": 8581,
      "Ġhttps": 8582,
      "Ġdbitiya": 8583,
      "Ġsamarpana": 8584,
      "toriala": 8585,
      "Ġakshamata": 8586,
      "Ġhyashatya": 8587,
      "Ġhepataitis": 8588,
      "Ġpacharantu": 8589,
      "gabeshana": 8590,
      "Ġparaphrem": 8591,
      "Ġsarobara": 8592,
      "Ġpharenahaitaku": 8593,
      "Ġbajrapata": 8594,
      "Ġjanapadichi": 8595,
      "Ġcalculate": 8596,
      "example": 8597,
      "kashek": 8598,
      "anuradha": 8599,
      "Ġsusajjita": 8600,
      "Ġsahanashilata": 8601,
      "Ġjharaka": 8602,
      "Ġhasyarasa": 8603,
      "paramparika": 8604,
      "Ġpherantu": 8605,
      "Ġaisakrima": 8606,
      "Ġilektroniksa": 8607,
      "Ġghurnnira": 8608,
      "aushadha": 8609,
      "yyanushthana": 8610,
      "immyuna": 8611,
      "Ġkemotherapi": 8612,
      "Ġsmith": 8613,
      "Ġpendu": 8614,
      "Ġapariharyya": 8615,
      "Ġcount": 8616,
      "Ġpaleshtain": 8617,
      "Ġjyamitika": 8618,
      "Ġbhabuthili": 8619,
      "Ġromantika": 8620,
      "Ġaramadayaka": 8621,
      "Ġautosomal": 8622,
      "Ġdrrishtikonaru": 8623,
      "Ġvein": 8624,
      "abhinayare": 8625,
      "Ġmilimishi": 8626,
      "kkien": 8627,
      "Ġkartiko": 8628,
      "Ġsarthaka": 8629,
      "Ġnrrisimha": 8630,
      "Ġmalesia": 8631,
      "Ġmuduli": 8632,
      "Ġtikshna": 8633,
      "Ġshiksharth": 8634,
      "Ġneheru": 8635,
      "Ġabrritti": 8636,
      "Ġutsarga": 8637,
      "Ġbaishnaba": 8638,
      "Ġmaitokandria": 8639,
      "bayaska": 8640,
      "kamarsa": 8641,
      "Ġupanama": 8642,
      "Ġuparokta": 8643,
      "Ġpayathan": 8644,
      "Ġnacheta": 8645,
      "Ġanishchita": 8646,
      "Ġprayujya": 8647,
      "Ġkantraseptibha": 8648,
      "Ġsugandhita": 8649,
      "harddyapurnna": 8650,
      "Ġretikulo": 8651,
      "Ġngesakara": 8652,
      "Ġkhuntia": 8653,
      "Ġresult": 8654,
      "Ġkashtasadhya": 8655,
      "Ġshtandarda": 8656,
      "Ġsyndrome": 8657,
      "54": 8658,
      "69": 8659,
      "70": 8660,
      "71": 8661,
      "ag": 8662,
      "ayo": 8663,
      "ato": 8664,
      "apha": 8665,
      "achara": 8666,
      "agaru": 8667,
      "achanaka": 8668,
      "blaka": 8669,
      "brajila": 8670,
      "ca": 8671,
      "cles": 8672,
      "dr": 8673,
      "drrishti": 8674,
      "danara": 8675,
      "druta": 8676,
      "eb": 8677,
      "gli": 8678,
      "garare": 8679,
      "gariya": 8680,
      "hanta": 8681,
      "heri": 8682,
      "html": 8683,
      "ir": 8684,
      "iri": 8685,
      "idara": 8686,
      "jjare": 8687,
      "janita": 8688,
      "ky": 8689,
      "kart": 8690,
      "khab": 8691,
      "kehi": 8692,
      "kash": 8693,
      "kena": 8694,
      "klash": 8695,
      "krrishta": 8696,
      "ln": 8697,
      "mb": 8698,
      "mta": 8699,
      "mus": 8700,
      "mur": 8701,
      "manta": 8702,
      "masha": 8703,
      "ok": 8704,
      "ous": 8705,
      "obi": 8706,
      "oyi": 8707,
      "oshara": 8708,
      "pna": 8709,
      "push": 8710,
      "pog": 8711,
      "ppy": 8712,
      "psych": 8713,
      "rst": 8714,
      "rima": 8715,
      "ska": 8716,
      "sna": 8717,
      "spa": 8718,
      "sanara": 8719,
      "spashta": 8720,
      "sensa": 8721,
      "spid": 8722,
      "tant": 8723,
      "timana": 8724,
      "ui": 8725,
      "uni": 8726,
      "ukta": 8727,
      "uki": 8728,
      "udara": 8729,
      "Ġarta": 8730,
      "Ġqu": 8731,
      "Ġushu": 8732,
      "anna": 8733,
      "ananta": 8734,
      "stro": 8735,
      "hamana": 8736,
      "Ġkhi": 8737,
      "Ġkre": 8738,
      "Ġkandh": 8739,
      "endara": 8740,
      "antarana": 8741,
      "Ġsr": 8742,
      "Ġsle": 8743,
      "Ġskara": 8744,
      "Ġsaru": 8745,
      "Ġsandi": 8746,
      "Ġskana": 8747,
      "Ġsbaru": 8748,
      "Ġsrrishta": 8749,
      "asantu": 8750,
      "asura": 8751,
      "batara": 8752,
      "batya": 8753,
      "badu": 8754,
      "bajara": 8755,
      "balesh": 8756,
      "ratha": 8757,
      "ragi": 8758,
      "raksha": 8759,
      "rahas": 8760,
      "rajanaitika": 8761,
      "tale": 8762,
      "yabata": 8763,
      "Ġpanthi": 8764,
      "Ġplam": 8765,
      "Ġpantha": 8766,
      "katika": 8767,
      "arambha": 8768,
      "Ġner": 8769,
      "Ġnasa": 8770,
      "erare": 8771,
      "tish": 8772,
      "ting": 8773,
      "tiksa": 8774,
      "tikrama": 8775,
      "analaka": 8776,
      "anaupacharika": 8777,
      "Ġbant": 8778,
      "Ġbash": 8779,
      "Ġbrrishti": 8780,
      "Ġbartti": 8781,
      "Ġbone": 8782,
      "shar": 8783,
      "shan": 8784,
      "shra": 8785,
      "shimana": 8786,
      "shtim": 8787,
      "mau": 8788,
      "mato": 8789,
      "mahasa": 8790,
      "malij": 8791,
      "lada": 8792,
      "late": 8793,
      "onar": 8794,
      "Ġale": 8795,
      "Ġaku": 8796,
      "Ġapt": 8797,
      "Ġatara": 8798,
      "Ġadana": 8799,
      "Ġade": 8800,
      "Ġaharana": 8801,
      "Ġatika": 8802,
      "Ġacharana": 8803,
      "Ġakrritira": 8804,
      "dit": 8805,
      "dipi": 8806,
      "dilli": 8807,
      "dienae": 8808,
      "Ġed": 8809,
      "Ġech": 8810,
      "Ġetara": 8811,
      "Ġeshana": 8812,
      "Ġejensi": 8813,
      "Ġeyabata": 8814,
      "riyare": 8815,
      "Ġsadara": 8816,
      "Ġsapim": 8817,
      "Ġsabishesha": 8818,
      "Ġsabyasta": 8819,
      "lec": 8820,
      "lepsi": 8821,
      "kuma": 8822,
      "kuhantu": 8823,
      "epi": 8824,
      "epin": 8825,
      "nadi": 8826,
      "nathae": 8827,
      "Ġcar": 8828,
      "Ġuma": 8829,
      "Ġuthe": 8830,
      "Ġhya": 8831,
      "Ġhare": 8832,
      "Ġharana": 8833,
      "Ġhandi": 8834,
      "Ġhtml": 8835,
      "Ġili": 8836,
      "Ġisa": 8837,
      "Ġithiba": 8838,
      "Ġiyiba": 8839,
      "Ġikaru": 8840,
      "Ġdaru": 8841,
      "Ġdho": 8842,
      "Ġdrama": 8843,
      "Ġkardara": 8844,
      "Ġbamana": 8845,
      "Ġbadana": 8846,
      "Ġbalare": 8847,
      "Ġbalu": 8848,
      "Ġpab": 8849,
      "Ġpate": 8850,
      "Ġpauchi": 8851,
      "Ġpaun": 8852,
      "Ġpalli": 8853,
      "Ġpaunda": 8854,
      "Ġpahandi": 8855,
      "Ġnachi": 8856,
      "Ġnatu": 8857,
      "Ġnakha": 8858,
      "Ġnatya": 8859,
      "Ġnabad": 8860,
      "Ġnapanare": 8861,
      "Ġnajira": 8862,
      "Ġrka": 8863,
      "Ġrima": 8864,
      "Ġrashi": 8865,
      "sau": 8866,
      "saphala": 8867,
      "sakala": 8868,
      "sakalu": 8869,
      "Ġmare": 8870,
      "chitta": 8871,
      "gai": 8872,
      "gayaka": 8873,
      "galara": 8874,
      "gachara": 8875,
      "gajaku": 8876,
      "tions": 8877,
      "shada": 8878,
      "Ġanim": 8879,
      "Ġanithile": 8880,
      "pal": 8881,
      "pakha": 8882,
      "palana": 8883,
      "pakshare": 8884,
      "Ġkapa": 8885,
      "Ġkahari": 8886,
      "Ġkaun": 8887,
      "Ġkausha": 8888,
      "Ġkapha": 8889,
      "Ġkabaka": 8890,
      "Ġkarine": 8891,
      "Ġkarichu": 8892,
      "Ġkarithibaru": 8893,
      "Ġkariparu": 8894,
      "Ġkaridela": 8895,
      "Ġkarigari": 8896,
      "Ġkarithilu": 8897,
      "Ġkariasuchanti": 8898,
      "Ġprabana": 8899,
      "Ġprako": 8900,
      "Ġprache": 8901,
      "Ġmam": 8902,
      "Ġmatara": 8903,
      "Ġmalik": 8904,
      "Ġmagi": 8905,
      "Ġmathare": 8906,
      "Ġmagana": 8907,
      "Ġmausa": 8908,
      "Ġmatia": 8909,
      "Ġmausara": 8910,
      "Ġmayami": 8911,
      "Ġrah": 8912,
      "Ġrao": 8913,
      "Ġrakshana": 8914,
      "Ġraphi": 8915,
      "Ġrabin": 8916,
      "Ġrabanara": 8917,
      "tejita": 8918,
      "Ġjant": 8919,
      "Ġjyometrika": 8920,
      "Ġbinim": 8921,
      "Ġbikas": 8922,
      "Ġbisthapana": 8923,
      "Ġbideshi": 8924,
      "Ġbitho": 8925,
      "Ġbikhyata": 8926,
      "thala": 8927,
      "thakura": 8928,
      "Ġghanti": 8929,
      "Ġgran": 8930,
      "Ġglasa": 8931,
      "mandirara": 8932,
      "Ġom": 8933,
      "Ġekatha": 8934,
      "Ġekatrita": 8935,
      "rupe": 8936,
      "Ġsamara": 8937,
      "Ġsamsa": 8938,
      "Ġsamrri": 8939,
      "Ġsamartha": 8940,
      "Ġsamketa": 8941,
      "Ġsamyojita": 8942,
      "Ġsampattira": 8943,
      "ttare": 8944,
      "habish": 8945,
      "chya": 8946,
      "charu": 8947,
      "chand": 8948,
      "Ġtabala": 8949,
      "aniku": 8950,
[...]
