{
  "version": "1.0",
  "truncation": null,
  "padding": null,
  "added_tokens": [
    {
      "id": 0,
      "content": "<s>",
      "single_word": false,
      "lstrip": false,
      "rstrip": false,
      "normalized": false,
      "special": true
    },
    {
      "id": 1,
      "content": "<pad>",
      "single_word": false,
      "lstrip": false,
      "rstrip": false,
      "normalized": false,
      "special": true
    },
    {
      "id": 2,
      "content": "</s>",
      "single_word": false,
      "lstrip": false,
      "rstrip": false,
      "normalized": false,
      "special": true
    },
    {
      "id": 3,
      "content": "<unk>",
      "single_word": false,
      "lstrip": false,
      "rstrip": false,
      "normalized": false,
      "special": true
    },
    {
      "id": 4,
      "content": "<mask>",
      "single_word": false,
      "lstrip": false,
      "rstrip": false,
      "normalized": false,
      "special": true
    },
    {
      "id": 5,
      "content": "<|im_start|>",
      "single_word": false,
      "lstrip": false,
      "rstrip": false,
      "normalized": false,
      "special": true
    },
    {
      "id": 6,
      "content": "<|im_end|>",
      "single_word": false,
      "lstrip": false,
      "rstrip": false,
      "normalized": false,
      "special": true
    }
  ],
  "normalizer": null,
  "pre_tokenizer": {
    "type": "ByteLevel",
    "add_prefix_space": false,
    "trim_offsets": true,
    "use_regex": true
  },
  "post_processor": {
    "type": "ByteLevel",
    "add_prefix_space": true,
    "trim_offsets": false,
    "use_regex": true
  },
  "decoder": {
    "type": "ByteLevel",
    "add_prefix_space": true,
    "trim_offsets": true,
    "use_regex": true
  },
  "model": {
    "type": "BPE",
    "dropout": null,
    "unk_token": null,
    "continuing_subword_prefix": null,
    "end_of_word_suffix": null,
    "fuse_unk": false,
    "byte_fallback": false,
    "ignore_merges": false,
    "vocab": {
      "<s>": 0,
      "<pad>": 1,
      "</s>": 2,
      "<unk>": 3,
      "<mask>": 4,
      "<|im_start|>": 5,
      "<|im_end|>": 6,
      "!": 7,
      "\"": 8,
      "#": 9,
      "$": 10,
      "%": 11,
      "&": 12,
      "'": 13,
      "(": 14,
      ")": 15,
      "*": 16,
      "+": 17,
      ",": 18,
      "-": 19,
      ".": 20,
      "/": 21,
      "0": 22,
      "1": 23,
      "2": 24,
      "3": 25,
      "4": 26,
      "5": 27,
      "6": 28,
      "7": 29,
      "8": 30,
      "9": 31,
      ":": 32,
      ";": 33,
      "<": 34,
      "=": 35,
      ">": 36,
      "?": 37,
      "@": 38,
      "A": 39,
      "B": 40,
      "C": 41,
      "D": 42,
      "E": 43,
      "F": 44,
      "G": 45,
      "H": 46,
      "I": 47,
      "J": 48,
      "K": 49,
      "L": 50,
      "M": 51,
      "N": 52,
      "O": 53,
      "P": 54,
      "Q": 55,
      "R": 56,
      "S": 57,
      "T": 58,
      "U": 59,
      "V": 60,
      "W": 61,
      "X": 62,
      "Y": 63,
      "Z": 64,
      "[": 65,
      "\\": 66,
      "]": 67,
      "^": 68,
      "_": 69,
      "`": 70,
      "a": 71,
      "b": 72,
      "c": 73,
      "d": 74,
      "e": 75,
      "f": 76,
      "g": 77,
      "h": 78,
      "i": 79,
      "j": 80,
      "k": 81,
      "l": 82,
      "m": 83,
      "n": 84,
      "o": 85,
      "p": 86,
      "q": 87,
      "r": 88,
      "s": 89,
      "t": 90,
      "u": 91,
      "v": 92,
      "w": 93,
      "x": 94,
      "y": 95,
      "z": 96,
      "{": 97,
      "|": 98,
      "}": 99,
      "~": 100,
      "¡": 101,
      "¢": 102,
      "£": 103,
      "¤": 104,
      "¥": 105,
      "¦": 106,
      "§": 107,
      "¨": 108,
      "©": 109,
      "ª": 110,
      "«": 111,
      "¬": 112,
      "®": 113,
      "¯": 114,
      "°": 115,
      "±": 116,
      "²": 117,
      "³": 118,
      "´": 119,
      "µ": 120,
      "¶": 121,
      "·": 122,
      "¸": 123,
      "¹": 124,
      "º": 125,
      "»": 126,
      "¼": 127,
      "½": 128,
      "¾": 129,
      "¿": 130,
      "À": 131,
      "Á": 132,
      "Â": 133,
      "Ã": 134,
      "Ä": 135,
      "Å": 136,
      "Æ": 137,
      "Ç": 138,
      "È": 139,
      "É": 140,
      "Ê": 141,
      "Ë": 142,
      "Ì": 143,
      "Í": 144,
      "Î": 145,
      "Ï": 146,
      "Ð": 147,
      "Ñ": 148,
      "Ò": 149,
      "Ó": 150,
      "Ô": 151,
      "Õ": 152,
      "Ö": 153,
      "×": 154,
      "Ø": 155,
      "Ù": 156,
      "Ú": 157,
      "Û": 158,
      "Ü": 159,
      "Ý": 160,
      "Þ": 161,
      "ß": 162,
      "à": 163,
      "á": 164,
      "â": 165,
      "ã": 166,
      "ä": 167,
      "å": 168,
      "æ": 169,
      "ç": 170,
      "è": 171,
      "é": 172,
      "ê": 173,
      "ë": 174,
      "ì": 175,
      "í": 176,
      "î": 177,
      "ï": 178,
      "ð": 179,
      "ñ": 180,
      "ò": 181,
      "ó": 182,
      "ô": 183,
      "õ": 184,
      "ö": 185,
      "÷": 186,
      "ø": 187,
      "ù": 188,
      "ú": 189,
      "û": 190,
      "ü": 191,
      "ý": 192,
      "þ": 193,
      "ÿ": 194,
      "Ā": 195,
      "ā": 196,
      "Ă": 197,
      "ă": 198,
      "Ą": 199,
      "ą": 200,
      "Ć": 201,
      "ć": 202,
      "Ĉ": 203,
      "ĉ": 204,
      "Ċ": 205,
      "ċ": 206,
      "Č": 207,
      "č": 208,
      "Ď": 209,
      "ď": 210,
      "Đ": 211,
      "đ": 212,
      "Ē": 213,
      "ē": 214,
      "Ĕ": 215,
      "ĕ": 216,
      "Ė": 217,
      "ė": 218,
      "Ę": 219,
      "ę": 220,
      "Ě": 221,
      "ě": 222,
      "Ĝ": 223,
      "ĝ": 224,
      "Ğ": 225,
      "ğ": 226,
      "Ġ": 227,
      "ġ": 228,
      "Ģ": 229,
      "ģ": 230,
      "Ĥ": 231,
      "ĥ": 232,
      "Ħ": 233,
      "ħ": 234,
      "Ĩ": 235,
      "ĩ": 236,
      "Ī": 237,
      "ī": 238,
      "Ĭ": 239,
      "ĭ": 240,
      "Į": 241,
      "į": 242,
      "İ": 243,
      "ı": 244,
      "Ĳ": 245,
      "ĳ": 246,
      "Ĵ": 247,
      "ĵ": 248,
      "Ķ": 249,
      "ķ": 250,
      "ĸ": 251,
      "Ĺ": 252,
      "ĺ": 253,
      "Ļ": 254,
      "ļ": 255,
      "Ľ": 256,
      "ľ": 257,
      "Ŀ": 258,
      "ŀ": 259,
      "Ł": 260,
      "ł": 261,
      "Ń": 262,
      "ar": 263,
      "ha": 264,
      "hi": 265,
      "an": 266,
      "ara": 267,
      "Ġs": 268,
      "ra": 269,
      "ka": 270,
      "ta": 271,
      "ya": 272,
      "Ġb": 273,
      "Ġp": 274,
      "ma": 275,
      "are": 276,
      "la": 277,
      "ti": 278,
      "ba": 279,
      "Ġk": 280,
      "na": 281,
      "Ġ|": 282,
      "ana": 283,
      "Ġa": 284,
      "da": 285,
      "thi": 286,
      "Ġe": 287,
      "ari": 288,
      "Ġsa": 289,
      "sha": 290,
      "ri": 291,
      "sh": 292,
      "le": 293,
      "tha": 294,
      "Ġd": 295,
      "Ġma": 296,
      "Ġj": 297,
      "hara": 298,
      "ni": 299,
      "Ġo": 300,
      "ga": 301,
      "cha": 302,
      "Ġm": 303,
      "Ġh": 304,
      "sa": 305,
      "chi": 306,
      "Ġpra": 307,
      "ku": 308,
      "Ġpa": 309,
      "li": 310,
      "re": 311,
      "Ġbi": 312,
      "pa": 313,
      "Ġka": 314,
      "¬¼": 315,
      "à¬¼": 316,
      "Ġkari": 317,
      "Ġra": 318,
      "te": 319,
      "Ġba": 320,
      "di": 321,
      "àŃ": 322,
      "àŃ±": 323,
      "thile": 324,
      "nka": 325,
      "Ġg": 326,
      "si": 327,
      "Ġse": 328,
      "dha": 329,
      "dh": 330,
      "rri": 331,
      "Ġni": 332,
      "ĠĊ": 333,
      "Ġ1": 334,
      "Ġ(": 335,
      "aru": 336,
      "Ġan": 337,
      "ja": 338,
      "Ġu": 339,
      "ch": 340,
      "kara": 341,
      "bha": 342,
      "Ġsam": 343,
      "Ġta": 344,
      "th": 345,
      "Ġbha": 346,
      "Ġna": 347,
      "tra": 348,
      "oi": 349,
      "bi": 350,
      "hu": 351,
      "mi": 352,
      "Ġhoi": 353,
      "nd": 354,
      "âĢ": 355,
      "ur": 356,
      "mana": 357,
      "Ġde": 358,
      "Ġeka": 359,
      "Ġy": 360,
      "Ġ2": 361,
      "Ġehi": 362,
      "ro": 363,
      "ani": 364,
      "thila": 365,
      "bara": 366,
      "tara": 367,
      "bam": 368,
      "dhi": 369,
      "Ġcha": 370,
      "Ġebam": 371,
      "shi": 372,
      "lo": 373,
      "Ġda": 374,
      "Ġi": 375,
      "Ġmadh": 376,
      "Ġhe": 377,
      "ane": 378,
      "Ġkarithile": 379,
      "be": 380,
      "Ġdi": 381,
      "bhi": 382,
      "de": 383,
      "Ġn": 384,
      "ura": 385,
      "Ġ19": 386,
      "thiba": 387,
      "he": 388,
      "kha": 389,
      "Ġja": 390,
      "Ġkar": 391,
      "Ġya": 392,
      "ki": 393,
      "ji": 394,
      "âĢĮ": 395,
      "Ġeha": 396,
      "yare": 397,
      "hare": 398,
      "ru": 399,
      "Ġpai": 400,
      "Ġ20": 401,
      "se": 402,
      "ksha": 403,
      "Ġkara": 404,
      "Ġoda": 405,
      "yu": 406,
      "Ġnir": 407,
      "Ġsama": 408,
      "Ġpari": 409,
      "nti": 410,
      "Ġmu": 411,
      "tu": 412,
      "nku": 413,
      "tiya": 414,
      "Ġki": 415,
      "end": 416,
      "Ġji": 417,
      "Ġmasi": 418,
      "dhara": 419,
      "Ġbya": 420,
      "gi": 421,
      "yae": 422,
      "Ġga": 423,
      "nkara": 424,
      "Ġla": 425,
      "Ġsha": 426,
      "me": 427,
      "Ġbar": 428,
      "pare": 429,
      "una": 430,
      "Ġsh": 431,
      "to": 432,
      "tana": 433,
      "arana": 434,
      "nga": 435,
      "Ġbhara": 436,
      "Ġman": 437,
      "Ġmadhya": 438,
      "yai": 439,
      "bare": 440,
      "Ġmi": 441,
      "chitra": 442,
      "yya": 443,
      "hya": 444,
      "nna": 445,
      "shàŃ±": 446,
      "Ġshi": 447,
      "thae": 448,
      "Ġanu": 449,
      "tya": 450,
      "of": 451,
      "anti": 452,
      "xt": 453,
      "text": 454,
      "pi": 455,
      "Ġro": 456,
      "<|": 457,
      "|>": 458,
      "endof": 459,
      "endoftext": 460,
      "Ġti": 461,
      "Ġlo": 462,
      "Âł": 463,
      "dhana": 464,
      "thare": 465,
      "Ġprati": 466,
      "tr": 467,
      "ne": 468,
      "Ġsi": 469,
      "19": 470,
      "tri": 471,
      "mbara": 472,
      "adhara": 473,
      "Ġpar": 474,
      "gu": 475,
      "ia": 476,
      "Ġaba": 477,
      "Ġhu": 478,
      "man": 479,
      "chcha": 480,
      "Ġkatha": 481,
      "00": 482,
      "Ġha": 483,
      "lara": 484,
      "Ġmaha": 485,
      "Ġch": 486,
      "tare": 487,
      "shta": 488,
      "Ġsu": 489,
      "Ġjana": 490,
      "kti": 491,
      "Ġbhabare": 492,
      "Ġbe": 493,
      "Ġrahi": 494,
      "anma": 495,
      "Ġmasihare": 496,
      "Ġpu": 497,
      "kta": 498,
      "ho": 499,
      "Ġloka": 500,
      "ĠsàŃ±": 501,
      "Ġsab": 502,
      "bar": 503,
      "yan": 504,
      "Ġadhi": 505,
      "yo": 506,
      "isha": 507,
      "Ġpur": 508,
      "shara": 509,
      "lare": 510,
      "jana": 511,
      "khi": 512,
      "Ġpare": 513,
      "mane": 514,
      "Ġkariba": 515,
      "Ġabhi": 516,
      "Ġt": 517,
      "khya": 518,
      "Ġchi": 519,
      "Ġhue": 520,
      "dàŃ±": 521,
      "rrit": 522,
      "on": 523,
      "har": 524,
      "Ġku": 525,
      "Ġjane": 526,
      "bana": 527,
      "shana": 528,
      "Ġye": 529,
      "Ġgo": 530,
      "aram": 531,
      "sare": 532,
      "Ġbyaba": 533,
      "gra": 534,
      "sta": 535,
      "hana": 536,
      "Ġyo": 537,
      "chana": 538,
      "Ġsaha": 539,
      "ng": 540,
      "Ġke": 541,
      "Ġkathachitra": 542,
      "anu": 543,
      "pra": 544,
      "chanti": 545,
      "dàŃ±ara": 546,
      "Ġ201": 547,
      "Ġsahi": 548,
      "Ġstha": 549,
      "Ġkaryya": 550,
      "iti": 551,
      "Ġnama": 552,
      "Ġkarayai": 553,
      "yi": 554,
      "ula": 555,
      "dya": 556,
      "she": 557,
      "nare": 558,
      "yaka": 559,
      "kare": 560,
      "pha": 561,
      "Ġbarsha": 562,
      "dira": 563,
      "Ġthile": 564,
      "pari": 565,
      "Ġbidhana": 566,
      "Ġraj": 567,
      "Ġut": 568,
      "Ġpi": 569,
      "share": 570,
      "nda": 571,
      "anda": 572,
      "Ġbharatiya": 573,
      "Ġne": 574,
      "usha": 575,
      "eka": 576,
      "tharu": 577,
      "ddha": 578,
      "Ġpratha": 579,
      "ithile": 580,
      "stha": 581,
      "kra": 582,
      "ncha": 583,
      "or": 584,
      "rrish": 585,
      "kar": 586,
      "Ġkha": 587,
      "Ġhi": 588,
      "lu": 589,
      "Ġupa": 590,
      "Ġar": 591,
      "Ġnirba": 592,
      "ke": 593,
      "dana": 594,
      "tar": 595,
      "Ġli": 596,
      "yara": 597,
      "tira": 598,
      "pe": 599,
      "the": 600,
      "Ġroga": 601,
      "Ġle": 602,
      "mare": 603,
      "Ġate": 604,
      "Ġin": 605,
      "dharana": 606,
      "Ġehara": 607,
      "oda": 608,
      "gha": 609,
      "Ġ-": 610,
      "Ġte": 611,
      "tta": 612,
      "thita": 613,
      "Ġ\"": 614,
      "yana": 615,
      "sam": 616,
      "rrityu": 617,
      "kari": 618,
      "sana": 619,
      "Ġyu": 620,
      "Ġjanma": 621,
      "sara": 622,
      "mba": 623,
      "Ġyaha": 624,
      "Ġjil": 625,
      "Ġadhika": 626,
      "Ġdu": 627,
      "Ġbhu": 628,
      "Ġbo": 629,
      "Ġ3": 630,
      "krri": 631,
      "Ġc": 632,
      "tti": 633,
      "pre": 634,
      "Ġraja": 635,
      "Ġ200": 636,
      "Ġheu": 637,
      "mu": 638,
      "Ġpura": 639,
      "ĠbishàŃ±": 640,
      "Ġkaru": 641,
      "Ġhoithila": 642,
      "Ġme": 643,
      "Ġsabha": 644,
      "gita": 645,
      "Ġof": 646,
      "nana": 647,
      "Ġthiba": 648,
      "Ġmadhyare": 649,
      "Ġsara": 650,
      "skara": 651,
      "Ġre": 652,
      "Ġsamayare": 653,
      "lana": 654,
      "nata": 655,
      "Ġthila": 656,
      "mara": 657,
      "dara": 658,
      "pura": 659,
      "naya": 660,
      "chita": 661,
      "Ġchala": 662,
      "pur": 663,
      "20": 664,
      "ntu": 665,
      "Ġpara": 666,
      "su": 667,
      "bhu": 668,
      "Ġkarayae": 669,
      "par": 670,
      "Ġsadharana": 671,
      "riya": 672,
      "shtha": 673,
      "lika": 674,
      "trare": 675,
      "archcha": 676,
      "kto": 677,
      "nta": 678,
      "Ġgra": 679,
      "kshi": 680,
      "dra": 681,
      "Ġkala": 682,
      "Ġbij": 683,
      "Ġmo": 684,
      "jara": 685,
      "pte": 686,
      "ulai": 687,
      "para": 688,
      "anuari": 689,
      "Ġanya": 690,
      "anta": 691,
      "Ġbhi": 692,
      "ko": 693,
      "Ġkam": 694,
      "dar": 695,
      "Ġgu": 696,
      "baku": 697,
      "baru": 698,
      "Ġaram": 699,
      "ktobara": 700,
      "pana": 701,
      "sembara": 702,
      "Ġmandira": 703,
      "Ġgha": 704,
      "go": 705,
      "Ġf": 706,
      "Ġat": 707,
      "Ġdekha": 708,
      "ptembara": 709,
      "Ġabas": 710,
      "Ġ4": 711,
      "tsa": 712,
      "Ġdia": 713,
      "Ġsar": 714,
      "ph": 715,
      "gara": 716,
      "Ġchalach": 717,
      "Ġpha": 718,
      "Ġ5": 719,
      "in": 720,
      "Ġarambha": 721,
      "mo": 722,
      "Ġrahichi": 723,
      "Ġkama": 724,
      "prela": 725,
      "tire": 726,
      "st": 727,
      "Ġthe": 728,
      "hari": 729,
      "Ġhoithile": 730,
      "Ġprathama": 731,
      "tika": 732,
      "tàŃ±": 733,
      "Ġnird": 734,
      "ĠsàŃ±a": 735,
      "Ġko": 736,
      "juna": 737,
      "bita": 738,
      "Ġanusare": 739,
      "Ġpuraskara": 740,
      "Ġaneka": 741,
      "Ġmukhya": 742,
      "Ġru": 743,
      "bata": 744,
      "pu": 745,
      "Ġshri": 746,
      "Ġabhinaya": 747,
      "Ġtiari": 748,
      "anya": 749,
      "),": 750,
      "Ġadi": 751,
      "anare": 752,
      "gata": 753,
      "nara": 754,
      "bala": 755,
      "nu": 756,
      "msha": 757,
      "Ġupare": 758,
      "ita": 759,
      "pta": 760,
      "gare": 761,
      "ve": 762,
      "shu": 763,
      "ndi": 764,
      "Ġ,": 765,
      "anara": 766,
      "bhaba": 767,
      "bhara": 768,
      "Ġkale": 769,
      "ndra": 770,
      "Ġausha": 771,
      "Ġmrrityu": 772,
      "Ġshiksha": 773,
      "Ġpraya": 774,
      "Ġjibana": 775,
      "Ġsahita": 776,
      "kitsa": 777,
      "tah": 778,
      "Ġ199": 779,
      "Ġheba": 780,
      "tion": 781,
      "septembara": 782,
      "januari": 783,
      "julai": 784,
      "marchcha": 785,
      "mita": 786,
      "kasha": 787,
      "hila": 788,
      "aktobara": 789,
      "disembara": 790,
      "aprela": 791,
      "Ġpr": 792,
      "Ġbaya": 793,
      "Ġbhabe": 794,
      "ĠĠ": 795,
      "Ġjatiya": 796,
      "khare": 797,
      "Ġboli": 798,
      "taka": 799,
      "dyala": 800,
      "thire": 801,
      "nja": 802,
      "ĠâĢ": 803,
      "yaru": 804,
      "Ġmana": 805,
      "bahara": 806,
      "yanta": 807,
      "Ġ6": 808,
      "tie": 809,
      "janma": 810,
      "thya": 811,
      "Ġkichi": 812,
      "Ġw": 813,
      "iba": 814,
      "Ġpada": 815,
      "Ġbada": 816,
      "àŃ±a": 817,
      "ge": 818,
      "bhinna": 819,
      "kala": 820,
      "Ġbyakti": 821,
      "ÂłĊ": 822,
      "Ġlekha": 823,
      "je": 824,
      "Ġaushadha": 825,
      "Ġdina": 826,
      "Ġmahila": 827,
      "guda": 828,
      "ina": 829,
      "lpa": 830,
      "Ġnirdde": 831,
      "Ġnija": 832,
      "kshana": 833,
      "Ġniman": 834,
      "al": 835,
      "gan": 836,
      "200": 837,
      "Ġsehi": 838,
      "mani": 839,
      "Ġasi": 840,
      "Ġbibhinna": 841,
      "Ġhoithiba": 842,
      "Ġbyabahara": 843,
      "Ġbahu": 844,
      "dhu": 845,
      "Ġand": 846,
      "pati": 847,
      "ngita": 848,
      "Ġnu": 849,
      "Ġkintu": 850,
      "Ġhoipare": 851,
      "Ġnimante": 852,
      "yyanta": 853,
      "Ġtha": 854,
      "Ġhoithae": 855,
      "Ġnahi": 856,
      "sya": 857,
      "Ġhara": 858,
      "à¤": 859,
      "Ġbu": 860,
      "dhya": 861,
      "bada": 862,
      "âĢį": 863,
      "Ġchalachchitra": 864,
      "kata": 865,
      "tama": 866,
      "Ġdeithile": 867,
      "Ġkathachitratira": 868,
      "Ġpat": 869,
      "du": 870,
      "Ġphu": 871,
      "Ġbisha": 872,
      "Ġtatha": 873,
      "Ġparyyanta": 874,
      "Ġabasthita": 875,
      "bya": 876,
      "Ġkuha": 877,
      "Ġjillara": 878,
      "Ġhele": 879,
      "rrita": 880,
      "Ġtari": 881,
      "Ġgotie": 882,
      "ksh": 883,
      "Ġ198": 884,
      "rrishti": 885,
      "Ġ18": 886,
      "no": 887,
      "Ġdasa": 888,
      "pada": 889,
      "ehi": 890,
      "Ġkimba": 891,
      "ĠdàŃ±": 892,
      "Ġdur": 893,
      "Ġame": 894,
      "Ġbele": 895,
      "ndu": 896,
      "hita": 897,
      "chara": 898,
      "uru": 899,
      "Ġyeu": 900,
      "bele": 901,
      "ce": 902,
      "bu": 903,
      "ika": 904,
      "Ġbrri": 905,
      "mika": 906,
      "Ġuchcha": 907,
      "dia": 908,
      "Ġsabu": 909,
      "Ġpo": 910,
      "Ġantar": 911,
      "ban": 912,
      "Ġdei": 913,
      "thanti": 914,
      "Ġshu": 915,
      "unasi": 916,
      "Ġheuchi": 917,
      "Ġkaranti": 918,
      "Ġmanda": 919,
      "Ġkarayaithila": 920,
      "ktara": 921,
      "Ġbra": 922,
      "Ġso": 923,
      "Ġdhar": 924,
      "dhika": 925,
      "Ġ7": 926,
      "Ġachi": 927,
      "ishara": 928,
      "mha": 929,
      "Ġrajya": 930,
      "Ġnirbachana": 931,
      "nji": 932,
      "Ġmili": 933,
      "Ġ197": 934,
      "Ġri": 935,
      "Ġban": 936,
      "Ġkan": 937,
      "shàŃ±ra": 938,
      "mra": 939,
      "natha": 940,
      "shra": 941,
      "Ġkaunasi": 942,
      "labha": 943,
      "Ġatanti": 944,
      "Ġhela": 945,
      "Ġrakta": 946,
      "Ġbharata": 947,
      "Ġtara": 948,
      "gala": 949,
      "tan": 950,
      "Ġameri": 951,
      "Ġpurba": 952,
      "201": 953,
      "Ġpe": 954,
      "Ġkare": 955,
      "bo": 956,
      "anika": 957,
      "thana": 958,
      "Ġdha": 959,
      "Ġkhe": 960,
      "Ġkarichanti": 961,
      "rana": 962,
      "Ġas": 963,
      "bidyala": 964,
      "Ġdui": 965,
      "Ġyogu": 966,
      "Ġmasihara": 967,
      "gre": 968,
      "Ġsan": 969,
      "bani": 970,
      "phi": 971,
      "nt": 972,
      "Ġphe": 973,
      "Ġ8": 974,
      "Ġchikitsa": 975,
      "trana": 976,
      "Ġud": 977,
      "Ġprasa": 978,
      "ran": 979,
      "Ġrajani": 980,
      "yoga": 981,
      "Ġshe": 982,
      "Ġpre": 983,
      "Ġehaku": 984,
      "Ġdiayae": 985,
      "Ġsamu": 986,
      "Ġsabhya": 987,
      "shita": 988,
      "kriya": 989,
      "che": 990,
      "kri": 991,
      "shaka": 992,
      "Ġ196": 993,
      "Ġuttara": 994,
      "bhe": 995,
      "Ġsahitya": 996,
      "mala": 997,
      "Ġala": 998,
      "Ġbai": 999,
      "Ġkaribaku": 1000,
      "âĢĻ": 1001,
      "Ġrachana": 1002,
      "Ġnei": 1003,
      "krrita": 1004,
      "Ġsahara": 1005,
      "Ġjala": 1006,
      "Ġdebi": 1007,
      "Ġmadhyaru": 1008,
      "stu": 1009,
      "Ġmasiha": 1010,
      "ty": 1011,
      "Ġkete": 1012,
      "Ġkend": 1013,
      "san": 1014,
      "ie": 1015,
      "Ġyoga": 1016,
      "rrishna": 1017,
      "Ġati": 1018,
      "nkadàŃ±ara": 1019,
      "po": 1020,
      "Ġbho": 1021,
      "purnna": 1022,
      "Ġje": 1023,
      "basa": 1024,
      "sala": 1025,
      "Ġabhine": 1026,
      "Ġdeba": 1027,
      "mrrityu": 1028,
      "Ġdekhi": 1029,
      "Ġkshe": 1030,
      "Ġbibha": 1031,
      "Ġche": 1032,
      "Ġdo": 1033,
      "lita": 1034,
      "rara": 1035,
      "Ġbhasha": 1036,
      "ngala": 1037,
      "Ġparibar": 1038,
      "Ġkarithila": 1039,
      "mraji": 1040,
      "Ġsams": 1041,
      "baha": 1042,
      "yata": 1043,
      "Ġdala": 1044,
      "Ġto": 1045,
      "karana": 1046,
      "yau": 1047,
      "Ġbharatara": 1048,
      "dare": 1049,
      "Ġ10": 1050,
      "gada": 1051,
      "Ġshre": 1052,
      "kshina": 1053,
      "shesha": 1054,
      "ksa": 1055,
      "Ġ195": 1056,
      "hasa": 1057,
      "Ġtu": 1058,
      "Ġtaha": 1059,
      "Ġcho": 1060,
      "niya": 1061,
      "kiya": 1062,
      "jita": 1063,
      "rama": 1064,
      "grahana": 1065,
      "rare": 1066,
      "Ġyai": 1067,
      "Ġtarikhare": 1068,
      "Ġmahanti": 1069,
      "Ġ'": 1070,
      "Ġmandali": 1071,
      "yika": 1072,
      "lli": 1073,
      "shtra": 1074,
      "Ġgan": 1075,
      "Ġkarana": 1076,
      "Ġthae": 1077,
      "Ġnirbachita": 1078,
      "ngi": 1079,
      "kshara": 1080,
      "Ġgar": 1081,
      "Ġphi": 1082,
      "Ġshata": 1083,
      "phala": 1084,
      "Ġgrahana": 1085,
      "Ġgita": 1086,
      "Ġsthana": 1087,
      "Ġana": 1088,
      "Ġkaruthile": 1089,
      "nita": 1090,
      "co": 1091,
      "Ġdalara": 1092,
      "Ġmasa": 1093,
      "Ġsamasta": 1094,
      "thara": 1095,
      "Ġnamare": 1096,
      "hani": 1097,
      "lya": 1098,
      "Ġsarakara": 1099,
      "ddhi": 1100,
      "Ġsabhara": 1101,
      "Ġsammana": 1102,
      "nika": 1103,
      "Ġhei": 1104,
      "Ġsethi": 1105,
      "Ġsamkhya": 1106,
      "Ġhoichi": 1107,
      "bartti": 1108,
      "Ġkuhayae": 1109,
      "Ġkri": 1110,
      "sho": 1111,
      "ĠdàŃ±i": 1112,
      "Ġam": 1113,
      "Ġrakhi": 1114,
      "Ġbhaga": 1115,
      "so": 1116,
      "Ġsrrishti": 1117,
      "tari": 1118,
      "Ġethare": 1119,
      "Ġdar": 1120,
      "Ġpadha": 1121,
      "lan": 1122,
      "samkhya": 1123,
      "Ġbidha": 1124,
      "Ġsimha": 1125,
      "shya": 1126,
      "laku": 1127,
      "chanare": 1128,
      "Ġartha": 1129,
      "Ġrama": 1130,
      "Ġdakshina": 1131,
      "patra": 1132,
      "Ġsamaya": 1133,
      "Ġsemana": 1134,
      "Ġmai": 1135,
      "Ġpro": 1136,
      "bh": 1137,
      "Ġketeka": 1138,
      "Ġau": 1139,
      "Ġsarba": 1140,
      "199": 1141,
      "Ġshakti": 1142,
      "Ġsethare": 1143,
      "trara": 1144,
      "do": 1145,
      "besha": 1146,
      "Ġmishra": 1147,
      "kramana": 1148,
      "yanya": 1149,
      "Ġbayas": 1150,
      "dita": 1151,
      "Ġbhali": 1152,
      "Ġbhashare": 1153,
      "Ġmukti": 1154,
      "Ġ9": 1155,
      "Ġnari": 1156,
      "Ġdekhayae": 1157,
      "Ġpuja": 1158,
      "Ġsabhare": 1159,
      "Ġkarithiba": 1160,
      "arare": 1161,
      "Ġ15": 1162,
      "Ġlakshana": 1163,
      "Ġbhau": 1164,
      "Ġyan": 1165,
      "thibaru": 1166,
      "Ġghatana": 1167,
      "ter": 1168,
      "ĠparshàŃ±": 1169,
      "sti": 1170,
      "Ġbhumi": 1171,
      "ira": 1172,
      "dina": 1173,
      "Ġkahi": 1174,
      "sia": 1175,
      "gannatha": 1176,
      "itika": 1177,
      "huri": 1178,
      "yukta": 1179,
      "ghatana": 1180,
      "ttàŃ±": 1181,
      "Ġchari": 1182,
      "desha": 1183,
      "Ġpurbaru": 1184,
      "lina": 1185,
      "Ġbrah": 1186,
      "Ġhindu": 1187,
      "Ġguru": 1188,
      "Ġnirbachanare": 1189,
      "Ġkho": 1190,
      "Ġpurusha": 1191,
      "Ġyuktara": 1192,
      "Ġbidhayaka": 1193,
      "Ġprathame": 1194,
      "Ġpaha": 1195,
      "àŃ±e": 1196,
      "198": 1197,
      "msa": 1198,
      "Ġlagi": 1199,
      "sika": 1200,
      "Ġparam": 1201,
      "ila": 1202,
      "Ġbibaha": 1203,
      "Ġ194": 1204,
      "Ġsana": 1205,
      "Ġmar": 1206,
      "dhare": 1207,
      "Ġdura": 1208,
      "vi": 1209,
      "Ġpraka": 1210,
      "Ġjanmagrahana": 1211,
      "pani": 1212,
      "18": 1213,
      "Ġnirmana": 1214,
      "mata": 1215,
      "shata": 1216,
      "Ġshab": 1217,
      "bali": 1218,
      "Ġtathya": 1219,
      "Ġadhara": 1220,
      "Ġjilla": 1221,
      "Ġdesha": 1222,
      "Ġnijara": 1223,
      "Ġgre": 1224,
      "pai": 1225,
      "demi": 1226,
      "Ġdasha": 1227,
      "Ġseba": 1228,
      "Ġkamgre": 1229,
      "Ġmatra": 1230,
      "Ġitya": 1231,
      "ĠâĢĵ": 1232,
      "shri": 1233,
      "shchi": 1234,
      "darshana": 1235,
      "Ġshatab": 1236,
      "Ġbara": 1237,
      "Ġchandra": 1238,
      "Ġsadharanatah": 1239,
      "hrrita": 1240,
      "pata": 1241,
      "ver": 1242,
      "thiti": 1243,
      "ndara": 1244,
      "Ġsthanare": 1245,
      "Ġdh": 1246,
      "lia": 1247,
      "Ġnamaka": 1248,
      "krriti": 1249,
      "deba": 1250,
      "Ġjanata": 1251,
      "kana": 1252,
      "000": 1253,
      "Ġai": 1254,
      "Ġco": 1255,
      "pala": 1256,
      "tebele": 1257,
      "shyaka": 1258,
      "Ġityadi": 1259,
      "Ġanyanya": 1260,
      "Ġadhya": 1261,
      "Ġmata": 1262,
      "Ġaga": 1263,
      "Ġnadi": 1264,
      "Ġnirddeshana": 1265,
      "tisha": 1266,
      "Ġdhari": 1267,
      "Ġsampar": 1268,
      "Ġyatha": 1269,
      "bidha": 1270,
      "rritya": 1271,
      "bhaya": 1272,
      "Ġekademi": 1273,
      "Ġph": 1274,
      "ĠbishàŃ±bidyala": 1275,
      "Ġ12": 1276,
      "Ġmuktilabha": 1277,
      "harara": 1278,
      "Ġpradana": 1279,
      "graha": 1280,
      "Ġjaga": 1281,
      "Ġpani": 1282,
      "Ġrupe": 1283,
      "Ġ:": 1284,
      "lle": 1285,
      "phe": 1286,
      "laya": 1287,
      "jaya": 1288,
      "tro": 1289,
      "Ġchota": 1290,
      "uro": 1291,
      "chitrare": 1292,
      "Ġho": 1293,
      "Ġbishesha": 1294,
      "Ġtri": 1295,
      "Ġparibara": 1296,
      "abhi": 1297,
      "Ġnirmita": 1298,
      "Ġlaksh": 1299,
      "Ġchar": 1300,
      "Ġprakasha": 1301,
      "Ġksha": 1302,
      "nal": 1303,
      "ngara": 1304,
      "asa": 1305,
      "Ġabashyaka": 1306,
      "rika": 1307,
      "ĠsàŃ±adhi": 1308,
      "jibita": 1309,
      "kh": 1310,
      "Ġkebala": 1311,
      "Ġshesha": 1312,
      "yaithila": 1313,
      "kan": 1314,
      "Ġethire": 1315,
      "krama": 1316,
      "ttana": 1317,
      "Ġmota": 1318,
      "Ġbarn": 1319,
      "Ġ16": 1320,
      "Ġakar": 1321,
      "Ġlabha": 1322,
      "nkare": 1323,
      "Ġkarayaichi": 1324,
      "Ġkendra": 1325,
      "197": 1326,
      "ai": 1327,
      "Ġdhara": 1328,
      "chikitsa": 1329,
      "Ġtithi": 1330,
      "Ġkarma": 1331,
      "galika": 1332,
      "ria": 1333,
      "nchi": 1334,
      "sthya": 1335,
      "Ġpratishata": 1336,
      "Ġkhadya": 1337,
      "ju": 1338,
      "laka": 1339,
      "Ġbartta": 1340,
      "manita": 1341,
      "badi": 1342,
      "Ġprri": 1343,
      "Ġkami": 1344,
      "Ġbasa": 1345,
      "Ġsabhaku": 1346,
      "Ġpatha": 1347,
      "shchima": 1348,
      "Ġprakara": 1349,
      "yama": 1350,
      "lar": 1351,
      "aj": 1352,
      "rom": 1353,
      "daya": 1354,
      "Ġbri": 1355,
      "Ġsakshara": 1356,
      "shti": 1357,
      "Ġsamra": 1358,
      "Ġim": 1359,
      "Ġprabha": 1360,
      "Ġprastu": 1361,
      "Ġpita": 1362,
      "Ġbhumikare": 1363,
      "brri": 1364,
      "Ġsemane": 1365,
      "Ġbyabahrrita": 1366,
      "ted": 1367,
      "Ġsaksharata": 1368,
      "ca": 1369,
      "yojana": 1370,
      "tantra": 1371,
      "pan": 1372,
      "Ġamsha": 1373,
      "basi": 1374,
      "Ġbishayare": 1375,
      "bra": 1376,
      "Ġbira": 1377,
      "Ġdharma": 1378,
      "Ġsada": 1379,
      "Ġkhela": 1380,
      "Ġtini": 1381,
      "shthita": 1382,
      "nchala": 1383,
      "mukha": 1384,
      "Ġ17": 1385,
      "Ġkaruthiba": 1386,
      "gori": 1387,
      "gana": 1388,
      "Ġchu": 1389,
      "Ġgho": 1390,
      "Ġmulya": 1391,
      "Ġara": 1392,
      "janaitika": 1393,
      "Ġlekhi": 1394,
      "sàŃ±": 1395,
      "Ġnrritya": 1396,
      "eha": 1397,
      "Ġbadha": 1398,
      "ĠsàŃ±asthya": 1399,
      "Ġmandi": 1400,
      "Ġrri": 1401,
      "Ġsarakari": 1402,
      "Ġshiba": 1403,
      "nkatharu": 1404,
      "Ġhai": 1405,
      "Ġaph": 1406,
      "Ġpila": 1407,
      "Ġparyya": 1408,
      "Ġthi": 1409,
      "Ġdra": 1410,
      "Ġshari": 1411,
      "tran": 1412,
      "nia": 1413,
      "Ġmandaliru": 1414,
      "10": 1415,
      "pita": 1416,
      "ye": 1417,
      "bati": 1418,
      "Ġ14": 1419,
      "Ġbapa": 1420,
      "hia": 1421,
      "):": 1422,
      "gri": 1423,
      "nchalare": 1424,
      "rani": 1425,
      "Ġtra": 1426,
      "Ġ2014": 1427,
      "Ġprana": 1428,
      "Ġmahapatra": 1429,
      "Ġduiti": 1430,
      "bharatiya": 1431,
      "Ġiti": 1432,
      "yiba": 1433,
      "Ġ193": 1434,
      "mna": 1435,
      "Ġpattana": 1436,
      "ile": 1437,
      "Ġnara": 1438,
      "Ġpusta": 1439,
      "Ġpradhana": 1440,
      "imraji": 1441,
      "Ġpratishtha": 1442,
      "dma": 1443,
      "ahuri": 1444,
      "ci": 1445,
      "Ġgregori": 1446,
      "kshe": 1447,
      "gh": 1448,
      "sra": 1449,
      "Ġchitra": 1450,
      "Ġubhaya": 1451,
      "Ġkahani": 1452,
      "Ġjati": 1453,
      "21": 1454,
      "Ġtebe": 1455,
      "arita": 1456,
      "keta": 1457,
      "Ġkalakara": 1458,
      "kula": 1459,
      "Ġparabartti": 1460,
      "Ġkumara": 1461,
      "Ġjib": 1462,
      "Ġasu": 1463,
      "char": 1464,
      "Ġshishu": 1465,
      "deshara": 1466,
      "Ġkabi": 1467,
      "Ġratha": 1468,
      "Ġnayaka": 1469,
      "Ġhari": 1470,
      "Ġsammanita": 1471,
      "urtti": 1472,
      "Ġpanda": 1473,
      "Ġchali": 1474,
      "ss": 1475,
      "Ġbidyala": 1476,
      "ĠĠĠĠ": 1477,
      "uryya": 1478,
      "Ġjani": 1479,
      "phu": 1480,
      "Ġabhinetri": 1481,
      "Ġbala": 1482,
      "Ġshabda": 1483,
      "tita": 1484,
      "bahi": 1485,
      "haru": 1486,
      "Ġkarithae": 1487,
      "Ġtenu": 1488,
      "Ġindia": 1489,
      "yaichi": 1490,
      "Ġkarithanti": 1491,
      "Ġpattanayaka": 1492,
      "Ġrajaniti": 1493,
      "Ġbhala": 1494,
      "es": 1495,
      "Ġ11": 1496,
      "Ġunna": 1497,
      "kriyare": 1498,
      "Ġani": 1499,
      "Ġkshetrare": 1500,
      "jika": 1501,
      "Ġ13": 1502,
      "Ġbrriddhi": 1503,
      "Ġjagannatha": 1504,
      "Ġjillare": 1505,
      "mati": 1506,
      "itihasa": 1507,
      "jare": 1508,
      "stra": 1509,
      "Ġyadi": 1510,
      "Ġkrrishna": 1511,
      "Ġprar": 1512,
      "bhasha": 1513,
      "ld": 1514,
      "arika": 1515,
      "Ġkantha": 1516,
      "bane": 1517,
      "nthire": 1518,
      "Ġraya": 1519,
      "fe": 1520,
      "Ġrajanitire": 1521,
      "ment": 1522,
      "ĠdàŃ±itiya": 1523,
      "Ġphuta": 1524,
      "uda": 1525,
      "eta": 1526,
      "maha": 1527,
      "thibi": 1528,
      "Ġmani": 1529,
      "Ġrogi": 1530,
      "Ġpan": 1531,
      "Ġjha": 1532,
      "Ġpalana": 1533,
      "taru": 1534,
      "Ġkana": 1535,
      "Ġfrom": 1536,
      "Ġpatni": 1537,
      "sama": 1538,
      "Ġlu": 1539,
      "padana": 1540,
      "krrishna": 1541,
      "barsha": 1542,
      "Ġada": 1543,
      "Ġanti": 1544,
      "Ġjiba": 1545,
      "Ġutsa": 1546,
      "Ġprastuta": 1547,
      "lla": 1548,
      "mp": 1549,
      "Ġ=": 1550,
      "Ġag": 1551,
      "Ġpramukha": 1552,
      "Ġesi": 1553,
      "ĠâĢĺ": 1554,
      "loka": 1555,
      "Ġyantrana": 1556,
      "Ġthare": 1557,
      "Ġsura": 1558,
      "Ġgrama": 1559,
      "dika": 1560,
      "Ġ25": 1561,
      "15": 1562,
      "Ġabastha": 1563,
      "Ġnuhe": 1564,
      "karara": 1565,
      "Ġmunda": 1566,
      "Ġparicha": 1567,
      "Ġkhu": 1568,
      "Ġnirnna": 1569,
      "nahi": 1570,
      "tala": 1571,
      "Ġsamasya": 1572,
      "Ġnaba": 1573,
      "196": 1574,
      "Ġsapta": 1575,
      "ut": 1576,
      "barana": 1577,
      "Ġtrri": 1578,
      "22": 1579,
      "Ġape": 1580,
      "Ġbhinna": 1581,
      "Ġbhe": 1582,
      "Ġhindi": 1583,
      "Ġpashchima": 1584,
      "Ġnya": 1585,
      "Ġphala": 1586,
      "Ġethi": 1587,
      "Ġkarayaithae": 1588,
      "iki": 1589,
      "Ġshreni": 1590,
      "Ġkali": 1591,
      "lai": 1592,
      "en": 1593,
      "Ġjan": 1594,
      "ĠsàŃ±adhinata": 1595,
      "Ġabhineta": 1596,
      "Ġmile": 1597,
      "shishta": 1598,
      "Ġpadar": 1599,
      "ishare": 1600,
      "Ġprabhaba": 1601,
      "Ġkh": 1602,
      "Ġbarttamana": 1603,
      "nj": 1604,
      "Ġpraja": 1605,
      "Ġpau": 1606,
      "gya": 1607,
      "Ġprasha": 1608,
      "Ġpariksha": 1609,
      "mitara": 1610,
      "Ġpustaka": 1611,
      "adhika": 1612,
      "Ġpratikriyare": 1613,
      "laru": 1614,
      "Ġthara": 1615,
      "Ġbayaska": 1616,
      "Ġnikata": 1617,
      "tre": 1618,
      "Ġbarnnana": 1619,
      "sada": 1620,
      "Ġ30": 1621,
      "Ġkrri": 1622,
      "Ġhra": 1623,
      "Ġheuthiba": 1624,
      "Ġnirnnaya": 1625,
      "Ġgandhi": 1626,
      "tma": 1627,
      "Ġphil": 1628,
      "sis": 1629,
      "Ġyae": 1630,
      "Ġshatabdi": 1631,
      "dyu": 1632,
      "Ġbikasha": 1633,
      "Ġguda": 1634,
      "priya": 1635,
      "Ġmano": 1636,
      "Ġup": 1637,
      "tur": 1638,
      "bhira": 1639,
      "Ġmau": 1640,
      "Ġkilo": 1641,
      "Ġkhri": 1642,
      "mar": 1643,
      "mari": 1644,
      "tor": 1645,
      "Ġbrahma": 1646,
      "kura": 1647,
      "Ġparba": 1648,
      "mpi": 1649,
      "lata": 1650,
      "jya": 1651,
      "Ġchau": 1652,
      "Ġ.": 1653,
      "ly": 1654,
      "Ġrogare": 1655,
      "Ġmukhyatah": 1656,
      "195": 1657,
      "sthita": 1658,
      "Ġbanda": 1659,
      "tarare": 1660,
      "Ġjanuari": 1661,
      "paka": 1662,
      "Ġnika": 1663,
      "Ġchada": 1664,
      "Ġprrithibi": 1665,
      "Ġchalachchitrare": 1666,
      "14": 1667,
      "dhar": 1668,
      "Ġatya": 1669,
      "lpi": 1670,
      "Ġgi": 1671,
      "tho": 1672,
      "bika": 1673,
      "rodha": 1674,
      "bhukta": 1675,
      "Ġrajanitij": 1676,
      "Ġrogara": 1677,
      "Ġsaphala": 1678,
      "Ġprachi": 1679,
      "Ġju": 1680,
      "Ġnish": 1681,
      "Ġsadasya": 1682,
      "Ġkabita": 1683,
      "Ġsamudra": 1684,
      "Ġshreshtha": 1685,
      "nya": 1686,
      "Ġpatra": 1687,
      "12": 1688,
      "naru": 1689,
      "Ġgana": 1690,
      "17": 1691,
      "Ġnirddeshaka": 1692,
      "Ġnua": 1693,
      "'s": 1694,
      "manara": 1695,
      "Ġbam": 1696,
      "Ġapha": 1697,
      "Ġbhubane": 1698,
      "beshana": 1699,
      "ste": 1700,
      "esa": 1701,
      "16": 1702,
      "sar": 1703,
      "ĠàŃ±": 1704,
      "Ġsahit": 1705,
      "llekha": 1706,
      "harana": 1707,
      "yar": 1708,
      "jatiya": 1709,
      "Ġhasala": 1710,
      "Ġjanasamkhya": 1711,
      "Ġ)": 1712,
      "Ġyatra": 1713,
      "Ġdurare": 1714,
      "lab": 1715,
      "lapa": 1716,
      "Ġprabhabita": 1717,
      "Ġfor": 1718,
      "Ġjo": 1719,
      "nki": 1720,
      "Ġsamkramana": 1721,
      "Ġhuanti": 1722,
      "Ġprada": 1723,
      "Ġak": 1724,
      "sisa": 1725,
      "Ġsaharara": 1726,
      "hna": 1727,
      "bhika": 1728,
      "Ġsuryya": 1729,
      "Ġimraji": 1730,
      "Ġsamar": 1731,
      "Ġbharatare": 1732,
      "Ġullekha": 1733,
      "Ġparibarttana": 1734,
      "Ġkarayau": 1735,
      "Ġalpa": 1736,
      "Ġno": 1737,
      "Ġbiju": 1738,
      "Ġmula": 1739,
      "Ġdekhibaku": 1740,
      "trika": 1741,
      "Ġantargata": 1742,
      "jan": 1743,
      "Ġaksha": 1744,
      "Ġbhaugalika": 1745,
      "Ġsho": 1746,
      "hire": 1747,
      "Ġjaya": 1748,
      "Ġphalare": 1749,
      "Ġ2009": 1750,
      "Ġnataka": 1751,
      "Ġdilli": 1752,
      "shika": 1753,
      "ĠbishàŃ±asa": 1754,
      "chu": 1755,
      "Ġ2013": 1756,
      "Ġ2015": 1757,
      "Ġsnata": 1758,
      "à¥": 1759,
      "Ġrakha": 1760,
      "13": 1761,
      "njana": 1762,
      "Ġnikatare": 1763,
      "Ġprarthi": 1764,
      "Ġjhia": 1765,
      "sadharana": 1766,
      "Ġbhai": 1767,
      "yaithae": 1768,
      "mina": 1769,
      "Ġjulai": 1770,
      "ddhare": 1771,
      "Ġbhitare": 1772,
      "Ġmahara": 1773,
      "Ġyuddha": 1774,
      "gar": 1775,
      "Ġmahabidyala": 1776,
      "chandra": 1777,
      "Ġanushthita": 1778,
      "jha": 1779,
      "Ġpaithile": 1780,
      "ili": 1781,
      "nge": 1782,
      "Ġepari": 1783,
      "Ġ2019": 1784,
      "Ġkra": 1785,
      "Ġsampurnna": 1786,
      "Ġrashtra": 1787,
      "krame": 1788,
      "kartta": 1789,
      "Ġjari": 1790,
      "shila": 1791,
      "ganana": 1792,
      "ction": 1793,
      "sharu": 1794,
      "Ġkya": 1795,
      "yogi": 1796,
      "pri": 1797,
      "Ġbayasare": 1798,
      "Ġkhanda": 1799,
      "Ġpakshi": 1800,
      "shtrare": 1801,
      "Ġkalare": 1802,
      "Ġon": 1803,
      "Ġama": 1804,
      "Ġpuri": 1805,
      "Ġagashta": 1806,
      "Ġaktobara": 1807,
      "Ġpadma": 1808,
      "Ġbijaya": 1809,
      "Ġdisembara": 1810,
      "bhumi": 1811,
      "Ġaina": 1812,
      "khara": 1813,
      "Ġbish": 1814,
      "Ġsambha": 1815,
      "mantri": 1816,
      "Ġpaki": 1817,
      "fi": 1818,
      "ts": 1819,
      "Ġadhikamsha": 1820,
      "Ġbyabastha": 1821,
      "rajanaitika": 1822,
      "Ġkarkata": 1823,
      "arambhika": 1824,
      "simha": 1825,
      "Ġando": 1826,
      "rupa": 1827,
      "Ġadhikara": 1828,
      "yayi": 1829,
      "Ġnabhe": 1830,
      "manda": 1831,
      "Ġ2011": 1832,
      "Ġdhu": 1833,
      "Ġyie": 1834,
      "Ġgarbhaba": 1835,
      "Ġitihasa": 1836,
      "nsa": 1837,
      "Ġprabesha": 1838,
      "Ġuda": 1839,
      "Ġmarchcha": 1840,
      "Ġmantri": 1841,
      "Ġkamgresa": 1842,
      "Ġapa": 1843,
      "Ġjanaganana": 1844,
      "Ġkaruchanti": 1845,
      "Ġpadartha": 1846,
      "Ġsai": 1847,
      "mada": 1848,
      "Ġghara": 1849,
      "ĠsàŃ±tantra": 1850,
      "shuna": 1851,
      "Ġkaribara": 1852,
      "Ġ50": 1853,
      "tic": 1854,
      "Ġrasa": 1855,
      "gola": 1856,
      "kam": 1857,
      "purba": 1858,
      "Ġrajyara": 1859,
      "Ġgrri": 1860,
      "chare": 1861,
      "Ġsamga": 1862,
      "Ġsta": 1863,
      "Ġapeksha": 1864,
      "Ġapara": 1865,
      "Ġsakriya": 1866,
      "Ġmala": 1867,
      "Ġmurtti": 1868,
      "eda": 1869,
      "kshita": 1870,
      "bai": 1871,
      "Ġtan": 1872,
      "krritika": 1873,
      "Ġbyatita": 1874,
      "Ġsamana": 1875,
      "23": 1876,
      "ala": 1877,
      "Ġv": 1878,
      "Ġbayasa": 1879,
      "2001": 1880,
      "yari": 1881,
      "Ġdrrishti": 1882,
      "kalina": 1883,
      "Ġabi": 1884,
      "Ġbau": 1885,
      "Ġparichita": 1886,
      "us": 1887,
      "Ġprakarara": 1888,
      "siddha": 1889,
      "Ġdai": 1890,
      "tio": 1891,
      "Ġehapare": 1892,
      "Ġyepari": 1893,
      "Ġbana": 1894,
      "Ġakhi": 1895,
      "Ġ2012": 1896,
      "Ġal": 1897,
      "ghata": 1898,
      "ture": 1899,
      "Ġlekhaka": 1900,
      "tna": 1901,
      "Ġantarbhukta": 1902,
      "Ġakramana": 1903,
      "pariba": 1904,
      "Ġpuni": 1905,
      "Ġ2016": 1906,
      "patti": 1907,
      "Ġniyu": 1908,
      "bandha": 1909,
      "sthare": 1910,
      "yam": 1911,
      "Ġl": 1912,
      "Ġpakhare": 1913,
      "Ġbagha": 1914,
      "bhau": 1915,
      "Ġamerikare": 1916,
      "Ġ0": 1917,
      "pathi": 1918,
      "nar": 1919,
      "Ġpakha": 1920,
      "Ġpati": 1921,
      "Ġkhelali": 1922,
      "trri": 1923,
      "endra": 1924,
      "Ġbayasaru": 1925,
      "Ġhoiyae": 1926,
      "dhani": 1927,
      "Ġnabhembara": 1928,
      "hira": 1929,
      "Ġchatur": 1930,
      "Ġanuyayi": 1931,
      "ela": 1932,
      "thira": 1933,
      "Ġnimna": 1934,
      "Ġkataka": 1935,
      "rnna": 1936,
      "Ġparu": 1937,
      "ck": 1938,
      "ibaku": 1939,
      "abhinaya": 1940,
      "Ġbidyalaya": 1941,
      "Ġbata": 1942,
      "trans": 1943,
      "Ġ2010": 1944,
      "Ġdurga": 1945,
      "Ġjagatare": 1946,
      "Ġjar": 1947,
      "Ġamerikiya": 1948,
      "stri": 1949,
      "Ġjanashuna": 1950,
      "Ġputra": 1951,
      "puri": 1952,
      "hanti": 1953,
      "Ġpaka": 1954,
      "Ġprakashita": 1955,
      "jo": 1956,
      "anaru": 1957,
      "Ġindi": 1958,
      "Ġsuddha": 1959,
      "Ġseptembara": 1960,
      "Ġsamgra": 1961,
      "Ġhrri": 1962,
      "Ġbhumika": 1963,
      "Ġsahayya": 1964,
      "Ġkampani": 1965,
      "Ġsethiru": 1966,
      "yyare": 1967,
      "patha": 1968,
      "brriari": 1969,
      "Ġadh": 1970,
      "Ġgran": 1971,
      "Ġyetebele": 1972,
      "Ġpho": 1973,
      "Ġbishishta": 1974,
      "30": 1975,
      "Ġbali": 1976,
      "Ġbyabasa": 1977,
      "Ġwi": 1978,
      "Ġshasana": 1979,
      "Ġbritisha": 1980,
      "nkata": 1981,
      "mila": 1982,
      "Ġmari": 1983,
      "Ġdele": 1984,
      "Ġyau": 1985,
      "Ġsabutharu": 1986,
      "rgha": 1987,
      "um": 1988,
      "Ġrahithae": 1989,
      "rriti": 1990,
      "Ġmaj": 1991,
      "ghara": 1992,
      "Ġsamajika": 1993,
      "gani": 1994,
      "Ġmya": 1995,
      "matra": 1996,
      "Ġnila": 1997,
      "Ġtarikha": 1998,
      "rd": 1999,
      "janasamkhya": 2000,
      "Ġghati": 2001,
      "Ġjyo": 2002,
      "Ġwe": 2003,
      "Ġbh": 2004,
      "tyeka": 2005,
      "Ġmasare": 2006,
      "dishta": 2007,
      "Ġgathana": 2008,
      "nni": 2009,
      "Ġmadhyamare": 2010,
      "âĢĵ": 2011,
      "anyasa": 2012,
      "lani": 2013,
      "pho": 2014,
      "Ġnira": 2015,
      "Ġkilomitara": 2016,
      "Ġjuna": 2017,
      "ngu": 2018,
      "Ġsahu": 2019,
      "khita": 2020,
      "Ġupalab": 2021,
      "hata": 2022,
      "Ġtrritiya": 2023,
      "Ġmedi": 2024,
      "Ġphilma": 2025,
      "sari": 2026,
      "hera": 2027,
      "Ġnutana": 2028,
      "rs": 2029,
      "yura": 2030,
      "Ġali": 2031,
      "dro": 2032,
      "Ġpala": 2033,
      "chala": 2034,
      "sthana": 2035,
      "kshare": 2036,
      "Ġpri": 2037,
      "194": 2038,
      "Ġsthapana": 2039,
      "Ġ2004": 2040,
      "Ġsena": 2041,
      "Ġrahu": 2042,
      "Ġanushtha": 2043,
      "Ġkarmakartta": 2044,
      "Ġachanti": 2045,
      "Ġ24": 2046,
      "karu": 2047,
      "Ġmamsa": 2048,
      "Ġdigri": 2049,
      "Ġbichara": 2050,
      "Ġpadhantu": 2051,
      "Ġkaribare": 2052,
      "ĠsàŃ±i": 2053,
      "Ġanyatama": 2054,
      "Ġphebrriari": 2055,
      "shna": 2056,
      "Ġdara": 2057,
      "Ġtika": 2058,
      "Ġbahi": 2059,
      "und": 2060,
      "Ġyahara": 2061,
      "Ġprachina": 2062,
      "Ġby": 2063,
      "Ġdirgha": 2064,
      "Ġshra": 2065,
      "debi": 2066,
      "tional": 2067,
      "Ġsind": 2068,
      "Ġatha": 2069,
      "Ġkalara": 2070,
      "Ġtala": 2071,
      "Ġgati": 2072,
      "Ġemana": 2073,
      "darsha": 2074,
      "Ġheithila": 2075,
      "menta": 2076,
      "Ġmasiharu": 2077,
      "rritti": 2078,
      "mpha": 2079,
      "Ġgacha": 2080,
      "Ġgadha": 2081,
      "Ġis": 2082,
      "Ġpatana": 2083,
      "Ġtai": 2084,
      "Ġsamaja": 2085,
      "Ġ27": 2086,
      "Ġshikara": 2087,
      "harare": 2088,
      "Ġbishaya": 2089,
      "shilpi": 2090,
      "ĠsàŃ±ami": 2091,
      "cal": 2092,
      "Ġpratikriya": 2093,
      "Ġpua": 2094,
      "Ġrahithila": 2095,
      "Ġyuktarashtrare": 2096,
      "Ġà¤": 2097,
      "Ġbina": 2098,
      "bli": 2099,
      "Ġabasthiti": 2100,
      "ttara": 2101,
      "Ġpratyeka": 2102,
      "Ġjene": 2103,
      "stara": 2104,
      "Ġbibhaga": 2105,
      "bho": 2106,
      "Ġbasi": 2107,
      "Ġkheli": 2108,
      "por": 2109,
      "Ġgada": 2110,
      "Ġlokapriya": 2111,
      "Ġsatya": 2112,
      "rtha": 2113,
      "gale": 2114,
      "Ġdarshana": 2115,
      "cia": 2116,
      "âĢĿ": 2117,
      "Ġbahuta": 2118,
      "Ġrahiba": 2119,
      "Ġrupa": 2120,
      "Ġtapa": 2121,
      "Ġmrrityubarana": 2122,
      "charyya": 2123,
      "giri": 2124,
      "Ġphula": 2125,
      "Ġnyaya": 2126,
      "Ġkamgresara": 2127,
      "taku": 2128,
      "Ġnia": 2129,
      "ĠâĢľ": 2130,
      "Ġbimana": 2131,
      "Ġge": 2132,
      "Ġraksha": 2133,
      "Ġchand": 2134,
      "dura": 2135,
      "Ġsetebele": 2136,
      "dhunika": 2137,
      "Ġdak": 2138,
      "pr": 2139,
      "tt": 2140,
      "Ġkal": 2141,
      "Ġpradarshana": 2142,
      "Ġprapta": 2143,
      "Ġkata": 2144,
      "11": 2145,
      "chari": 2146,
      "Ġbhakta": 2147,
      "orld": 2148,
      "Ġdarsha": 2149,
      "Ġakarare": 2150,
      "Ġniyan": 2151,
      "Ġharatharu": 2152,
      "hindi": 2153,
      "ei": 2154,
      "Ġkshetra": 2155,
      "Ġkshu": 2156,
      "va": 2157,
      "sina": 2158,
      "lugu": 2159,
      "Ġmandirara": 2160,
      "Ġdibasa": 2161,
      "Ġyahaki": 2162,
      "Ġutkala": 2163,
      "ranta": 2164,
      "leshàŃ±ra": 2165,
      "Ġbhagare": 2166,
      "mia": 2167,
      "khu": 2168,
      "dasha": 2169,
      "Ġdekhantu": 2170,
      "nan": 2171,
      "dei": 2172,
      "manare": 2173,
      "Ġ2017": 2174,
      "Ġasha": 2175,
      "Ġ2000": 2176,
      "il": 2177,
      "Ġsarbadhika": 2178,
      "ndha": 2179,
      "dio": 2180,
      "Ġneithile": 2181,
      "Ġ2018": 2182,
      "Ġsuraksha": 2183,
      "Ġina": 2184,
      "pashta": 2185,
      "thu": 2186,
      "lochana": 2187,
      "gudika": 2188,
      "parika": 2189,
      "Ġpracha": 2190,
      "Ġupara": 2191,
      "itisa": 2192,
      "tanu": 2193,
      "Ġrana": 2194,
      "tiku": 2195,
      "Ġkarayaithiba": 2196,
      "Ġbhoga": 2197,
      "Ġjhada": 2198,
      "Ġtarala": 2199,
      "Ġyuktarashtra": 2200,
      "Ġprasiddha": 2201,
      "Ġgaa": 2202,
      "Ġmilithila": 2203,
      "Ġshaili": 2204,
      "Ġaka": 2205,
      "Ġdhire": 2206,
      "Ġrahe": 2207,
      "Ġ100": 2208,
      "shiksha": 2209,
      "ds": 2210,
      "Ġbahara": 2211,
      "mpa": 2212,
      "Ġebe": 2213,
      "Ġanda": 2214,
      "Ġca": 2215,
      "Ġpranali": 2216,
      "Ġchatra": 2217,
      "Ġrajadhani": 2218,
      "Ġpurana": 2219,
      "50": 2220,
      "Ġdharabahi": 2221,
      "kla": 2222,
      "charana": 2223,
      "ll": 2224,
      "Ġmumba": 2225,
      "roma": 2226,
      "Ġbayu": 2227,
      "Ġjiti": 2228,
      "Ġ1990": 2229,
      "hasika": 2230,
      "raja": 2231,
      "Ġmara": 2232,
      "Ġ21": 2233,
      "ndo": 2234,
      "Ġ22": 2235,
      "ĠàŃ±e": 2236,
      "Ġdebata": 2237,
      "Ġparusha": 2238,
      "Ġheuchanti": 2239,
      "baka": 2240,
      "Ġyojana": 2241,
      "Ġgarbha": 2242,
      "tmaka": 2243,
      ").": 2244,
      "Ġsamban": 2245,
      "shira": 2246,
      "Ġpheri": 2247,
      "Ġsamstha": 2248,
      "jagannatha": 2249,
      "Ġlaksha": 2250,
      "khe": 2251,
      "sàŃ±a": 2252,
      "Ġ2007": 2253,
      "ehara": 2254,
      "Ġguna": 2255,
      "ct": 2256,
      "nidhi": 2257,
      "Ġkhar": 2258,
      "Ġkaragala": 2259,
      "Ġ2006": 2260,
      "ĠbishàŃ±bidyalaya": 2261,
      "for": 2262,
      "Ġbas": 2263,
      "Ġjami": 2264,
      "uri": 2265,
      "Ġprayojana": 2266,
      "men": 2267,
      "Ġhebara": 2268,
      "Ġsthaniya": 2269,
      "Ġbesha": 2270,
      "Ġaiti": 2271,
      "Ġash": 2272,
      "Ġdayi": 2273,
      "ĠâĢĮ": 2274,
      "transla": 2275,
      "mohana": 2276,
      "iku": 2277,
      "Ġrela": 2278,
      "shada": 2279,
      "Ġnarayana": 2280,
      "Ġanubada": 2281,
      "Ġsamparka": 2282,
      "dashi": 2283,
      "Ġbija": 2284,
      "Ġbahari": 2285,
      "it": 2286,
      "Ġbika": 2287,
      "bhida": 2288,
      "Ġrahithiba": 2289,
      "Ġ2008": 2290,
      "shura": 2291,
      "Ġbani": 2292,
      "Ġhar": 2293,
      "thika": 2294,
      "kit": 2295,
      "Ġsamgraha": 2296,
      "Ġ26": 2297,
      "prati": 2298,
      "Ġ28": 2299,
      "ghu": 2300,
      "shma": 2301,
      "Ġpriya": 2302,
      "Ġgabeshana": 2303,
      "Ġunnata": 2304,
      "danti": 2305,
      "Ġprathamika": 2306,
      "Ġnanda": 2307,
      "chapa": 2308,
      "Ġgaja": 2309,
      "Ġaprela": 2310,
      "Ġrau": 2311,
      "Ġsundara": 2312,
      "Ġlakshmi": 2313,
      "Ġ192": 2314,
      "Ġbhagabana": 2315,
      "Ġmitara": 2316,
      "pratha": 2317,
      "Ġshatabdira": 2318,
      "com": 2319,
      "bhali": 2320,
      "Ġmaulika": 2321,
      "niti": 2322,
      "Ġpratya": 2323,
      "Ġdeshara": 2324,
      "Ġtre": 2325,
      "Ġsamgha": 2326,
      "Ġkshudra": 2327,
      "sthiti": 2328,
      "Ġchakra": 2329,
      "cho": 2330,
      "Ġthakura": 2331,
      "ida": 2332,
      "Ġprani": 2333,
      "cle": 2334,
      "àŃ±ra": 2335,
      "Ġgri": 2336,
      "Ġantarjatiya": 2337,
      "wiki": 2338,
      "Ġmaa": 2339,
      "Ġshte": 2340,
      "Ġupalabdha": 2341,
      "pla": 2342,
      "Ġapare": 2343,
      "Ġaji": 2344,
      "Ġgarbhabasthare": 2345,
      "sabu": 2346,
      "Ġprrish": 2347,
      "Ġpla": 2348,
      "Ġpatire": 2349,
      "mula": 2350,
      "Ġ2020": 2351,
      "Ġcon": 2352,
      "Ġ23": 2353,
      "od": 2354,
      "Ġtahara": 2355,
      "bhare": 2356,
      "stana": 2357,
      "Ġbije": 2358,
      "Ġyathakrame": 2359,
      "er": 2360,
      "ĠbhubaneshàŃ±ra": 2361,
      "Ġsy": 2362,
      "pharu": 2363,
      "ghi": 2364,
      "chitrara": 2365,
      "Ġkriketa": 2366,
      "Ġgola": 2367,
      "||": 2368,
      "Ġ%": 2369,
      "Ġpuna": 2370,
      "Ġdeshare": 2371,
      "Ġyahaku": 2372,
      "Ġsata": 2373,
      "mbha": 2374,
      "Ġhata": 2375,
      "Ġdharana": 2376,
      "Ġupanyasa": 2377,
      "Ġkanya": 2378,
      "Ġlamba": 2379,
      "Ġor": 2380,
      "binda": 2381,
      "ĠdàŃ±ara": 2382,
      "Ġtaku": 2383,
      "àŃ±ar": 2384,
      "ishi": 2385,
      "mandira": 2386,
      "Ġbishnu": 2387,
      "ks": 2388,
      "Ġpratinidhi": 2389,
      "Ġsnataka": 2390,
      "Ġyuro": 2391,
      "Ġkarayaipare": 2392,
      "masa": 2393,
      "panna": 2394,
      "Ġuni": 2395,
      "Ġasa": 2396,
      "prarambhika": 2397,
      "Ġniti": 2398,
      "ngare": 2399,
      "Ġnirddesha": 2400,
      "Ġpadaka": 2401,
      "rala": 2402,
      "die": 2403,
      "Ġparbata": 2404,
      "lisa": 2405,
      "Ġhisa": 2406,
      "Ġsim": 2407,
      "qu": 2408,
      "Ġneta": 2409,
      "dela": 2410,
      "lanare": 2411,
      "Ġen": 2412,
      "Ġkarichi": 2413,
      "Ġkharchcha": 2414,
      "Ġchapa": 2415,
      "Ġkalakaramane": 2416,
      "Ġbandhu": 2417,
      "Ġtarapharu": 2418,
      "Ġprema": 2419,
      "Ġshatabdire": 2420,
      "pro": 2421,
      "kshama": 2422,
      "Ġnirddishta": 2423,
      "Ġghoshana": 2424,
      "Ġrabi": 2425,
      "âĢĮ~": 2426,
      "193": 2427,
      "Ġchih": 2428,
      "bahita": 2429,
      "shka": 2430,
      "Ġtat": 2431,
      "Ġmadhu": 2432,
      "Ġshar": 2433,
      "Ġghanta": 2434,
      "Ġuchchatare": 2435,
      "Ġsamudaya": 2436,
      "kamgre": 2437,
      "Ġanubhaba": 2438,
      "Ġblaka": 2439,
      "Ġpuratana": 2440,
      "Ġ2005": 2441,
      "bharata": 2442,
      "Ġparamparika": 2443,
      "Ġbelaku": 2444,
      "Ġadhikari": 2445,
      "puraskara": 2446,
      "Ġpana": 2447,
      "aba": 2448,
      "Ġadhinare": 2449,
      "Ġnet": 2450,
      "gna": 2451,
      "Ġad": 2452,
      "Ġstara": 2453,
      "saka": 2454,
      "Ġbiru": 2455,
      "cie": 2456,
      "thibara": 2457,
      "kamgresa": 2458,
      "Ġmishi": 2459,
      "Ġalaga": 2460,
      "Ġkhrishta": 2461,
      "Ġbauddha": 2462,
      "Ġgiti": 2463,
      "Ġakasha": 2464,
      "yanara": 2465,
      "Ġabha": 2466,
      "Ġjanayae": 2467,
      "sita": 2468,
      "jani": 2469,
      "Ġbla": 2470,
      "Ġdaktara": 2471,
      "Ġsantana": 2472,
      "jibani": 2473,
      "Ġ2021": 2474,
      "ĠsàŃ±ra": 2475,
      "rrishya": 2476,
      "dhiya": 2477,
      "translated": 2478,
      "à¦": 2479,
      "Ġemane": 2480,
      "shthi": 2481,
      "shcha": 2482,
      "Ġlala": 2483,
      "Ġgumpha": 2484,
      "bharatara": 2485,
      "pti": 2486,
      "Ġadhunika": 2487,
      "Ġ40": 2488,
      "Ġena": 2489,
      "karda": 2490,
      "Ġmandirare": 2491,
      "Ġkalika": 2492,
      "Ġhala": 2493,
      "yatra": 2494,
      "Ġchikit": 2495,
      "shora": 2496,
      "Ġran": 2497,
      "Ġsine": 2498,
      "Ġcheshta": 2499,
      "Ġhrasa": 2500,
      "Ġkhara": 2501,
      "Ġ29": 2502,
      "Ġbidya": 2503,
      "Ġkaranaru": 2504,
      "Ġgramare": 2505,
      "Ġdigare": 2506,
      "Ġmisha": 2507,
      "deshare": 2508,
      "nanika": 2509,
      "maya": 2510,
      "Ġab": 2511,
      "Ġkehi": 2512,
      "Ġprasada": 2513,
      "nce": 2514,
      "Ġnije": 2515,
      "Ġsambala": 2516,
      "Ġaro": 2517,
      "uthile": 2518,
      "Ġpramana": 2519,
      "Ġthai": 2520,
      "Ġjibanu": 2521,
      "Ġvi": 2522,
      "hindu": 2523,
      "Ġsambhabana": 2524,
      "Ġsampra": 2525,
      "Ġsubidha": 2526,
      "Ġkamp": 2527,
      "Ġlaga": 2528,
      "wa": 2529,
      "Ġpalita": 2530,
      "Ġpurnna": 2531,
      "Ġsahityika": 2532,
      "cial": 2533,
      "Ġsari": 2534,
      "lam": 2535,
      "Ġghare": 2536,
      "Ġanumo": 2537,
      "Ġsiddha": 2538,
      "ino": 2539,
      "Ġmane": 2540,
      "versi": 2541,
      "tina": 2542,
      "ksi": 2543,
      "masi": 2544,
      "Ġmd": 2545,
      "deshi": 2546,
      "karare": 2547,
      "ttama": 2548,
      "Ġyepariki": 2549,
      "dan": 2550,
      "ithila": 2551,
      "Ġbarga": 2552,
      "Ġlan": 2553,
      "Ġkshati": 2554,
      "ary": 2555,
      "Ġtale": 2556,
      "Ġ190": 2557,
      "Ġparampara": 2558,
      "Ġandolana": 2559,
      "lima": 2560,
      "ĠàŃ±a": 2561,
      "Ġpush": 2562,
      "paru": 2563,
      "prapta": 2564,
      "Ġpahada": 2565,
      "Ġbujha": 2566,
      "Ġrashtrapati": 2567,
      "ĠsàŃ±rupa": 2568,
      "Ġdraghi": 2569,
      "cy": 2570,
      "kanta": 2571,
      "tory": 2572,
      "Ġmdwiki": 2573,
      "Ġagra": 2574,
      "pali": 2575,
      "bira": 2576,
      "Ġayo": 2577,
      "bij": 2578,
      "Ġsuchana": 2579,
      "Ġ1980": 2580,
      "shali": 2581,
      "Ġmatha": 2582,
      "Ġgalpa": 2583,
      "Ġeksa": 2584,
      "Ġmanaba": 2585,
      "ithae": 2586,
      "alth": 2587,
      "nkha": 2588,
      "Ġskula": 2589,
      "Ġkaripari": 2590,
      "Ġsarbo": 2591,
      "Ġakshamsha": 2592,
      "Ġmumbai": 2593,
      "ĠdayitàŃ±": 2594,
      "Ġsamyukta": 2595,
      "Ġudde": 2596,
      "shtri": 2597,
      "Ġpata": 2598,
      "Ġpitha": 2599,
      "jata": 2600,
      "Ġladha": 2601,
      "Ġashta": 2602,
      "Ġrachita": 2603,
      "Ġmahapra": 2604,
      "Ġes": 2605,
      "Ġsamala": 2606,
      "Ġabasthare": 2607,
      "Ġsindroma": 2608,
      "uthiba": 2609,
      "dhuri": 2610,
      "Ġdeshamana": 2611,
      "cation": 2612,
      "Ġchinta": 2613,
      "Ġraktachapa": 2614,
      "Ġbiro": 2615,
      "am": 2616,
      "Ġprasta": 2617,
      "Ġabadana": 2618,
      "Ġsamskrriti": 2619,
      "Ġsm": 2620,
      "Ġpradeshara": 2621,
      "jiba": 2622,
      "nchalara": 2623,
      "bal": 2624,
      "Ġpras": 2625,
      "Ġbhadra": 2626,
      "Ġkahithile": 2627,
      "Ġth": 2628,
      "Ġmanasika": 2629,
      "bartta": 2630,
      "as": 2631,
      "ble": 2632,
      "nes": 2633,
      "ĠdàŃ±ipa": 2634,
      "kahani": 2635,
      "Ġsethire": 2636,
      "Ġniyantrana": 2637,
      "Ġst": 2638,
      "Ġkrida": 2639,
      "Ġjada": 2640,
      "Ġyauna": 2641,
      "Ġsain": 2642,
      "Ġyog": 2643,
      "Ġnamita": 2644,
      "Ġkarmi": 2645,
      "Ġaru": 2646,
      "cu": 2647,
      "kali": 2648,
      "Ġbastu": 2649,
      "yaipare": 2650,
      "ausha": 2651,
      "Ġpaddha": 2652,
      "25": 2653,
      "maku": 2654,
      "Ġnaksha": 2655,
      "Ġnew": 2656,
      "noti": 2657,
      "sraba": 2658,
      "bhaugalika": 2659,
      "Ġprayoga": 2660,
      "mbhira": 2661,
      "Ġaj": 2662,
      "2009": 2663,
      "Ġpathara": 2664,
      "Ġbibhakta": 2665,
      "ikara": 2666,
      "shtara": 2667,
      "Ġananda": 2668,
      "Ġchina": 2669,
      "Ġ1999": 2670,
      "Ġjariare": 2671,
      "\",": 2672,
      "lek": 2673,
      "Ġnashta": 2674,
      "Ġhatya": 2675,
      "Ġchitrana": 2676,
      "Ġrani": 2677,
      "Ġbanti": 2678,
      "Ġaghata": 2679,
      "bhuta": 2680,
      "ĠgurutàŃ±": 2681,
      "Ġkshamata": 2682,
      "Ġabhaba": 2683,
      "Ġpariba": 2684,
      "Ġbiruddhare": 2685,
      "Ġap": 2686,
      "dhra": 2687,
      "loji": 2688,
      "Ġmanisha": 2689,
      "Ġpatanatharu": 2690,
      "Ġgrriha": 2691,
      "Ġyakrrita": 2692,
      "ĠshàŃ±a": 2693,
      "Ġlikhita": 2694,
      "Ġkanthashilpi": 2695,
      "Ġjyoti": 2696,
      "Ġbidyu": 2697,
      "bhaga": 2698,
      "Ġ2002": 2699,
      "Ġamerika": 2700,
      "Ġatyadhika": 2701,
      "Ġmaharaja": 2702,
      "thanara": 2703,
      "bina": 2704,
      "Ġgitikara": 2705,
      "Ġ&": 2706,
      "heba": 2707,
      "Ġmanu": 2708,
      "ttika": 2709,
      "Ġpradaha": 2710,
      "Ġutpadana": 2711,
      "Ġparasta": 2712,
      "Ġdaktari": 2713,
      "Ġnetrrit": 2714,
      "katha": 2715,
      "nir": 2716,
      "Ġpartira": 2717,
      "60": 2718,
      "kya": 2719,
      "Ġcharma": 2720,
      "Ġmanyata": 2721,
      "Ġaya": 2722,
      "Ġbibe": 2723,
      "Ġpaithila": 2724,
      "Ġpratibarsha": 2725,
      "Ġbrahmana": 2726,
      "Ġsharira": 2727,
      "Ġdraghimare": 2728,
      "Ġsamsada": 2729,
      "sena": 2730,
      "Ġrupare": 2731,
      "khanda": 2732,
      "ĠmahattàŃ±": 2733,
      "Ġsamkra": 2734,
      "yaithiba": 2735,
      "sammana": 2736,
      "khana": 2737,
      "tori": 2738,
      "Ġgoda": 2739,
      "Ġduradarshana": 2740,
      "bhar": 2741,
      "nsi": 2742,
      "sahi": 2743,
      "24": 2744,
      "Ġkla": 2745,
      "Ġabar": 2746,
      "Ġex": 2747,
      "Ġbhauni": 2748,
      "Ġrajanaitika": 2749,
      "Ġratna": 2750,
      "Ġhetu": 2751,
      "Ġrahithile": 2752,
      "Ġgujara": 2753,
      "bitra": 2754,
      "Ġdeha": 2755,
      "padaka": 2756,
      "Ġakranta": 2757,
      "Ġanushthana": 2758,
      "sai": 2759,
      "Ġtinoti": 2760,
      "Ġsupari": 2761,
      "Ġmohana": 2762,
      "daru": 2763,
      "nani": 2764,
      "Ġkanthadana": 2765,
      "Ġmal": 2766,
      "Ġlekhithile": 2767,
      "Ġkaryyakrama": 2768,
      "Ġmilita": 2769,
      "Ġaitihasika": 2770,
      "tapa": 2771,
      "Ġ2003": 2772,
      "Ġadhyayana": 2773,
      "nthare": 2774,
      "odha": 2775,
      "ber": 2776,
      "ms": 2777,
      "Ġbhitara": 2778,
      "peshi": 2779,
      "asi": 2780,
      "Ġkampyu": 2781,
      "Ġmahi": 2782,
      "Ġcharitra": 2783,
      "antara": 2784,
      "Ġhebaku": 2785,
      "mon": 2786,
      "Ġpas": 2787,
      "dhita": 2788,
      "manu": 2789,
      "ena": 2790,
      "Ġnag": 2791,
      "Ġmish": 2792,
      "Ġsahayyare": 2793,
      "Ġ1995": 2794,
      "Ġutsaba": 2795,
      "kale": 2796,
      "Ġprabhu": 2797,
      "Ġkati": 2798,
      "Ġkashta": 2799,
      "Ġdiga": 2800,
      "shkara": 2801,
      "Ġbal": 2802,
      "Ġdhala": 2803,
      "Ġparamar": 2804,
      "Ġsebaka": 2805,
      "ww": 2806,
      "ĠĠĊ": 2807,
      "Ġstri": 2808,
      "gamana": 2809,
      "tes": 2810,
      "miti": 2811,
      "Ġchaudhuri": 2812,
      "Ġsna": 2813,
      "Ġhajara": 2814,
      "Ġcharana": 2815,
      "ghra": 2816,
      "Ġbijayi": 2817,
      "nama": 2818,
      "bhadra": 2819,
      "Ġlokamane": 2820,
      "Ġbhutanu": 2821,
      "reja": 2822,
      "Ġyaithile": 2823,
      "Ġrrishi": 2824,
      "Ġprakrritika": 2825,
      "bidhana": 2826,
      "Ġsheshare": 2827,
      "shyakiya": 2828,
      "pakhi": 2829,
      "Ġnai": 2830,
      "tyaga": 2831,
      "Ġ2001": 2832,
      "Ġasubidha": 2833,
      "Ġalu": 2834,
      "Ġniyama": 2835,
      "Ġkathachitratire": 2836,
      "Ġbhota": 2837,
      "dipa": 2838,
      "hue": 2839,
      "Ġuttama": 2840,
      "un": 2841,
      "Ġprachara": 2842,
      "jala": 2843,
      "Ġheuthila": 2844,
      "Ġdanda": 2845,
      "ĠjàŃ±ra": 2846,
      "Ġbikra": 2847,
      "Ġnirbhara": 2848,
      "Ġniyuta": 2849,
      "Ġpunar": 2850,
      "ed": 2851,
      "Ġbarana": 2852,
      "achi": 2853,
      "Ġnali": 2854,
      "Ġdebaku": 2855,
      "Ġshaha": 2856,
      "Ġshukla": 2857,
      "versity": 2858,
      "Ġsamka": 2859,
      "Ġyiba": 2860,
      "Ġpratiyogi": 2861,
      "bri": 2862,
      "Ġspe": 2863,
      "Ġparinata": 2864,
      "Ġshta": 2865,
      "Ġkhabara": 2866,
      "taba": 2867,
      "Ġmahabidyalaya": 2868,
      "Ġweb": 2869,
      "Ġaloka": 2870,
      "Ġdharabahika": 2871,
      "mai": 2872,
      "dhe": 2873,
      "Ġsamlapa": 2874,
      "nra": 2875,
      "Ġbhabi": 2876,
      "jati": 2877,
      "Ġtalika": 2878,
      "Ġgathita": 2879,
      "Ġkahile": 2880,
      "handi": 2881,
      "Ġsuna": 2882,
      "Ġtur": 2883,
      "Ġfo": 2884,
      "rachana": 2885,
      "Ġparichalana": 2886,
      "Ġsku": 2887,
      "Ġsamagra": 2888,
      "à¤¾": 2889,
      "Ġadha": 2890,
      "shmi": 2891,
      "gama": 2892,
      "Ġsista": 2893,
      "Ġ1998": 2894,
      "Ġsaptaha": 2895,
      "80": 2896,
      "Ġbibar": 2897,
      "Ġpratirodha": 2898,
      "Ġjatila": 2899,
      "Ġwith": 2900,
      "Ġgya": 2901,
      "Ġbikraya": 2902,
      "rapi": 2903,
      "Ġphar": 2904,
      "Ġsuyoga": 2905,
      "Ġparibarare": 2906,
      "Ġmamsapeshi": 2907,
      "kka": 2908,
      "Ġkada": 2909,
      "Ġkathachitrare": 2910,
      "ĠbishàŃ±ra": 2911,
      "Ġkalarapa": 2912,
      "Ġmahana": 2913,
      "Ġlist": 2914,
      "puta": 2915,
      "shaya": 2916,
      "Ġstarare": 2917,
      "shakti": 2918,
      "Ġhisabare": 2919,
      "der": 2920,
      "Ġpaiba": 2921,
      "parbani": 2922,
      "nkana": 2923,
      "hina": 2924,
      "Ġhoithibaru": 2925,
      "ĠsàŃ±lpa": 2926,
      "Ġprrishtha": 2927,
      "Ġbahare": 2928,
      "Ġ60": 2929,
      "Ġsamparkare": 2930,
      "Ġyadio": 2931,
      "Ġyogyata": 2932,
      "Ġsima": 2933,
      "Ġnata": 2934,
      "Ġshara": 2935,
      "ĠsàŃ±rnna": 2936,
      "Ġbaij": 2937,
      "les": 2938,
      "purara": 2939,
      "parba": 2940,
      "2011": 2941,
      "Ġunnati": 2942,
      "echa": 2943,
      "artha": 2944,
      "Ġchasha": 2945,
      "Ġtelugu": 2946,
      "Ġworld": 2947,
      "Ġbidhi": 2948,
      "Ġkrama": 2949,
      "Ġmatare": 2950,
      "Ġhrrit": 2951,
      "Ġlakshya": 2952,
      "Ġsnana": 2953,
      "Ġpabitra": 2954,
      "Ġlipi": 2955,
      "Ġtahaku": 2956,
      "stro": 2957,
      "Ġojana": 2958,
      "Ġsamanya": 2959,
      "Ġnaga": 2960,
      "yauthiba": 2961,
      "Ġrakhiba": 2962,
      "ĠnetrritàŃ±": 2963,
      "gy": 2964,
      "nada": 2965,
      "àŃ¤": 2966,
      "Ġparibarara": 2967,
      "Ġsamgita": 2968,
      "landa": 2969,
      "Ġsamgathanara": 2970,
      "Ġindian": 2971,
      "nre": 2972,
      "Ġchalachchitrara": 2973,
      "Ġbrrik": 2974,
      "ssi": 2975,
      "Ġmacha": 2976,
      "bela": 2977,
      "27": 2978,
      "sm": 2979,
      "mas": 2980,
      "Ġata": 2981,
      "Ġmati": 2982,
      "Ġrai": 2983,
      "jada": 2984,
      "Ġjena": 2985,
      "Ġkhola": 2986,
      "nk": 2987,
      "kshata": 2988,
      "Ġtar": 2989,
      "Ġ1977": 2990,
      "madhya": 2991,
      "Ġshanti": 2992,
      "Ġteli": 2993,
      "el": 2994,
      "Ġmasti": 2995,
      "za": 2996,
      "Ġparibesha": 2997,
      "Ġaphri": 2998,
      "40": 2999,
      "Ġakara": 3000,
      "Ġmukta": 3001,
      "Ġ1985": 3002,
      "Ġcom": 3003,
      "28": 3004,
      "Ġghu": 3005,
      "Ġsala": 3006,
      "Ġmasara": 3007,
      "Ġparishada": 3008,
      "Ġkaleja": 3009,
      "Ġhrada": 3010,
      "maru": 3011,
      "Ġkanika": 3012,
      "Ġbhashara": 3013,
      "dele": 3014,
      "byakti": 3015,
      "Ġsamuha": 3016,
      "Ġmahaprabhu": 3017,
      "jar": 3018,
      "dàŃ±i": 3019,
      "Ġr": 3020,
      "antu": 3021,
      "gaja": 3022,
      "Ġdiayaithila": 3023,
      "dri": 3024,
      "Ġbarsharu": 3025,
      "njeka": 3026,
      "Ġukta": 3027,
      "ls": 3028,
      "Ġjhu": 3029,
      "Ġbipada": 3030,
      "Ġnan": 3031,
      "Ġkarayiba": 3032,
      "Ġadibasi": 3033,
      "phar": 3034,
      "Ġniyukta": 3035,
      "Ġatma": 3036,
      "Ġmajhi": 3037,
      "ranti": 3038,
      "Ġabasara": 3039,
      "Ġparti": 3040,
      "Ġ1971": 3041,
      "Ġprakriya": 3042,
      "dhàŃ±": 3043,
      "Ġsamgrami": 3044,
      "Ġpashu": 3045,
      "Ġgayaka": 3046,
      "Ġlage": 3047,
      "Ġhis": 3048,
      "Ġprrithibira": 3049,
      "Ġpakhapakhi": 3050,
      "Ġpunah": 3051,
      "Ġchikitsare": 3052,
      "Ġdan": 3053,
      "ĠsàŃ±adhina": 3054,
      "Ġdana": 3055,
      "lire": 3056,
      "Ġdabi": 3057,
      "mandi": 3058,
      "chaka": 3059,
      "kita": 3060,
      "Ġchihna": 3061,
      "Ġchitranatya": 3062,
      "jaka": 3063,
      "Ġduh": 3064,
      "bc": 3065,
      "Ġsameta": 3066,
      "Ġnar": 3067,
      "mukhi": 3068,
      "ns": 3069,
      "Ġ189": 3070,
      "Ġbhra": 3071,
      "Ġsapa": 3072,
      "Ġyuba": 3073,
      "Ġpuras": 3074,
      "aushadha": 3075,
      "Ġbhar": 3076,
      "Ġetha": 3077,
      "ĠtattàŃ±": 3078,
      "Ġatyanta": 3079,
      "tarara": 3080,
      "jyare": 3081,
      "Ġbaha": 3082,
      "site": 3083,
      "njabi": 3084,
      "Ġshuni": 3085,
      "Ġyantra": 3086,
      "Ġsarbochcha": 3087,
      "Ġbaba": 3088,
      "Ġgani": 3089,
      "Ġloke": 3090,
      "Ġbrriha": 3091,
      "Ġdone": 3092,
      "ema": 3093,
      "guru": 3094,
      "lei": 3095,
      "Ġdhana": 3096,
      "Ġpradesha": 3097,
      "Ġpadi": 3098,
      "Ġichcha": 3099,
      "Ġshastri": 3100,
      "Ġbandara": 3101,
      "Ġyaithila": 3102,
      "Ġpradhanamantri": 3103,
      "Ġapareshana": 3104,
      "Ġsagara": 3105,
      "Ġjagata": 3106,
      "Ġgai": 3107,
      "29": 3108,
      "mbi": 3109,
      "Ġpali": 3110,
      "Ġshira": 3111,
      "Ġmora": 3112,
      "Ġnatya": 3113,
      "Ġnadira": 3114,
      "kshepa": 3115,
      "Ġchihnata": 3116,
      "Ġgara": 3117,
      "dhaba": 3118,
      "Ġkoti": 3119,
      "Ġshrenira": 3120,
      "inosara": 3121,
      "lasi": 3122,
      "Ġbamsha": 3123,
      "Ġsamapta": 3124,
      "Ġpratishthita": 3125,
      "àŃ±ala": 3126,
      "ĠkàŃ±": 3127,
      "Ġdalare": 3128,
      "njekasana": 3129,
      "yamita": 3130,
      "Ġbanya": 3131,
      "Ġmada": 3132,
      "Ġgane": 3133,
      "Ġ2022": 3134,
      "shàŃ±ri": 3135,
      "Ġbehera": 3136,
      "Ġagni": 3137,
      "Ġadharita": 3138,
      "milana": 3139,
      "trita": 3140,
      "Ġudyana": 3141,
      "tai": 3142,
      "Ġchampi": 3143,
      "Ġsamayara": 3144,
      "Ġpurnni": 3145,
      "Ġinter": 3146,
      "shrama": 3147,
      "Ġjanita": 3148,
      "ase": 3149,
      "ndare": 3150,
      "kiri": 3151,
      "Ġuchchata": 3152,
      "Ġtamila": 3153,
      "per": 3154,
      "yanti": 3155,
      "chyu": 3156,
      "Ġsambhaba": 3157,
      "Ġbarshara": 3158,
      "Ġneba": 3159,
      "26": 3160,
      "70": 3161,
      "Ġudaharana": 3162,
      "Ġthibaru": 3163,
      "Ġpatrika": 3164,
      "bishàŃ±": 3165,
      "Ġdeo": 3166,
      "Ġkary": 3167,
      "yani": 3168,
      "saphu": 3169,
      "ngamana": 3170,
      "upa": 3171,
      "Ġradha": 3172,
      "beda": 3173,
      "fo": 3174,
      "kho": 3175,
      "shtrara": 3176,
      "Ġphara": 3177,
      "Ġilek": 3178,
      "Ġkarnna": 3179,
      "Ġmadhyama": 3180,
      "Ġrekarda": 3181,
      "njama": 3182,
      "Ġharahari": 3183,
      "Ġprachalita": 3184,
      "Ġbari": 3185,
      "shala": 3186,
      "Ġhada": 3187,
      "Ġatyaba": 3188,
      "tura": 3189,
      "Ġabhinita": 3190,
      "Ġrritu": 3191,
      "laksh": 3192,
      "Ġsami": 3193,
      "Ġkaryyakari": 3194,
      "ficial": 3195,
      "ĠmahattàŃ±purnna": 3196,
      "Ġnijaku": 3197,
      "Ġasithile": 3198,
      "Ġpurbatana": 3199,
      "Ġprakalpa": 3200,
      "Ġdrrishya": 3201,
      "bishesha": 3202,
      "Ġ1967": 3203,
      ".,": 3204,
      "tani": 3205,
      "Ġyuni": 3206,
      "kottara": 3207,
      "Ġdurbala": 3208,
      "Ġmilithae": 3209,
      "Ġpakist": 3210,
      "Ġamerikara": 3211,
      "Ġtripathi": 3212,
      "rachanabali": 3213,
      "Ġmukha": 3214,
      "Ġchandana": 3215,
      "Ġsthira": 3216,
      "orda": 3217,
      "Â°": 3218,
      "Ġesia": 3219,
      "shoka": 3220,
      "ud": 3221,
      "kal": 3222,
      "Ġaushadhara": 3223,
      "bhyan": 3224,
      "Ġspashta": 3225,
      "mg": 3226,
      "ono": 3227,
      "Ġkhai": 3228,
      "2015": 3229,
      "shre": 3230,
      "ĠsarasàŃ±": 3231,
      "paranti": 3232,
      "Ġsaphalata": 3233,
      "Ġstanya": 3234,
      "Ġwebsite": 3235,
      "war": 3236,
      "Ġaha": 3237,
      "thaka": 3238,
      "Ġbikashita": 3239,
      "Ġahuri": 3240,
      "Ġbati": 3241,
      "Ġhoichanti": 3242,
      "Ġpuruna": 3243,
      "2014": 3244,
      "Ġhrrid": 3245,
      "Ġgrantha": 3246,
      "murtti": 3247,
      "Ġsamiti": 3248,
      "Ġraktasraba": 3249,
      "Ġprajati": 3250,
      "mmada": 3251,
      "Ġkaripare": 3252,
      "Ġbhaya": 3253,
      "mini": 3254,
      "Ġparis": 3255,
      "paryya": 3256,
      "Ġshrirama": 3257,
      "Ġbibhagare": 3258,
      "nkathare": 3259,
      "Ġsthala": 3260,
      "shedha": 3261,
      "Ġtatkalina": 3262,
      "Ġanumodita": 3263,
      "ric": 3264,
      "Ġmihira": 3265,
      "golika": 3266,
      "Ġbibarani": 3267,
      "Ġpresa": 3268,
      "yogita": 3269,
      "bayo": 3270,
      "Ġupastha": 3271,
      "brritti": 3272,
      "lanti": 3273,
      "uha": 3274,
      "Ġindra": 3275,
      "Ġshrila": 3276,
      "Ġuniversity": 3277,
      "2004": 3278,
      "Ġnakshatra": 3279,
      "tive": 3280,
      "bahya": 3281,
      "Ġchanda": 3282,
      "Ġsita": 3283,
      "niyama": 3284,
      "Ġprajatira": 3285,
      "Ġyieki": 3286,
      "saru": 3287,
      "Ġpandita": 3288,
      "Ġkrame": 3289,
      "tarana": 3290,
      "deithile": 3291,
      "grama": 3292,
      "Ġsthapita": 3293,
      "Ġsarala": 3294,
      "Ġmahilamana": 3295,
      "ĠbishàŃ±bidyalayaru": 3296,
      "Ġimreja": 3297,
      "Ġpaunda": 3298,
      "leri": 3299,
      "Ġshilpa": 3300,
      ":/": 3301,
      "stare": 3302,
      "lama": 3303,
      "ĠbaleshàŃ±ra": 3304,
      "lood": 3305,
      "Ġnational": 3306,
      "Ġanumana": 3307,
      "Ġgraha": 3308,
      "ĠdhàŃ±": 3309,
      "hoi": 3310,
      "Ġmuha": 3311,
      "Ġbarshika": 3312,
      "Ġ1997": 3313,
      "Ġbuddha": 3314,
      "Ġ1974": 3315,
      "Ġbandha": 3316,
      "Ġrakhithile": 3317,
      "Ġsnatakottara": 3318,
      "ol": 3319,
      "Ġalo": 3320,
      "Ġurd": 3321,
      "belaku": 3322,
      "Ġadhina": 3323,
      "Ġsamghatika": 3324,
      "aneta": 3325,
      "Ġyoda": 3326,
      "Ġphusaphu": 3327,
      "ttp": 3328,
      "Ġabarodha": 3329,
      "garu": 3330,
      "ĠashàŃ±": 3331,
      "Ġkrrishi": 3332,
      "Ġsau": 3333,
      "Ġdata": 3334,
      "prila": 3335,
      "byaktigata": 3336,
      "nira": 3337,
      "Ġchaka": 3338,
      "pitha": 3339,
      "yurabha": 3340,
      "75": 3341,
      "iare": 3342,
      "shte": 3343,
      "Ġrashi": 3344,
      "Ġlokamana": 3345,
      "shtriya": 3346,
      "Ġbbc": 3347,
      "Ġasam": 3348,
      "Ġandhra": 3349,
      "Ġ48": 3350,
      "raru": 3351,
      "Ġer": 3352,
      "Ġgajapati": 3353,
      "90": 3354,
      "danare": 3355,
      "prri": 3356,
      "Ġem": 3357,
      "Ġbipa": 3358,
      "deha": 3359,
      "mes": 3360,
      "kosha": 3361,
      "Ġ1996": 3362,
      "baddha": 3363,
      "Ġprabahita": 3364,
      "Ġhoipari": 3365,
      "yauthila": 3366,
      "Ġganesha": 3367,
      "ire": 3368,
      "Ġkebe": 3369,
      "Ġ1961": 3370,
      "abhinita": 3371,
      "Ġmini": 3372,
      "gudi": 3373,
      "karyya": 3374,
      "bandhu": 3375,
      "Ġpasanda": 3376,
      "Ġema": 3377,
      "Ġprabh": 3378,
      "Ġhanu": 3379,
      "phy": 3380,
      "Ġsiddhanta": 3381,
      "ĠshàŃ±asa": 3382,
      "Ġsistama": 3383,
      "bhai": 3384,
      "://": 3385,
      "ddhara": 3386,
      "danda": 3387,
      "rddha": 3388,
      "nala": 3389,
      "Ġayojana": 3390,
      "Ġhatare": 3391,
      "anup": 3392,
      "ikare": 3393,
      "mal": 3394,
      "Ġmyu": 3395,
      "Ġsammi": 3396,
      "Ġsamarthana": 3397,
      "Ġdis": 3398,
      "Ġ31": 3399,
      "sanika": 3400,
      "pinda": 3401,
      "Ġ35": 3402,
      "Ġ1994": 3403,
      "Ġkarayauchi": 3404,
      "cleanup": 3405,
      "bari": 3406,
      "jhara": 3407,
      "Ġnagara": 3408,
      "Ġhati": 3409,
      "Ġsome": 3410,
      "imrajire": 3411,
      "Ġatyabashyakiya": 3412,
      "Ġbarambara": 3413,
      "grri": 3414,
      "liya": 3415,
      "Ġrak": 3416,
      "Ġlai": 3417,
      "Ġshasaka": 3418,
      "Ġdharmika": 3419,
      "Ġalimpi": 3420,
      "shyare": 3421,
      "kila": 3422,
      "yanare": 3423,
      "Ġpadmashri": 3424,
      "sin": 3425,
      "sela": 3426,
      "Ġsabhapati": 3427,
      "Ġsyste": 3428,
      "Ġprastaba": 3429,
      "io": 3430,
      "Ġ||": 3431,
      "Ġparimana": 3432,
      "Ġkishora": 3433,
      "Ġrogamana": 3434,
      "velo": 3435,
      "Ġjibanara": 3436,
      "Ġphalaphala": 3437,
      "Ġbidro": 3438,
      "patya": 3439,
      "Ġpurnnima": 3440,
      "jibana": 3441,
      "Ġtirtha": 3442,
      "ngo": 3443,
      "Ġsamrata": 3444,
      "Ġchadi": 3445,
      "Ġce": 3446,
      "ksharu": 3447,
      "Ġdhyana": 3448,
      "Ġkaribe": 3449,
      "itis": 3450,
      "bimsha": 3451,
      "kela": 3452,
      "Ġ80": 3453,
      "Ġparyyatana": 3454,
      "Ġalar": 3455,
      "Ġbaja": 3456,
      "Ġgabhira": 3457,
      "ket": 3458,
      "Ġchaturtha": 3459,
      "Ġabhayar": 3460,
      "Ġsainya": 3461,
      "Ġsnayu": 3462,
      "Ġpae": 3463,
      "ndhi": 3464,
      "bedana": 3465,
      "Ġdija": 3466,
      "Ġnyu": 3467,
      "Ġbyapi": 3468,
      "dasa": 3469,
      "Ġnana": 3470,
      "Ġ1991": 3471,
      "Ġsamskrrita": 3472,
      "myu": 3473,
      "Ġehipari": 3474,
      "lora": 3475,
      "Ġdise": 3476,
      "Ġmilu": 3477,
      "Ġupadhi": 3478,
      "Ġmishrana": 3479,
      "thai": 3480,
      "Ġbigraha": 3481,
      "Ġbama": 3482,
      "Ġchakiri": 3483,
      "Ġkarai": 3484,
      "à¤°": 3485,
      "mple": 3486,
      "Ġpratiyogitare": 3487,
      "up": 3488,
      "Ġsaharare": 3489,
      "dhari": 3490,
      "sanala": 3491,
      "à¬¼,": 3492,
      "nkada": 3493,
      "Ġshikshaka": 3494,
      "Ġnikatastha": 3495,
      "Ġsambandhiya": 3496,
      "saha": 3497,
      "Ġghar": 3498,
      "Ġhoithanti": 3499,
      "Ġsthiti": 3500,
      "rita": 3501,
      "lekha": 3502,
      "lila": 3503,
      "pashchima": 3504,
      "Ġkimbadanti": 3505,
      "lala": 3506,
      "shama": 3507,
      "Ġshila": 3508,
      "ĠsàŃ±r": 3509,
      "yanda": 3510,
      "kramare": 3511,
      "Ġbrata": 3512,
      "mya": 3513,
      "Ġsampadaka": 3514,
      "Ġteshta": 3515,
      "Ġghatithila": 3516,
      "ona": 3517,
      "arara": 3518,
      "tik": 3519,
      "tibha": 3520,
      "dhina": 3521,
      "Ġprarambhika": 3522,
      "ntara": 3523,
      "japura": 3524,
      "deo": 3525,
      "Ġ1957": 3526,
      "Ġsaura": 3527,
      "Ġrasta": 3528,
      "Ġtibhi": 3529,
      "kora": 3530,
      "phta": 3531,
      "orta": 3532,
      "lasa": 3533,
      "Ġei": 3534,
      "Ġbhaba": 3535,
      "barnna": 3536,
      "Ġesiya": 3537,
      "ad": 3538,
      "dur": 3539,
      "Ġmahe": 3540,
      "ding": 3541,
      "Ġsure": 3542,
      "Ġsamgathana": 3543,
      "jhi": 3544,
      "tim": 3545,
      "teri": 3546,
      "Ġkora": 3547,
      "Ġ1984": 3548,
      "Ġ1952": 3549,
      "Ġshabdara": 3550,
      "Ġparamarsha": 3551,
      "33": 3552,
      "mb": 3553,
      "mation": 3554,
      "Ġkeu": 3555,
      "Ġpradatta": 3556,
      "Ġkanthashilpimane": 3557,
      "Ġkampyutara": 3558,
      "kuda": 3559,
      "Ġudbhida": 3560,
      "ul": 3561,
      "Ġbaisha": 3562,
      "uranika": 3563,
      "Ġekamatra": 3564,
      "Ġjaha": 3565,
      "Ġanusan": 3566,
      "sthali": 3567,
      "Ġitiha": 3568,
      "panare": 3569,
      "Ġsathi": 3570,
      "ĠdàŃ±a": 3571,
      "Ġsamkh": 3572,
      "Ġdie": 3573,
      "Ġasiba": 3574,
      "Ġdharanara": 3575,
      "Ġghoda": 3576,
      "dharma": 3577,
      "kro": 3578,
      "kataka": 3579,
      "Ġtama": 3580,
      "Ġtali": 3581,
      "at": 3582,
      "nthi": 3583,
      "yanika": 3584,
      "Ġmali": 3585,
      "Ġyaj": 3586,
      "Ġ1993": 3587,
      ".)": 3588,
      "ethare": 3589,
      "Ġkon": 3590,
      "Ġkhana": 3591,
      "Ġpratika": 3592,
      "brah": 3593,
      "Ġdainosara": 3594,
      "Ġanumati": 3595,
      "pradeshara": 3596,
      "Ġdharmara": 3597,
      "Ġkarayauthila": 3598,
      "kendra": 3599,
      "Ġdru": 3600,
      "Ġbela": 3601,
      "Ġnamakarana": 3602,
      "Ġchalachchitrati": 3603,
      "Ġasthi": 3604,
      "ĠàŃ±i": 3605,
      "Ġpakistana": 3606,
      "Ġsamkramita": 3607,
      "Ġase": 3608,
      "shari": 3609,
      "padma": 3610,
      "Ġbasu": 3611,
      "Ġgramara": 3612,
      "gati": 3613,
      "Ġmur": 3614,
      "Ġbabu": 3615,
      "Ġanta": 3616,
      "Ġkosha": 3617,
      "masihare": 3618,
      "ĠàŃ¤": 3619,
      "gua": 3620,
      "Ġbishala": 3621,
      "Ġsharirika": 3622,
      "Ġprabhrriti": 3623,
      "99": 3624,
      "Ġkai": 3625,
      "Ġ1992": 3626,
      "Ġkholi": 3627,
      "guna": 3628,
      "Ġpratiyogita": 3629,
      "Ġsin": 3630,
      "Ġchithare": 3631,
      "Ġ1989": 3632,
      "Ġganana": 3633,
      "ĠbishàŃ±bidyalayare": 3634,
      "Ġuddeshyare": 3635,
      "nathile": 3636,
      "Ġmukhyamantri": 3637,
      "Ġsamskrritika": 3638,
      "Ġsamkalana": 3639,
      "ĠsattàŃ±": 3640,
      "tela": 3641,
      "logy": 3642,
      "Ġjibani": 3643,
      "yaithile": 3644,
      "Ġparas": 3645,
      "Ġantibayo": 3646,
      "Ġpakai": 3647,
      "Ġofficial": 3648,
      "Ġheithae": 3649,
      "Ġullekhaniya": 3650,
      "bayu": 3651,
      "Ġashoka": 3652,
      "Ġdauda": 3653,
      "Ġgopala": 3654,
      "Ġbijeta": 3655,
      "tions": 3656,
      "Ġprasarita": 3657,
      "88": 3658,
      "sarana": 3659,
      "Ġparibe": 3660,
      "ngali": 3661,
      "Ġsahayata": 3662,
      "bhugola": 3663,
      "Ġgupta": 3664,
      "Ġmanonita": 3665,
      "asu": 3666,
      "we": 3667,
      "Ġbasanta": 3668,
      "Ġbajara": 3669,
      "Ġnare": 3670,
      "salamana": 3671,
      "Ġparichaya": 3672,
      "ĠbhubaneshàŃ±": 3673,
      "yane": 3674,
      "lim": 3675,
      "sthara": 3676,
      "ngira": 3677,
      "prathama": 3678,
      "nde": 3679,
      "Ġarthika": 3680,
      "Ġagaru": 3681,
      "Ġyathe": 3682,
      "Ġgala": 3683,
      "check": 3684,
      "kshetra": 3685,
      "parbaparbani": 3686,
      "Ġchandi": 3687,
      "Ġdaka": 3688,
      "Ġmela": 3689,
      "Ġpilamana": 3690,
      "Ġbicharapati": 3691,
      "puna": 3692,
      "Ġamara": 3693,
      "galpa": 3694,
      "jibi": 3695,
      "Ġkhaiba": 3696,
      "Ġkarmachari": 3697,
      "cs": 3698,
      "nanare": 3699,
      "nje": 3700,
      "ry": 3701,
      "Ġ[": 3702,
      "try": 3703,
      "Ġkesha": 3704,
      "darshita": 3705,
      "oti": 3706,
      "tera": 3707,
      "Ġmahakasha": 3708,
      "Ġparyyataka": 3709,
      "ĠgurutàŃ±purnna": 3710,
      "69": 3711,
      "layara": 3712,
      "Ġaphi": 3713,
      "Ġsamskrri": 3714,
      "Ġbyabasayika": 3715,
      "Ġnathila": 3716,
      "Ġkaryyakala": 3717,
      "jena": 3718,
      "2000": 3719,
      "Ġkendriya": 3720,
      "àŃ±arda": 3721,
      "Ġmishai": 3722,
      "sanare": 3723,
      "Ġesa": 3724,
      "Ġjayi": 3725,
      "kira": 3726,
      "sams": 3727,
      "Ġbahula": 3728,
      "2017": 3729,
      "1995": 3730,
      "Ġsystem": 3731,
      "Ġrao": 3732,
      "min": 3733,
      "ĠĠĠ": 3734,
      "njini": 3735,
      "janana": 3736,
      "Ġshastriya": 3737,
      "Ġyatheshta": 3738,
      "kshu": 3739,
      "Ġsaro": 3740,
      "Ġpeta": 3741,
      "Ġmanushya": 3742,
      "Ġpresakri": 3743,
      "Ġ/": 3744,
      "teda": 3745,
      "Ġ1970": 3746,
      "Ġamla": 3747,
      "ĠparshàŃ±re": 3748,
      "tin": 3749,
      "Ġudya": 3750,
      "ĠsarasàŃ±ti": 3751,
      "35": 3752,
      "kabi": 3753,
      "Ġchati": 3754,
      "Ġgau": 3755,
      "Ġ47": 3756,
      "Ġaruna": 3757,
      "65": 3758,
      "id": 3759,
      "Ġve": 3760,
      "Ġbirodha": 3761,
      "chchi": 3762,
      "barare": 3763,
      "Ġadhyaksha": 3764,
      "Ġpaddhati": 3765,
      "anyanya": 3766,
      "Ġchai": 3767,
      "Ġrajyare": 3768,
      "Ġkharapa": 3769,
      "njara": 3770,
      "rina": 3771,
      "Ġgale": 3772,
      "grahi": 3773,
      "45": 3774,
      "sto": 3775,
      "Ġdehare": 3776,
      "Ġsthanan": 3777,
      "Ġbikashashila": 3778,
      "tanara": 3779,
      "tena": 3780,
      "Ġnau": 3781,
      "Ġdam": 3782,
      "Ġsimita": 3783,
      "Ġabhiyana": 3784,
      "Ġpida": 3785,
      "ther": 3786,
      "Ġshrikrrishna": 3787,
      "Ġshrijagannatha": 3788,
      "tru": 3789,
      "Ġstu": 3790,
      "Ġjarmani": 3791,
      "patana": 3792,
      "tanali": 3793,
      "Ġtibra": 3794,
      "Ġkhuba": 3795,
      "Ġparimanara": 3796,
      "Ġshir": 3797,
      "Ġniyukti": 3798,
      "Ġsmrriti": 3799,
      "sura": 3800,
      "rea": 3801,
      "Ġgaura": 3802,
      "Ġshighra": 3803,
      "mukhya": 3804,
      "Ġpoli": 3805,
      "Ġyuktarajyare": 3806,
      "Ġà": 3807,
      "Ġsakala": 3808,
      "Ġbhakti": 3809,
      "graphi": 3810,
      "praya": 3811,
      "Ġbasabasa": 3812,
      "66": 3813,
      "Ġpaksharu": 3814,
      "mitta": 3815,
      "Ġchadha": 3816,
      "Ġmandiraku": 3817,
      "Ġ1987": 3818,
      "Ġaspashta": 3819,
      "ska": 3820,
      "Ġtran": 3821,
      "Ġbarshare": 3822,
      "Ġsharirara": 3823,
      "Ġtapamatra": 3824,
      "Ġarogya": 3825,
      "Ġalarji": 3826,
      "bda": 3827,
      "Ġdianti": 3828,
      "Ġparibeshana": 3829,
      "Ġshishura": 3830,
      "Ġriver": 3831,
      "Ġsinema": 3832,
      "sahitya": 3833,
      "ĠsattàŃ±e": 3834,
      "gari": 3835,
      "Ġnayika": 3836,
      "kimba": 3837,
      "Ġbhitti": 3838,
      "Ġ45": 3839,
      "Ġsamrakshana": 3840,
      "Ġnagarika": 3841,
      "ple": 3842,
      "Ġkoi": 3843,
      "Ġprayo": 3844,
      "Ġkathi": 3845,
      "Ġrati": 3846,
      "kesha": 3847,
      "Ġbuda": 3848,
      "tamata": 3849,
      "Ġsamud": 3850,
      "Ġkamiyae": 3851,
      "Ġecha": 3852,
      "Ġpatri": 3853,
      "reta": 3854,
      "Ġananta": 3855,
      "Ġsamsa": 3856,
      "Ġekadashi": 3857,
      "shiya": 3858,
      "Ġshrri": 3859,
      "khyata": 3860,
      "Ġ51": 3861,
      "1990": 3862,
      "Ġprakashana": 3863,
      "chalach": 3864,
      "nmane": 3865,
      "shastra": 3866,
      "Ġchalu": 3867,
      "porta": 3868,
      "Ġeprila": 3869,
      "line": 3870,
      "Ġnada": 3871,
      "Ġduithara": 3872,
      "Ġramachandra": 3873,
      "Ġbihara": 3874,
      "Ġnidra": 3875,
      "pika": 3876,
      "Ġkaruthila": 3877,
      "Ġsambalapura": 3878,
      "Ġmallika": 3879,
      "dda": 3880,
      "bahu": 3881,
      "Ġbaj": 3882,
      "bijada": 3883,
      "Ġmina": 3884,
      "Ġgobinda": 3885,
      "Ġkaryyakshama": 3886,
      "Ġanyamana": 3887,
      "Ġgudi": 3888,
      "Ġ49": 3889,
      "Ġyaithae": 3890,
      "Ġdarakara": 3891,
      "Ġerro": 3892,
      "ral": 3893,
      "miya": 3894,
      "kia": 3895,
      "ngalare": 3896,
      "Ġkhad": 3897,
      "Ġbosha": 3898,
      "Ġ75": 3899,
      "Ġbarnnita": 3900,
      "Ġkalikata": 3901,
      "lakshmi": 3902,
      "Ġrahanti": 3903,
      "Ġraghu": 3904,
      "rridha": 3905,
      "Ġjata": 3906,
      "sthanara": 3907,
      "Ġchukti": 3908,
      "Ġbyabasaya": 3909,
      "Ġjayirama": 3910,
      "santa": 3911,
      "Ġjatira": 3912,
      "ĠehadàŃ±ara": 3913,
      "Ġbemari": 3914,
      "Ġ90": 3915,
      "muna": 3916,
      "badara": 3917,
      "Ġsadara": 3918,
      "Ġmama": 3919,
      "lin": 3920,
      "Ġisra": 3921,
      "ngama": 3922,
      "Ġpadabi": 3923,
      "uttara": 3924,
      "Ġphusaphusa": 3925,
      "Ġparbati": 3926,
      "Ġpubli": 3927,
      "Ġbandhi": 3928,
      "layare": 3929,
      "national": 3930,
      "dhyaru": 3931,
      "Ġhealth": 3932,
      "Ġpress": 3933,
      "Ġ1960": 3934,
      "Ġpushpa": 3935,
      "ir": 3936,
      "kend": 3937,
      "ksana": 3938,
      "sko": 3939,
      "leta": 3940,
      "Ġsampadana": 3941,
      "1980": 3942,
      "Ġbamshara": 3943,
      "ali": 3944,
      "Ġkau": 3945,
      "low": 3946,
      "pida": 3947,
      "shrita": 3948,
      "38": 3949,
      "jyara": 3950,
      "klo": 3951,
      "Ġbrritti": 3952,
      "Ġjara": 3953,
      "Ġandira": 3954,
      "Ġsamyojana": 3955,
      "taraya": 3956,
      "Ġchaa": 3957,
      "Ġ1988": 3958,
      "Ġshtesana": 3959,
      "48": 3960,
      "kranti": 3961,
      "Ġsamyoga": 3962,
      "rota": 3963,
      "thanaitika": 3964,
      "Ġyogadana": 3965,
      "77": 3966,
      "Ġaja": 3967,
      "Ġfe": 3968,
      "Ġbyaktigata": 3969,
      "Ġ70": 3970,
      "taria": 3971,
      "Ġ1947": 3972,
      "Ġ1948": 3973,
      "Ġacharyya": 3974,
      "Ġeda": 3975,
      "Ġmusalamana": 3976,
      "Ġrajapatha": 3977,
      "Ġprayatah": 3978,
      "Ġ1950": 3979,
      "Ġethipai": 3980,
      "yagada": 3981,
      "Ġmatrri": 3982,
      "Ġmrrita": 3983,
      "pasa": 3984,
      "diya": 3985,
      "àŃ±i": 3986,
      "Ġhasta": 3987,
      "purare": 3988,
      "ces": 3989,
      "2010": 3990,
      "Ġkamiti": 3991,
      "Ġbirodhare": 3992,
      "Ġbro": 3993,
      "Ġprashi": 3994,
      "Ġmutra": 3995,
      "Ġsiri": 3996,
      "manta": 3997,
      "Ġbibhagara": 3998,
      "Ġnimitta": 3999,
      "Ġkipari": 4000,
      "Ġupakarana": 4001,
      "samkh": 4002,
      "dani": 4003,
      "Ġindo": 4004,
      "Ġgaya": 4005,
      "Ġshikshagata": 4006,
      "ĠsàŃ±ikrriti": 4007,
      "gdha": 4008,
      "world": 4009,
      "tia": 4010,
      "Ġeyara": 4011,
      "ris": 4012,
      "Ġekada": 4013,
      "Ġyuddhare": 4014,
      "Ġpresakripa": 4015,
      "Ġac": 4016,
      "Ġbikri": 4017,
      "Ġbahana": 4018,
      "Ġanuro": 4019,
      "Ġpraram": 4020,
      "Ġmahilamane": 4021,
      "Ġsamspar": 4022,
      "Ġhola": 4023,
      "Ġkanadare": 4024,
      "Ġshraddha": 4025,
      "darshanare": 4026,
      "lanara": 4027,
      "ujhara": 4028,
      "nathila": 4029,
      "Ġhimala": 4030,
      "Ġkaruchi": 4031,
      "2012": 4032,
      "Ġsamrajya": 4033,
      "Ġashtre": 4034,
      "ada": 4035,
      "Ġprabandha": 4036,
      "Ġbadya": 4037,
      "dhanare": 4038,
      "Ġbarnna": 4039,
      "pila": 4040,
      "Ġyukta": 4041,
      "bhuja": 4042,
      "tis": 4043,
      "Ġpale": 4044,
      "Ġbistara": 4045,
      "Ġanna": 4046,
      "jatika": 4047,
      "Ġjaina": 4048,
      "Ġkukura": 4049,
      "Ġakarshana": 4050,
      "zation": 4051,
      "34": 4052,
      "Ġsur": 4053,
      "Ġmahadeba": 4054,
      "Ġ1983": 4055,
      "Ġpolisa": 4056,
      "Ġ1975": 4057,
      "95": 4058,
      "phara": 4059,
      "Ġalochana": 4060,
      "bhabe": 4061,
      "ser": 4062,
      "Ġhaki": 4063,
      "Ġ52": 4064,
      "Ġ1962": 4065,
      "panara": 4066,
      "tte": 4067,
      "Ġbrrit": 4068,
      "ruti": 4069,
      "Ġshrenire": 4070,
      "Ġbidyut": 4071,
      "banara": 4072,
      "janara": 4073,
      "vie": 4074,
      "Ġakha": 4075,
      "Ġtamilana": 4076,
      "Ġekadhika": 4077,
      "beshaka": 4078,
      "meha": 4079,
      "190": 4080,
      "Ġkula": 4081,
      "Ġarjuna": 4082,
      "Ġ1986": 4083,
      "Ġganasam": 4084,
      "Ġanusandhana": 4085,
      "garare": 4086,
      "Ġamba": 4087,
      "Ġchama": 4088,
      "ngitakara": 4089,
      "2016": 4090,
      "Ġsethipai": 4091,
      "ters": 4092,
      "Ġharihara": 4093,
      "Ġbidyalayare": 4094,
      "Ġjanmita": 4095,
      "sàŃ±ami": 4096,
      "Ġpacha": 4097,
      "Ġbeda": 4098,
      "puja": 4099,
      "Ġabashyakata": 4100,
      "Ġabasthana": 4101,
      "Ġmalaya": 4102,
      "byabahara": 4103,
      "Ġ1972": 4104,
      "64": 4105,
      "85": 4106,
      "bidhi": 4107,
      "karma": 4108,
      "gane": 4109,
      "ide": 4110,
      "Ġkshira": 4111,
      "Ġsaja": 4112,
      "Ġbacha": 4113,
      "grasta": 4114,
      "Ġkamala": 4115,
      "Ġbrriksha": 4116,
      "Ġgarama": 4117,
      "67": 4118,
      "Ġjhi": 4119,
      "ning": 4120,
      "Ġkabya": 4121,
      "ndana": 4122,
      "Ġjini": 4123,
      "ĠbishàŃ±bidyalayara": 4124,
      "sila": 4125,
      "side": 4126,
      "chche": 4127,
      "Ġshikha": 4128,
      "Ġsidha": 4129,
      "Ġkhali": 4130,
      "yarata": 4131,
      "à¥į": 4132,
      "Ġmastishka": 4133,
      "Ġdisease": 4134,
      "dari": 4135,
      "ine": 4136,
      "kor": 4137,
      "Ġedi": 4138,
      "Ġun": 4139,
      "Ġpratima": 4140,
      "Ġkumari": 4141,
      "purusha": 4142,
      "Ġprashasanika": 4143,
      "''": 4144,
      "danta": 4145,
      "prrish": 4146,
      "pate": 4147,
      "telugu": 4148,
      "Ġgoshthi": 4149,
      "Ġasile": 4150,
      "Ġramayana": 4151,
      "Ġlakshmana": 4152,
      "87": 4153,
      "kuma": 4154,
      "rena": 4155,
      "àŃ±ara": 4156,
      "Ġuchita": 4157,
      "Ġrahichanti": 4158,
      "Ġheithiba": 4159,
      "Ġsambadi": 4160,
      "Ġparida": 4161,
      "Ġsarbada": 4162,
      "Ġyaithiba": 4163,
      "dyumna": 4164,
      "Ġakshaya": 4165,
      "Ġnimo": 4166,
      "Ġhoigala": 4167,
      "piya": 4168,
      "Ġpuj": 4169,
      "Ġheuthile": 4170,
      "batadàŃ±ara": 4171,
      "2008": 4172,
      "Ġdainika": 4173,
      "Ġnyayalaya": 4174,
      "is": 4175,
      "ps": 4176,
      "Ġnathile": 4177,
      "Ġrekha": 4178,
      "Ġrebhe": 4179,
      "Ġstanyapana": 4180,
      "Ġnarendra": 4181,
      "32": 4182,
      "thitire": 4183,
      "sau": 4184,
      "ses": 4185,
      "Ġkulare": 4186,
      "mulaka": 4187,
      "37": 4188,
      "py": 4189,
      "Ġsanta": 4190,
      "thaanti": 4191,
      "Ġdaru": 4192,
      "Ġprat": 4193,
      "Ġraha": 4194,
      "Ġsamadhana": 4195,
      "ĠbishàŃ±ka": 4196,
      "kshma": 4197,
      "Ġ1982": 4198,
      "formation": 4199,
      "89": 4200,
      "Ġhoisari": 4201,
      "Ġheithile": 4202,
      "Ġanupa": 4203,
      "Ġshrimandira": 4204,
      "ghatanabali": 4205,
      "zo": 4206,
      "chit": 4207,
      "Ġbiphala": 4208,
      "ĠshàŃ±e": 4209,
      "Ġarjana": 4210,
      "Ġtela": 4211,
      "Ġsamskarana": 4212,
      "Ġsamparkiya": 4213,
      "Ġstambha": 4214,
      "chalachchitra": 4215,
      "Ġkaraithile": 4216,
      "Ġkumbhira": 4217,
      "Ġsthayi": 4218,
      "Ġintar": 4219,
      "mukhare": 4220,
      "Ġpratishthata": 4221,
      "con": 4222,
      "lyu": 4223,
      "hala": 4224,
      "Ġhttp": 4225,
      "Ġkahanti": 4226,
      "Ġsambidha": 4227,
      "Ġnacha": 4228,
      "Ġita": 4229,
      "heru": 4230,
      "Ġkimi": 4231,
      "Ġmandapa": 4232,
      "Ġpanigrahi": 4233,
      "Ġmedici": 4234,
      "57": 4235,
      "jaru": 4236,
      "Ġsadhana": 4237,
      "Ġgira": 4238,
      "bidya": 4239,
      "Ġdipa": 4240,
      "84": 4241,
      "fa": 4242,
      "jma": 4243,
      "uni": 4244,
      "Ġastro": 4245,
      "Ġbasta": 4246,
      "Ġniyamita": 4247,
      "Ġfa": 4248,
      "Ġpadakshepa": 4249,
      "Ġparichalita": 4250,
      "Ġkalarapataria": 4251,
      "kani": 4252,
      "mali": 4253,
      "àŃ±ana": 4254,
      "Ġsenti": 4255,
      "Ġtata": 4256,
      "Ġdibya": 4257,
      "tria": 4258,
      "Ġkhub": 4259,
      "Ġkhelithile": 4260,
      "Ġorgani": 4261,
      "kasana": 4262,
      "Ġkor": 4263,
      "Ġete": 4264,
      "âĢĮâĢĮ": 4265,
      "Ġtathapi": 4266,
      "Ġposhaka": 4267,
      "Ġkame": 4268,
      "sim": 4269,
      "mira": 4270,
      "Ġdinare": 4271,
      "ĠsàŃ±p": 4272,
      "Ġnishchita": 4273,
      "Ġanurodha": 4274,
      "ntial": 4275,
      "Ġabatara": 4276,
      "Ġdeithila": 4277,
      "Ġprasaba": 4278,
      "Ġokila": 4279,
      "Ġgari": 4280,
      "Ġchini": 4281,
      "njaya": 4282,
      "Ġsehipari": 4283,
      "Ġganthi": 4284,
      "Ġkaha": 4285,
      "Ġghana": 4286,
      "bekshana": 4287,
      "Ġpaile": 4288,
      "ngana": 4289,
      "Ġluna": 4290,
      "Ġsete": 4291,
      "Ġsamila": 4292,
      "Ġpratibha": 4293,
      "Ġhatha": 4294,
      "nchayata": 4295,
      "goti": 4296,
      "Ġmrrityubelaku": 4297,
      "njaba": 4298,
      "1985": 4299,
      "Ġrathayatra": 4300,
      "bula": 4301,
      "Ġmaya": 4302,
      "Ġnirmala": 4303,
      "Ġbeshi": 4304,
      "Ġkathachitrati": 4305,
      "Ġlila": 4306,
      "Ġboo": 4307,
      "im": 4308,
      "khari": 4309,
      "ptara": 4310,
      "Ġandha": 4311,
      "Ġshataka": 4312,
      "Ġmeru": 4313,
      "Ġbibechana": 4314,
      "Ġbhramana": 4315,
      "rasa": 4316,
      "Ġkanta": 4317,
      "nila": 4318,
      "Ġprakrrita": 4319,
      "Ġnaeka": 4320,
      "Ġpitamata": 4321,
      "ges": 4322,
      "Ġbuli": 4323,
      "2013": 4324,
      "Ġjibanare": 4325,
      "Ġaparajita": 4326,
      "shnaba": 4327,
      "Ġkani": 4328,
      "china": 4329,
      "shiba": 4330,
      "Ġshakha": 4331,
      "ĠsàŃ±yam": 4332,
      "gene": 4333,
      "Ġantibayotika": 4334,
      "39": 4335,
      "my": 4336,
      "Ġbayo": 4337,
      "Ġbadhya": 4338,
      "Ġsamkranti": 4339,
      "Ġmuni": 4340,
      "Ġmitra": 4341,
      "Ġpurbe": 4342,
      "Ġkalejare": 4343,
      "Ġbirata": 4344,
      "Ġsharma": 4345,
      "Ġprakrriti": 4346,
      "Ġkashmi": 4347,
      "janaka": 4348,
      "Ġyugare": 4349,
      "Ġbhima": 4350,
      "2007": 4351,
      "âĢį~": 4352,
      "Ġyaichi": 4353,
      "Ġsahityare": 4354,
      "Ġananya": 4355,
      "Ġbhabana": 4356,
      "khala": 4357,
      "yuni": 4358,
      "lua": 4359,
      "nchiba": 4360,
      "ĠĠĠĠĠĠĠĠ": 4361,
      "Ġnishpatti": 4362,
      "Ġhanumana": 4363,
      "kimbadanti": 4364,
      "Ġmatrare": 4365,
      "bhagare": 4366,
      "Ġarthanaitika": 4367,
      "ĠsàŃ±ai": 4368,
      "Ġbibhajana": 4369,
      "Ġgiri": 4370,
      "Ġgrishma": 4371,
      "Ġhistory": 4372,
      "Ġholasela": 4373,
      "cc": 4374,
      "hai": 4375,
      "Ġbila": 4376,
      "Ġantara": 4377,
      "bhabika": 4378,
      "Ġsamskara": 4379,
      "ndari": 4380,
      "Ġyi": 4381,
      "Ġbepara": 4382,
      "Ġkhani": 4383,
      "sarakari": 4384,
      "bharatare": 4385,
      "janare": 4386,
      "Ġari": 4387,
      "lipi": 4388,
      "Ġkamare": 4389,
      "Ġdebu": 4390,
      "Ġmantra": 4391,
      "putra": 4392,
      "Ġdrabya": 4393,
      "Ġprachalana": 4394,
      "Ġabhayaranya": 4395,
      "86": 4396,
      "lda": 4397,
      "sion": 4398,
      "Ġmogala": 4399,
      "Ġnirddeshita": 4400,
      "mandala": 4401,
      "Ġgharoi": 4402,
      "ddi": 4403,
      "Ġblood": 4404,
      "bastu": 4405,
      "Ġmamala": 4406,
      "lira": 4407,
      "pachara": 4408,
      "Ġkausha": 4409,
      "ngal": 4410,
      "Ġrasayanika": 4411,
      "Ġsebana": 4412,
      "Ġbhagna": 4413,
      "neta": 4414,
      "nchama": 4415,
      "Ġrajabam": 4416,
      "Ġ53": 4417,
      "Ġpota": 4418,
      "Ġprrithibire": 4419,
      "Ġilektro": 4420,
      "brahma": 4421,
      "esana": 4422,
      "Ġkapa": 4423,
      "Ġui": 4424,
      "Ġkaryyare": 4425,
      "ĠpratidàŃ±": 4426,
      "janata": 4427,
      "krrishta": 4428,
      "Ġparatharu": 4429,
      "Ġ1981": 4430,
      "Ġ1976": 4431,
      "Ġamshagrahana": 4432,
      "kalara": 4433,
      "Ġebhali": 4434,
      "Ġpathya": 4435,
      "Ġuiki": 4436,
      "bega": 4437,
      "Ġasithila": 4438,
      "Ġmarga": 4439,
      "Ġspar": 4440,
      "Ġdakshi": 4441,
      "Ġsthapatya": 4442,
      "Ġupadesha": 4443,
      "Ġinformation": 4444,
      "Ġmeda": 4445,
      "kona": 4446,
      "Ġsandhya": 4447,
      "Ġgitaguda": 4448,
      "Ġrahuthiba": 4449,
      "kyu": 4450,
      "vo": 4451,
      "Ġdanta": 4452,
      "Ġglo": 4453,
      "Ġchalana": 4454,
      "kharu": 4455,
      "juma": 4456,
      "ght": 4457,
      "Ġpuraskarare": 4458,
      "Ġtyaga": 4459,
      "Ġkarona": 4460,
      "Ġ2023": 4461,
      "Ġutpanna": 4462,
      "1977": 4463,
      "utkala": 4464,
      "shisha": 4465,
      "Ġira": 4466,
      "Ġjam": 4467,
      "Ġgayika": 4468,
      "shàŃ±asa": 4469,
      "2019": 4470,
      "Ġdiayaichi": 4471,
      "Ġtherapi": 4472,
      "stitu": 4473,
      "Ġsamprada": 4474,
      "Ġparaspara": 4475,
      "nment": 4476,
      "Ġmapa": 4477,
      "chada": 4478,
      "Ġchabi": 4479,
      "Ġsamagri": 4480,
      "ntia": 4481,
      "khila": 4482,
      "Ġphai": 4483,
      "Ġarthata": 4484,
      "Ġdhupa": 4485,
      "Ġnirddeshanare": 4486,
      "Ġprashikshana": 4487,
      "pya": 4488,
      "à®": 4489,
      "Ġepi": 4490,
      "Ġdho": 4491,
      "Ġbita": 4492,
      "bida": 4493,
      "Ġdine": 4494,
      "Ġghata": 4495,
      "Ġabasarare": 4496,
      "Ġ500": 4497,
      "Ġphra": 4498,
      "Ġayojita": 4499,
      "36": 4500,
      ":-": 4501,
      "Ġadesha": 4502,
      "bhijana": 4503,
      "Ġparikshana": 4504,
      "Ġlagu": 4505,
      "mona": 4506,
      "Ġ1964": 4507,
      "Ġuparaku": 4508,
      "74": 4509,
      "Ġprajanana": 4510,
      "Ġbadhi": 4511,
      "Ġhoigale": 4512,
      "hele": 4513,
      "Ġroki": 4514,
      "Ġpuru": 4515,
      "Ġperi": 4516,
      "chetana": 4517,
      "Ġbirala": 4518,
      "Ġabishkara": 4519,
      "31": 4520,
      "et": 4521,
      "nanara": 4522,
      "rei": 4523,
      "Ġbili": 4524,
      "Ġdeu": 4525,
      "shia": 4526,
      "Ġgambhira": 4527,
      "Ġmishrita": 4528,
      "bhra": 4529,
      "bhoga": 4530,
      "ini": 4531,
      "pat": 4532,
      "biya": 4533,
      "Ġbelebele": 4534,
      "Ġyuropare": 4535,
      "Ġadya": 4536,
      "Ġdrridha": 4537,
      "res": 4538,
      "brata": 4539,
      "simhapura": 4540,
      "Ġsambada": 4541,
      "Ġ1979": 4542,
      "1999": 4543,
      "ĠpratinidhitàŃ±": 4544,
      "Ġsammilani": 4545,
      "Ġitihasare": 4546,
      "79": 4547,
      "au": 4548,
      "Ġbist": 4549,
      "Ġkaridia": 4550,
      "bindha": 4551,
      "Ġpratishedha": 4552,
      "Ġsantu": 4553,
      "siama": 4554,
      "Ġtraphi": 4555,
      "Ġjyotisha": 4556,
      "Ġbhadraka": 4557,
      "55": 4558,
      "ntha": 4559,
      "antar": 4560,
      "Ġmrri": 4561,
      "Ġdeula": 4562,
      "Ġgabeshaka": 4563,
      "mer": 4564,
      "tosha": 4565,
      "Ġhima": 4566,
      "Ġ36": 4567,
      "Ġnikatatama": 4568,
      "Ġtantu": 4569,
      "ganita": 4570,
      "ĠurddhàŃ±": 4571,
      "Ġgirapha": 4572,
      "osi": 4573,
      "Ġkriya": 4574,
      "Ġpradarshita": 4575,
      "Ġkasha": 4576,
      "Ġmandela": 4577,
      "Ġneheru": 4578,
      "Ġkola": 4579,
      "Ġkuhayaithae": 4580,
      "Ġlagila": 4581,
      "Ġrayagada": 4582,
      "ghya": 4583,
      "nch": 4584,
      "yatare": 4585,
      "Ġsathika": 4586,
      "Ġmandirati": 4587,
      "Ġsona": 4588,
      "Ġmadhumeha": 4589,
      "Ġskulare": 4590,
      "Ġtho": 4591,
      "Ġmayurabha": 4592,
      "Ġsampatti": 4593,
      "Ġmitar": 4594,
      "Ġmahatma": 4595,
      "prakasha": 4596,
      "sheshare": 4597,
      "Ġchara": 4598,
      "Ġparama": 4599,
      "Ġ1969": 4600,
      "Ġlagile": 4601,
      "kantha": 4602,
      "Ġdrrishtiru": 4603,
      ")~": 4604,
      "kàŃ±": 4605,
      "las": 4606,
      "Ġapana": 4607,
      "Ġprasara": 4608,
      "Ġupaya": 4609,
      "Ġmahabidyalayare": 4610,
      "Ġrebhensa": 4611,
      "ghar": 4612,
      "mma": 4613,
      "takara": 4614,
      "tish": 4615,
      "Ġkhya": 4616,
      "Ġayu": 4617,
      "Ġdari": 4618,
      "sabha": 4619,
      "lipa": 4620,
      "ngaku": 4621,
      "Ġanushi": 4622,
      "Ġsahayaka": 4623,
      "Ġkaryyakramare": 4624,
      "ngaladeshara": 4625,
      "Ġamrrita": 4626,
      "garara": 4627,
      "Ġjitithile": 4628,
      "nirba": 4629,
      "44": 4630,
      "Ġbhari": 4631,
      "Ġashra": 4632,
      "shto": 4633,
      "Ġmadya": 4634,
      "Ġmaru": 4635,
      "Ġkarttika": 4636,
      "Ġminita": 4637,
      "Ġsudha": 4638,
      "Ġrahile": 4639,
      "ngha": 4640,
      "luka": 4641,
      "Ġphato": 4642,
      "Ġphaund": 4643,
      "Ġdashakare": 4644,
      "Ġbidroha": 4645,
      "Ġsamkhyare": 4646,
      "Äģ": 4647,
      "Ġchaula": 4648,
      "Ġadhiniyama": 4649,
      "Ġgoti": 4650,
      "muda": 4651,
      "bhuti": 4652,
      "kota": 4653,
      "Ġadire": 4654,
      "2005": 4655,
      "Ġbanijya": 4656,
      "Ġsuparisha": 4657,
      "Ġorganization": 4658,
      "ame": 4659,
      "tto": 4660,
      "red": 4661,
      "Ġudaya": 4662,
      "Ġsamantara": 4663,
      "Ġshikhi": 4664,
      "Ġmahammada": 4665,
      "Ġupatya": 4666,
      "Ġ1978": 4667,
      "khri": 4668,
      "Ġjenerika": 4669,
      "Ġsindhu": 4670,
      "ĠshàŃ±eta": 4671,
      "lec": 4672,
      "mela": 4673,
      "Ġanugola": 4674,
      "Ġupadana": 4675,
      "Ġutsabare": 4676,
      "Ġprashanta": 4677,
      "Ġsahityara": 4678,
      "Ġmat": 4679,
      "yuddha": 4680,
      "Ġsustha": 4681,
      "Ġbhushana": 4682,
      "Ġhebapare": 4683,
      "2006": 4684,
      "Ġ1955": 4685,
      "Ġ1956": 4686,
      "Ġshirabhyan": 4687,
      "cture": 4688,
      "kon": 4689,
      "|-": 4690,
      "Ġpatala": 4691,
      "Ġbastra": 4692,
      "Ġmahakuma": 4693,
      "natattàŃ±": 4694,
      "bhushana": 4695,
      "Ġbandi": 4696,
      "Ġprerana": 4697,
      "yauchi": 4698,
      "Ġaparadha": 4699,
      "76": 4700,
      "Ġ+": 4701,
      "baba": 4702,
      "Ġsamaste": 4703,
      "prada": 4704,
      "Ġbhagabata": 4705,
      "Ġkshaya": 4706,
      "Ġsamgrama": 4707,
      "Ġakashabani": 4708,
      "Ġ;": 4709,
      "siti": 4710,
      "Ġsei": 4711,
      "Ġhoinahi": 4712,
      "Ġdirghakalina": 4713,
      "aro": 4714,
      "hini": 4715,
      "Ġkro": 4716,
      "Ġsamsho": 4717,
      "Ġarpana": 4718,
      "Ġarthat": 4719,
      "bharu": 4720,
      "phesara": 4721,
      "Ġprarthana": 4722,
      "Ġkatakara": 4723,
      "punashcha": 4724,
      "Ġsamsparshare": 4725,
      "Ġkoda": 4726,
      "Ġmahu": 4727,
      "yojita": 4728,
      "Ġ34": 4729,
      "buda": 4730,
      "',": 4731,
      "esi": 4732,
      "Ġnisha": 4733,
      "Ġrajaneta": 4734,
      "Ġphaina": 4735,
      "Ġbuddhi": 4736,
      "Ġlekhika": 4737,
      "Ġpunithare": 4738,
      "82": 4739,
      "ddhana": 4740,
      "Ġlar": 4741,
      "Ġmate": 4742,
      "yukti": 4743,
      "Ġyogi": 4744,
      "Ġsamkhyaka": 4745,
      "Ġchua": 4746,
      "Ġblakara": 4747,
      "Ġkariparibe": 4748,
      "barika": 4749,
      "Ġbaram": 4750,
      "Ġbahya": 4751,
      "Ġnatha": 4752,
      "Ġjanapada": 4753,
      "tarita": 4754,
      "Ġsharirare": 4755,
      "nkita": 4756,
      "Ġgharaku": 4757,
      "Ġshrabana": 4758,
      "barttamana": 4759,
      "Ġethakara": 4760,
      "ĠaàŃ±arda": 4761,
      "Ġdhe": 4762,
      "Ġsambidhana": 4763,
      "Ġhoiyaithila": 4764,
      "dhikari": 4765,
      "Ġnrrit": 4766,
      "khanare": 4767,
      "Ġjama": 4768,
      "Ġsishta": 4769,
      "chchada": 4770,
      "Ġhau": 4771,
      "Ġnepa": 4772,
      "Ġpanire": 4773,
      "Ġaphrika": 4774,
      "banare": 4775,
      "à°": 4776,
      "Ġyatna": 4777,
      "pina": 4778,
      "Ġabhiyoga": 4779,
      "Ġyubaka": 4780,
      "ĠbishàŃ±re": 4781,
      "Ġdekhana": 4782,
      "Ġdiagala": 4783,
      "Ġbarttamanara": 4784,
      "Ġkhabaraka": 4785,
      "Ġpaleshta": 4786,
      "glo": 4787,
      "Ġtana": 4788,
      "Ġage": 4789,
      "Ġsad": 4790,
      "Ġmade": 4791,
      "Ġbalia": 4792,
      "Ġniri": 4793,
      "Ġuthi": 4794,
      "muni": 4795,
      "Ġ46": 4796,
      "ndicha": 4797,
      "Ġbharataku": 4798,
      "Ġkshepana": 4799,
      "Ġbirodhi": 4800,
      "spati": 4801,
      "dakshina": 4802,
      "Ġmaho": 4803,
      "nic": 4804,
      "Ġmrrit": 4805,
      "Ġpaksha": 4806,
      "dilli": 4807,
      "Ġur": 4808,
      "jia": 4809,
      "Ġbyayama": 4810,
      "tsaba": 4811,
      "Ġantarjatika": 4812,
      "Ġjalabayu": 4813,
      "kalare": 4814,
      "Ġdel": 4815,
      "Ġmilana": 4816,
      "Ġshrimandi": 4817,
      "Ġastra": 4818,
      "Ġeksapre": 4819,
      "paryyatana": 4820,
      "jane": 4821,
      "pto": 4822,
      "arka": 4823,
      "padita": 4824,
      "Ġhebaru": 4825,
      "nchalaku": 4826,
      "Ġshubha": 4827,
      "Ġ1965": 4828,
      "Ġimlan": 4829,
      "Ġprastuti": 4830,
      "Ġjun": 4831,
      "Ġamaba": 4832,
      "Ġkalyana": 4833,
      "Ġhaladia": 4834,
      "saku": 4835,
      "sagara": 4836,
      "chiba": 4837,
      "Ġprabaha": 4838,
      "Ġbis": 4839,
      "patta": 4840,
      "Ġnaka": 4841,
      "Ġkalahandi": 4842,
      "indi": 4843,
      "Ġshatapathi": 4844,
      "Ġbhaugolika": 4845,
      "Ġghosha": 4846,
      "Ġthie": 4847,
      "Ġphutabala": 4848,
      "Ġmundabindha": 4849,
      "Ġandolanare": 4850,
      "Ġshailire": 4851,
      "Ġganita": 4852,
      "72": 4853,
      "94": 4854,
      "lanta": 4855,
      "sanara": 4856,
      "tamina": 4857,
      "Ġkir": 4858,
      "Ġgachara": 4859,
      "Ġshita": 4860,
      "Ġupayoga": 4861,
      "Ġrajaku": 4862,
      "Ġtulasi": 4863,
      "Ġamlajana": 4864,
      "jja": 4865,
      "Ġratire": 4866,
      "kshaka": 4867,
      "ngadhara": 4868,
      "Ġdiayaipare": 4869,
      "Ġdeichanti": 4870,
      "1974": 4871,
      "Ġaraba": 4872,
      "Ġchampiyana": 4873,
      "Ġastropachara": 4874,
      "58": 4875,
      "mber": 4876,
      "nko": 4877,
      "prani": 4878,
      "Ġniu": 4879,
      "Ġsamarika": 4880,
      "sential": 4881,
      "Ġparila": 4882,
      "Ġabhijita": 4883,
      "Ġupayukta": 4884,
      "Ġthika": 4885,
      "Ġethiru": 4886,
      "yarim": 4887,
      "68": 4888,
      "ys": 4889,
      "ze": 4890,
      "ance": 4891,
      "Ġscie": 4892,
      "Ġjaru": 4893,
      "Ġbikrama": 4894,
      "padi": 4895,
      "chchita": 4896,
      "mesha": 4897,
      "Ġhira": 4898,
      "Ġ1973": 4899,
      "Ġsamparkita": 4900,
      "61": 4901,
      "Ġx": 4902,
      "hika": 4903,
      "Ġah": 4904,
      "Ġdahana": 4905,
      "Ġisala": 4906,
      "Ġ32": 4907,
      "Ġyogai": 4908,
      "..": 4909,
      "Ġpya": 4910,
      "Ġsathire": 4911,
      "shadara": 4912,
      "shar": 4913,
      "likhita": 4914,
      "baratri": 4915,
      "traru": 4916,
      "ĠyahadàŃ±ara": 4917,
      "www": 4918,
      "nkanala": 4919,
      "ĠnetrritàŃ±re": 4920,
      "Ġprakrri": 4921,
      "Ġprastara": 4922,
      "Ġrabana": 4923,
      "Ġsammukhare": 4924,
      "Ġkunda": 4925,
      "inara": 4926,
      "Ġthaku": 4927,
      "Ġbudha": 4928,
      "Ġkrishna": 4929,
      "Ġbambe": 4930,
      "view": 4931,
      "Ġsamalochana": 4932,
      "Ġmudra": 4933,
      "sundara": 4934,
      "Ġbhitaru": 4935,
      "mochana": 4936,
      "Ġimrajire": 4937,
      "Ġmedikala": 4938,
      "Ġbipakshare": 4939,
      "\")": 4940,
      "Ġste": 4941,
      "shkrrita": 4942,
      "Ġmasala": 4943,
      "Ġosha": 4944,
      "Ġhare": 4945,
      "bhabana": 4946,
      "barttana": 4947,
      "Ġ33": 4948,
      "Ġadhyapaka": 4949,
      "Ġhrrida": 4950,
      "ĠpratnatattàŃ±": 4951,
      "nte": 4952,
      "Ġsati": 4953,
      "Ġchata": 4954,
      "health": 4955,
      "Ġjai": 4956,
      "Ġupasana": 4957,
      "Ġbujhi": 4958,
      "Ġtulanare": 4959,
      "Ġuddeshya": 4960,
      "Ġessential": 4961,
      "81": 4962,
      "nju": 4963,
      "kamana": 4964,
      "Ġchahi": 4965,
      "Ġdiba": 4966,
      "net": 4967,
      "Ġsubhadra": 4968,
      "ntala": 4969,
      "2018": 4970,
      "Ġdekhile": 4971,
      "ngaladeshi": 4972,
      "Ġyauthiba": 4973,
      "Ġjinisha": 4974,
      "Ġmedicines": 4975,
      "hy": 4976,
      "tanta": 4977,
      "ping": 4978,
      "dua": 4979,
      "ranatha": 4980,
      "Ġ?": 4981,
      "Ġjanu": 4982,
      "nire": 4983,
      "Ġbalara": 4984,
      "bitara": 4985,
      "Ġpaichi": 4986,
      "Ġshatru": 4987,
      "Ġ1963": 4988,
      "Ġ1968": 4989,
      "Ġrautaraya": 4990,
      "Ġdigaku": 4991,
      "Ġkr": 4992,
      "Ġ|\"": 4993,
      "Ġprach": 4994,
      "mili": 4995,
      "Ġpicha": 4996,
      "Ġchenna": 4997,
      "Ġpakhaku": 4998,
      "Ġrahuthile": 4999,
      "59": 5000,
      "Ġenu": 5001,
      "kunda": 5002,
      "Ġbhaira": 5003,
      "Ġintara": 5004,
      "njali": 5005,
      "Ġjalapra": 5006,
      "Ġ1958": 5007,
      "Ġprabhabashali": 5008,
      "ĠsàŃ±ikrrita": 5009,
      "Ġtrena": 5010,
      "62": 5011,
      "danara": 5012,
      "kulara": 5013,
      "padanare": 5014,
      "Ġshitala": 5015,
      "Ġgopi": 5016,
      "Ġkera": 5017,
      "itanya": 5018,
      "br": 5019,
      "kaunasi": 5020,
      "tiki": 5021,
      "ting": 5022,
      "Ġpraphesara": 5023,
      "Ġpate": 5024,
      "Ġ()": 5025,
      "lor": 5026,
      "Ġsamadhi": 5027,
      "Ġsutra": 5028,
      "munda": 5029,
      "2003": 5030,
      "Ġ1930": 5031,
      "Ġjaniba": 5032,
      "Ġbhitaraku": 5033,
      "78": 5034,
      "aja": 5035,
      "ee": 5036,
      "niara": 5037,
      "Ġudara": 5038,
      "Ġnathae": 5039,
      "mida": 5040,
      "Ġparimanare": 5041,
      "Ġshyama": 5042,
      "Ġyuga": 5043,
      "ttita": 5044,
      "Ġbadalare": 5045,
      "Ġthanda": 5046,
      "Ġgurutara": 5047,
      "Ġcharoti": 5048,
      "Ġbidyuta": 5049,
      "Ġaura": 5050,
      "paksha": 5051,
      "Ġbhatta": 5052,
      "Ġyibaku": 5053,
      "Ġyatri": 5054,
      "kin": 5055,
      "Ġpindhi": 5056,
      "narayana": 5057,
      "Ġbrrihata": 5058,
      "Ġdarshaka": 5059,
      "khyana": 5060,
      "Ġprashamsa": 5061,
      "Ġkyu": 5062,
      "Ġela": 5063,
      "Ġhyu": 5064,
      "Ġbibada": 5065,
      "huta": 5066,
      "Ġchatisha": 5067,
      "Ġdaksha": 5068,
      "Ġgopa": 5069,
      "Ġ1954": 5070,
      "shottama": 5071,
      "Ġkarayauthiba": 5072,
      "ous": 5073,
      "Ġsaba": 5074,
      "Ġparisara": 5075,
      "Ġshastra": 5076,
      "toni": 5077,
      "prasada": 5078,
      "paribe": 5079,
      "sts": 5080,
      "Ġuddhara": 5081,
      "Ġ1942": 5082,
      "Ġpunarbara": 5083,
      "Ġtransa": 5084,
      "kte": 5085,
      "gal": 5086,
      "Ġtalima": 5087,
      "Ġbyapaka": 5088,
      "paribara": 5089,
      "purathare": 5090,
      "shthana": 5091,
      "Ġasithiba": 5092,
      "Ġ1966": 5093,
      "Ġproje": 5094,
      "1971": 5095,
      "Ġimmyu": 5096,
      "Ġdair": 5097,
      "Ġmarathi": 5098,
      "ithiba": 5099,
      "tanare": 5100,
      "Ġkahu": 5101,
      "Ġuch": 5102,
      "Ġwa": 5103,
      "Ġbaishnaba": 5104,
      "Ġphoto": 5105,
      "Ġraghunatha": 5106,
      "ĠpratidàŃ±ndi": 5107,
      "arji": 5108,
      "shtami": 5109,
      "Ġsthanara": 5110,
      "therapi": 5111,
      "Ġasichi": 5112,
      "Ġkanthare": 5113,
      "Ġkannada": 5114,
      "bheda": 5115,
      "Ġbaidika": 5116,
      "Ġ1946": 5117,
      "Ġrauta": 5118,
      "49": 5119,
      "Ġjhara": 5120,
      "Ġdal": 5121,
      "Ġmusa": 5122,
      "Ġparibarttita": 5123,
      "Ġlekhichanti": 5124,
      "Ġesida": 5125,
      "Ġmahabidyalayaru": 5126,
      "Ġdharabahikare": 5127,
      "43": 5128,
      "rahi": 5129,
      "kabita": 5130,
      "Ġsadha": 5131,
      "Ġmahar": 5132,
      "Ġbio": 5133,
      "Ġbalabha": 5134,
      "Ġdehara": 5135,
      "Ġlife": 5136,
      "Ġbraja": 5137,
      "Ġshaktishali": 5138,
      "Ġphran": 5139,
      "Ġgranthi": 5140,
      "shreshtha": 5141,
      "Ġerror": 5142,
      "73": 5143,
      "83": 5144,
      "bastha": 5145,
      "nayare": 5146,
      "shtare": 5147,
      "chakra": 5148,
      "Ġbini": 5149,
      "Ġraji": 5150,
      "Ġsen": 5151,
      "Ġsetha": 5152,
      "Ġnayagada": 5153,
      "Ġparisthiti": 5154,
      "ngada": 5155,
      "sheka": 5156,
      "Ġwo": 5157,
      "bodha": 5158,
      "land": 5159,
      "Ġrogira": 5160,
      "Ġepariki": 5161,
      "port": 5162,
      "ichi": 5163,
      "nanda": 5164,
      "yaanti": 5165,
      "Ġborda": 5166,
      "nihita": 5167,
      "Ġkap": 5168,
      "kishora": 5169,
      "yogya": 5170,
      "Ġtrai": 5171,
      "Ġnabakale": 5172,
      "à¥Ģ": 5173,
      "chcheda": 5174,
      "Ġbalabhadra": 5175,
      "hati": 5176,
      "Ġstana": 5177,
      "tamila": 5178,
      "Ġbin": 5179,
      "Ġmud": 5180,
      "Ġsabya": 5181,
      "Ġkaribapai": 5182,
      "Ġupashama": 5183,
      "Ġbadala": 5184,
      "Ġatikrama": 5185,
      "Ġdekhiba": 5186,
      "phulla": 5187,
      "Ġjenetika": 5188,
      "kanda": 5189,
      "Ġabo": 5190,
      "hetu": 5191,
      "tua": 5192,
      "gram": 5193,
      "pua": 5194,
      "Ġchalachchitratira": 5195,
      "Ġjagatara": 5196,
      "Ġhaipara": 5197,
      "Ġadhuna": 5198,
      "car": 5199,
      "shanara": 5200,
      "Ġmalika": 5201,
      "Ġpauranika": 5202,
      "Ġrashtriya": 5203,
      "Ġsamghar": 5204,
      "rona": 5205,
      "Ġnirmata": 5206,
      "prakara": 5207,
      "Ġmeta": 5208,
      "Ġdekhayaichi": 5209,
      "Ġriporta": 5210,
      "Ġakarara": 5211,
      "Ġsamrakshita": 5212,
      "ĠshàŃ±asakriya": 5213,
      "lis": 5214,
      "aniya": 5215,
      "Ġchayana": 5216,
      "Ġanusarana": 5217,
      "Ġsahajare": 5218,
      "Ġ37": 5219,
      "Ġnirapada": 5220,
      "Ġpadare": 5221,
      "dhyare": 5222,
      "Ġdae": 5223,
      "Ġchita": 5224,
      "Ġutte": 5225,
      "parshàŃ±": 5226,
      "Ġdekhayauthiba": 5227,
      "Ġsthanaku": 5228,
      "Ġarthaniti": 5229,
      "Ġimlanda": 5230,
      "mahatya": 5231,
      "gran": 5232,
      "mk": 5233,
      "wi": 5234,
      "Ġsmara": 5235,
      "Ġami": 5236,
      "Ġashi": 5237,
      "dama": 5238,
      "Ġsakshata": 5239,
      "bishishta": 5240,
      "Ġdatta": 5241,
      "khandara": 5242,
      "graphy": 5243,
      "shekhara": 5244,
      "Ġshushka": 5245,
      "Ġrise": 5246,
      "sanna": 5247,
      "siala": 5248,
      "Ġjatilata": 5249,
      "Ġchaturd": 5250,
      "Ġmedication": 5251,
      "shurama": 5252,
      "ĠsàŃ±pna": 5253,
      "gn": 5254,
      "psi": 5255,
      "Ġare": 5256,
      "hada": 5257,
      "bama": 5258,
      "Ġpasa": 5259,
      "Ġpath": 5260,
      "liba": 5261,
      "dhei": 5262,
      "lona": 5263,
      "Ġshishya": 5264,
      "Ġjanaka": 5265,
      "Ġupasthita": 5266,
      "Ġ39": 5267,
      "Ġmilichi": 5268,
      "gyaleri": 5269,
      "Ġkrriti": 5270,
      "bedakara": 5271,
      "Ġadhinayaka": 5272,
      "56": 5273,
      "Ġasama": 5274,
      "Ġmadha": 5275,
      "dine": 5276,
      "thra": 5277,
      "Ġchahu": 5278,
      "deshika": 5279,
      "mananda": 5280,
      "Ġnele": 5281,
      "Ġmegha": 5282,
      "phin": 5283,
      "Ġkahichanti": 5284,
      "Ġbritish": 5285,
      "Ġasuthiba": 5286,
      "Ġnyayalayara": 5287,
      "Ġsambadika": 5288,
      "Ġato": 5289,
      "Ġsaphta": 5290,
      "nik": 5291,
      "Ġsampanna": 5292,
      "Ġdaga": 5293,
      "Ġnrri": 5294,
      "jira": 5295,
      "âĢĮ,": 5296,
      "Ġsamajara": 5297,
      "gikarana": 5298,
      "org": 5299,
      "Ġupakara": 5300,
      "Ġwor": 5301,
      "Ġdhanu": 5302,
      "Ġbisheshaj": 5303,
      "jantu": 5304,
      "Ġapekshakrrita": 5305,
      "Ġkoraputa": 5306,
      "aryya": 5307,
      "Ġadarsha": 5308,
      "Ġbindu": 5309,
      "Ġdino": 5310,
      "Ġtemple": 5311,
      "Ġguli": 5312,
      "Ġsabuja": 5313,
      "Ġshuna": 5314,
      "1998": 5315,
      "shtichyu": 5316,
      "Ġbheti": 5317,
      "Ġkalarapatria": 5318,
      "Ġsaroja": 5319,
      "Ġdairghya": 5320,
      "nne": 5321,
      "shthira": 5322,
      "Ġbhabani": 5323,
      "Ġekathi": 5324,
      "khai": 5325,
      "Ġpune": 5326,
      "Ġraju": 5327,
      "Ġarddha": 5328,
      "Ġphakira": 5329,
      "Ġkandha": 5330,
      "Ġphre": 5331,
      "Ġmaharashtrara": 5332,
      "Ġalumi": 5333,
      "Ġinternational": 5334,
      "grriha": 5335,
      "Ġisraela": 5336,
      "47": 5337,
      "dy": 5338,
      "mbu": 5339,
      "pula": 5340,
      "wn": 5341,
      "Ġple": 5342,
      "Ġpathana": 5343,
      "dire": 5344,
      "Ġniru": 5345,
      "Ġhoipariba": 5346,
      "roga": 5347,
      "rome": 5348,
      "logi": 5349,
      "barga": 5350,
      "Ġyogana": 5351,
      "purana": 5352,
      "njabara": 5353,
      "cheri": 5354,
      "Ġkendrapada": 5355,
      "Ġathaba": 5356,
      "Ġdehanta": 5357,
      "jumadara": 5358,
      "51": 5359,
      "nkari": 5360,
      "gami": 5361,
      "chanda": 5362,
      "Ġpradu": 5363,
      "Ġpradyumna": 5364,
      "yantra": 5365,
      "Ġbujhae": 5366,
      "Ġkranika": 5367,
      "nari": 5368,
      "xi": 5369,
      "baya": 5370,
      "Ġeje": 5371,
      "Ġmajumadara": 5372,
      "Ġprabala": 5373,
      "Ġprachchada": 5374,
      "Ġganda": 5375,
      "develo": 5376,
      "Ġkaraiba": 5377,
      "Ġhas": 5378,
      "Ġsupara": 5379,
      "Ġpitta": 5380,
      "Ġmeri": 5381,
      "Ġmaharashtra": 5382,
      "Ġkathina": 5383,
      "Ġparilakshita": 5384,
      "41": 5385,
      "53": 5386,
      "Ġsachetana": 5387,
      "Ġpachare": 5388,
      "Ġyukti": 5389,
      "Ġkamyuni": 5390,
      "Ġper": 5391,
      "Ġprof": 5392,
      "Ġparampar": 5393,
      "vernment": 5394,
      "à¥ĩ": 5395,
      "Ġmajhire": 5396,
      "Ġabhya": 5397,
      "52": 5398,
      "dala": 5399,
      "Ġbiki": 5400,
      "Ġnathiba": 5401,
      "den": 5402,
      "sed": 5403,
      "Ġlalita": 5404,
      "Ġchida": 5405,
      "Ġsahayatare": 5406,
      "Ġthibabele": 5407,
      "Ġkendujhara": 5408,
      "1961": 5409,
      "Ġsampradaya": 5410,
      "Ġnabakalebara": 5411,
      "adi": 5412,
      "Ġagraha": 5413,
      "pathare": 5414,
      "à¬¼~": 5415,
      "Ġbak": 5416,
      "àŃ±ita": 5417,
      "Ġseguda": 5418,
      "Ġsaman": 5419,
      "Ġchaya": 5420,
      "Ġmitha": 5421,
      "Ġpratimurtti": 5422,
      "sthayi": 5423,
      "ker": 5424,
      "Ġsoma": 5425,
      "Ġdhamani": 5426,
      "Ġalabam": 5427,
      "1994": 5428,
      "Ġakarshita": 5429,
      "1967": 5430,
      "Ġsainika": 5431,
      "Ġstate": 5432,
      "Ġupasthapana": 5433,
      "bru": 5434,
      "em": 5435,
      "Ġsadhu": 5436,
      "Ġbikhyata": 5437,
      "Ġkaila": 5438,
      "Ġ1000": 5439,
      "mera": 5440,
      "ton": 5441,
      "Ġtithire": 5442,
      "ÂłÂł": 5443,
      "Ġinstitu": 5444,
      "Ġanushilana": 5445,
      "Ġamabasya": 5446,
      "bla": 5447,
      "clo": 5448,
      "lsa": 5449,
      "thale": 5450,
      "jama": 5451,
      "mic": 5452,
      "Ġdistri": 5453,
      "giya": 5454,
      "tora": 5455,
      "ness": 5456,
      "Ġlekhiba": 5457,
      "thora": 5458,
      "Ġthakurani": 5459,
      "cor": 5460,
      "Ġ!": 5461,
      "arch": 5462,
      "Ġetharu": 5463,
      "Ġsaund": 5464,
      "Ġsakshama": 5465,
      "bibhinna": 5466,
      "Ġlabh": 5467,
      "Ġshoi": 5468,
      "ngapura": 5469,
      "Ġyogya": 5470,
      "Ġkarayaipariba": 5471,
      "2002": 5472,
      "Ġkuhanti": 5473,
      "Ġdeithae": 5474,
      "boli": 5475,
      "Ġasura": 5476,
      "Ġbisheshatah": 5477,
      "rissa": 5478,
      "ati": 5479,
      "bro": 5480,
      "Ġspa": 5481,
      "rajya": 5482,
      "Ġakshara": 5483,
      "Ġkapura": 5484,
      "Ġbedha": 5485,
      "Ġgump": 5486,
      "Ġuchchatama": 5487,
      "Ġdalaku": 5488,
      "1989": 5489,
      "shchimare": 5490,
      "Ġesiara": 5491,
      "Ġdakshinare": 5492,
      "Ġsampradayara": 5493,
      "93": 5494,
      "Ġmadela": 5495,
      "Ġkathita": 5496,
      "sipa": 5497,
      "Ġinahi": 5498,
      "jina": 5499,
      "Ġpushti": 5500,
      "karanare": 5501,
      "Ġparaloka": 5502,
      "Ġbanarji": 5503,
      "Ġadhyat": 5504,
      "Ġsamrajyara": 5505,
      "Ġsaptama": 5506,
      "Ġabishkrrita": 5507,
      "Ġjyotir": 5508,
      "can": 5509,
      "randa": 5510,
      "kathi": 5511,
      "Ġphya": 5512,
      "Ġpashcha": 5513,
      "teka": 5514,
      "Ġsetharu": 5515,
      "Ġpunaru": 5516,
      "yogare": 5517,
      "Ġyoni": 5518,
      "Ġyugara": 5519,
      "Ġatmahatya": 5520,
      "Ġthaanti": 5521,
      "Ġsosa": 5522,
      "1988": 5523,
      "fere": 5524,
      "Ġbheda": 5525,
      "gamanagamana": 5526,
      "Ġethaku": 5527,
      "Ġkshepanastra": 5528,
      "yur": 5529,
      "Ġpapa": 5530,
      "Ġgata": 5531,
      "Ġtyu": 5532,
      "nchalika": 5533,
      "Ġ65": 5534,
      "ĠnijasàŃ±": 5535,
      "Ġantarnihita": 5536,
      "Ġdola": 5537,
      "Ġdurata": 5538,
      "Ġesiare": 5539,
      "Ġkalpana": 5540,
      "46": 5541,
      "92": 5542,
      "97": 5543,
      "Ġpp": 5544,
      "mahara": 5545,
      "Ġpama": 5546,
      "Ġkarisari": 5547,
      "Ġupani": 5548,
      "mitar": 5549,
      "yita": 5550,
      "Ġpintu": 5551,
      "mundi": 5552,
      "Ġ1959": 5553,
      "ments": 5554,
      "Ġchautisha": 5555,
      "ĠàŃ±ar": 5556,
      "Ġdillire": 5557,
      "áĢ": 5558,
      "art": 5559,
      "kasa": 5560,
      "Ġhy": 5561,
      "Ġkaridele": 5562,
      "Ġnim": 5563,
      "thari": 5564,
      "Ġkie": 5565,
      "Ġbyasa": 5566,
      "Ġabadhi": 5567,
      "Ġuttarare": 5568,
      "Ġ38": 5569,
      "1987": 5570,
      "ama": 5571,
      "Ġras": 5572,
      "Ġrakshana": 5573,
      "Ġbaki": 5574,
      "Ġishta": 5575,
      "seba": 5576,
      "Ġnirgata": 5577,
      "Ġlohita": 5578,
      "Ġpratidina": 5579,
      "gula": 5580,
      "Ġkaryyalaya": 5581,
      "mukta": 5582,
      "Ġtantra": 5583,
      "Ġnatyakara": 5584,
      "Ġinahibitara": 5585,
      "mshu": 5586,
      "baleshàŃ±ra": 5587,
      "Ġbir": 5588,
      "des": 5589,
      "Ġyajapura": 5590,
      "sebi": 5591,
      "gira": 5592,
      "Ġkerala": 5593,
      "sure": 5594,
      "Ġpurbaka": 5595,
      "Ġ1951": 5596,
      "Ġtume": 5597,
      "1992": 5598,
      "Ġcolle": 5599,
      "Ġgitare": 5600,
      "ctions": 5601,
      "Ġkampanira": 5602,
      "Ġbhabishya": 5603,
      "Ġbrrihattama": 5604,
      "khar": 5605,
      "chaya": 5606,
      "Ġpratapa": 5607,
      "Ġmasihayae": 5608,
      "Ġkendrare": 5609,
      "Ġrakhayaithila": 5610,
      "Ġsambandhare": 5611,
      "Ġsharata": 5612,
      "Ġudyama": 5613,
      "borda": 5614,
      "cri": 5615,
      "bit": 5616,
      "Ġhaidra": 5617,
      "1951": 5618,
      "Ġdillira": 5619,
      "Ġsambhabya": 5620,
      "kathachitra": 5621,
      "Ġnandi": 5622,
      "Ġnimonia": 5623,
      "Ġbalare": 5624,
      "Ġbalaka": 5625,
      "Ġrahila": 5626,
      "press": 5627,
      "Ġasanti": 5628,
      "Ġjatisam": 5629,
      "Ġmanoja": 5630,
      "Ġduhkha": 5631,
      "Ġraktare": 5632,
      "54": 5633,
      "nchare": 5634,
      "rai": 5635,
      "Ġkamana": 5636,
      "Ġkagaja": 5637,
      "hela": 5638,
      "trima": 5639,
      "Ġsahaja": 5640,
      "kalahandi": 5641,
      "Ġphut": 5642,
      "Ġchena": 5643,
      "Ġthik": 5644,
      "Ġhaladi": 5645,
      "Ġballabha": 5646,
      "Ġsamshodhana": 5647,
      "nsha": 5648,
      "suryya": 5649,
      "Ġasana": 5650,
      "sht": 5651,
      "Ġdrrish": 5652,
      "Ġprayukti": 5653,
      "Ġanura": 5654,
      "Ġjanajati": 5655,
      "shei": 5656,
      "Ġutpatti": 5657,
      "Ġbhula": 5658,
      "Ġcar": 5659,
      "Ġshobha": 5660,
      "Ġsuparisa": 5661,
      "ĠkàŃ±chita": 5662,
      "Ġshirabhyantara": 5663,
      "63": 5664,
      "71": 5665,
      "Ġkita": 5666,
      "ner": 5667,
      "Ġsubarnna": 5668,
      "Ġadhibasi": 5669,
      "staka": 5670,
      "stapha": 5671,
      "samuha": 5672,
      "2020": 5673,
      "Ġfil": 5674,
      "Ġkhorddha": 5675,
      "Ġprashasana": 5676,
      "abasthiti": 5677,
      "Ġgariba": 5678,
      "uchi": 5679,
      "Ġtya": 5680,
      "Ġsapha": 5681,
      "Ġkashi": 5682,
      "siya": 5683,
      "Ġanita": 5684,
      "Ġsamanta": 5685,
      "Ġyama": 5686,
      "Ġparisra": 5687,
      "ketana": 5688,
      "urus": 5689,
      "Ġhais": 5690,
      "Ġnikatabartti": 5691,
      "Ġashtrelia": 5692,
      "Ġsparsha": 5693,
      "Ġbistrrita": 5694,
      "Ġjalaprapata": 5695,
      "Ġstre": 5696,
      "dae": 5697,
      "Ġsamprri": 5698,
      "Ġtalaku": 5699,
      "Ġima": 5700,
      "Ġdip": 5701,
      "Ġkaraka": 5702,
      "toti": 5703,
      "khia": 5704,
      "Ġyoge": 5705,
      "pradesha": 5706,
      "Ġtek": 5707,
      "Ġbola": 5708,
      "Ġbayasara": 5709,
      "à¤¿": 5710,
      "yeshtha": 5711,
      "Ġbamla": 5712,
      "Ġrakhayae": 5713,
      "Ġanumodana": 5714,
      "Ġscience": 5715,
      "byu": 5716,
      "Ġpoda": 5717,
      "Ġkshi": 5718,
      "Ġashrama": 5719,
      "Ġdhira": 5720,
      "Ġbipla": 5721,
      "Ġyana": 5722,
      "Ġime": 5723,
      "Ġkarda": 5724,
      "Ġpaila": 5725,
      "Ġpariganita": 5726,
      "trik": 5727,
      "Ġabhisha": 5728,
      "Ġkhan": 5729,
      "Ġdebadebi": 5730,
      "ngaladesha": 5731,
      "Ġmaila": 5732,
      "Ġprakal": 5733,
      "ssion": 5734,
      "98": 5735,
      "jjita": 5736,
      "Ġsaka": 5737,
      "Ġghe": 5738,
      "Ġniyojita": 5739,
      "Ġiuro": 5740,
      "Ġsamajare": 5741,
      "Ġsahayoga": 5742,
      "tiraeda": 5743,
      "Ġkhoji": 5744,
      "Ġparyyayare": 5745,
      "Ġtalikare": 5746,
      "Ġkaryyakalapa": 5747,
      "Ġeksapresa": 5748,
      "96": 5749,
      "unda": 5750,
      "data": 5751,
      "Ġsat": 5752,
      "Ġbideshi": 5753,
      "Ġbhajana": 5754,
      "mine": 5755,
      "Ġparibarika": 5756,
      "Ġlal": 5757,
      "praja": 5758,
      "kramika": 5759,
      "Ġrogaku": 5760,
      "Ġbhojana": 5761,
      "kandha": 5762,
      "mpho": 5763,
      "Ġbrahmapura": 5764,
      "Ġsharkara": 5765,
      "gma": 5766,
      "aruna": 5767,
      "jagata": 5768,
      "thy": 5769,
      "shini": 5770,
      "Ġdaya": 5771,
      "Ġyaanti": 5772,
      "Ġfi": 5773,
      "ĠasàŃ±a": 5774,
      "1997": 5775,
      "Ġkhodita": 5776,
      "Ġthia": 5777,
      "Ġshabdati": 5778,
      "Ġbaishayika": 5779,
      "Ġshatakada": 5780,
      "42": 5781,
      "Ġagare": 5782,
      "daba": 5783,
      "Ġsammanare": 5784,
      "Ġdakhala": 5785,
      "kichi": 5786,
      "Ġabasada": 5787,
      "Ġbega": 5788,
      "ĠbishàŃ±ala": 5789,
      "Ġreda": 5790,
      "Ġgunda": 5791,
      "Ġbrriddha": 5792,
      "Ġ1936": 5793,
      ")|": 5794,
      "03": 5795,
      "ĠÂł": 5796,
      "Ġmakara": 5797,
      "Ġpraba": 5798,
      "Ġkarideithile": 5799,
      "Ġgru": 5800,
      "rrisha": 5801,
      "Ġhoiyiba": 5802,
      "Ġdisa": 5803,
      "Ġ1920": 5804,
      "Ġsite": 5805,
      "Ġgovernment": 5806,
      "prasha": 5807,
      "itihasika": 5808,
      "Ġhimsa": 5809,
      "Ġaranya": 5810,
      "Ġinte": 5811,
      "Ġdekhayanti": 5812,
      "Ġbadali": 5813,
      "Ġagaku": 5814,
      "Ġchakrabartti": 5815,
      "Ġkhrishtapurba": 5816,
      "Ġnews": 5817,
      "Ġnatakare": 5818,
      "Ġdruta": 5819,
      "Ġpurushottama": 5820,
      "nchana": 5821,
      "nchu": 5822,
      "à²": 5823,
      "Ġeguda": 5824,
      "chalana": 5825,
      "Ġkaman": 5826,
      "Ġbagi": 5827,
      "disha": 5828,
      "Ġnambara": 5829,
      "yuta": 5830,
      "Ġbeshare": 5831,
      "Ġmehera": 5832,
      "Ġarambhare": 5833,
      "Ġsantha": 5834,
      "1986": 5835,
      "Ġrriture": 5836,
      "Ġsurakshita": 5837,
      "Ġ..": 5838,
      "Ġbishle": 5839,
      "Ġchatishagada": 5840,
      "ek": 5841,
      "raksha": 5842,
      "Ġkyari": 5843,
      "Ġbihari": 5844,
      "Ġbalika": 5845,
      "dharita": 5846,
      "charu": 5847,
      "Ġsamsara": 5848,
      "Ġmahaka": 5849,
      "Ġsup": 5850,
      "Ġrahipare": 5851,
      "barta": 5852,
      "harika": 5853,
      "ves": 5854,
      "Ġshikshadana": 5855,
      "Ġsandeha": 5856,
      "Ġbhartti": 5857,
      "à¸": 5858,
      "Ġkapi": 5859,
      "Ġrastare": 5860,
      "jaga": 5861,
      "Ġlata": 5862,
      "Ġmis": 5863,
      "Ġsiti": 5864,
      "Ġtanma": 5865,
      "prajati": 5866,
      "2021": 5867,
      "bhubane": 5868,
      "Ġmote": 5869,
      "Ġbaidha": 5870,
      "Ġjela": 5871,
      "1991": 5872,
      "1996": 5873,
      "abhinayare": 5874,
      "phula": 5875,
      "bhaugolika": 5876,
      "Ġraupya": 5877,
      "dàŃ±itiya": 5878,
      "Ġsamsadara": 5879,
      "Ġriseptara": 5880,
      "Ġadhyatmika": 5881,
      "05": 5882,
      "iyae": 5883,
      "lada": 5884,
      "Ġekara": 5885,
      "Ġpabana": 5886,
      "thura": 5887,
      "loma": 5888,
      "Ġparishadara": 5889,
      "Ġmanare": 5890,
      "Ġmahala": 5891,
      "nchati": 5892,
      "Ġupasthiti": 5893,
      "Ġarbuda": 5894,
      "nataka": 5895,
      "Ġdiayiba": 5896,
      "Ġshukhila": 5897,
      "Ġduijana": 5898,
      "Ġyogayoga": 5899,
      "Ġdoja": 5900,
      "Ġambedakara": 5901,
      "Ġ1949": 5902,
      "kshepana": 5903,
      "Ġsamgrahalaya": 5904,
      "prathame": 5905,
      "Ġsamudrika": 5906,
      "Ġdelhi": 5907,
      "dr": 5908,
      "lari": 5909,
      "ntharu": 5910,
      "spe": 5911,
      "naba": 5912,
      "ring": 5913,
      "kulare": 5914,
      "Ġkaripariba": 5915,
      "Ġbalya": 5916,
      "Ġantah": 5917,
      "Ġhebe": 5918,
      "Ġupamaha": 5919,
      "ĠrajatàŃ±": 5920,
      "manika": 5921,
      "Ġchera": 5922,
      "Ġgandhiji": 5923,
      "sadharanatah": 5924,
      "Ġandolanara": 5925,
      "njiniyarim": 5926,
      "developing": 5927,
      "Ġsosaiti": 5928,
      "'re": 5929,
      "à¨": 5930,
      "Ġspi": 5931,
      "Ġkanda": 5932,
      "Ġmaga": 5933,
      "Ġpathare": 5934,
      "Ġsemi": 5935,
      "Ġdevelo": 5936,
      "dhikara": 5937,
      "Ġroja": 5938,
      "Ġyete": 5939,
      "mbakiya": 5940,
      "Ġbishakta": 5941,
      "Ġasosi": 5942,
      "1984": 5943,
      "Ġ1945": 5944,
      "phuta": 5945,
      "Ġparibahana": 5946,
      "Ġgautama": 5947,
      "Ġindone": 5948,
      "Ġprarambhare": 5949,
      "nketa": 5950,
      "ster": 5951,
      "use": 5952,
      "gathana": 5953,
      "Ġprak": 5954,
      "lishta": 5955,
      "Ġbimsha": 5956,
      "tenta": 5957,
      "ndranatha": 5958,
      "Ġsamalo": 5959,
      "meshàŃ±ra": 5960,
      "pia": 5961,
      "Ġchira": 5962,
      "Ġgote": 5963,
      "anubada": 5964,
      "Ġbarshaku": 5965,
      "Ġlibr": 5966,
      "peri": 5967,
      "Ġpesha": 5968,
      "Ġphelo": 5969,
      "tarikhare": 5970,
      "1993": 5971,
      "Ġ1940": 5972,
      "Ġshramika": 5973,
      "Ġbabadare": 5974,
      "samskrriti": 5975,
      "Ġabhyasa": 5976,
      "leria": 5977,
      "chandana": 5978,
      "Ġpabli": 5979,
      "Ġkamuda": 5980,
      "Ġbab": 5981,
      "Ġgro": 5982,
      "Ġuchit": 5983,
      "Ġnala": 5984,
      "anugola": 5985,
      "Ġ300": 5986,
      "1981": 5987,
      "Ġupendra": 5988,
      "1957": 5989,
      "khuthile": 5990,
      "Ġhimalaya": 5991,
      "Ġhathat": 5992,
      "ghare": 5993,
      "bau": 5994,
      "lik": 5995,
      "mitra": 5996,
      "Ġdebada": 5997,
      "Ġshada": 5998,
      "Ġsimare": 5999,
      "Ġsula": 6000,
      "ngh": 6001,
      "2022": 6002,
      "Ġmodi": 6003,
      "Ġsabuthu": 6004,
      "Ġ1953": 6005,
      "Ġnabajata": 6006,
      "Ġgarbhabastha": 6007,
      "Ġinashtichyu": 6008,
      "Ġhoisarichi": 6009,
      "Ġmrrityura": 6010,
      "ima": 6011,
      "Ġtrans": 6012,
      "ree": 6013,
      "Ġchatu": 6014,
      "Ġlabana": 6015,
      "Ġbharati": 6016,
      "arambha": 6017,
      "Ġupakula": 6018,
      "Ġmandala": 6019,
      "Ġtula": 6020,
      "Ġduradarshanare": 6021,
      "ngaraja": 6022,
      "Ġharina": 6023,
      "ĠdàŃ±ipapu": 6024,
      "njeksana": 6025,
      "Ġbalarama": 6026,
      "Ġprofile": 6027,
      "aku": 6028,
      "dula": 6029,
      "ibare": 6030,
      "batha": 6031,
      "Ġakra": 6032,
      "lio": 6033,
      "lish": 6034,
      "manatha": 6035,
      "dena": 6036,
      "Ġshadha": 6037,
      "mena": 6038,
      "Ġshti": 6039,
      "Ġchin": 6040,
      "karanara": 6041,
      "Ġartic": 6042,
      "samu": 6043,
      "sambala": 6044,
      "sudana": 6045,
      "Ġkalejaru": 6046,
      "Ġmiliba": 6047,
      "Ġparyyaya": 6048,
      "Ġnarasimha": 6049,
      "Ġnikataku": 6050,
      "Ġbyabasayi": 6051,
      "ĠàŃ±iketa": 6052,
      "rapy": 6053,
      "Ġbishu": 6054,
      "Ġkalaru": 6055,
      "yuktara": 6056,
      "Ġrahithanti": 6057,
      "barddhana": 6058,
      "yibara": 6059,
      "Ġardra": 6060,
      "Ġdurei": 6061,
      "purna": 6062,
      "Ġ400": 6063,
      "Ġshuk": 6064,
      "Ġkrike": 6065,
      "shreni": 6066,
      "upanyasa": 6067,
      "Ġjahaja": 6068,
      "smita": 6069,
      "Ġeta": 6070,
      "Ġbilu": 6071,
      "oid": 6072,
      "Ġdiji": 6073,
      "Ġsthali": 6074,
      "Ġnebaku": 6075,
      "Ġpandu": 6076,
      "Ġmyach": 6077,
      "Ġtaipa": 6078,
      "Ġbhaktamane": 6079,
      "Ġlipibaddha": 6080,
      "padmashri": 6081,
      "Ġpresakripasana": 6082,
      "Ġkamyunishta": 6083,
      "\"~": 6084,
      "mbo": 6085,
      "pli": 6086,
      "panika": 6087,
      "à´": 6088,
      "ard": 6089,
      "kama": 6090,
      "Ġkhi": 6091,
      "nim": 6092,
      "Ġkarihue": 6093,
      "ndrome": 6094,
      "Ġjalare": 6095,
      "Ġjamata": 6096,
      "sehi": 6097,
      "Ġshashtha": 6098,
      "Ġchyane": 6099,
      "Ġbesarakari": 6100,
      "Ġpuranare": 6101,
      "phaila": 6102,
      "Ġtera": 6103,
      "Ġpokhari": 6104,
      "kanatha": 6105,
      "Ġkrrishaka": 6106,
      "Ġchaturddashi": 6107,
      "06": 6108,
      "Ġqu": 6109,
      "risha": 6110,
      "Ġmor": 6111,
      "Ġbibidha": 6112,
      "pakhare": 6113,
      "bhakta": 6114,
      "Ġchakshu": 6115,
      "Ġhemo": 6116,
      "Ġyakshma": 6117,
      "sen": 6118,
      "gujara": 6119,
      "Ġdiayai": 6120,
      "Ġasustha": 6121,
      "Ġsyndrome": 6122,
      "04": 6123,
      "epha": 6124,
      "jyo": 6125,
      "mpe": 6126,
      "tm": 6127,
      "mahila": 6128,
      "Ġmadana": 6129,
      "nird": 6130,
      "Ġob": 6131,
      "Ġprasanna": 6132,
      "Ġpadu": 6133,
      "pakshi": 6134,
      "ury": 6135,
      "Ġekatra": 6136,
      "Ġdamana": 6137,
      "Ġdinara": 6138,
      "Ġgaithile": 6139,
      "Ġmahabharata": 6140,
      "Ġtani": 6141,
      "nchaya": 6142,
      "Ġkuhayaichi": 6143,
      "Ġsocie": 6144,
      "Ġbiraja": 6145,
      "Ġmundabatha": 6146,
      "Ġdhumra": 6147,
      "Ġvideo": 6148,
      "Ġgitikaramane": 6149,
      "Ġprayojaka": 6150,
      "ff": 6151,
      "ano": 6152,
      "paki": 6153,
      "Ġkaba": 6154,
      "Ġlauha": 6155,
      "Ġpurbare": 6156,
      "Ġparala": 6157,
      "Ġgundicha": 6158,
      "ĠbyaktitàŃ±": 6159,
      "Ġkuhayauthila": 6160,
      "Ġchetana": 6161,
      "Ġprotsa": 6162,
      "àŃ±era": 6163,
      "Ġadhyaya": 6164,
      "basita": 6165,
      "Ġhaipo": 6166,
      "Ġpranayana": 6167,
      "Ġ1934": 6168,
      "Ġpashchimaba": 6169,
      "Ġkoila": 6170,
      "mor": 6171,
      "son": 6172,
      "Ġsrri": 6173,
      "Ġabhyan": 6174,
      "rikta": 6175,
      "Ġom": 6176,
      "Ġnabina": 6177,
      "neha": 6178,
      "nchami": 6179,
      "Ġkhata": 6180,
      "Ġinto": 6181,
      "Ġcen": 6182,
      "Ġrese": 6183,
      "puratana": 6184,
      "Ġparamanu": 6185,
      "stan": 6186,
      "Ġchandrashekhara": 6187,
      "Ġnrrityashilpi": 6188,
      "Ġaphrikiya": 6189,
      "ĠdhàŃ±msa": 6190,
      "Ġbasudeba": 6191,
      "Ġrokiba": 6192,
      "Ġkhabarakagaja": 6193,
      "'~": 6194,
      "09": 6195,
      "badare": 6196,
      "Ġkshata": 6197,
      "Ġsachiba": 6198,
      "Ġkaura": 6199,
      "Ġaniba": 6200,
      "bio": 6201,
      "dhinata": 6202,
      "ĠishàŃ±ra": 6203,
      "Ġmasika": 6204,
      "Ġgamana": 6205,
      "Ġshakta": 6206,
      "Ġmantrana": 6207,
      "prabha": 6208,
      "Ġredio": 6209,
      "Ġrudra": 6210,
      "Ġthakka": 6211,
      "Ġrajyapala": 6212,
      "Ġpres": 6213,
      "Ġdojara": 6214,
      "Ġrasayana": 6215,
      "jola": 6216,
      "Ġsenapati": 6217,
      "Ġbaharaku": 6218,
      "samkhyara": 6219,
      "gho": 6220,
      "lma": 6221,
      "ok": 6222,
      "let": 6223,
      "Ġpatta": 6224,
      "paga": 6225,
      "Ġratri": 6226,
      "Ġsamrri": 6227,
      "Ġhoina": 6228,
      "kio": 6229,
      "Ġjina": 6230,
      "Ġlaho": 6231,
      "Ġabashesha": 6232,
      "Ġbodha": 6233,
      "ĠbishàŃ±natha": 6234,
      "Ġ44": 6235,
      "Ġluha": 6236,
      "Ġsthanantarita": 6237,
      "Ġshirsha": 6238,
      "Ġsamprrikta": 6239,
      "08": 6240,
      "91": 6241,
      "lta": 6242,
      "nchara": 6243,
      "yaha": 6244,
      "Ġpraj": 6245,
      "Ġbhagane": 6246,
      "lori": 6247,
      "Ġhepata": 6248,
      "Ġpartha": 6249,
      "Ġkathachitrara": 6250,
      "yananda": 6251,
      "Ġchitaba": 6252,
      "kshipta": 6253,
      "Ġ41": 6254,
      "à¤¦": 6255,
      "1982": 6256,
      "Ġnadire": 6257,
      "lpika": 6258,
      "Ġjenerala": 6259,
      "Ġabout": 6260,
      "pment": 6261,
      "Ġstarara": 6262,
      "madhyaru": 6263,
      "lesana": 6264,
      "Ġmaharana": 6265,
      "padha": 6266,
      "bhashi": 6267,
      "shishu": 6268,
      "king": 6269,
      "Ġparikshare": 6270,
      "Ġsthanaru": 6271,
      "Ġupakari": 6272,
      "gobinda": 6273,
      "Ġ78": 6274,
      "Ġpreside": 6275,
      "Ġjibakosha": 6276,
      "Ġmyacha": 6277,
      "Ġlokapriyata": 6278,
      "moda": 6279,
      "strare": 6280,
      "Ġendo": 6281,
      "Ġmale": 6282,
      "chandi": 6283,
      "Ġdebara": 6284,
      "Ġchaitanya": 6285,
      "Ġila": 6286,
      "Ġdipaka": 6287,
      "Ġshilpi": 6288,
      "neda": 6289,
      "Ġriti": 6290,
      "Ġdhada": 6291,
      "nts": 6292,
      "Ġ1932": 6293,
      "Ġkanada": 6294,
      "Ġtelibhijana": 6295,
      "Ġpatrikare": 6296,
      "ference": 6297,
      "Ġimeji": 6298,
      "100": 6299,
      "=\"": 6300,
      "stry": 6301,
      "vara": 6302,
      "Ġkhia": 6303,
      "Ġashu": 6304,
      "Ġabedana": 6305,
      "Ġed": 6306,
      "Ġmagha": 6307,
      "Ġsammukhi": 6308,
      "biju": 6309,
      "bedi": 6310,
      "Ġhani": 6311,
      "karnna": 6312,
      "Ġnirbaha": 6313,
      "Ġ42": 6314,
      "Ġwal": 6315,
      "Ġposhta": 6316,
      "Ġ76": 6317,
      "Ġsimhasana": 6318,
      "Ġmaikro": 6319,
      "Ġsarbabrri": 6320,
      "Ġdashama": 6321,
      "pandana": 6322,
      "Ġ1938": 6323,
      "Ġkatakare": 6324,
      "Ġlandana": 6325,
      "aga": 6326,
      "ghana": 6327,
      "om": 6328,
      "hinata": 6329,
      "kai": 6330,
      "mau": 6331,
      "mayi": 6332,
      "napana": 6333,
      "Ġmagi": 6334,
      "Ġyamuna": 6335,
      "Ġsahayogi": 6336,
      "Ġsadharanata": 6337,
      "Ġbhitamina": 6338,
      "gopala": 6339,
      "Ġ55": 6340,
      "âĢĻ~": 6341,
      "1983": 6342,
      "Ġadaku": 6343,
      "Ġmanora": 6344,
      "Ġindiana": 6345,
      "Ġashtama": 6346,
      "Ġgujarata": 6347,
      "Ġkaryyarata": 6348,
      "ĠbhubaneshàŃ±rara": 6349,
      "Ġbooks": 6350,
      "Ġsammukhina": 6351,
      "lyan": 6352,
      "shah": 6353,
      "shaha": 6354,
      "Ġmadra": 6355,
      "Ġpapu": 6356,
      "Ġbiharara": 6357,
      "pal": 6358,
      "Ġbajaya": 6359,
      "siddhi": 6360,
      "Ġ(\"": 6361,
      "bitri": 6362,
      "Ġistapha": 6363,
      "Ġjapani": 6364,
      "Ġgalu": 6365,
      "pira": 6366,
      "Ġhasya": 6367,
      "Ġrahibaku": 6368,
      "Ġbrrinda": 6369,
      "Ġshunya": 6370,
      "Ġsandhana": 6371,
      "Ġbaishi": 6372,
      "brriddhi": 6373,
      "Ġganatantra": 6374,
      "Ġakhila": 6375,
      "Ġakalana": 6376,
      "Ġexpress": 6377,
      "Ġpakistanara": 6378,
      "Ġparisarare": 6379,
      "dehanta": 6380,
      "01": 6381,
      "nche": 6382,
      "uth": 6383,
      "Ġbrrishti": 6384,
      "Ġbarika": 6385,
      "Ġahata": 6386,
      "Ġpade": 6387,
      "pauranika": 6388,
      "bijaya": 6389,
      "Ġlake": 6390,
      "Ġhal": 6391,
      "shed": 6392,
      "Ġbhuta": 6393,
      "Ġdiayaithae": 6394,
      "balambi": 6395,
      "Ġasila": 6396,
      "Ġuttaradhikari": 6397,
      "Ġjeje": 6398,
      "Ġgrrihita": 6399,
      "nirmana": 6400,
      "Ġsuresha": 6401,
      "Ġsamgharsha": 6402,
      "Ġsociety": 6403,
      "ac": 6404,
      "rja": 6405,
      "tisa": 6406,
      "Ġ|âĢĻ": 6407,
      "Ġawar": 6408,
      "Ġnabara": 6409,
      "Ġdeuthile": 6410,
      "Ġyehetu": 6411,
      "Ġraje": 6412,
      "peksha": 6413,
      "anyasika": 6414,
      "gen": 6415,
      "Ġthaira": 6416,
      "cen": 6417,
      "Ġ85": 6418,
      "Ġtulana": 6419,
      "Ġbhoi": 6420,
      "Ġbahini": 6421,
      "Ġdaktarakhanare": 6422,
      "Ġshriramakrrishna": 6423,
      "Ġedition": 6424,
      "Ġsamantaraya": 6425,
      "Ġhyumana": 6426,
      "Ġmusalima": 6427,
      "ex": 6428,
      "Ġbanara": 6429,
      "Ġaa": 6430,
      "Ġkadha": 6431,
      "Ġsamayaru": 6432,
      "ngalara": 6433,
      "shàŃ±eta": 6434,
      "Ġshibaratri": 6435,
      "Ġsingh": 6436,
      "Ġpidha": 6437,
      "Ġparada": 6438,
      "Ġkoshtha": 6439,
      "Ġrupan": 6440,
      "Ġanati": 6441,
      "Ġkamitira": 6442,
      "Ġjayapura": 6443,
      "Ġpheriba": 6444,
      "ft": 6445,
      "ii": 6446,
      "mga": 6447,
      "Ġporta": 6448,
      "balya": 6449,
      "Ġmadhaba": 6450,
      "Ġpraphulla": 6451,
      "Ġjanasadharana": 6452,
      "ĠgosàŃ±ami": 6453,
      "Ġupayare": 6454,
      "kena": 6455,
      "Ġlimi": 6456,
      "Ġasithae": 6457,
      "Ġ77": 6458,
      "Ġatirikta": 6459,
      "Ġdosha": 6460,
      "ngitara": 6461,
      "Ġarthani": 6462,
      "Ġantima": 6463,
      "Ġjayadeba": 6464,
      "Ġrakhayaichi": 6465,
      "grantha": 6466,
      "Ġnrrisimha": 6467,
      "02": 6468,
      "bre": 6469,
      "kre": 6470,
      "Ġ~": 6471,
      "Ġskri": 6472,
      "Ġksh": 6473,
      "Ġakti": 6474,
      "Ġdrrita": 6475,
      "Ġprache": 6476,
      "thar": 6477,
      "Ġdakshata": 6478,
      "Ġkaron": 6479,
      "ney": 6480,
      "Ġparka": 6481,
      "Ġpitrri": 6482,
      "tary": 6483,
      "Ġheuthibaru": 6484,
      "Ġsarbani": 6485,
      "Ġatithi": 6486,
      "Ġpakasthali": 6487,
      "ĠàŃ±ebasa": 6488,
      "ĠdàŃ±adasha": 6489,
      "Ġganasampadanare": 6490,
      "Ġkaushala": 6491,
      "Ġjaruri": 6492,
      "ebam": 6493,
      "lyanda": 6494,
      "ĠÂłĊ": 6495,
      "badhi": 6496,
      "Ġpramanita": 6497,
      "Ġpad": 6498,
      "Ġbyapta": 6499,
      "Ġshala": 6500,
      "order": 6501,
      "Ġsarbasa": 6502,
      "Ġ830": 6503,
      "Ġchalichi": 6504,
      "Ġnyasanala": 6505,
      "Ġkhrishti": 6506,
      "Ġsamaro": 6507,
      "nguli": 6508,
      "Ġkhrishtab": 6509,
      "prrishtha": 6510,
      "gni": 6511,
      "Ġsra": 6512,
      "pakha": 6513,
      "àŃ±la": 6514,
      "Ġnam": 6515,
      "âĢĭ": 6516,
      "jiu": 6517,
      "Ġpaichanti": 6518,
      "Ġsamas": 6519,
      "Ġmukhar": 6520,
      "Ġshaiba": 6521,
      "Ġsudarshana": 6522,
      "Ġkhasi": 6523,
      "Ġindira": 6524,
      "Ġtaraka": 6525,
      "Ġshaktira": 6526,
      "1978": 6527,
      "Ġaniyamita": 6528,
      "Ġsambandhita": 6529,
      "Ġdurbalata": 6530,
      "nchita": 6531,
      "arda": 6532,
      "rajani": 6533,
      "Ġori": 6534,
      "Ġkaribaru": 6535,
      "tesana": 6536,
      "Ġmul": 6537,
      "Ġpratiro": 6538,
      "Ġpratiraksha": 6539,
      "nglish": 6540,
      "Ġwhi": 6541,
      "Ġ72": 6542,
      "ĠĠĠĠĠ": 6543,
      "Ġpharasi": 6544,
      "Ġphaundesana": 6545,
      "Ġgopinatha": 6546,
      "Ġinstitute": 6547,
      "--": 6548,
      "cre": 6549,
      "ryya": 6550,
      "à§": 6551,
      "Ġasadharana": 6552,
      "shasana": 6553,
      "Ġjyeshtha": 6554,
      "Ġpaji": 6555,
      "âĢĺ": 6556,
      "bel": 6557,
      "Ġparbani": 6558,
      "Ġsukha": 6559,
      "Ġhuenahi": 6560,
      "Ġuttapa": 6561,
      "phre": 6562,
      "Ġharamona": 6563,
      "byapi": 6564,
      "Ġrakhile": 6565,
      "Ġkhusi": 6566,
      "Ġjarja": 6567,
      "sàŃ±adhinata": 6568,
      "Ġgujaratara": 6569,
      "manusare": 6570,
      "Ġmiluthiba": 6571,
      "durga": 6572,
      "Ġsurendra": 6573,
      "Ġjammu": 6574,
      "nirbachita": 6575,
      "Ġdevelopment": 6576,
      "nri": 6577,
      "uthila": 6578,
      "tasa": 6579,
      "Ġbid": 6580,
      "Ġkariparanti": 6581,
      "bije": 6582,
      "yanu": 6583,
      "Ġrajendra": 6584,
      "Ġupagraha": 6585,
      "Ġaryya": 6586,
      "Ġrajasthanara": 6587,
      "Ġmeni": 6588,
      "archchana": 6589,
      "phyu": 6590,
      "kshya": 6591,
      "Ġdeithiba": 6592,
      "Ġsobhi": 6593,
      "Ġdharmare": 6594,
      "phor": 6595,
      "Ġgyaleri": 6596,
      "Ġkonarka": 6597,
      "Ġsamskrritira": 6598,
      "Ġsarbanimna": 6599,
      "cke": 6600,
      "era": 6601,
      "rabi": 6602,
      "mayurabha": 6603,
      "Ġamala": 6604,
      "Ġjharana": 6605,
      "Ġorissa": 6606,
      "Ġgharara": 6607,
      "Ġekaka": 6608,
      "Ġjaiba": 6609,
      "Ġkesh": 6610,
      "gandhi": 6611,
      "à¤¨": 6612,
      "Ġamshika": 6613,
      "Ġkahiba": 6614,
      "Ġpratishthana": 6615,
      "deithila": 6616,
      "Ġlagai": 6617,
      "Ġaphrikare": 6618,
      "ĠdhàŃ±ni": 6619,
      "07": 6620,
      "edi": 6621,
      "nla": 6622,
      "val": 6623,
      "kamane": 6624,
      "Ġajita": 6625,
      "Ġjya": 6626,
      "chalita": 6627,
      "kuta": 6628,
      "Ġgali": 6629,
      "gupta": 6630,
      "parita": 6631,
      "Ġcal": 6632,
      "Ġdhatu": 6633,
      "1975": 6634,
      "ehapare": 6635,
      "Ġjibanta": 6636,
      "ĠĠĠĠĠĠĠ": 6637,
      "Ġlangua": 6638,
      "yuro": 6639,
      "bhaira": 6640,
      "mil": 6641,
      "Ġkarakhana": 6642,
      "Ġgalpika": 6643,
      "ĠsàŃ±ya": 6644,
      "ĠsàŃ±chcha": 6645,
      "Ġsthanita": 6646,
      "Ġkhada": 6647,
      "yanatha": 6648,
      "Ġrajakiya": 6649,
      "Ġkalabele": 6650,
      "Ġdurghatana": 6651,
      "siasa": 6652,
      "pheyara": 6653,
      "Ġunnayana": 6654,
      "Ġanimia": 6655,
      "Ġakhire": 6656,
      "Ġkalpanika": 6657,
      "Ġmadhusudana": 6658,
      "Ġmumbaire": 6659,
      "udbhida": 6660,
      "prrithibi": 6661,
      "Ġdistrict": 6662,
      "Ġpunaruddhara": 6663,
      "Ġfilm": 6664,
      "Ġresearch": 6665,
      "Ġmukharji": 6666,
      "wor": 6667,
      "Ġkran": 6668,
      "Ġbishrama": 6669,
      "Ġnih": 6670,
      "Ġdahi": 6671,
      "Ġmundare": 6672,
      "aranatha": 6673,
      "Ġbhidio": 6674,
      "Ġnirddharana": 6675,
      "Ġbyaktira": 6676,
      "Ġasima": 6677,
      "Ġmilithiba": 6678,
      "Ġparibartte": 6679,
      "Ġ1944": 6680,
      "Ġpandaba": 6681,
      "Ġprachira": 6682,
      "dananda": 6683,
      "Ġpaddhatire": 6684,
      "gudikara": 6685,
      "mallika": 6686,
      "chchinna": 6687,
      "Ġbajra": 6688,
      "Ġbilupta": 6689,
      "apa": 6690,
      "shtar": 6691,
      "Ġpadhu": 6692,
      "sima": 6693,
      "Ġsela": 6694,
      "ndon": 6695,
      "Ġbarma": 6696,
      "Ġhandi": 6697,
      "Ġsucha": 6698,
      "Ġutto": 6699,
      "marathi": 6700,
      "Ġbahuda": 6701,
      "Ġhrridaya": 6702,
      "Ġadharare": 6703,
      "Ġkshetraphala": 6704,
      "khela": 6705,
      "Ġyuropiya": 6706,
      "Ġkhrishtabda": 6707,
      "Ġmahima": 6708,
      "Ġgauraba": 6709,
      "Ġpradushana": 6710,
      "jari": 6711,
      "yatri": 6712,
      "Ġmono": 6713,
      "Ġpatrare": 6714,
      "Ġsebare": 6715,
      "Ġgatha": 6716,
      "Ġtib": 6717,
      "Ġupayogi": 6718,
      "Ġci": 6719,
      "sona": 6720,
      "Ġmyaleria": 6721,
      "Ġtapasya": 6722,
      "Ġpranalire": 6723,
      "Ġnartta": 6724,
      "Ġganasampadana": 6725,
      "ibara": 6726,
      "ola": 6727,
      "ppa": 6728,
      "Ġalli": 6729,
      "Ġmura": 6730,
      "Ġantari": 6731,
      "Ġupar": 6732,
      "Ġbhata": 6733,
      "seta": 6734,
      "Ġshikhara": 6735,
      "Ġham": 6736,
      "Ġnepala": 6737,
      "Ġcric": 6738,
      "Ġbhida": 6739,
      "stura": 6740,
      "Ġtinithara": 6741,
      "bahini": 6742,
      "Ġniyantrita": 6743,
      "Ġpakistani": 6744,
      "Ġchaitra": 6745,
      "Ġsmaraki": 6746,
      "ora": 6747,
      "niba": 6748,
      "Ġpradipa": 6749,
      "Ġpam": 6750,
      "Ġpaanti": 6751,
      "Ġkaridie": 6752,
      "Ġjapana": 6753,
      "Ġkarantu": 6754,
      "Ġkeshari": 6755,
      "Ġkhaile": 6756,
      "Ġmoha": 6757,
      "Ġmotara": 6758,
      "Ġkona": 6759,
      "mrata": 6760,
      "Ġmumbaira": 6761,
      "Ġbandhuta": 6762,
      "ĠbhubaneshàŃ±rare": 6763,
      "Ġnirikshana": 6764,
      "psa": 6765,
      "param": 6766,
      "ure": 6767,
      "kaku": 6768,
      "Ġel": 6769,
      "Ġeri": 6770,
      "Ġeli": 6771,
      "Ġmashtara": 6772,
      "Ġpataka": 6773,
      "Ġpashchimare": 6774,
      "huda": 6775,
      "kim": 6776,
      "Ġehachada": 6777,
      "Ġsamatala": 6778,
      "Ġyodi": 6779,
      "Ġinfe": 6780,
      "suguda": 6781,
      "Ġkothari": 6782,
      "noloji": 6783,
      "Ġlakshanamana": 6784,
      "Ġaradhana": 6785,
      "Ġabir": 6786,
      "Ġgujarati": 6787,
      "Ġmahanadi": 6788,
      "Ġaphisara": 6789,
      "Ġprakrritare": 6790,
      "Ġbikirana": 6791,
      "Ġtanmadhyaru": 6792,
      "nnti": 6793,
      "tkara": 6794,
      "ttu": 6795,
      "Ġkuna": 6796,
      "Ġdhi": 6797,
      "niare": 6798,
      "Ġbindha": 6799,
      "sisi": 6800,
      "bili": 6801,
      "Ġbyakhya": 6802,
      "Ġkua": 6803,
      "sumi": 6804,
      "Ġshuddha": 6805,
      "Ġ1943": 6806,
      "1972": 6807,
      "Ġadala": 6808,
      "Ġparbaparbani": 6809,
      "Ġdaktare": 6810,
      "Ġbikalpa": 6811,
      "Ġturanta": 6812,
      "dàŃ±ipa": 6813,
      "Ġsadrrisha": 6814,
      "banta": 6815,
      "Ġsk": 6816,
      "Ġsrota": 6817,
      "kada": 6818,
      "Ġpyari": 6819,
      "Ġklo": 6820,
      "shnu": 6821,
      "saurus": 6822,
      "Ġrathare": 6823,
      "Ġrashtrare": 6824,
      "Ġdah": 6825,
      "debata": 6826,
      "Ġsthale": 6827,
      "Ġkhaibaku": 6828,
      "ĠbishàŃ±yuddha": 6829,
      "Ġdekhayaipare": 6830,
      "phri": 6831,
      "Ġdashami": 6832,
      "Ġcoun": 6833,
      "Ġtrriti": 6834,
      "Ġtrrina": 6835,
      "Ġnishkasana": 6836,
      "Ġkramagata": 6837,
      "Ġpuraskrrita": 6838,
      "ĠsàŃ±rga": 6839,
      "kathinya": 6840,
      "Ġpajitibha": 6841,
      "Ġpia": 6842,
      "nagara": 6843,
      "niyara": 6844,
      "Ġmon": 6845,
      "Ġpal": 6846,
      "Ġglu": 6847,
      "Ġuna": 6848,
      "bia": 6849,
      "rosis": 6850,
      "bamsha": 6851,
      "Ġcham": 6852,
      "Ġdali": 6853,
      "beri": 6854,
      "bhita": 6855,
      "rus": 6856,
      "Ġpaithiba": 6857,
      "Ġparija": 6858,
      "Ġparikrama": 6859,
      "Ġshanta": 6860,
      "inan": 6861,
      "ger": 6862,
      "Ġlekhae": 6863,
      "Ġnuha": 6864,
      "Ġsthanamana": 6865,
      "Ġlagiba": 6866,
      "1970": 6867,
      "Ġhaidro": 6868,
      "Ġsamgramare": 6869,
      "ĠsàŃ±ikara": 6870,
      "Ġ1928": 6871,
      "Ġblak": 6872,
      "Ġklaba": 6873,
      "Ġokilati": 6874,
      "Ġmadyapana": 6875,
      "Ġapari": 6876,
      "Ġrashmi": 6877,
      "Ġutha": 6878,
      "Ġdalar": 6879,
      "Ġnor": 6880,
      "Ġjalara": 6881,
      "Ġshirare": 6882,
      "Ġshibali": 6883,
      "guni": 6884,
      "Ġbea": 6885,
      "Ġkelu": 6886,
      "Ġsthalare": 6887,
      "Ġbhishma": 6888,
      "Ġsarjana": 6889,
      "Ġbyabaharakari": 6890,
      "Ġalati": 6891,
      "Ġproble": 6892,
      "Ġkshama": 6893,
      "kannada": 6894,
      "Ġarabinda": 6895,
      "Ġ1937": 6896,
      "Ġluga": 6897,
      "ctionary": 6898,
      "Ġonline": 6899,
      "bhumire": 6900,
      "Ġaitihya": 6901,
      "Ġ1929": 6902,
      "Ġthaipare": 6903,
      "Ġpujari": 6904,
      "Ġchennai": 6905,
      "logical": 6906,
      "Ġsaundaryya": 6907,
      "panyasika": 6908,
      "snana": 6909,
      "zi": 6910,
      "Ġsmar": 6911,
      "Ġemiti": 6912,
      "chchare": 6913,
      "bamshi": 6914,
      "Ġjabahara": 6915,
      "Ġmuta": 6916,
      "Ġshtu": 6917,
      "Ġhasa": 6918,
      "Ġchinara": 6919,
      "kesana": 6920,
      "phla": 6921,
      "Ġdinaku": 6922,
      "ches": 6923,
      "Ġbhotara": 6924,
      "color": 6925,
      "Ġaupanyasika": 6926,
      "Ġcharipate": 6927,
      "Ġpahandi": 6928,
      "Ġ1941": 6929,
      "mentare": 6930,
      "Ġjanuyari": 6931,
      "Ġajana": 6932,
      "rimana": 6933,
      "Ġbitarana": 6934,
      "Ġbiparita": 6935,
      "Ġkaksha": 6936,
      "Ġuta": 6937,
      "misha": 6938,
      "Ġdela": 6939,
      "Ġit": 6940,
      "Ġgadhi": 6941,
      "Ġshabaka": 6942,
      "Ġshashthi": 6943,
      "Ġsid": 6944,
      "Ġyor": 6945,
      "Ġ43": 6946,
      "Ġkori": 6947,
      "Ġdeithanti": 6948,
      "Ġchori": 6949,
      "Ġdhoi": 6950,
      "Ġthibara": 6951,
      "à¥ģ": 6952,
      "tical": 6953,
      "Ġkramashah": 6954,
      "hama": 6955,
      "Ġsneha": 6956,
      "tirnna": 6957,
      "Ġkuru": 6958,
      "nasa": 6959,
      "Ġsero": 6960,
      "Ġsenara": 6961,
      "Ġusha": 6962,
      "Ġtapare": 6963,
      "Ġher": 6964,
      "jim": 6965,
      "kshaya": 6966,
      "Ġparanti": 6967,
      "barara": 6968,
      "Ġlig": 6969,
      "Ġcla": 6970,
      "ĠsàŃ±ada": 6971,
      "Ġpran": 6972,
      "salakha": 6973,
      "Ġrakhibaku": 6974,
      "shyama": 6975,
      "yeu": 6976,
      "Ġshtadi": 6977,
      "Ġahamada": 6978,
      "Ġabhishapa": 6979,
      "Ġbishleshana": 6980,
      "elara": 6981,
      "nke": 6982,
      "stika": 6983,
      "Ġpradarsha": 6984,
      "Ġantanali": 6985,
      "Ġchak": 6986,
      "Ġcor": 6987,
      "Ġparajibi": 6988,
      "Ġharai": 6989,
      "Ġprotina": 6990,
      "1950": 6991,
      "baij": 6992,
      "Ġkshudragalpa": 6993,
      "ĠkàŃ±anta": 6994,
      "sauria": 6995,
      "Ġdhumrapana": 6996,
      "Ġkoshthakathinya": 6997,
      "adhunika": 6998,
      "bad": 6999,
      "basthare": 7000,
      "Ġale": 7001,
      "Ġele": 7002,
      "Ġbil": 7003,
      "payi": 7004,
      "Ġkathare": 7005,
      "Ġupana": 7006,
      "Ġmahasa": 7007,
      "barti": 7008,
      "Ġyekaunasi": 7009,
      "ndia": 7010,
      "Ġprayasa": 7011,
      "Ġsabubele": 7012,
      "Ġpetenta": 7013,
      "1976": 7014,
      "Ġprrithaka": 7015,
      "kshetrare": 7016,
      "Ġadalata": 7017,
      "Ġnabami": 7018,
      "Ġmariba": 7019,
      "shikshaka": 7020,
      "Ġchintadhara": 7021,
      "tural": 7022,
      "Ġchitabagha": 7023,
      "))": 7024,
      "mbe": 7025,
      "his": 7026,
      "Ġbor": 7027,
      "Ġsabitri": 7028,
      "thala": 7029,
      "ling": 7030,
      "Ġbimala": 7031,
      "sio": 7032,
      "dhanya": 7033,
      "Ġ(:": 7034,
      "Ġanani": 7035,
      "Ġbhaja": 7036,
      "Ġnaa": 7037,
      "Ġjagare": 7038,
      "jima": 7039,
      "Ġbargikarana": 7040,
      "Ġanubhuta": 7041,
      "neshàŃ±ra": 7042,
      "chchana": 7043,
      "Ġpulisa": 7044,
      "Ġgua": 7045,
      "Ġmanasa": 7046,
      "cond": 7047,
      "Ġ150": 7048,
      "Ġyantrika": 7049,
      "dyutika": 7050,
      "1947": 7051,
      "Ġbasinda": 7052,
      "Ġprasarana": 7053,
      "Ġdrrishyamana": 7054,
      "Ġtibhire": 7055,
      "Ġmahesha": 7056,
      "Ġsidhasalakha": 7057,
      "Ġpujarchchana": 7058,
      "kanya": 7059,
      "spa": 7060,
      "Ġkur": 7061,
      "nai": 7062,
      "Ġ|.": 7063,
      "Ġaksa": 7064,
      "Ġprashna": 7065,
      "Ġpakshare": 7066,
      "ten": 7067,
      "aruda": 7068,
      "Ġnasa": 7069,
      "Ġehibhali": 7070,
      "sei": 7071,
      "sthala": 7072,
      "lue": 7073,
      "Ġguide": 7074,
      "jection": 7075,
      "Ġtarakari": 7076,
      "Ġuddishta": 7077,
      "Ġpurushamane": 7078,
      "Ġparyyabasita": 7079,
      "Ġjanibaku": 7080,
      "Ġantibadi": 7081,
      "Ġjanana": 7082,
      "Ġnuadilli": 7083,
      "cyclo": 7084,
      "Ġturnna": 7085,
      "Ġgayala": 7086,
      "antarjatiya": 7087,
      "bs": 7088,
      "blood": 7089,
      "clu": 7090,
      "cus": 7091,
      "nmana": 7092,
      "sy": 7093,
      "Ã©": 7094,
      "ananda": 7095,
      "Ġet": 7096,
      "thaira": 7097,
      "Ġbida": 7098,
      "Ġbaje": 7099,
      "dima": 7100,
      "siara": 7101,
      "Ġsel": 7102,
      "Ġdictionary": 7103,
      "Ġkartta": 7104,
      "sepha": 7105,
      "Ġparshurama": 7106,
      "Ġabhihita": 7107,
      "Ġkhanana": 7108,
      "keteka": 7109,
      "Ġlin": 7110,
      "Ġtele": 7111,
      "Ġreji": 7112,
      "Ġghaa": 7113,
      "Ġphasa": 7114,
      "Ġ74": 7115,
      "Ġkhelare": 7116,
      "Ġ84": 7117,
      "Ġpaniya": 7118,
      "1979": 7119,
      "rombo": 7120,
      "Ġpiladi": 7121,
      "Ġpratyaksha": 7122,
      "Ġgopabandhu": 7123,
      "nnara": 7124,
      "Ġplan": 7125,
      "Ġaf": 7126,
      "Ġek": 7127,
      "nija": 7128,
      "pathara": 7129,
      "Ġraura": 7130,
      "Ġbabi": 7131,
      "sira": 7132,
      "Ġuj": 7133,
      "Ġsamsthara": 7134,
      "ron": 7135,
      "shilata": 7136,
      "Ġtike": 7137,
      "nei": 7138,
      "Ġabashya": 7139,
      "Ġkemo": 7140,
      "pedia": 7141,
      "sampadana": 7142,
      "Ġwiki": 7143,
      "Ġanasara": 7144,
      "Ġprogra": 7145,
      "Ġcharmare": 7146,
      "ehaku": 7147,
      "Ġmajor": 7148,
      "Ġjamidara": 7149,
      "Ġyuropa": 7150,
      "Ġminaketana": 7151,
      "Ġmamalare": 7152,
      "Ġpadabire": 7153,
      "Ġrahasya": 7154,
      "Ġsambidhanara": 7155,
      "Ġthietara": 7156,
      "Ġkeralara": 7157,
      "gne": 7158,
      "ration": 7159,
      "Ġboi": 7160,
      "Ġmyane": 7161,
      "Ġpatela": 7162,
      "bidyu": 7163,
      "Ġbyaghra": 7164,
      "Ġmira": 7165,
      "kramara": 7166,
      "sanali": 7167,
      "jen": 7168,
      "Ġudbhabana": 7169,
      "Ġkshetrara": 7170,
      "Ġanaphaila": 7171,
      "Ġ1935": 7172,
      "njari": 7173,
      "Ġgrrihare": 7174,
      "Ġjarmana": 7175,
      "Ġalimpik": 7176,
      "Ġrajabamshara": 7177,
      "Ġkhrishtabdare": 7178,
      "ap": 7179,
      "gs": 7180,
      "Ġscho": 7181,
      "lagna": 7182,
      "bat": 7183,
      "Ġear": 7184,
      "shaniya": 7185,
      "Ġpatara": 7186,
      "resana": 7187,
      "Ġkarithibaru": 7188,
      "Ġgula": 7189,
      "bhagya": 7190,
      "Ġbhas": 7191,
      "Ġhoithibara": 7192,
      "Ġdaki": 7193,
      "Ġdashara": 7194,
      "aneka": 7195,
      "Ġbeka": 7196,
      "Ġadhiniya": 7197,
      "nchalaru": 7198,
      "Ġarchi": 7199,
      "Ġmemo": 7200,
      "Ġgud": 7201,
      "Ġphuli": 7202,
      "Ġdharmabalambi": 7203,
      "Ġchui": 7204,
      "sàŃ±rupa": 7205,
      "Ġ1931": 7206,
      "1962": 7207,
      "Ġkraya": 7208,
      "Ġpratyakhyana": 7209,
      "Ġurddu": 7210,
      "Ġsthanantara": 7211,
      "Ġkashmira": 7212,
      "Ġimlandare": 7213,
      "ãģ": 7214,
      "hiba": 7215,
      "thili": 7216,
      "Ġsaina": 7217,
      "rin": 7218,
      "Ġprasiddhi": 7219,
      "ren": 7220,
      "pas": 7221,
      "tebe": 7222,
      "Ġanan": 7223,
      "Ġubha": 7224,
      "baman": 7225,
      "seum": 7226,
      "Ġmus": 7227,
      "Ġlada": 7228,
      "meta": 7229,
      "Ġparadina": 7230,
      "part": 7231,
      "Ġphri": 7232,
      "Ġasuchi": 7233,
      "Ġphilmare": 7234,
      "Ġgrik": 7235,
      "Ġayatana": 7236,
      "Ġganitika": 7237,
      "Ġbajarare": 7238,
      "Ġisalama": 7239,
      "Ġashir": 7240,
      "Ġkelucharana": 7241,
      "hrri": 7242,
      "kanika": 7243,
      "anyare": 7244,
      "Ġsaru": 7245,
      "Ġpoi": 7246,
      "Ġsakshi": 7247,
      "Ġkariasu": 7248,
      "Ġracha": 7249,
      "Ġser": 7250,
      "bhabare": 7251,
      "Ġnakari": 7252,
      "Ġchale": 7253,
      "Ġjabha": 7254,
      "tus": 7255,
      "medi": 7256,
      "yansa": 7257,
      "Ġty": 7258,
      "Ġgoru": 7259,
      "pen": 7260,
      "ĠsàŃ±abhabika": 7261,
      "Ġkotha": 7262,
      "Ġruk": 7263,
      "à¤¤": 7264,
      "Ġshekhara": 7265,
      "Ġnaribadi": 7266,
      "Ġdashandhi": 7267,
      "Ġdhru": 7268,
      "Ġair": 7269,
      "Ġabasthapita": 7270,
      "Ġaphagani": 7271,
      "Ġpurira": 7272,
      "bhoji": 7273,
      "Ġrandha": 7274,
      "Ġkadali": 7275,
      "Ġpatrikara": 7276,
      "Ġnepalara": 7277,
      "ĠasàŃ±abhabika": 7278,
      "bauddha": 7279,
      "ranare": 7280,
      "Ġahi": 7281,
      "shtre": 7282,
      "chila": 7283,
      "Ġbad": 7284,
      "Ġbaksa": 7285,
      "dim": 7286,
      "Ġnibesha": 7287,
      "Ġsampada": 7288,
      "Ġindu": 7289,
      "Ġyata": 7290,
      "Ġparo": 7291,
      "Ġbegama": 7292,
      "Ġgol": 7293,
      "Ġthat": 7294,
      "Ġthail": 7295,
      "duta": 7296,
      "Ġsarbashreshtha": 7297,
      "Ġpilamane": 7298,
      "Ġkrritrima": 7299,
      "Ġgitara": 7300,
      "Ġjour": 7301,
      "Ġnirapatta": 7302,
      "Ġanushthanika": 7303,
      "Ġsindura": 7304,
      "Ġchandrara": 7305,
      "Ġgarbhadharana": 7306,
      "Ġsebakamane": 7307,
      "Ġjagatasimhapura": 7308,
      "Ġadyabadhi": 7309,
      "Ġbhaganeithile": 7310,
      "Ġuttolana": 7311,
      "eph": 7312,
      "à¯": 7313,
      "mate": 7314,
      "Ġec": 7315,
      "Ġesabu": 7316,
      "Ġgrika": 7317,
      "desh": 7318,
      "Ġmadhyamika": 7319,
      "nela": 7320,
      "Ġjanasamkhyara": 7321,
      "ktibha": 7322,
      "ort": 7323,
      "mus": 7324,
      "Ġshikshalabha": 7325,
      "jene": 7326,
      "malaya": 7327,
      "Ġbaragada": 7328,
      "kramaka": 7329,
      "Ġnobela": 7330,
      "Ġvo": 7331,
      "Ġashadha": 7332,
      "Ġkarnnataka": 7333,
      "Ġparisthitire": 7334,
      "Ġuikipida": 7335,
      "Ġanaphailak": 7336,
      "'m": 7337,
      "ntare": 7338,
      "yyara": 7339,
      "Ġataka": 7340,
      "sachi": 7341,
      "Ġramesha": 7342,
      "Ġsegudika": 7343,
      "Ġsamhita": 7344,
      "dhishta": 7345,
      "Ġhebare": 7346,
      "gika": 7347,
      "Ġlaina": 7348,
      "Ġmanara": 7349,
      "Ġkeneda": 7350,
      "kemia": 7351,
      "Ġkalama": 7352,
      "Ġ54": 7353,
      "Ġkole": 7354,
      "Ġpuraskaraprapta": 7355,
      "ĠâĢĭ": 7356,
      "Ġgandha": 7357,
      "Ġanala": 7358,
      "Ġprrith": 7359,
      "Ġchuda": 7360,
      "Ġutsahita": 7361,
      "Ġbamshi": 7362,
      "Ġyauthila": 7363,
      "Ġathamallika": 7364,
      "Ġkheliba": 7365,
      "Ġniayae": 7366,
      "ĠàŃ±eb": 7367,
      "Ġpratyabarttana": 7368,
      "Ġprrishthare": 7369,
      "Ġgodabari": 7370,
      "Ġminit": 7371,
      "Ġsantushta": 7372,
      "ameri": 7373,
      "Ġnirupana": 7374,
      "cts": 7375,
      "iara": 7376,
      "kreta": 7377,
      "llu": 7378,
      "ota": 7379,
      "Ġalla": 7380,
      "Ġoh": 7381,
      "Ġkah": 7382,
      "Ġnishedha": 7383,
      "Ġkarpo": 7384,
      "kina": 7385,
      "Ġjibika": 7386,
      "Ġduhe": 7387,
      "info": 7388,
      "Ġaushadhiya": 7389,
      "Ġpathapadha": 7390,
      "Ġpustakare": 7391,
      "Ġpratyahara": 7392,
      "Ġjhumara": 7393,
      "Ġjarayu": 7394,
      "ĠbishàŃ±kapa": 7395,
      "Ġbispho": 7396,
      "Ġkemotherapi": 7397,
      "nkaru": 7398,
      "rashtriya": 7399,
      "dai": 7400,
      "ler": 7401,
      "Ġmatire": 7402,
      "àŃ±r": 7403,
      "Ġjadita": 7404,
      "Ġjiban": 7405,
      "Ġgauri": 7406,
      "Ġsutim": 7407,
      "praka": 7408,
      "Ġteja": 7409,
      "Ġmanaka": 7410,
      "Ġamshare": 7411,
      "Ġphy": 7412,
      "troka": 7413,
      "shtio": 7414,
      "Ġ1939": 7415,
      "Ġjorimana": 7416,
      "Ġsamartha": 7417,
      "tics": 7418,
      "Ġbishayabastu": 7419,
      "Ġbarishtha": 7420,
      "Ġsamskrritire": 7421,
      "Ġlibrary": 7422,
      "Ġsulatana": 7423,
      "Ġparthakya": 7424,
      "dge": 7425,
      "enta": 7426,
      "ntri": 7427,
      "panda": 7428,
      "uli": 7429,
      "malara": 7430,
      "Ġsadana": 7431,
      "Ġmam": 7432,
      "sahara": 7433,
      "Ġpradeshare": 7434,
      "Ġbaji": 7435,
      "Ġghia": 7436,
      "Ġsamj": 7437,
      "bamane": 7438,
      "Ġchana": 7439,
      "Ġjapanara": 7440,
      "jini": 7441,
      "Ġmudu": 7442,
      "Ġshasya": 7443,
      "Ġabashyakiya": 7444,
      "Ġpunya": 7445,
      "Ġpurbara": 7446,
      "ĠkaribadàŃ±ara": 7447,
      "Ġyoddha": 7448,
      "Ġketoti": 7449,
      "karshana": 7450,
      "Ġrea": 7451,
      "Ġparajita": 7452,
      "Ġ62": 7453,
      "Ġrajyaku": 7454,
      "Ġrili": 7455,
      "Ġudyanara": 7456,
      "socia": 7457,
      "Ġagna": 7458,
      "Ġdhuma": 7459,
      "Ġmyachare": 7460,
      "Ġhisaba": 7461,
      "Ġbibechita": 7462,
      "Ġsamiksha": 7463,
      "Ġbachaspati": 7464,
      "Ġkanishtha": 7465,
      "Ġshrimandirare": 7466,
      "Ġmaharani": 7467,
      "Ġpashchatya": 7468,
      "sambalapura": 7469,
      "ctor": 7470,
      "ctive": 7471,
      "njare": 7472,
      "os": 7473,
      "oga": 7474,
      "arthi": 7475,
      "Ġepha": 7476,
      "Ġpachari": 7477,
      "Ġnishi": 7478,
      "karaka": 7479,
      "Ġchashi": 7480,
      "Ġchalani": 7481,
      "Ġshani": 7482,
      "Ġshikshara": 7483,
      "Ġsundari": 7484,
      "Ġkhalana": 7485,
      "Ġlimpho": 7486,
      "bhutanu": 7487,
      "Ġshukra": 7488,
      "Ġbhotare": 7489,
      "Ġdashakara": 7490,
      "Ġadhyapana": 7491,
      "Ġagamana": 7492,
      "Ġshailira": 7493,
      "lojiyam": 7494,
      "Ġgudiku": 7495,
      "Ġkhyati": 7496,
      "Ġprachchadapata": 7497,
      "jura": 7498,
      "mbarare": 7499,
      "nthile": 7500,
      "wo": 7501,
      "andhra": 7502,
      "Ġsaji": 7503,
      "lini": 7504,
      "Ġbaula": 7505,
      "Ġbaksi": 7506,
      "Ġkarti": 7507,
      "Ġchilika": 7508,
      "Ġkumbha": 7509,
      "Ġbyabaharare": 7510,
      "gora": 7511,
      "Ġwas": 7512,
      "gandha": 7513,
      "bandhita": 7514,
      "Ġneithila": 7515,
      "Ġbidhayakagana": 7516,
      "Ġkrrishnachandra": 7517,
      "Ġnilagiri": 7518,
      "Ġakabara": 7519,
      "Ġsundaragada": 7520,
      "Ġshariraku": 7521,
      "Ġcell": 7522,
      "Ġannapurnna": 7523,
      "Ġdijija": 7524,
      "ĠâĢĭâĢĭ": 7525,
      "prana": 7526,
      "uma": 7527,
      "hida": 7528,
      "batara": 7529,
      "shyata": 7530,
      "nisi": 7531,
      "chatri": 7532,
      "kumara": 7533,
      "beta": 7534,
      "Ġdinaru": 7535,
      "Ġgasta": 7536,
      "Ġabhisheka": 7537,
      "Ġkum": 7538,
      "Ġpindha": 7539,
      "sthanare": 7540,
      "Ġ59": 7541,
      "india": 7542,
      "Ġnimantrana": 7543,
      "Ġdhani": 7544,
      "Ġtouri": 7545,
      "Ġcharitrare": 7546,
      "Ġluchi": 7547,
      "Ġjibabij": 7548,
      "1960": 7549,
      "Ġpakisthana": 7550,
      "trritiya": 7551,
      "Ġcali": 7552,
      "Ġbidyamana": 7553,
      "Ġbatighara": 7554,
      "Ġsachetanata": 7555,
      "nirdde": 7556,
      "ast": 7557,
      "ddh": 7558,
      "http": 7559,
      "maka": 7560,
      "Ġadira": 7561,
      "Ġmaka": 7562,
      "Ġkariheba": 7563,
      "Ġgaruda": 7564,
      "Ġsentara": 7565,
      "Ġanithile": 7566,
      "âĢĶ": 7567,
      "Ġekatrita": 7568,
      "Ġchauda": 7569,
      "Ġjali": 7570,
      "Ġjayanti": 7571,
      "Ġroda": 7572,
      "Ġabalam": 7573,
      "Ġsuta": 7574,
      "yanaru": 7575,
      "Ġchithi": 7576,
      "grata": 7577,
      "Ġarta": 7578,
      "Ġyugma": 7579,
      "Ġrelapa": 7580,
      "Ġfir": 7581,
      "Ġbandhana": 7582,
      "phina": 7583,
      "Ġkamishana": 7584,
      "mandapa": 7585,
      "Ġnimnalikhita": 7586,
      "Ġphor": 7587,
      "Ġpriyadar": 7588,
      "kalpana": 7589,
      "Ġbelabhumi": 7590,
      "generic": 7591,
      "Ġaluminiya": 7592,
      "rajaniti": 7593,
      "%)": 7594,
      "ef": 7595,
      "gro": 7596,
      "radha": 7597,
      "yatha": 7598,
      "Ġbre": 7599,
      "madhaba": 7600,
      "Ġprakriyare": 7601,
      "Ġkalo": 7602,
      "Ġsambedana": 7603,
      "Ġtada": 7604,
      "Ġnamanusare": 7605,
      "Ġnamrata": 7606,
      "bibaha": 7607,
      "Ġmadhura": 7608,
      "Ġdiantu": 7609,
      "Ġmuseum": 7610,
      "Ġshoda": 7611,
      "yaichanti": 7612,
      "Ġlokara": 7613,
      "Ġpujita": 7614,
      "Ġlokagita": 7615,
      "samarika": 7616,
      "karini": 7617,
      "Ġmecha": 7618,
      "stru": 7619,
      "Ġpeshi": 7620,
      "Ġyogadeithile": 7621,
      "Ġbaraha": 7622,
      "Ġprabhabare": 7623,
      "Ġ250": 7624,
      "1968": 7625,
      "mandalare": 7626,
      "trrika": 7627,
      "Ġashru": 7628,
      "nkhala": 7629,
      "Ġraktanali": 7630,
      "Ġtamilanadura": 7631,
      "Ġproblems": 7632,
      "htm": 7633,
      "sthi": 7634,
      "ttira": 7635,
      "haja": 7636,
      "Ġsri": 7637,
      "Ġbur": 7638,
      "Ġapo": 7639,
      "satya": 7640,
      "Ġpathe": 7641,
      "Ġpado": 7642,
      "ditya": 7643,
      "Ġsambandha": 7644,
      "mim": 7645,
      "Ġchatri": 7646,
      "Ġyaya": 7647,
      "sesa": 7648,
      "Ġshaga": 7649,
      "prachina": 7650,
      "2023": 7651,
      "Ġghada": 7652,
      "Ġfu": 7653,
      "Ġ58": 7654,
      "Ġnirddharita": 7655,
      "ĠâĢĶ": 7656,
      "Ġris": 7657,
      "Ġchopra": 7658,
      "dom": 7659,
      "Ġjibashma": 7660,
      "Ġsamarpita": 7661,
      "Ġgarbhapata": 7662,
      "Ġpunashcha": 7663,
      "Ġthrombo": 7664,
      "Ġatmajibani": 7665,
      "gudiku": 7666,
      "thraitisa": 7667,
      ")-": 7668,
      "poda": 7669,
      "hima": 7670,
      "tattàŃ±": 7671,
      "Ġain": 7672,
      "Ġayur": 7673,
      "Ġmamu": 7674,
      "Ġpage": 7675,
      "Ġbaharu": 7676,
      "Ġsenta": 7677,
      "karatmaka": 7678,
      "Ġsambo": 7679,
      "Ġdes": 7680,
      "jio": 7681,
      "jida": 7682,
      "Ġshai": 7683,
      "manya": 7684,
      "Ġhaluka": 7685,
      "Ġsuchi": 7686,
      "ons": 7687,
      "Ġlimk": 7688,
      "Ġtech": 7689,
      "insa": 7690,
      "njasya": 7691,
      "Ġwar": 7692,
      "Ġbadalai": 7693,
      "Ġasita": 7694,
      "greda": 7695,
      "Ġudyanare": 7696,
      "Ġbaid": 7697,
      "Ġsaharaku": 7698,
      "Ġjalase": 7699,
      "Ġpurushamana": 7700,
      "kananda": 7701,
      "1973": 7702,
      "Ġtrayo": 7703,
      "Ġdarshai": 7704,
      "Ġjitithila": 7705,
      "sàŃ±adhina": 7706,
      "Ġbahadura": 7707,
      "Ġnimnare": 7708,
      "aiba": 7709,
      "brrit": 7710,
      "Ġbulai": 7711,
      "Ġakrrishta": 7712,
      "shruti": 7713,
      "Ġnirodha": 7714,
      "Ġdebe": 7715,
      "Ġehidina": 7716,
      "Ġind": 7717,
      "Ġyaba": 7718,
      "gini": 7719,
      "Ġmidia": 7720,
      "triya": 7721,
      "ĠsàŃ±e": 7722,
      "Ġlekhare": 7723,
      "Ġcul": 7724,
      "Ġchalachala": 7725,
      "ins": 7726,
      "Ġ64": 7727,
      "Ġphuti": 7728,
      "Ġbantana": 7729,
      "Ġsantosha": 7730,
      "Ġjalashaya": 7731,
      "Ġpahacha": 7732,
      "Ġcharbi": 7733,
      "ĠàŃ±an": 7734,
      "Ġvol": 7735,
      "cations": 7736,
      "khorddha": 7737,
      "Ġsambidhanika": 7738,
      "indian": 7739,
      "pranita": 7740,
      "Ġthairaeda": 7741,
      "Ġcalifor": 7742,
      "epi": 7743,
      "eds": 7744,
      "sal": 7745,
      "Ġram": 7746,
      "Ġbachi": 7747,
      "jatira": 7748,
      "dhira": 7749,
      "ĠsàŃ±tah": 7750,
      "ĠtàŃ±": 7751,
      "yibaru": 7752,
      "sthapana": 7753,
      "paryyanta": 7754,
      "takalina": 7755,
      "Ġasithanti": 7756,
      "dhyaya": 7757,
      "ddhita": 7758,
      "Ġkyala": 7759,
      "prathamika": 7760,
      "cular": 7761,
      "Ġpathyakrama": 7762,
      "Ġrajakumari": 7763,
      "Ġwomen": 7764,
      "Ġsamalochaka": 7765,
      "Ġsarbasadharana": 7766,
      "partment": 7767,
      "Ġ),": 7768,
      "Ġklab": 7769,
      "Ġenglish": 7770,
      "Ġdr": 7771,
      "Ġmatara": 7772,
      "Ġmamata": 7773,
      "sadhya": 7774,
      "Ġkathora": 7775,
      "Ġbaga": 7776,
      "charita": 7777,
      "urara": 7778,
      "Ġpain": 7779,
      "Ġjira": 7780,
      "Ġsharana": 7781,
      "shàŃ±rara": 7782,
      "Ġtira": 7783,
      "Ġbyabasthara": 7784,
      "Ġutpada": 7785,
      "Ġupaprajati": 7786,
      "vel": 7787,
      "Ġharaithile": 7788,
      "njio": 7789,
      "Ġchikitsaka": 7790,
      "Ġatitare": 7791,
      "Ġbhautika": 7792,
      "Ġrrina": 7793,
      "Ġphalaprada": 7794,
      "Ġainagata": 7795,
      "Ġgolakara": 7796,
      "Ġarohana": 7797,
      "Ġkarnnatakara": 7798,
      "Ġdisorder": 7799,
      "Ġbayopsi": 7800,
      "Ġphainalare": 7801,
      "Ġgheri": 7802,
      "Ġhepataitisa": 7803,
      "Ġjabaharalala": 7804,
      "emi": 7805,
      "mur": 7806,
      "strara": 7807,
      "basha": 7808,
      "Ġmy": 7809,
      "kuni": 7810,
      "Ġrathara": 7811,
      "Ġsecond": 7812,
      "bet": 7813,
      "bera": 7814,
      "Ġ1922": 7815,
      "Ġjibita": 7816,
      "pindara": 7817,
      "Ġmahanta": 7818,
      "Ġjanaku": 7819,
      "Ġbesh": 7820,
      "barn": 7821,
      "Ġhigh": 7822,
      "Ġkaruthibaru": 7823,
      "koma": 7824,
      "Ġruchi": 7825,
      "Ġpola": 7826,
      "Ġdebashisha": 7827,
      "Ġdhariba": 7828,
      "Ġpustakara": 7829,
      "Ġsaphalatara": 7830,
      "Ġadrrita": 7831,
      "Ġsambalapuri": 7832,
      "Ġbhittire": 7833,
      "khrishta": 7834,
      "ĠahàŃ±ana": 7835,
      "Ġbrrishtipata": 7836,
      "Ġpriyadarshini": 7837,
      "Ġcalifornia": 7838,
      "banu": 7839,
      "ncho": 7840,
      "van": 7841,
      "Ġsto": 7842,
      "Ġakrriti": 7843,
      "Ġpapi": 7844,
      "palli": 7845,
      "Ġraga": 7846,
      "àŃ±ya": 7847,
      "Ġnagar": 7848,
      "mik": 7849,
      "Ġekaki": 7850,
      "Ġdalita": 7851,
      "Ġdush": 7852,
      "kola": 7853,
      "Ġphasala": 7854,
      "Ġpoka": 7855,
      "Ġbarapha": 7856,
      "phena": 7857,
      "Ġghoshita": 7858,
      "samayika": 7859,
      "Ġkrripa": 7860,
      "1956": 7861,
      "Ġnagari": 7862,
      "Ġmamsapeshire": 7863,
      "Ġghur": 7864,
      "maharashtrara": 7865,
      "jyoti": 7866,
      "by": 7867,
      "ddara": 7868,
      "spi": 7869,
      "tyu": 7870,
      "dayaka": 7871,
      "lekhi": 7872,
      "Ġmas": 7873,
      "Ġmoda": 7874,
      "Ġpashi": 7875,
      "pakàŃ±": 7876,
      "Ġkariparu": 7877,
      "Ġbae": 7878,
      "Ġgla": 7879,
      "Ġnamara": 7880,
      "Ġhoiyaithile": 7881,
      "Ġshaila": 7882,
      "Ġchuna": 7883,
      "Ġsupri": 7884,
      "ghaba": 7885,
      "Ġbhittika": 7886,
      "goni": 7887,
      "Ġkobhida": 7888,
      "Ġkolojiyam": 7889,
      "Ġ66": 7890,
      "Ġchitrakara": 7891,
      "adhikamsha": 7892,
      "Ġdrrishtikon": 7893,
      "Ġchatrachatri": 7894,
      "Ġ1924": 7895,
      "Ġpharma": 7896,
      "ngopasa": 7897,
      "Ġtamilanadu": 7898,
      "Ġupatyaka": 7899,
      "Ġpaleshtaina": 7900,
      "Ġrajakumara": 7901,
      "Ġsabyasta": 7902,
      "Ġkailasa": 7903,
      "Ġarticle": 7904,
      "hat": 7905,
      "Ġstar": 7906,
      "yala": 7907,
      "Ġphita": 7908,
      "Ġkanu": 7909,
      "dab": 7910,
      "thibe": 7911,
      "Ġsaksh": 7912,
      "shaili": 7913,
      "ries": 7914,
      "Ġsekend": 7915,
      "dhyana": 7916,
      "baraka": 7917,
      "Ġdau": 7918,
      "Ġhema": 7919,
      "Ġdijita": 7920,
      "bhisa": 7921,
      "Ġparityaga": 7922,
      "Ġbhie": 7923,
      "gotie": 7924,
      "cer": 7925,
      "Ġsabhyata": 7926,
      "Ġtuma": 7927,
      "Ġbidhaba": 7928,
      "Ġamshaku": 7929,
      "Ġanubadaka": 7930,
      "Ġasaha": 7931,
      "Ġbandhuka": 7932,
      "Ġrandhana": 7933,
      "Ġashtami": 7934,
      "Ġtelisko": 7935,
      "mandirara": 7936,
      "upadi": 7937,
      "Ġcent": 7938,
      "Ġudyamare": 7939,
      "Ġrajabamsha": 7940,
      "Ġteknoloji": 7941,
      "Ġshuklapa": 7942,
      "Ġaward": 7943,
      "Ġfirst": 7944,
      "*:": 7945,
      "uchcha": 7946,
      "Ġskora": 7947,
      "tamilana": 7948,
      "Ġkno": 7949,
      "ariya": 7950,
      "shabda": 7951,
      "Ġmasha": 7952,
      "Ġodha": 7953,
      "Ġpadhi": 7954,
      "Ġpataku": 7955,
      "Ġbichchinna": 7956,
      "khadya": 7957,
      "Ġgama": 7958,
      "Ġmadhyaku": 7959,
      "ĠmahashàŃ±eta": 7960,
      "Ġjanapriya": 7961,
      "Ġyear": 7962,
      "Ġnirddhishta": 7963,
      "ved": 7964,
      "àŃ±ai": 7965,
      "Ġnijama": 7966,
      "ngina": 7967,
      "shodha": 7968,
      "Ġshaktimana": 7969,
      "1963": 7970,
      "Ġethisaha": 7971,
      "Ġyauthile": 7972,
      "1948": 7973,
      "ĠbastutàŃ±": 7974,
      "Ġmahisha": 7975,
      "Ġdampati": 7976,
      "Ġmahotsaba": 7977,
      "Ġproject": 7978,
      "Ġsethakara": 7979,
      "Ġyork": 7980,
      "dney": 7981,
      "jhu": 7982,
      "koda": 7983,
      "yajapura": 7984,
      "naku": 7985,
      "Ġamita": 7986,
      "Ġrajiba": 7987,
      "Ġbhandara": 7988,
      "minal": 7989,
      "Ġdaita": 7990,
      "bhittika": 7991,
      "Ġmishana": 7992,
      "Ġanupranita": 7993,
      "Ġkathaka": 7994,
      "Ġtruti": 7995,
      "Ġkukuda": 7996,
      "ngs": 7997,
      "ngaru": 7998,
      "Ġkaryyaku": 7999,
      "Ġrajaputa": 8000,
      "Ġ73": 8001,
      "Ġ79": 8002,
      "Ġkandhei": 8003,
      "bidyalaya": 8004,
      "Ġudyoga": 8005,
      "badiya": 8006,
      "Ġnabama": 8007,
      "Ġpurire": 8008,
      "Ġencyclo": 8009,
      "Ġdijain": 8010,
      "lectro": 8011,
      "Ġserotoni": 8012,
      "Ã³": 8013,
      "hile": 8014,
      "Ġahara": 8015,
      "lian": 8016,
      "life": 8017,
      "Ġbideshare": 8018,
      "bisha": 8019,
      "ship": 8020,
      "Ġdada": 8021,
      "Ġdaku": 8022,
      "Ġheart": 8023,
      "Ġdil": 8024,
      "sel": 8025,
      "Ġsamayika": 8026,
      "Ġbyapara": 8027,
      "gic": 8028,
      "tanama": 8029,
      "Ġmadhyapradeshara": 8030,
      "Ġanubhuti": 8031,
      "Ġchitta": 8032,
      "keya": 8033,
      "Ġliga": 8034,
      "karithile": 8035,
      "Ġkaruna": 8036,
      "suchita": 8037,
      "Ġdiayaithiba": 8038,
      "mola": 8039,
      "batah": 8040,
      "puda": 8041,
      "Ġmilila": 8042,
      "Ġtokio": 8043,
      "Ġpathagara": 8044,
      "Ġchuti": 8045,
      "sàŃ±tantra": 8046,
      "Ġchaligale": 8047,
      "Ġabasthaku": 8048,
      "marga": 8049,
      "mental": 8050,
      "Ġrakshasa": 8051,
      "shadata": 8052,
      "Ġ1927": 8053,
      "jania": 8054,
      "Ġturki": 8055,
      "Ġmiluchi": 8056,
      "Ġerrors": 8057,
      "Ġbook": 8058,
      "Ġsarbabrrihata": 8059,
      "achanti": 8060,
      "ech": 8061,
      "mka": 8062,
      "odi": 8063,
      "tali": 8064,
      "napanare": 8065,
      "Ġech": 8066,
      "ley": 8067,
      "Ġmayura": 8068,
      "Ġmanika": 8069,
      "Ġpatu": 8070,
      "liver": 8071,
      "Ġbiri": 8072,
      "Ġkalpa": 8073,
      "Ġkarina": 8074,
      "Ġkarinathile": 8075,
      "Ġbalu": 8076,
      "Ġnibarana": 8077,
      "Ġuthai": 8078,
      "hur": 8079,
      "mino": 8080,
      "Ġdashaka": 8081,
      "Ġkini": 8082,
      "Ġbarse": 8083,
      "Ġshil": 8084,
      "Ġabatarana": 8085,
      "puraru": 8086,
      "goshthi": 8087,
      "phra": 8088,
      "modara": 8089,
      "nushthana": 8090,
      "Ġkichidina": 8091,
      "Ġassocia": 8092,
      "Ġtrashta": 8093,
      "Ġshishumana": 8094,
      "1969": 8095,
      "fic": 8096,
      "Ġgene": 8097,
      "Ġthakuramana": 8098,
      "Ġadre": 8099,
      "Ġkashtakara": 8100,
      "Ġyunibhar": 8101,
      "Ġalokara": 8102,
      "Ġkoili": 8103,
      "kendujhara": 8104,
      "Ġsentigreda": 8105,
      "Ġpatharare": 8106,
      "Ġnarttaki": 8107,
      "Ġlinks": 8108,
      "Ġabalambana": 8109,
      "Ġkyalasiama": 8110,
      "ĠÎ": 8111,
      "Ġà¦": 8112,
      "Ġsoda": 8113,
      "Ġpl": 8114,
      "Ġasthayi": 8115,
      "shtika": 8116,
      "leni": 8117,
      "Ġother": 8118,
      "Ġkab": 8119,
      "dies": 8120,
      "dharare": 8121,
      "belu": 8122,
      "kenda": 8123,
      "Ġbhutan": 8124,
      "Ġsandhi": 8125,
      "sour": 8126,
      "Ġdarpana": 8127,
      "Ġpujaka": 8128,
      "Ġbidhayakamane": 8129,
      "Ġchalithiba": 8130,
      "Ġkramare": 8131,
      "Ġyunibhara": 8132,
      "Ġkirtti": 8133,
      "Ġrakshanabekshana": 8134,
      "drya": 8135,
      "Ġmantranalaya": 8136,
      "ttare": 8137,
      "ws": 8138,
      "wer": 8139,
      "han": 8140,
      "hali": 8141,
      "kas": 8142,
      "Ġblo": 8143,
      "shtro": 8144,
      "Ġharana": 8145,
      "sapta": 8146,
      "sauri": 8147,
      "Ġramana": 8148,
      "rritire": 8149,
      "ros": 8150,
      "Ġpaika": 8151,
      "Ġgatire": 8152,
      "gue": 8153,
      "Ġrahiasi": 8154,
      "hararu": 8155,
      "Ġutsar": 8156,
      "ĠrajasàŃ±": 8157,
      "Ġmetro": 8158,
      "Ġmandiramana": 8159,
      "nua": 8160,
      "Ġ69": 8161,
      "ngitaj": 8162,
      "Ġbaidyutika": 8163,
      "Ġbirada": 8164,
      "city": 8165,
      "Ġakshamata": 8166,
      "Ġgarbhabati": 8167,
      "way": 8168,
      "Ġsamkramanara": 8169,
      "Ġparamarshadata": 8170,
      "Ġraimohana": 8171,
      "pharma": 8172,
      "Ġalimpika": 8173,
      "crip": 8174,
      "Ġportal": 8175,
      "Ġpratiropana": 8176,
      "\".": 8177,
      "ab": 8178,
      "cra": 8179,
      "cto": 8180,
      "kanti": 8181,
      "á¹": 8182,
      "Ġtext": 8183,
      "Ġade": 8184,
      "Ġbihina": 8185,
      "padara": 8186,
      "japa": 8187,
      "Ġtaila": 8188,
      "thyara": 8189,
      "Ġday": 8190,
      "bhila": 8191,
      "Ġgadi": 8192,
      "dhanatha": 8193,
      "hola": 8194,
      "Ġupabasa": 8195,
      "Ġliu": 8196,
      "krritira": 8197,
      "muha": 8198,
      "parabartti": 8199,
      "injection": 8200,
      "Ġramakrrishna": 8201,
      "Ġchalithila": 8202,
      "Ġjhala": 8203,
      "Ġagrani": 8204,
      "Ġsaptami": 8205,
      "Ġpadarthara": 8206,
      "Ġstates": 8207,
      "Ġpalati": 8208,
      "Ġajibana": 8209,
      "Ġnakshatrare": 8210,
      "Ġsamikshaka": 8211,
      "Ġgudikara": 8212,
      "Ġnrrityara": 8213,
      "ĠpratnatattàŃ±ika": 8214,
      "kteria": 8215,
      "yuktarashtra": 8216,
      "Ġmadrasa": 8217,
      "Ġdrrishtikonaru": 8218,
      "eding": 8219,
      "ncy": 8220,
      "uja": 8221,
      "unta": 8222,
      "yyo": 8223,
      "Ġriya": 8224,
      "kamp": 8225,
      "matha": 8226,
      "Ġayara": 8227,
      "Ġabya": 8228,
      "Ġakhanda": 8229,
      "Ġmathura": 8230,
      "chai": 8231,
      "Ġpragati": 8232,
      "Ġbakta": 8233,
      "sip": 8234,
      "Ġulla": 8235,
      "Ġdena": 8236,
      "Ġdab": 8237,
      "ded": 8238,
      "Ġyadaba": 8239,
      "Ġparidhana": 8240,
      "mano": 8241,
      "Ġsahasra": 8242,
      "Ġghasa": 8243,
      "Ġtherapy": 8244,
      "à¤¯": 8245,
      "Ġalaka": 8246,
      "Ġ1933": 8247,
      "Ġpanthi": 8248,
      "Ġ1925": 8249,
      "Ġsmarana": 8250,
      "Ġmatia": 8251,
      "Ġduhkhi": 8252,
      "Ġshirshaka": 8253,
      "Ġkhadyare": 8254,
      "Ġkamei": 8255,
      "Ġashraya": 8256,
      "Ġprachura": 8257,
      "Ġyatayata": 8258,
      "bapa": 8259,
      "badita": 8260,
      "Ġabu": 8261,
      "Ġbale": 8262,
      "Ġbasan": 8263,
      "Ġsetu": 8264,
      "Ġsamare": 8265,
      "nder": 8266,
      "Ġchalanti": 8267,
      "Ġ1921": 8268,
      "Ġgapa": 8269,
      "Ġshtori": 8270,
      "Ġsil": 8271,
      "Ġparlia": 8272,
      "Ġhasti": 8273,
      "Ġchya": 8274,
      "Ġpiecha": 8275,
      "Ġart": 8276,
      "suchi": 8277,
      "Ġgramina": 8278,
      "stani": 8279,
      "Ġasthira": 8280,
      "Ġ83": 8281,
      "ngitare": 8282,
      "Ġbhumire": 8283,
      "kandara": 8284,
      "ghna": 8285,
      "Ġnabagata": 8286,
      "Ġpauthile": 8287,
      "Ġpakshira": 8288,
      "Ġall": 8289,
      "Ġalso": 8290,
      "Ġaphrikara": 8291,
      "saunda": 8292,
      "Ġmatsya": 8293,
      "Ġashirbada": 8294,
      "Ġsakshyarata": 8295,
      "\"|": 8296,
      "</": 8297,
      "fu": 8298,
      "idha": 8299,
      "mbri": 8300,
      "oli": 8301,
      "unt": 8302,
      "ÃĹ": 8303,
      "matrare": 8304,
      "nikata": 8305,
      "saur": 8306,
      "Ġkapila": 8307,
      "dini": 8308,
      "kir": 8309,
      "set": 8310,
      "Ġkarae": 8311,
      "gumpha": 8312,
      "Ġjanaki": 8313,
      "Ġmandapare": 8314,
      "Ġsomanatha": 8315,
      "Ġsamayakrame": 8316,
      "Ġharichandana": 8317,
      "Ġpauchanti": 8318,
      "Ġakyuta": 8319,
      "garh": 8320,
      "Ġghatithae": 8321,
      "Ġsariba": 8322,
      "cul": 8323,
      "Ġsharala": 8324,
      "chyuta": 8325,
      "ferences": 8326,
      "ĠsàŃ±yamsha": 8327,
      "Ġkhalanayaka": 8328,
      "ori": 8329,
      "okta": 8330,
      "zine": 8331,
      "Ġbuna": 8332,
      "nisa": 8333,
      "chau": 8334,
      "chihna": 8335,
      "Ġpradeshika": 8336,
      "trasaunda": 8337,
      "âĢİ": 8338,
      "shilpa": 8339,
      "deya": 8340,
      "neya": 8341,
      "Ġsujata": 8342,
      "phaina": 8343,
      "kera": 8344,
      "tarka": 8345,
      "Ġyugala": 8346,
      "ĠbishàŃ±a": 8347,
      "Ġ67": 8348,
      "Ġbyaktibishesha": 8349,
      "Ġbhashaku": 8350,
      "Ġhindumana": 8351,
      "nchithile": 8352,
      "Ġchitrakala": 8353,
      "1955": 8354,
      "1959": 8355,
      "Ġatyachara": 8356,
      "Ġganamadhya": 8357,
      "Ġshobhaya": 8358,
      "Ġdarshanika": 8359,
      "Ġrabindra": 8360,
      "Ġrritusraba": 8361,
      "Ġahammada": 8362,
      "koraputa": 8363,
      "Ġbaishakha": 8364,
      "Ġpresakripasan": 8365,
      "Ġjharasuguda": 8366,
      "esan": 8367,
      "gcolor": 8368,
      "tiksa": 8369,
      "Ġmatrara": 8370,
      "Ġbichitra": 8371,
      "Ġkaka": 8372,
      "Ġkajala": 8373,
      "diba": 8374,
      "Ġ120": 8375,
      "taraja": 8376,
      "Ġheuna": 8377,
      "yure": 8378,
      "tula": 8379,
      "Ġmigra": 8380,
      "Ġshikari": 8381,
      "Ġtiru": 8382,
      "Ġlokare": 8383,
      "Ġpratibandha": 8384,
      "Ġabashishta": 8385,
      "Ġmahalakshmi": 8386,
      "Ġsukshma": 8387,
      "Ġpunara": 8388,
      "Ġpurna": 8389,
      "phai": 8390,
      "phalare": 8391,
      "Ġupachara": 8392,
      "purbaru": 8393,
      "kshika": 8394,
      "inter": 8395,
      "Ġadima": 8396,
      "Ġwho": 8397,
      "âĢĻ,": 8398,
      "Ġneithiba": 8399,
      "Ġdoshi": 8400,
      "1952": 8401,
      "à¥ĭ": 8402,
      "Ġrakhanti": 8403,
      "Ġanushthanara": 8404,
      "ford": 8405,
      "Ġbhabishyata": 8406,
      "Ġpadithila": 8407,
      "Ġasamara": 8408,
      "Ġvein": 8409,
      "Ġashtreli": 8410,
      "ngaluru": 8411,
      "Ġayusha": 8412,
      "Ġuchcharana": 8413,
      "Ġbinoda": 8414,
      "Ġejensi": 8415,
      "Ġraurakela": 8416,
      "kampyu": 8417,
      "ksina": 8418,
      "mshare": 8419,
      "sma": 8420,
      "arsa": 8421,
      "Ġbgcolor": 8422,
      "shan": 8423,
      "Ġmasaru": 8424,
      "Ġox": 8425,
      "ref": 8426,
      "Ġbichcheda": 8427,
      "bhala": 8428,
      "bigraha": 8429,
      "Ġhoiasu": 8430,
      "ndaru": 8431,
      "Ġchaura": 8432,
      "lon": 8433,
      "Ġmusha": 8434,
      "Ġbyaya": 8435,
      "Ġlondon": 8436,
      "Ġpratipha": 8437,
      "Ġabakasha": 8438,
      "Ġsub": 8439,
      "Ġjanapadi": 8440,
      "ghanta": 8441,
      "samra": 8442,
      "Ġmejara": 8443,
      "Ġchalaka": 8444,
      "Ġsarpa": 8445,
      "bandara": 8446,
      "Ġpheria": 8447,
      "Ġphla": 8448,
      "Ġparyyapta": 8449,
      "Ġpande": 8450,
      "sarara": 8451,
      "chua": 8452,
      "purbaka": 8453,
      "Ġranaji": 8454,
      "Ġbujhaithae": 8455,
      "aushadhiya": 8456,
      "ĠtattàŃ±aba": 8457,
      "Ġjarmanira": 8458,
      "Ġchamacha": 8459,
      "Ġgumphare": 8460,
      "Ġprakalpare": 8461,
      "Ġaktiara": 8462,
      "Ġpracheshta": 8463,
      "Ġdaktareta": 8464,
      "Ġunabimsha": 8465,
      "inandina": 8466,
      "Ġagnashaya": 8467,
      "ĠsàŃ±echcha": 8468,
      "aitihasika": 8469,
      "kki": 8470,
      "nguda": 8471,
      "ptani": 8472,
      "Ġson": 8473,
      "Ġsaheba": 8474,
      "Ġsalila": 8475,
      "leksa": 8476,
      "Ġbibi": 8477,
      "tei": 8478,
      "Ġsepte": 8479,
      "Ġnahanti": 8480,
      "dhishthira": 8481,
      "lore": 8482,
      "Ġkirana": 8483,
      "Ġmilanti": 8484,
      "Ġtimes": 8485,
      "Ġhuma": 8486,
      "Ġmahamari": 8487,
      "Ġsunila": 8488,
      "Ġchitrita": 8489,
      "Ġbohu": 8490,
      "Ġshridebi": 8491,
      "Ġsehidina": 8492,
      "nology": 8493,
      "Ġsopana": 8494,
      "Ġkhelu": 8495,
      "tariya": 8496,
      "Ġshabdaru": 8497,
      "Ġdharayae": 8498,
      "Ġchumbakiya": 8499,
      "samaya": 8500,
      "Ġgramabasi": 8501,
      "1964": 8502,
      "ĠàŃ±eshta": 8503,
      "Ġparbatamala": 8504,
      "Ġkalikatara": 8505,
      "Ġbamshadhara": 8506,
      "Ġbiphalata": 8507,
      "Ġrojagara": 8508,
      "Ġschool": 8509,
      "Ġjournal": 8510,
      "Ġashrumochana": 8511,
      ");": 8512,
      "500": 8513,
      "bor": 8514,
      "áŀ": 8515,
      "Ġver": 8516,
      "Ġbane": 8517,
      "bacha": 8518,
      "shchita": 8519,
      "Ġmaja": 8520,
      "Ġmathara": 8521,
      "pae": 8522,
      "Ġbadana": 8523,
      "Ġniuro": 8524,
      "Ġnigama": 8525,
      "hudi": 8526,
      "Ġhoiyaichi": 8527,
      "Ġdama": 8528,
      "Ġsamasamayika": 8529,
      "Ġparimita": 8530,
      "Ġgabesha": 8531,
      "Ġlasika": 8532,
      "Ġmadhyabhagare": 8533,
      "Ġabaidha": 8534,
      "Ġhastare": 8535,
      "Ġmahabala": 8536,
      "Ġghani": 8537,
      "Ġkota": 8538,
      "publi": 8539,
      "pustaka": 8540,
      "Ġthana": 8541,
      "à¤®": 8542,
      "Ġpoe": 8543,
      "Ġphipha": 8544,
      "Ġkamishanara": 8545,
      "Ġparbatara": 8546,
      "1954": 8547,
      "nguthi": 8548,
      "dson": 8549,
      "Ġmaramati": 8550,
      "bhadraka": 8551,
      "Ġmahendra": 8552,
      "Ġintaranya": 8553,
      "Ġsabyasachi": 8554,
      "Ġgrup": 8555,
      "Ġsamasyara": 8556,
      "df": 8557,
      "ffe": 8558,
      "gli": 8559,
      "ithanti": 8560,
      "koi": 8561,
      "myana": 8562,
      "tyara": 8563,
      "tyananda": 8564,
      "rayagada": 8565,
      "das": 8566,
      "Ġprapti": 8567,
      "Ġkacha": 8568,
      "Ġrashira": 8569,
      "tero": 8570,
      "Ġbaghu": 8571,
      "Ġ1914": 8572,
      "Ġyadu": 8573,
      "kintu": 8574,
      "Ġbyasta": 8575,
      "Ġrosha": 8576,
      "Ġsitara": 8577,
      "shtain": 8578,
      "karmi": 8579,
      "Ġmega": 8580,
      "sub": 8581,
      "Ġfra": 8582,
      "Ġflu": 8583,
      "Ġ56": 8584,
      "Ġbulu": 8585,
      "Ġbishakriya": 8586,
      "sanaru": 8587,
      "Ġbhot": 8588,
      "Ġsamarpana": 8589,
      "yanarayana": 8590,
      "à¦¾": 8591,
      "ĠdàŃ±adashi": 8592,
      "Ġsamkhyara": 8593,
      "Ġmadelim": 8594,
      "Ġimlandara": 8595,
      "bhubaneshàŃ±ra": 8596,
      "Ġphelosipa": 8597,
      "Ġsamrriddha": 8598,
      "Ġabirbhaba": 8599,
      "ot": 8600,
      "Ġboda": 8601,
      "baila": 8602,
      "Ġayoga": 8603,
      "aria": 8604,
      "Ġdrama": 8605,
      "Ġprashikshaka": 8606,
      "Ġnianti": 8607,
      "Ġsamlagna": 8608,
      "Ġbhashana": 8609,
      "trala": 8610,
      "bin": 8611,
      "bibhaga": 8612,
      "Ġhemanta": 8613,
      "Ġkiborda": 8614,
      "tona": 8615,
      "Ġbyabasthare": 8616,
      "Ġutpadita": 8617,
      "Ġnepali": 8618,
      "Ġkarukaryya": 8619,
      "Ġkalakrriti": 8620,
      "Ġarambharu": 8621,
      "Ġshrikshetra": 8622,
      "Ġsamskaranare": 8623,
      "Ġekademira": 8624,
      "Ġhota": 8625,
      "Ġprritha": 8626,
      "jikali": 8627,
      "Ġjibasara": 8628,
      "Ġjayaprakasha": 8629,
      "ngula": 8630,
      "Ġsamajasebi": 8631,
      "ĠdayitàŃ±re": 8632,
      "Ġbhadraba": 8633,
      "Ġsathik": 8634,
      "nthiru": 8635,
      "Ġparamparare": 8636,
      "ĠsamanàŃ±ya": 8637,
      "Ġsobhieta": 8638,
      "gle": 8639,
      "Ġz": 8640,
      "yada": 8641,
      "Ġbru": 8642,
      "Ġbyan": 8643,
      "Ġbasti": 8644,
      "charika": 8645,
      "Ġsamman": 8646,
      "Ġsammukha": 8647,
      "Ġtatare": 8648,
      "Ġnati": 8649,
      "oim": 8650,
      "Ġdepartment": 8651,
      "Ġii": 8652,
      "Ġiu": 8653,
      "âĢĮ-": 8654,
      "Ġgabhar": 8655,
      "Ġlabo": 8656,
      "Ġsili": 8657,
      "ushan": 8658,
      "sthani": 8659,
      "tarani": 8660,
      "ghatare": 8661,
      "Ġyuddhara": 8662,
      "Ġsouth": 8663,
      "phil": 8664,
      "Ġ82": 8665,
      "Ġphilipa": 8666,
      "stic": 8667,
      "Ġdashahara": 8668,
      "Ġakarshaniya": 8669,
      "aibhi": 8670,
      "Ġdraupadi": 8671,
      "Ġrahula": 8672,
      "Ġà¤ķ": 8673,
      "Ġbhaktamana": 8674,
      "Ġenaecha": 8675,
      "Ġsirij": 8676,
      "Ġkaridiayae": 8677,
      "Ġnrrityare": 8678,
      "Ġrajuti": 8679,
      "Ġhaiskula": 8680,
      "suna": 8681,
      "skri": 8682,
      "Ġtransla": 8683,
      "hibi": 8684,
      "Ġpor": 8685,
      "Ġakhya": 8686,
      "Ġenda": 8687,
      "shtya": 8688,
      "nis": 8689,
      "Ġprabana": 8690,
      "Ġpradhanya": 8691,
      "Ġbadhu": 8692,
      "àŃ±ira": 8693,
      "Ġul": 8694,
      "Ġhoithai": 8695,
      "Ġdainandina": 8696,
      "Ġik": 8697,
      "Ġjiu": 8698,
      "Ġmil": 8699,
      "Ġanudana": 8700,
      "Ġsiddhi": 8701,
      "manaru": 8702,
      "Ġcharchcha": 8703,
      "Ġchitrare": 8704,
      "Ġyemiti": 8705,
      "Ġgora": 8706,
      "graph": 8707,
      "Ġuttirnna": 8708,
      "pesha": 8709,
      "Ġbhushita": 8710,
      "Ġkalapare": 8711,
      "Ġmukhyalaya": 8712,
      "Ġ68": 8713,
      "Ġposhana": 8714,
      "Ġrajyasabha": 8715,
      "Ġ86": 8716,
      "Ġdokana": 8717,
      "tarina": 8718,
      "landara": 8719,
      "Ġainare": 8720,
      "Ġasuchanti": 8721,
      "Ġganatan": 8722,
      "Ġdarshaniya": 8723,
      "Ġbujhamana": 8724,
      "Ġmutrashaya": 8725,
      "Ġprarambha": 8726,
      "Ġbhabanipatana": 8727,
      "Ġkhrishtiana": 8728,
      "Ġpiaja": 8729,
      "banda": 8730,
      "smas": 8731,
      "yarare": 8732,
      "ĠÂ": 8733,
      "ram": 8734,
      "yamana": 8735,
      "dayi": 8736,
      "Ġmatrik": 8737,
      "rest": 8738,
      "Ġbidesha": 8739,
      "Ġkalina": 8740,
      "nkabadi": 8741,
      "Ġudita": 8742,
      "Ġsamsthana": 8743,
      "bija": 8744,
      "baraha": 8745,
      "Ġdini": 8746,
      "Ġdire": 8747,
      "kika": 8748,
      "Ġparisamkh": 8749,
      "Ġking": 8750,
      "Ġshapatha": 8751,
      "yaipariba": 8752,
      "Ġloma": 8753,
      "Ġabasa": 8754,
      "Ġsuchita": 8755,
      "anusare": 8756,
      "ĠbishàŃ±karma": 8757,
      "ndua": 8758,
      "Ġkanuna": 8759,
      "Ġatibahita": 8760,
      "shyapa": 8761,
      "tern": 8762,
      "Ġphlu": 8763,
      "mentari": 8764,
      "1965": 8765,
      "nyasa": 8766,
      "nger": 8767,
      "jona": 8768,
      "Ġmaricha": 8769,
      "Ġyauchi": 8770,
      "Ġbasanti": 8771,
      "Ġchintamani": 8772,
      "Ġpaenta": 8773,
      "Ġmamalara": 8774,
      "Ġyogini": 8775,
      "sundaragada": 8776,
      "Ġjatisamgha": 8777,
      "Ġpressure": 8778,
      "Ġbrrindabana": 8779,
      "Ġlanguage": 8780,
      "yaba": 8781,
      "tila": 8782,
      "datta": 8783,
      "Ġsate": 8784,
      "shanta": 8785,
      "Ġpake": 8786,
      "Ġpatita": 8787,
      "Ġkarine": 8788,
      "Ġbatare": 8789,
      "Ġbastura": 8790,
      "Ġsenare": 8791,
      "Ġbhanu": 8792,
      "Ġkartti": 8793,
      "Ġbyadhi": 8794,
      "Ġtiki": 8795,
      "dàŃ±a": 8796,
      "darara": 8797,
      "Ġ63": 8798,
      "Ġbishakha": 8799,
      "cep": 8800,
      "poshaka": 8801,
      "Ġcheli": 8802,
      "Ġ''": 8803,
      "Ġlagichi": 8804,
      "Ġlaksharu": 8805,
      "Ġbidyalayara": 8806,
      "Ġkhuntia": 8807,
      "1966": 8808,
      "lait": 8809,
      "Ġkilomitar": 8810,
      "Ġmahabidyalayara": 8811,
      "Ġkyale": 8812,
      "pril": 8813,
      "mentara": 8814,
      "chota": 8815,
      "Ġlagayae": 8816,
      "bishàŃ±asa": 8817,
      "ĠashàŃ±ina": 8818,
      "ĠashàŃ±ini": 8819,
      "Ġbrrittire": 8820,
      "ancer": 8821,
      "Ġdibasare": 8822,
      "Ġbhattacharyya": 8823,
      "Ġgumphara": 8824,
      "Ġservi": 8825,
      "Ġecono": 8826,
      "brrita": 8827,
      "dru": 8828,
      "kli": 8829,
      "mura": 8830,
      "nor": 8831,
      "ãĥ": 8832,
      "day": 8833,
      "Ġsajjita": 8834,
      "shpa": 8835,
      "Ġprata": 8836,
      "Ġbibadiya": 8837,
      "Ġtadanta": 8838,
      "Ġnathibaru": 8839,
      "bila": 8840,
      "Ġjalabha": 8841,
      "Ġmuhur": 8842,
      "Ġkina": 8843,
      "Ġgal": 8844,
      "Ġgames": 8845,
      "Ġanudhyana": 8846,
      "iama": 8847,
      "iachalachchitra": 8848,
      "Ġsuchaka": 8849,
      "Ġbedi": 8850,
      "Ġupabhoga": 8851,
      "Ġarti": 8852,
      "pera": 8853,
      "Ġsarani": 8854,
      "Ġshritama": 8855,
      "Ġshrikanta": 8856,
      "Ġpoti": 8857,
      "phia": 8858,
      "Ġkendrara": 8859,
      "Ġmasaku": 8860,
      "pheta": 8861,
      "Ġtribhu": 8862,
      "shtita": 8863,
      "panthi": 8864,
      "Ġchaliba": 8865,
      "samaja": 8866,
      "Ġjantu": 8867,
      "Ġupanya": 8868,
      "Ġnot": 8869,
      "phona": 8870,
      "Ġbinayaka": 8871,
      "toric": 8872,
      "asihara": 8873,
      "Ġprrishthabhumi": 8874,
      "ĠkàŃ±chit": 8875,
      "Ġgayatri": 8876,
      "Ġbilamba": 8877,
      "Ġkhanija": 8878,
      "Ġsishtama": 8879,
      "Ġbhabishyatare": 8880,
      "Ġkrantiya": 8881,
      "smara": 8882,
      "Ġspandana": 8883,
      "Ġaksh": 8884,
      "Ġeph": 8885,
      "Ġmap": 8886,
      "Ġprahara": 8887,
      "Ġprakare": 8888,
      "kuntha": 8889,
      "palita": 8890,
      "Ġsere": 8891,
      "Ġsetiki": 8892,
      "Ġus": 8893,
      "Ġsamba": 8894,
      "Ġsamghara": 8895,
      "Ġchalia": 8896,
      "Ġchampa": 8897,
      "Ġinda": 8898,
      "Ġ1919": 8899,
      "Ġjagi": 8900,
      "Ġjagrata": 8901,
      "Ġmadhyahna": 8902,
      "Ġanusuchita": 8903,
      "ned": 8904,
      "yogu": 8905,
      "dartha": 8906,
      "darbha": 8907,
      "ĠdàŃ±nd": 8908,
      "ntanu": 8909,
      "Ġjelare": 8910,
      "Ġagneya": 8911,
      "Ġnyayika": 8912,
      "Ġsambhabatah": 8913,
      "Ġdhua": 8914,
      "Ġniayaichi": 8915,
      "Ġinasu": 8916,
      "Ġashtadasha": 8917,
      "Ġsambhabapara": 8918,
      "Ġdijaina": 8919,
      "Ġupadhire": 8920,
      "kendrapada": 8921,
      "Ġmurmu": 8922,
      "Ġnidralu": 8923,
      "Ġhathata": 8924,
      "Ġuttejana": 8925,
      "Ġinashtichyuta": 8926,
      "Ġaluminiyam": 8927,
      "Ġbaidyanatha": 8928,
      "Ġjalasechana": 8929,
      "Ġbaernna": 8930,
      "Ġsp": 8931,
      "machi": 8932,
      "thia": 8933,
      "Ġsashastra": 8934,
      "gacha": 8935,
      "ĠbidàŃ±": 8936,
      "Ġbilasa": 8937,
      "Ġbamana": 8938,
      "thro": 8939,
      "tral": 8940,
      "bihara": 8941,
      "bikasha": 8942,
      "shim": 8943,
      "shing": 8944,
      "Ġgaiba": 8945,
      "Ġshasita": 8946,
      "meri": 8947,
      "Ġrom": 8948,
      "Ġtir": 8949,
      "Ġpartire": 8950,
      "ĠmahatàŃ±": 8951,
      "Ġsubrata": 8952,
      "Ġbest": 8953,
      "Ġabhibrriddhi": 8954,
      "Ġyou": 8955,
      "inf": 8956,
      "stre": 8957,
      "tikala": 8958,
      "à¤ķ": 8959,
      "Ġsorisha": 8960,
      "basati": 8961,
      "Ġ108": 8962,
      "Ġkahithanti": 8963,
      "Ġlagithae": 8964,
      "Ġdashand": 8965,
      "1010": 8966,
      "mandalara": 8967,
      "Ġva": 8968,
      "ksiko": 8969,
      "namakarana": 8970,
      "Ġshilalekha": 8971,
      "Ġbabushan": 8972,
      "Ġmutabaka": 8973,
      "Ġkartiko": 8974,
      "Ġtourism": 8975,
      "Ġbarselona": 8976,
      "blika": 8977,
      "Ġskandha": 8978,
      "Ġatri": 8979,
      "Ġadara": 8980,
      "Ġakto": 8981,
      "Ġeya": 8982,
      "Ġsabata": 8983,
      "nigdha": 8984,
      "chanara": 8985,
      "lisisa": 8986,
      "Ġniko": 8987,
      "jai": 8988,
      "Ġuma": 8989,
      "Ġupu": 8990,
      "bhabi": 8991,
      "Ġ1923": 8992,
      "Ġparinama": 8993,
      "Ġsham": 8994,
      "ngathana": 8995,
      "ngalora": 8996,
      "Ġmithya": 8997,
      "Ġrahithibaru": 8998,
      "Ġgolare": 8999,
      "Ġkaryyakartta": 9000,
      "Ġduniare": 9001,
      "Ġmehe": 9002,
      "Ġgugala": 9003,
      "Ġdekhai": 9004,
      "Ġsarbekshana": 9005,
      "Ġshrimati": 9006,
      "ties": 9007,
      "Ġthaba": 9008,
      "byatita": 9009,
      "Ġdurgara": 9010,
      "bandhana": 9011,
      "tanaru": 9012,
      "Ġtahasila": 9013,
      "Ġphika": 9014,
      "Ġkhoju": 9015,
      "Ġtripura": 9016,
      "pitala": 9017,
      "samajika": 9018,
      "dharanare": 9019,
      "jhada": 9020,
      "Ġà¤®": 9021,
      "que": 9022,
      "cies": 9023,
[...]
